#include "actor_task0.h"

const uint8_t actor_model[] = {

  0x1c, 0x00, 0x00, 0x00, 0x54, 0x46, 0x4c, 0x33, 0x14, 0x00, 0x20, 0x00, 
  0x1c, 0x00, 0x18, 0x00, 0x14, 0x00, 0x10, 0x00, 0x0c, 0x00, 0x00, 0x00, 
  0x08, 0x00, 0x04, 0x00, 0x14, 0x00, 0x00, 0x00, 0x1c, 0x00, 0x00, 0x00, 
  0x8c, 0x00, 0x00, 0x00, 0xe4, 0x00, 0x00, 0x00, 0x50, 0x16, 0x00, 0x00, 
  0x60, 0x16, 0x00, 0x00, 0x1c, 0x1b, 0x00, 0x00, 0x03, 0x00, 0x00, 0x00, 
  0x01, 0x00, 0x00, 0x00, 0x04, 0x00, 0x00, 0x00, 0x62, 0xe9, 0xff, 0xff, 
  0x0c, 0x00, 0x00, 0x00, 0x1c, 0x00, 0x00, 0x00, 0x3c, 0x00, 0x00, 0x00, 
  0x0f, 0x00, 0x00, 0x00, 0x73, 0x65, 0x72, 0x76, 0x69, 0x6e, 0x67, 0x5f, 
  0x64, 0x65, 0x66, 0x61, 0x75, 0x6c, 0x74, 0x00, 0x01, 0x00, 0x00, 0x00, 
  0x04, 0x00, 0x00, 0x00, 0x90, 0xff, 0xff, 0xff, 0x07, 0x00, 0x00, 0x00, 
  0x04, 0x00, 0x00, 0x00, 0x08, 0x00, 0x00, 0x00, 0x64, 0x65, 0x6e, 0x73, 
  0x65, 0x5f, 0x36, 0x35, 0x00, 0x00, 0x00, 0x00, 0x01, 0x00, 0x00, 0x00, 
  0x04, 0x00, 0x00, 0x00, 0xb2, 0xec, 0xff, 0xff, 0x04, 0x00, 0x00, 0x00, 
  0x0e, 0x00, 0x00, 0x00, 0x64, 0x65, 0x6e, 0x73, 0x65, 0x5f, 0x36, 0x33, 
  0x5f, 0x69, 0x6e, 0x70, 0x75, 0x74, 0x00, 0x00, 0x02, 0x00, 0x00, 0x00, 
  0x34, 0x00, 0x00, 0x00, 0x04, 0x00, 0x00, 0x00, 0xdc, 0xff, 0xff, 0xff, 
  0x0a, 0x00, 0x00, 0x00, 0x04, 0x00, 0x00, 0x00, 0x13, 0x00, 0x00, 0x00, 
  0x43, 0x4f, 0x4e, 0x56, 0x45, 0x52, 0x53, 0x49, 0x4f, 0x4e, 0x5f, 0x4d, 
  0x45, 0x54, 0x41, 0x44, 0x41, 0x54, 0x41, 0x00, 0x08, 0x00, 0x0c, 0x00, 
  0x08, 0x00, 0x04, 0x00, 0x08, 0x00, 0x00, 0x00, 0x09, 0x00, 0x00, 0x00, 
  0x04, 0x00, 0x00, 0x00, 0x13, 0x00, 0x00, 0x00, 0x6d, 0x69, 0x6e, 0x5f, 
  0x72, 0x75, 0x6e, 0x74, 0x69, 0x6d, 0x65, 0x5f, 0x76, 0x65, 0x72, 0x73, 
  0x69, 0x6f, 0x6e, 0x00, 0x0b, 0x00, 0x00, 0x00, 0x68, 0x15, 0x00, 0x00, 
  0x60, 0x15, 0x00, 0x00, 0xd0, 0x12, 0x00, 0x00, 0xb8, 0x02, 0x00, 0x00, 
  0xa8, 0x00, 0x00, 0x00, 0xa0, 0x00, 0x00, 0x00, 0x98, 0x00, 0x00, 0x00, 
  0x90, 0x00, 0x00, 0x00, 0x88, 0x00, 0x00, 0x00, 0x68, 0x00, 0x00, 0x00, 
  0x04, 0x00, 0x00, 0x00, 0x5a, 0xed, 0xff, 0xff, 0x04, 0x00, 0x00, 0x00, 
  0x54, 0x00, 0x00, 0x00, 0x0c, 0x00, 0x00, 0x00, 0x08, 0x00, 0x0e, 0x00, 
  0x08, 0x00, 0x04, 0x00, 0x08, 0x00, 0x00, 0x00, 0x10, 0x00, 0x00, 0x00, 
  0x24, 0x00, 0x00, 0x00, 0x00, 0x00, 0x06, 0x00, 0x08, 0x00, 0x04, 0x00, 
  0x06, 0x00, 0x00, 0x00, 0x04, 0x00, 0x00, 0x00, 0x00, 0x00, 0x00, 0x00, 
  0x00, 0x00, 0x0a, 0x00, 0x10, 0x00, 0x0c, 0x00, 0x08, 0x00, 0x04, 0x00, 
  0x0a, 0x00, 0x00, 0x00, 0x02, 0x00, 0x00, 0x00, 0x02, 0x00, 0x00, 0x00, 
  0x04, 0x00, 0x00, 0x00, 0x06, 0x00, 0x00, 0x00, 0x32, 0x2e, 0x31, 0x33, 
  0x2e, 0x30, 0x00, 0x00, 0xba, 0xed, 0xff, 0xff, 0x04, 0x00, 0x00, 0x00, 
  0x10, 0x00, 0x00, 0x00, 0x31, 0x2e, 0x31, 0x34, 0x2e, 0x30, 0x00, 0x00, 
  0x00, 0x00, 0x00, 0x00, 0x00, 0x00, 0x00, 0x00, 0xa4, 0xe6, 0xff, 0xff, 
  0xa8, 0xe6, 0xff, 0xff, 0xac, 0xe6, 0xff, 0xff, 0xb0, 0xe6, 0xff, 0xff, 
  0xe6, 0xed, 0xff, 0xff, 0x04, 0x00, 0x00, 0x00, 0x00, 0x02, 0x00, 0x00, 
  0x1e, 0xaf, 0xb0, 0x3e, 0x98, 0xf4, 0xf3, 0x3d, 0xee, 0xd5, 0xc2, 0x3e, 
  0xc0, 0x93, 0xfd, 0xbc, 0x63, 0x48, 0xc5, 0xbe, 0x40, 0x96, 0x00, 0x3c, 
  0x70, 0x2b, 0x90, 0x3d, 0x7a, 0xdf, 0xce, 0x3e, 0xf4, 0x93, 0x7b, 0xbe, 
  0x03, 0xf3, 0xa8, 0xbe, 0xa0, 0x3f, 0x06, 0x3e, 0x6f, 0x2c, 0xc9, 0xbe, 
  0x32, 0x97, 0x1f, 0xbe, 0x28, 0xed, 0xbe, 0x3e, 0xd2, 0x45, 0xc1, 0x3e, 
  0x6c, 0x33, 0x74, 0xbe, 0x5a, 0x8b, 0x33, 0xbe, 0x04, 0x31, 0x37, 0x3e, 
  0xb0, 0xc1, 0x2e, 0xbd, 0x60, 0x5b, 0x6b, 0x3c, 0x00, 0xba, 0x85, 0xba, 
  0x1e, 0x07, 0x8d, 0xbe, 0x60, 0x8f, 0x34, 0x3e, 0x00, 0x60, 0x22, 0xbb, 
  0x68, 0x56, 0x7b, 0x3e, 0x30, 0xfb, 0x3b, 0xbe, 0xf4, 0xf5, 0x3b, 0x3e, 
  0xa0, 0x61, 0x6b, 0x3e, 0x50, 0x2f, 0xef, 0x3d, 0x00, 0x52, 0x24, 0x3e, 
  0x66, 0x8f, 0x9e, 0x3e, 0x7c, 0xba, 0x7c, 0x3e, 0x08, 0x02, 0x23, 0x3d, 
  0xe0, 0x97, 0xb4, 0xbe, 0xbc, 0x5c, 0x8e, 0xbe, 0x80, 0xcc, 0xfe, 0x3c, 
  0xd2, 0x53, 0x89, 0x3e, 0xb2, 0x90, 0xae, 0x3e, 0x60, 0xeb, 0x9c, 0x3e, 
  0x71, 0x91, 0x35, 0xbe, 0x5e, 0x33, 0xb1, 0x3e, 0xc0, 0x95, 0x3f, 0x3c, 
  0x14, 0xfb, 0x7e, 0x3e, 0x78, 0xd4, 0xd9, 0xbd, 0xa2, 0x62, 0xb5, 0xbe, 
  0x3a, 0x3d, 0xc8, 0x3e, 0xfc, 0x14, 0x7e, 0x3e, 0xfe, 0x58, 0x8f, 0x3e, 
  0x04, 0xd4, 0x1b, 0x3e, 0xc4, 0x33, 0x4c, 0x3e, 0x37, 0xea, 0x6b, 0xbe, 
  0x7e, 0xbf, 0x9b, 0x3e, 0x70, 0x38, 0x3a, 0x3e, 0xb0, 0xe2, 0x93, 0x3c, 
  0x38, 0xff, 0xee, 0x3d, 0x6c, 0xcf, 0x3b, 0x3e, 0x48, 0xab, 0x2f, 0xbe, 
  0xd6, 0xee, 0xc0, 0xbe, 0x42, 0x04, 0xbd, 0x3e, 0x88, 0xdf, 0x83, 0x3d, 
  0x90, 0xe3, 0x71, 0xbe, 0x96, 0x71, 0x82, 0x3e, 0xa8, 0xe2, 0x3c, 0x3d, 
  0xd5, 0x9d, 0x55, 0xbe, 0x92, 0x72, 0xb9, 0x3e, 0x94, 0x0b, 0x15, 0xbe, 
  0xf3, 0x65, 0x4d, 0xbe, 0x0c, 0x37, 0x74, 0x3e, 0xb8, 0x2c, 0x84, 0x3e, 
  0x4f, 0x36, 0x45, 0xbe, 0x64, 0x4d, 0x48, 0xbe, 0xe5, 0xc8, 0xc5, 0xbe, 
  0x04, 0x41, 0x58, 0x3e, 0x4e, 0x8d, 0x9f, 0x3e, 0xa0, 0x09, 0x0a, 0xbc, 
  0x64, 0x0b, 0xcf, 0x3e, 0x09, 0x8c, 0xab, 0xbe, 0x28, 0xaf, 0x66, 0x3e, 
  0x98, 0x6a, 0xc8, 0x3e, 0x94, 0x2a, 0xcd, 0xbd, 0x64, 0x72, 0x99, 0xbe, 
  0xe8, 0x59, 0x42, 0x3e, 0x70, 0xa6, 0x91, 0xbd, 0xfc, 0x28, 0xd1, 0xbd, 
  0x10, 0x05, 0x68, 0xbd, 0x03, 0x9d, 0x91, 0xbe, 0x60, 0x7c, 0x33, 0x3c, 
  0x40, 0x08, 0x0d, 0x3d, 0xb8, 0x21, 0x9b, 0x3e, 0x76, 0x30, 0x8a, 0x3e, 
  0x12, 0xef, 0xbf, 0x3e, 0xd0, 0xfc, 0x37, 0x3e, 0xa0, 0x83, 0xc7, 0x3d, 
  0xe8, 0x35, 0x38, 0x3e, 0x52, 0xa1, 0xa5, 0x3e, 0xf2, 0x6d, 0xa4, 0xbe, 
  0x30, 0xa6, 0xb0, 0xbe, 0xaa, 0x60, 0x21, 0xbe, 0xc4, 0xe2, 0xc5, 0x3e, 
  0xbe, 0x98, 0x95, 0xbe, 0x00, 0x7c, 0x15, 0xbc, 0x4c, 0x91, 0x30, 0x3e, 
  0xcd, 0x67, 0x35, 0xbe, 0x9c, 0x77, 0xa3, 0x3e, 0xa0, 0x90, 0x24, 0x3e, 
  0x75, 0x9a, 0x4d, 0xbe, 0x38, 0x7d, 0x5e, 0x3e, 0x55, 0x6b, 0xa4, 0xbe, 
  0x33, 0xb7, 0x65, 0xbe, 0x68, 0xe4, 0x26, 0x3d, 0x93, 0xab, 0x58, 0xbe, 
  0x8c, 0x9e, 0x7a, 0x3e, 0x0d, 0xe4, 0xcb, 0xbe, 0x8a, 0xa7, 0x23, 0xbe, 
  0x50, 0x77, 0x80, 0x3d, 0xe6, 0xb3, 0xbf, 0x3e, 0x4c, 0xa9, 0x00, 0x3e, 
  0x78, 0x59, 0xb9, 0x3d, 0x5c, 0x10, 0x36, 0x3e, 0xe4, 0x58, 0x2f, 0x3e, 
  0x74, 0xaa, 0x6b, 0x3e, 0x34, 0x2b, 0x58, 0x3e, 0x68, 0x6d, 0x14, 0xbe, 
  0xd0, 0x67, 0x8c, 0xbe, 0xe5, 0x50, 0x9c, 0xbe, 0x30, 0x7d, 0x95, 0x3c, 
  0xfc, 0xfc, 0xa1, 0xbe, 0xb8, 0xc7, 0x5f, 0x3e, 0xf2, 0xef, 0xff, 0xff, 
  0x04, 0x00, 0x00, 0x00, 0x00, 0x10, 0x00, 0x00, 0x06, 0x08, 0x16, 0x3e, 
  0x7c, 0x18, 0x3f, 0x3e, 0x58, 0x03, 0x33, 0x3d, 0xb4, 0x3c, 0x83, 0x3d, 
  0xe8, 0x83, 0x09, 0xbd, 0x58, 0x07, 0x33, 0x3d, 0xf9, 0xe5, 0x92, 0xbe, 
  0x22, 0x5c, 0xb9, 0xbd, 0xb0, 0x02, 0x94, 0x3c, 0xe9, 0x76, 0x66, 0xbe, 
  0xc0, 0xd9, 0xb8, 0xbb, 0xdd, 0xcb, 0x2b, 0xbe, 0xa0, 0x17, 0x9a, 0x3c, 
  0xd8, 0x59, 0x10, 0x3e, 0xfa, 0xf5, 0x45, 0x3e, 0x32, 0xd6, 0xd5, 0xbd, 
  0xf2, 0x0d, 0x89, 0xbe, 0xa5, 0xad, 0x95, 0x3e, 0xfa, 0xcb, 0x48, 0xbe, 
  0x68, 0xc1, 0x43, 0x3e, 0x18, 0xb8, 0xf2, 0x3d, 0x2b, 0x96, 0x96, 0xbe, 
  0x63, 0xd1, 0x97, 0x3e, 0xac, 0x19, 0x34, 0x3e, 0x84, 0x81, 0x06, 0x3e, 
  0x10, 0x6e, 0x8d, 0x3d, 0xf8, 0x1d, 0x86, 0x3d, 0x76, 0x28, 0x24, 0xbe, 
  0x96, 0x20, 0x0a, 0xbe, 0xd2, 0x6c, 0x39, 0x3e, 0x0f, 0x3c, 0x58, 0xbe, 
  0xcf, 0xfa, 0x89, 0x3e, 0xfe, 0xc5, 0x4a, 0x3e, 0x04, 0x1d, 0x80, 0xbe, 
  0x5c, 0x03, 0x30, 0x3e, 0x13, 0xf4, 0x8a, 0x3e, 0x98, 0x71, 0x53, 0x3d, 
  0xd0, 0x9a, 0xf1, 0x3d, 0x90, 0x92, 0xb7, 0xbc, 0xc8, 0xe6, 0x23, 0x3e, 
  0x15, 0x09, 0x93, 0xbe, 0xfb, 0x29, 0x02, 0xbe, 0x70, 0x5c, 0x26, 0xbe, 
  0x03, 0xed, 0x4e, 0xbe, 0xe8, 0xd5, 0x3c, 0x3e, 0x78, 0x65, 0x9b, 0x3d, 
  0x8d, 0x70, 0x5a, 0xbe, 0x10, 0x36, 0x65, 0xbd, 0xfc, 0x34, 0x32, 0xbe, 
  0xf1, 0xfc, 0x97, 0xbe, 0xfe, 0x6d, 0x15, 0x3e, 0x78, 0x70, 0x52, 0x3d, 
  0x21, 0x06, 0x37, 0xbe, 0x14, 0xb9, 0x54, 0xbe, 0xb0, 0xa1, 0xf2, 0x3c, 
  0xc2, 0xab, 0x67, 0x3e, 0xb8, 0x19, 0x8e, 0xbe, 0x58, 0x78, 0x7b, 0xbe, 
  0xfa, 0x51, 0x00, 0x3e, 0x58, 0xe0, 0x88, 0xbe, 0x37, 0x58, 0x1d, 0xbe, 
  0x72, 0x5a, 0x8c, 0xbe, 0x34, 0x6a, 0x86, 0xbd, 0x2e, 0xa1, 0x00, 0xbe, 
  0xd0, 0xbc, 0x58, 0xbe, 0xb1, 0xf2, 0x8a, 0x3e, 0xc7, 0x58, 0x84, 0xbe, 
  0xcf, 0xe3, 0x0d, 0xbe, 0x78, 0x33, 0x7b, 0xbe, 0xe0, 0x7d, 0x60, 0xbe, 
  0xe0, 0xab, 0x29, 0x3d, 0x14, 0xd7, 0x90, 0x3d, 0xe0, 0x16, 0x71, 0x3d, 
  0x90, 0xbc, 0xfb, 0xbc, 0xac, 0x50, 0xa0, 0x3d, 0xc0, 0x71, 0xc4, 0xbb, 
  0x58, 0xa6, 0x45, 0xbd, 0x59, 0xac, 0x88, 0x3e, 0x59, 0xd1, 0x86, 0x3e, 
  0x86, 0xff, 0x77, 0x3e, 0x72, 0x8a, 0xff, 0xbd, 0xcf, 0x82, 0x75, 0xbe, 
  0xf2, 0xdf, 0x75, 0x3e, 0x4c, 0xc4, 0x2a, 0x3e, 0x80, 0xae, 0xa6, 0x3d, 
  0xe0, 0x22, 0x30, 0x3e, 0xff, 0x0c, 0x98, 0x3e, 0x78, 0x2e, 0x04, 0x3d, 
  0xdc, 0xe4, 0xf9, 0x3d, 0x83, 0x32, 0x8c, 0x3e, 0x10, 0x9c, 0xd6, 0x3d, 
  0x04, 0x30, 0x46, 0x3e, 0x28, 0xda, 0xc8, 0xbd, 0xb1, 0x2f, 0x8a, 0x3e, 
  0x92, 0xea, 0x66, 0xbe, 0xa8, 0x08, 0x3f, 0x3e, 0x4e, 0x7f, 0x60, 0x3e, 
  0xca, 0x52, 0x82, 0xbe, 0xb0, 0x13, 0xb6, 0xbd, 0xb6, 0x1d, 0x7e, 0x3e, 
  0xe8, 0xd1, 0x7f, 0xbe, 0x9a, 0x5d, 0x65, 0xbe, 0xb0, 0x73, 0xb9, 0xbc, 
  0x00, 0x5c, 0xa8, 0x3c, 0x77, 0x62, 0x56, 0xbe, 0x60, 0xad, 0x9d, 0x3d, 
  0xfc, 0x81, 0x80, 0x3d, 0xa0, 0x7d, 0x9a, 0xbc, 0x00, 0xc7, 0x6b, 0x3b, 
  0xa0, 0x15, 0x23, 0x3e, 0x5f, 0x7c, 0x5f, 0xbe, 0x9c, 0xcb, 0x8e, 0x3d, 
  0x18, 0x16, 0x4c, 0x3d, 0x10, 0xc8, 0x28, 0x3e, 0x00, 0xc6, 0x3f, 0x3b, 
  0xc9, 0x5d, 0x98, 0x3e, 0xcc, 0x8e, 0xb4, 0x3d, 0xab, 0x6e, 0x8d, 0x3e, 
  0x74, 0xf4, 0xa2, 0x3d, 0x60, 0xd1, 0xb0, 0xbc, 0xbe, 0x2f, 0xa3, 0xbd, 
  0x3c, 0xbe, 0x51, 0xbe, 0x1d, 0xc1, 0x20, 0xbe, 0x6a, 0x86, 0x51, 0xbe, 
  0x48, 0xb3, 0x32, 0xbd, 0x40, 0x85, 0xeb, 0xbc, 0xf9, 0x1e, 0x80, 0x3e, 
  0x00, 0x8e, 0x53, 0xba, 0x9a, 0xec, 0x04, 0xbe, 0x40, 0x5f, 0xac, 0xbd, 
  0x38, 0x6b, 0x1f, 0x3e, 0x60, 0x04, 0xbf, 0x3c, 0xe0, 0xc1, 0x49, 0x3d, 
  0xee, 0xe4, 0x06, 0x3e, 0xc4, 0xee, 0xec, 0x3d, 0x33, 0x0c, 0x5a, 0xbe, 
  0x80, 0xfa, 0x67, 0x3b, 0x1b, 0x0b, 0x07, 0xbe, 0x0d, 0xc5, 0x92, 0x3e, 
  0xc9, 0x4d, 0x4d, 0xbe, 0xe2, 0x8a, 0x22, 0x3e, 0xd6, 0xea, 0x1d, 0x3e, 
  0x14, 0x70, 0x2e, 0x3e, 0xc4, 0xe0, 0x37, 0x3e, 0x07, 0xaf, 0x65, 0xbe, 
  0xba, 0x74, 0x02, 0x3e, 0x30, 0x25, 0xf3, 0xbc, 0x38, 0x06, 0x2c, 0xbd, 
  0xcc, 0xcd, 0x29, 0x3e, 0x5d, 0x9c, 0x94, 0x3e, 0x08, 0x02, 0x2c, 0x3d, 
  0xf9, 0x74, 0x26, 0xbe, 0x1e, 0x0c, 0x9a, 0xbe, 0xc9, 0x2c, 0x22, 0xbe, 
  0xb2, 0x9c, 0x01, 0xbe, 0x24, 0xe3, 0xc3, 0x3d, 0xc4, 0xdc, 0xcc, 0xbd, 
  0xec, 0xa5, 0x11, 0xbe, 0xf7, 0x94, 0x52, 0xbe, 0xd0, 0x7b, 0x8f, 0x3c, 
  0x5d, 0xcd, 0x8b, 0xbe, 0x36, 0xf2, 0x3e, 0xbe, 0x4a, 0xea, 0xd1, 0xbd, 
  0x97, 0xa0, 0x85, 0xbe, 0x0e, 0xf1, 0xa2, 0xbd, 0x80, 0xf3, 0x9e, 0xbb, 
  0x68, 0x5d, 0x19, 0xbd, 0x95, 0x96, 0x90, 0x3e, 0x42, 0xd5, 0x47, 0x3e, 
  0xd0, 0xc3, 0x52, 0xbe, 0x10, 0x06, 0x63, 0x3d, 0x50, 0x77, 0xba, 0x3d, 
  0xc8, 0x1c, 0x72, 0xbe, 0x28, 0x57, 0x2a, 0x3e, 0x08, 0x3c, 0x80, 0x3d, 
  0xfe, 0x4d, 0x79, 0xbe, 0x78, 0x51, 0xdd, 0xbd, 0x54, 0x8e, 0xa4, 0x3d, 
  0xbb, 0x07, 0x98, 0x3e, 0x40, 0x2d, 0x7b, 0xbd, 0xc0, 0xe6, 0x7d, 0x3d, 
  0xc8, 0x3a, 0x6b, 0x3d, 0xa9, 0xe4, 0x38, 0xbe, 0xf7, 0x0f, 0x33, 0xbe, 
  0xda, 0xe9, 0x78, 0xbe, 0x20, 0x34, 0xab, 0x3c, 0x1c, 0xfc, 0x69, 0xbe, 
  0x0a, 0x65, 0x16, 0x3e, 0x90, 0x3e, 0x34, 0xbd, 0x20, 0x96, 0xdd, 0xbd, 
  0x73, 0x80, 0x65, 0xbe, 0x00, 0x63, 0xcb, 0x3d, 0x15, 0x95, 0x8b, 0x3e, 
  0x54, 0x43, 0xb9, 0x3d, 0xfa, 0x6a, 0x46, 0xbe, 0xfb, 0x47, 0x8c, 0x3e, 
  0xa8, 0xae, 0x36, 0x3d, 0xfe, 0xc7, 0x61, 0x3e, 0xc2, 0x80, 0xa2, 0xbd, 
  0xc8, 0xe8, 0xf2, 0x3d, 0x40, 0x75, 0x9e, 0x3c, 0x10, 0x95, 0xb9, 0x3c, 
  0xcb, 0x8a, 0x9a, 0x3e, 0x1c, 0x2c, 0x21, 0x3e, 0xa0, 0x65, 0xe7, 0x3d, 
  0x74, 0x32, 0x6d, 0xbe, 0x42, 0x82, 0x74, 0x3e, 0x10, 0xdc, 0xab, 0xbc, 
  0xa4, 0x22, 0xea, 0x3d, 0x48, 0x29, 0x09, 0xbd, 0xf9, 0x75, 0x8d, 0x3e, 
  0x31, 0x17, 0x29, 0xbe, 0x7c, 0x3e, 0x78, 0xbe, 0x54, 0x18, 0xfd, 0x3d, 
  0xc8, 0x31, 0x89, 0x3d, 0x3c, 0x27, 0x82, 0xbe, 0xc8, 0x53, 0xeb, 0x3d, 
  0x46, 0x87, 0x84, 0xbe, 0x28, 0x03, 0xd5, 0xbd, 0xda, 0x68, 0x90, 0xbd, 
  0x84, 0xdd, 0x39, 0x3e, 0xbb, 0x8b, 0x85, 0x3e, 0x69, 0x84, 0x1e, 0xbe, 
  0x3e, 0x2a, 0x26, 0xbe, 0x98, 0xd8, 0xbd, 0xbd, 0x08, 0x22, 0x67, 0xbd, 
  0xe0, 0x98, 0x17, 0xbd, 0xde, 0x1f, 0x7e, 0xbe, 0x80, 0x53, 0xe5, 0xbb, 
  0x28, 0x10, 0x1e, 0xbe, 0x62, 0xf4, 0x4c, 0x3e, 0xeb, 0xf1, 0x32, 0xbe, 
  0x0b, 0xdc, 0x93, 0x3e, 0x5b, 0x47, 0x08, 0xbe, 0xfe, 0xce, 0x71, 0xbe, 
  0x78, 0x4a, 0x95, 0xbd, 0xd0, 0x9e, 0xe1, 0xbc, 0x50, 0x26, 0x29, 0xbd, 
  0xd4, 0xc9, 0x3a, 0xbe, 0xe3, 0x9f, 0x97, 0x3e, 0x1c, 0xf8, 0x20, 0x3e, 
  0x02, 0x21, 0x7b, 0x3e, 0x0a, 0xa1, 0x56, 0x3e, 0xc4, 0x5f, 0xfa, 0xbd, 
  0x41, 0xc5, 0x06, 0xbe, 0xbb, 0xa3, 0x87, 0x3e, 0x60, 0x76, 0x5c, 0xbc, 
  0x40, 0x45, 0x06, 0x3e, 0x90, 0x33, 0xa9, 0xbc, 0x95, 0x18, 0x9b, 0x3e, 
  0xa2, 0x9a, 0x19, 0x3e, 0x80, 0xc1, 0x6d, 0x3c, 0x67, 0xce, 0x64, 0xbe, 
  0x25, 0x38, 0x8c, 0x3e, 0xb0, 0xad, 0x03, 0x3e, 0xc0, 0x46, 0x62, 0x3c, 
  0x00, 0x73, 0x30, 0x3b, 0x74, 0x9b, 0x39, 0xbe, 0x94, 0x34, 0xd2, 0x3d, 
  0xfe, 0x1d, 0x37, 0x3e, 0x80, 0x86, 0xa2, 0xbb, 0x1e, 0x4f, 0x8f, 0xbe, 
  0x1c, 0x7c, 0x54, 0xbe, 0x8e, 0x8e, 0x77, 0x3e, 0x90, 0x31, 0xd9, 0x3c, 
  0x7a, 0x67, 0x1a, 0x3e, 0x2c, 0x00, 0x90, 0x3d, 0x38, 0x6a, 0x77, 0x3d, 
  0xe0, 0x6e, 0xb7, 0x3c, 0x74, 0x9d, 0x0a, 0x3e, 0xaa, 0x95, 0x08, 0xbe, 
  0x54, 0x42, 0x8a, 0xbd, 0xae, 0x73, 0x59, 0x3e, 0x82, 0x98, 0x95, 0xbd, 
  0x14, 0x70, 0xd8, 0x3d, 0x48, 0xd3, 0xd8, 0x3d, 0x60, 0x31, 0xfe, 0x3d, 
  0x49, 0x65, 0x87, 0x3e, 0x36, 0x44, 0x26, 0xbe, 0x42, 0x83, 0x91, 0xbe, 
  0xb0, 0x61, 0xa7, 0xbd, 0x40, 0xcd, 0x94, 0xbc, 0x85, 0x1b, 0x98, 0x3e, 
  0x0a, 0xe8, 0x11, 0xbe, 0xb5, 0x27, 0x97, 0x3e, 0xa0, 0xa3, 0x93, 0x3d, 
  0xb8, 0x8a, 0x63, 0x3d, 0x70, 0x1b, 0x85, 0x3c, 0x1a, 0x0b, 0x42, 0x3e, 
  0xf1, 0x77, 0x99, 0x3e, 0xe1, 0xdc, 0x65, 0xbe, 0xf6, 0x78, 0x38, 0x3e, 
  0xfc, 0x30, 0x38, 0xbe, 0x58, 0x54, 0x30, 0x3d, 0x6d, 0x03, 0x96, 0x3e, 
  0xef, 0x50, 0x96, 0x3e, 0x06, 0xa5, 0x1e, 0x3e, 0x42, 0x6b, 0x64, 0x3e, 
  0x5a, 0xab, 0x40, 0x3e, 0x3e, 0x75, 0x79, 0x3e, 0xed, 0x60, 0x8b, 0x3e, 
  0x42, 0xa5, 0x30, 0x3e, 0x80, 0xd5, 0xfc, 0x3c, 0x40, 0x4f, 0x1c, 0xbe, 
  0xed, 0xc9, 0x83, 0x3e, 0x79, 0x2c, 0x88, 0x3e, 0x56, 0x66, 0x86, 0xbe, 
  0xcc, 0x8c, 0xd3, 0x3d, 0xd0, 0x2e, 0xc9, 0x3d, 0x80, 0xf6, 0xa0, 0x3b, 
  0x40, 0xcf, 0x2c, 0x3d, 0x94, 0xec, 0x60, 0xbe, 0xae, 0x11, 0x4c, 0x3e, 
  0x70, 0x64, 0x81, 0x3c, 0xec, 0xb9, 0x41, 0xbe, 0xb8, 0x51, 0x97, 0x3d, 
  0xda, 0x50, 0x2d, 0x3e, 0x92, 0xf6, 0x4f, 0xbe, 0x38, 0xef, 0x1f, 0x3d, 
  0x00, 0x0a, 0x4e, 0xbd, 0x20, 0x21, 0x66, 0x3d, 0x49, 0x66, 0x72, 0xbe, 
  0x9c, 0x96, 0xa9, 0x3d, 0x2f, 0x1a, 0x83, 0xbe, 0xd2, 0xa0, 0x84, 0xbe, 
  0xc0, 0xc2, 0x96, 0x3b, 0x36, 0x7b, 0x60, 0xbe, 0x3c, 0xe4, 0xfb, 0x3d, 
  0xc3, 0xec, 0x05, 0xbe, 0x9e, 0xc7, 0x4e, 0xbe, 0x2a, 0xfc, 0xa7, 0xbd, 
  0x72, 0x94, 0x73, 0x3e, 0x4e, 0x3c, 0x76, 0x3e, 0x24, 0x1a, 0x3e, 0xbe, 
  0x18, 0xfb, 0xe1, 0xbd, 0x6c, 0xab, 0x7f, 0xbe, 0xe4, 0xee, 0x75, 0xbe, 
  0x80, 0x36, 0x86, 0x3b, 0x8c, 0x36, 0xe4, 0x3d, 0xb8, 0x9e, 0x46, 0xbe, 
  0x22, 0x61, 0x17, 0x3e, 0xe0, 0xca, 0xc8, 0xbc, 0x1c, 0x91, 0x29, 0x3e, 
  0x78, 0xb5, 0xa7, 0x3d, 0x40, 0x13, 0xcb, 0xbb, 0xf7, 0xb1, 0x80, 0xbe, 
  0xf8, 0x12, 0x64, 0x3d, 0xea, 0x92, 0x68, 0x3e, 0xf9, 0xb6, 0x8a, 0x3e, 
  0x60, 0xd1, 0x52, 0x3d, 0x38, 0x7d, 0x20, 0x3d, 0x9a, 0x6d, 0x8e, 0xbe, 
  0x46, 0x41, 0x46, 0xbe, 0xad, 0x9d, 0x28, 0xbe, 0x60, 0x56, 0xec, 0x3c, 
  0x0e, 0xa6, 0x28, 0x3e, 0x80, 0x0a, 0x5f, 0x3c, 0xde, 0xf5, 0xa5, 0xbd, 
  0xe1, 0x3a, 0x80, 0x3e, 0x3b, 0x48, 0x93, 0x3e, 0xc4, 0x88, 0x06, 0x3e, 
  0x9b, 0x9a, 0x90, 0xbe, 0x38, 0xb7, 0x51, 0xbd, 0x3a, 0x6f, 0x69, 0x3e, 
  0x5f, 0xf0, 0x34, 0xbe, 0x9c, 0x5c, 0xac, 0x3d, 0x00, 0x97, 0xdc, 0xbd, 
  0x95, 0xa1, 0x95, 0x3e, 0x0c, 0xc8, 0x2c, 0x3e, 0xd5, 0xa0, 0x86, 0x3e, 
  0x46, 0xb1, 0x98, 0xbe, 0xa8, 0x00, 0x41, 0x3e, 0x94, 0x76, 0x17, 0x3e, 
  0x18, 0x29, 0x82, 0x3d, 0xa0, 0xaa, 0xf6, 0xbc, 0xce, 0x00, 0x5f, 0xbe, 
  0x8a, 0x4f, 0x05, 0x3e, 0x96, 0x9f, 0x24, 0xbe, 0xec, 0x2c, 0xda, 0xbd, 
  0x12, 0x5a, 0x7b, 0x3e, 0xe8, 0x3d, 0x27, 0x3e, 0xfd, 0x1e, 0x8b, 0xbe, 
  0x18, 0x64, 0x2a, 0xbe, 0xa0, 0x7f, 0x85, 0xbe, 0xe8, 0xec, 0xad, 0x3d, 
  0x73, 0x3b, 0x8d, 0x3e, 0xfc, 0xe9, 0x81, 0xbd, 0x28, 0x0b, 0x53, 0xbe, 
  0x60, 0xe6, 0x57, 0x3d, 0xdc, 0x68, 0xee, 0x3d, 0x4a, 0x37, 0x9b, 0xbe, 
  0x36, 0x10, 0x18, 0xbe, 0x98, 0x44, 0x0c, 0x3d, 0x18, 0x3c, 0x4b, 0x3d, 
  0x50, 0x65, 0x07, 0x3e, 0x70, 0xdc, 0x90, 0x3d, 0xa0, 0x7a, 0x05, 0x3d, 
  0xc0, 0x35, 0x12, 0xbc, 0xa0, 0x7b, 0x63, 0xbd, 0x80, 0x2b, 0xc0, 0x3b, 
  0xd9, 0x4f, 0x11, 0xbe, 0x3e, 0xa7, 0x62, 0x3e, 0x80, 0x27, 0x31, 0x3e, 
  0x10, 0xfb, 0xc3, 0xbd, 0xe6, 0xbc, 0x40, 0x3e, 0x5f, 0x81, 0x24, 0xbe, 
  0x8d, 0x34, 0x8e, 0x3e, 0xef, 0x21, 0x97, 0x3e, 0xe4, 0xa2, 0xc8, 0x3d, 
  0x30, 0x38, 0x40, 0x3d, 0x40, 0x6c, 0xb6, 0xbd, 0x2b, 0xa1, 0x8c, 0xbe, 
  0x24, 0x2e, 0x35, 0x3e, 0x4f, 0xec, 0x28, 0xbe, 0xbb, 0x5c, 0x9c, 0xbe, 
  0xb3, 0x91, 0x9c, 0x3e, 0x08, 0xd5, 0xcf, 0x3d, 0x58, 0x87, 0x12, 0x3d, 
  0xb6, 0xfe, 0x46, 0x3e, 0x21, 0x9a, 0x84, 0x3e, 0xde, 0xa5, 0x51, 0x3e, 
  0x00, 0xf4, 0x1d, 0x3b, 0xcc, 0x39, 0x83, 0xbd, 0x8e, 0xcd, 0x53, 0x3e, 
  0x30, 0x0a, 0xef, 0x3d, 0x2f, 0x16, 0x87, 0xbe, 0x70, 0x2a, 0x47, 0xbe, 
  0xde, 0x4f, 0xf5, 0xbd, 0x46, 0xd6, 0x12, 0x3e, 0xbd, 0x2a, 0x6b, 0xbe, 
  0x7e, 0xec, 0x8e, 0xbd, 0xe3, 0xb0, 0x3d, 0xbe, 0x5c, 0xa5, 0x31, 0x3e, 
  0x30, 0x6d, 0x24, 0xbd, 0xa0, 0x4f, 0x35, 0x3d, 0x16, 0x32, 0x98, 0xbd, 
  0x36, 0x6e, 0x6d, 0x3e, 0x9a, 0xeb, 0xc3, 0xbd, 0x90, 0x1d, 0xab, 0x3d, 
  0x17, 0xe5, 0x8f, 0x3e, 0x26, 0x37, 0x70, 0x3e, 0xaa, 0xfd, 0x67, 0x3e, 
  0x20, 0x20, 0xcf, 0xbc, 0x6e, 0xe3, 0x2e, 0xbe, 0x71, 0x47, 0x87, 0x3e, 
  0x4f, 0x37, 0x93, 0x3e, 0x00, 0x60, 0x9c, 0x3a, 0x34, 0x86, 0xe1, 0x3d, 
  0xb1, 0xdf, 0x81, 0xbe, 0xc0, 0xde, 0x5f, 0x3c, 0xcf, 0x9f, 0x57, 0xbe, 
  0x20, 0x0a, 0x15, 0xbc, 0x9a, 0x64, 0x2b, 0x3e, 0x26, 0xf2, 0x6a, 0x3e, 
  0x8f, 0xc8, 0x91, 0x3e, 0x48, 0x8f, 0xf1, 0xbd, 0x77, 0x3c, 0x9c, 0x3e, 
  0xac, 0xe0, 0x8f, 0xbe, 0x20, 0xca, 0x2c, 0xbd, 0xb0, 0x3d, 0xbe, 0xbc, 
  0xde, 0x56, 0x0d, 0xbe, 0x00, 0x78, 0x2b, 0x39, 0x94, 0x99, 0xda, 0x3d, 
  0x08, 0x97, 0x09, 0x3e, 0x98, 0xe9, 0x9b, 0xbd, 0x91, 0xf8, 0x12, 0xbe, 
  0x52, 0xcc, 0x7a, 0x3e, 0x56, 0x7b, 0xa7, 0xbd, 0xf0, 0xb5, 0x3d, 0xbe, 
  0x2c, 0x15, 0x6b, 0xbe, 0xf8, 0x3e, 0x03, 0xbd, 0x08, 0x55, 0x7c, 0x3d, 
  0xb0, 0x46, 0xf4, 0xbc, 0x02, 0x71, 0x4b, 0x3e, 0x16, 0x31, 0x46, 0x3e, 
  0xf6, 0xed, 0x62, 0x3e, 0x88, 0x15, 0xed, 0x3d, 0x40, 0x12, 0x53, 0x3c, 
  0x9c, 0x8d, 0xb8, 0x3d, 0x39, 0xee, 0x92, 0xbe, 0xd2, 0x9f, 0x67, 0x3e, 
  0x75, 0x66, 0x8d, 0x3e, 0x30, 0x53, 0x7c, 0xbd, 0x4d, 0x99, 0x8a, 0xbe, 
  0xb4, 0xd9, 0x0f, 0x3e, 0x40, 0xe5, 0xe7, 0x3c, 0x68, 0x43, 0x69, 0xbe, 
  0x63, 0xba, 0x9a, 0x3e, 0xe8, 0xfd, 0x30, 0x3d, 0x34, 0x5e, 0xb2, 0xbd, 
  0x52, 0x0e, 0x01, 0x3e, 0xd8, 0x47, 0xc9, 0x3d, 0xfc, 0x95, 0x85, 0x3d, 
  0xde, 0x79, 0x28, 0x3e, 0xd2, 0xa5, 0x33, 0xbe, 0xa4, 0xf6, 0x87, 0x3d, 
  0xf7, 0xbe, 0x46, 0xbe, 0x2e, 0x35, 0x93, 0xbe, 0x17, 0x5e, 0x98, 0x3e, 
  0x96, 0xaf, 0x85, 0xbd, 0x7c, 0xe8, 0x23, 0x3e, 0x94, 0x33, 0x63, 0xbe, 
  0x40, 0xce, 0x9e, 0xbb, 0x35, 0xb1, 0x86, 0x3e, 0x72, 0xa3, 0x0e, 0xbe, 
  0xb8, 0x21, 0x67, 0x3d, 0xf9, 0xad, 0x94, 0xbe, 0xec, 0xbe, 0x9b, 0xbe, 
  0xf0, 0x0f, 0x82, 0x3c, 0x86, 0x67, 0x71, 0x3e, 0x0c, 0x20, 0x83, 0xbe, 
  0x68, 0x64, 0x7a, 0x3d, 0x38, 0x24, 0x0a, 0x3e, 0xf2, 0x6f, 0x5a, 0x3e, 
  0x80, 0x22, 0x64, 0x3d, 0x2c, 0x38, 0x8e, 0xbe, 0x10, 0x01, 0x15, 0x3d, 
  0x20, 0x8d, 0x43, 0x3c, 0xa5, 0x1d, 0x94, 0x3e, 0x98, 0x6f, 0x08, 0x3d, 
  0x37, 0xce, 0x0c, 0xbe, 0x2b, 0x4d, 0x82, 0x3e, 0x3e, 0x4e, 0x88, 0xbd, 
  0x7a, 0x3b, 0x70, 0xbe, 0x60, 0x2c, 0x71, 0x3d, 0xd7, 0x67, 0x89, 0xbe, 
  0x8c, 0x10, 0xc5, 0xbd, 0xce, 0x2a, 0xfb, 0xbd, 0x9e, 0xab, 0x44, 0xbe, 
  0xfe, 0xaa, 0x5a, 0xbe, 0x42, 0x59, 0x87, 0xbd, 0x6c, 0x19, 0xbd, 0xbd, 
  0x90, 0x75, 0xa7, 0x3d, 0xe0, 0x92, 0x46, 0x3c, 0x4a, 0x5a, 0x53, 0x3e, 
  0x79, 0xe6, 0x94, 0x3e, 0x5b, 0xee, 0x86, 0x3e, 0x09, 0xfa, 0x89, 0x3e, 
  0xa8, 0xc6, 0xab, 0x3d, 0x0a, 0x27, 0x57, 0xbe, 0xc0, 0x4d, 0x1a, 0x3c, 
  0x2c, 0x65, 0x36, 0xbe, 0xd4, 0xa3, 0x0c, 0x3e, 0x60, 0x64, 0x5d, 0x3d, 
  0x64, 0x1a, 0x98, 0xbd, 0x05, 0x4d, 0x32, 0xbe, 0xc2, 0x0a, 0x97, 0xbe, 
  0x99, 0xbe, 0x8d, 0xbe, 0xe0, 0xd3, 0x95, 0x3d, 0xfa, 0xbf, 0x74, 0x3e, 
  0x46, 0x13, 0x16, 0x3e, 0xfe, 0xd0, 0x74, 0x3e, 0xe5, 0xe8, 0x01, 0xbe, 
  0xd8, 0x18, 0x2b, 0xbd, 0xc0, 0x62, 0x66, 0x3d, 0xf0, 0x3a, 0xf6, 0x3d, 
  0x10, 0x95, 0x99, 0x3c, 0xfc, 0x44, 0xcd, 0x3d, 0x71, 0x62, 0x98, 0xbe, 
  0xd7, 0x70, 0x8b, 0x3e, 0x0a, 0xed, 0xfb, 0xbd, 0x48, 0xaa, 0x5f, 0xbd, 
  0x23, 0x43, 0x8d, 0x3e, 0x64, 0x2f, 0x43, 0x3e, 0x4a, 0xe9, 0x54, 0x3e, 
  0x73, 0xe0, 0x4f, 0xbe, 0x91, 0x7b, 0x48, 0xbe, 0xc2, 0xef, 0x75, 0x3e, 
  0xb2, 0xb3, 0x70, 0x3e, 0xdc, 0xef, 0x81, 0xbe, 0x00, 0x78, 0x6c, 0xbe, 
  0x82, 0x75, 0x93, 0xbd, 0x38, 0x0f, 0xbb, 0xbd, 0x7a, 0xc5, 0x54, 0xbe, 
  0xb2, 0xb2, 0x8b, 0xbe, 0xce, 0xf5, 0x87, 0xbe, 0x37, 0x27, 0x98, 0x3e, 
  0x9a, 0x61, 0x69, 0x3e, 0x3c, 0xfc, 0xa3, 0xbd, 0x60, 0xf8, 0x15, 0x3c, 
  0x41, 0x19, 0x96, 0x3e, 0x70, 0x2d, 0x57, 0xbd, 0x56, 0x61, 0x71, 0x3e, 
  0xb6, 0x0f, 0x42, 0xbe, 0x90, 0xde, 0xae, 0x3c, 0x80, 0x5a, 0xd2, 0x3d, 
  0x80, 0xbb, 0xfa, 0xbd, 0xfa, 0x07, 0xa3, 0xbd, 0xd0, 0x22, 0x0b, 0x3e, 
  0x20, 0xb3, 0x8b, 0xbe, 0x38, 0x3a, 0xa6, 0x3d, 0xe0, 0x3f, 0xfa, 0x3d, 
  0xbf, 0xcc, 0x16, 0xbe, 0x5d, 0xd8, 0x67, 0xbe, 0xe7, 0x15, 0x92, 0xbe, 
  0x02, 0xe4, 0x1f, 0x3e, 0x24, 0x70, 0x01, 0x3e, 0xe0, 0x5b, 0x78, 0x3c, 
  0x80, 0xc9, 0x17, 0x3e, 0x80, 0x9a, 0xa6, 0x3b, 0x17, 0x87, 0x87, 0xbe, 
  0xa0, 0x74, 0x3d, 0x3e, 0xe6, 0xb7, 0x3a, 0x3e, 0x55, 0x23, 0x9c, 0x3e, 
  0x06, 0xba, 0x5c, 0x3e, 0x55, 0x1a, 0x83, 0x3e, 0x7c, 0xe2, 0x35, 0xbe, 
  0x90, 0x1d, 0x1f, 0x3e, 0x0e, 0x8c, 0x11, 0x3e, 0x89, 0x8b, 0x92, 0xbe, 
  0xd5, 0xbe, 0x16, 0xbe, 0x57, 0x82, 0x94, 0x3e, 0x60, 0x9a, 0x8b, 0xbc, 
  0x40, 0x6c, 0xad, 0xbc, 0x6d, 0x77, 0x86, 0x3e, 0x70, 0x20, 0x36, 0x3d, 
  0xb0, 0xeb, 0x58, 0xbd, 0x9f, 0x05, 0x81, 0x3e, 0x1e, 0x45, 0x19, 0x3e, 
  0x05, 0x7f, 0x8b, 0x3e, 0xe4, 0xcd, 0x9f, 0x3d, 0x78, 0x42, 0x2f, 0xbd, 
  0x10, 0x3e, 0x64, 0xbd, 0x80, 0x95, 0xc4, 0x3d, 0xbc, 0x60, 0x12, 0x3e, 
  0xb0, 0x04, 0x72, 0xbe, 0x4b, 0xbe, 0x96, 0x3e, 0x62, 0x2e, 0x6f, 0x3e, 
  0x78, 0xb0, 0x43, 0xbe, 0x92, 0x3f, 0x5b, 0xbe, 0xfe, 0x97, 0x3f, 0xbe, 
  0xff, 0x8f, 0x47, 0xbe, 0xd6, 0xc8, 0x68, 0x3e, 0xbe, 0x5c, 0x56, 0xbe, 
  0x20, 0xc9, 0x0c, 0x3c, 0x1e, 0x8e, 0x4e, 0x3e, 0x43, 0x3f, 0x34, 0xbe, 
  0x32, 0x20, 0x4b, 0x3e, 0xa6, 0x6a, 0x76, 0x3e, 0xf0, 0xa7, 0xef, 0xbc, 
  0x7e, 0xd6, 0x56, 0xbe, 0x00, 0xec, 0x32, 0xbd, 0x0d, 0x27, 0x47, 0xbe, 
  0x85, 0xc8, 0x88, 0x3e, 0x40, 0xb2, 0xef, 0xbd, 0x08, 0xf0, 0x26, 0x3d, 
  0xb8, 0xe1, 0x15, 0x3d, 0x3a, 0x37, 0xad, 0xbd, 0x47, 0x41, 0x97, 0xbe, 
  0xfc, 0x57, 0xf6, 0x3d, 0x00, 0xee, 0xbb, 0x3a, 0xac, 0xcb, 0xe1, 0x3d, 
  0x1c, 0x4c, 0xfc, 0x3d, 0xe2, 0x45, 0x68, 0x3e, 0x80, 0xd7, 0x09, 0xbd, 
  0x5c, 0x97, 0x0f, 0xbe, 0xa4, 0xee, 0xf2, 0x3d, 0xe4, 0x17, 0x54, 0xbe, 
  0x7a, 0x25, 0xeb, 0xbd, 0x60, 0x1b, 0xcd, 0x3d, 0xe0, 0x87, 0x0f, 0x3d, 
  0x24, 0x01, 0x5e, 0xbe, 0xfd, 0x59, 0x84, 0x3e, 0xa8, 0x68, 0x68, 0xbd, 
  0xc0, 0x16, 0xf0, 0x3c, 0x18, 0xc9, 0x9a, 0x3d, 0x02, 0x9e, 0xc2, 0xbd, 
  0xe8, 0x70, 0x5b, 0x3d, 0x4f, 0xa4, 0x80, 0xbe, 0xfa, 0x97, 0x4b, 0x3e, 
  0x72, 0xa8, 0x7a, 0xbe, 0x2b, 0x11, 0x81, 0x3e, 0xc0, 0x3d, 0xb0, 0x3c, 
  0x40, 0xa0, 0x31, 0xbd, 0x90, 0xcf, 0x2e, 0x3d, 0x49, 0xc5, 0x84, 0xbe, 
  0xa5, 0x66, 0x6a, 0xbe, 0xea, 0xa9, 0x25, 0x3e, 0x87, 0x0f, 0x85, 0x3e, 
  0x18, 0x97, 0x11, 0xbe, 0x50, 0x00, 0xff, 0x3d, 0xd6, 0x94, 0xb4, 0xbd, 
  0x06, 0x92, 0x55, 0x3e, 0xba, 0x16, 0x81, 0xbe, 0x2e, 0x66, 0x4e, 0x3e, 
  0x86, 0x60, 0x3c, 0x3e, 0xc3, 0xc7, 0x02, 0xbe, 0x40, 0xc7, 0xb8, 0x3d, 
  0x00, 0x08, 0xc4, 0x3d, 0x3e, 0x81, 0x49, 0x3e, 0x34, 0xe7, 0x62, 0xbe, 
  0xbc, 0x6f, 0xc6, 0x3d, 0x1b, 0x5e, 0x32, 0xbe, 0xa9, 0x14, 0x9b, 0x3e, 
  0xc1, 0x88, 0x86, 0xbe, 0xb4, 0xec, 0xd5, 0x3d, 0x32, 0xbf, 0x59, 0xbe, 
  0xe4, 0x0e, 0x42, 0x3e, 0xdd, 0x1b, 0x2f, 0xbe, 0xe0, 0x2d, 0x6e, 0x3c, 
  0x45, 0x09, 0x26, 0xbe, 0x8e, 0x66, 0x4c, 0xbe, 0x70, 0xa6, 0x0c, 0xbd, 
  0x40, 0x10, 0xd0, 0xbb, 0x81, 0xcf, 0x35, 0xbe, 0x70, 0xc2, 0x8d, 0xbc, 
  0x80, 0xce, 0x3a, 0x3b, 0xcf, 0xea, 0x9a, 0xbe, 0xca, 0x8e, 0x80, 0xbe, 
  0x0e, 0x96, 0x3d, 0xbe, 0x85, 0xe5, 0x84, 0x3e, 0xc3, 0xe9, 0x3f, 0xbe, 
  0x30, 0x81, 0x40, 0xbe, 0xc3, 0x16, 0x24, 0xbe, 0x30, 0x14, 0x05, 0x3d, 
  0xc9, 0xba, 0x7b, 0xbe, 0x26, 0x8a, 0x46, 0x3e, 0x42, 0x38, 0xa9, 0xbd, 
  0x7a, 0x57, 0x69, 0x3e, 0xe6, 0xfc, 0x41, 0xbe, 0xba, 0x96, 0x2c, 0x3e, 
  0x62, 0xb9, 0x5d, 0x3e, 0xf0, 0x14, 0x88, 0xbc, 0x15, 0xa7, 0x97, 0xbe, 
  0xd2, 0xcc, 0x16, 0x3e, 0xa0, 0x4f, 0x88, 0xbe, 0x6b, 0xdc, 0x98, 0xbe, 
  0x30, 0xa8, 0x81, 0x3d, 0x2a, 0x60, 0x75, 0x3e, 0x96, 0x0a, 0x7a, 0xbe, 
  0x92, 0x65, 0x7b, 0xbe, 0xf8, 0xc0, 0x53, 0xbd, 0xda, 0xef, 0x71, 0x3e, 
  0x72, 0x9b, 0x21, 0x3e, 0x05, 0xe0, 0x0d, 0xbe, 0x40, 0xc7, 0xa0, 0x3c, 
  0x18, 0x65, 0x2b, 0xbd, 0xe2, 0x97, 0x48, 0x3e, 0xec, 0xb3, 0xe6, 0x3d, 
  0x3c, 0xe0, 0x7d, 0xbd, 0x83, 0xd5, 0x98, 0x3e, 0xb2, 0xae, 0xba, 0xbd, 
  0x20, 0xa3, 0xcf, 0x3c, 0x92, 0x4f, 0x61, 0x3e, 0xfa, 0x45, 0x60, 0x3e, 
  0xe4, 0xd0, 0xd6, 0x3d, 0xd6, 0xaa, 0x1e, 0x3e, 0xc4, 0xc4, 0xeb, 0xbd, 
  0x66, 0xb4, 0x40, 0x3e, 0x78, 0x45, 0x74, 0xbe, 0xf4, 0x43, 0xb3, 0x3d, 
  0x20, 0x6f, 0xf7, 0x3d, 0x27, 0xff, 0x05, 0xbe, 0x9a, 0xed, 0x31, 0x3e, 
  0xf5, 0xa0, 0x2b, 0xbe, 0xe0, 0x5b, 0xbc, 0x3c, 0x76, 0x33, 0x90, 0xbd, 
  0x5d, 0x83, 0x73, 0xbe, 0xa4, 0xf6, 0x41, 0x3e, 0x04, 0x68, 0x15, 0x3e, 
  0xe8, 0x45, 0x29, 0xbe, 0x82, 0x57, 0x7f, 0x3e, 0x43, 0x9b, 0x9a, 0x3e, 
  0x8c, 0x12, 0xc6, 0x3d, 0xcb, 0xa0, 0x86, 0x3e, 0xf8, 0xe2, 0x22, 0x3e, 
  0x55, 0x7b, 0x23, 0xbe, 0x60, 0xf2, 0x43, 0x3e, 0xe6, 0xea, 0x7e, 0x3e, 
  0x94, 0x87, 0xd5, 0x3d, 0xfe, 0xee, 0x86, 0xbe, 0x78, 0x61, 0x71, 0xbe, 
  0x5f, 0xec, 0x99, 0x3e, 0x10, 0x3e, 0xc2, 0x3d, 0xe8, 0x40, 0x48, 0xbd, 
  0xd2, 0x8e, 0x6a, 0x3e, 0x29, 0xc4, 0x96, 0x3e, 0x4f, 0x8d, 0x82, 0x3e, 
  0x56, 0x5b, 0x68, 0xbe, 0x3e, 0x33, 0x73, 0x3e, 0x76, 0x9d, 0x54, 0xbe, 
  0x67, 0xf1, 0x79, 0xbe, 0x96, 0x2f, 0x00, 0xbe, 0x50, 0xe7, 0x12, 0x3d, 
  0x91, 0x59, 0x87, 0x3e, 0x8e, 0xd4, 0x1a, 0xbe, 0xd0, 0x38, 0x91, 0x3c, 
  0x39, 0x82, 0x93, 0x3e, 0xab, 0x8b, 0x28, 0xbe, 0xb8, 0x9c, 0xbf, 0x3d, 
  0xda, 0x06, 0x72, 0xbe, 0x20, 0xef, 0xf4, 0x3c, 0x4c, 0xdc, 0x8e, 0x3d, 
  0x30, 0x3c, 0xad, 0x3c, 0x8c, 0x2d, 0x44, 0x3e, 0x62, 0x95, 0xcc, 0xbd, 
  0xdc, 0x67, 0x0f, 0x3e, 0xfb, 0x23, 0x31, 0xbe, 0x77, 0x6e, 0x97, 0x3e, 
  0x0e, 0x9f, 0x5c, 0xbe, 0x38, 0x47, 0x29, 0x3d, 0xb0, 0xe9, 0xa8, 0xbd, 
  0xe8, 0xfa, 0x85, 0xbe, 0xd8, 0x9d, 0xd0, 0x3d, 0x38, 0x77, 0x9d, 0xbd, 
  0x65, 0xed, 0x65, 0xbe, 0x1f, 0x4b, 0x96, 0x3e, 0xd6, 0x14, 0x06, 0x3e, 
  0x9e, 0x49, 0x25, 0xbe, 0xc4, 0x19, 0x9a, 0x3d, 0xa6, 0x6e, 0x54, 0x3e, 
  0x00, 0x3c, 0x36, 0xbb, 0xdb, 0x33, 0x68, 0xbe, 0xa6, 0x88, 0x97, 0xbe, 
  0xa1, 0xfe, 0x06, 0xbe, 0x20, 0x1a, 0xf4, 0xbd, 0xea, 0x14, 0x51, 0xbe, 
  0xe8, 0x55, 0x32, 0x3d, 0xe0, 0x72, 0x17, 0x3c, 0xd8, 0xfe, 0x37, 0x3e, 
  0x2a, 0xd4, 0xec, 0xbd, 0x40, 0x62, 0xd0, 0x3b, 0xc0, 0x9b, 0xd1, 0x3d, 
  0x08, 0xc7, 0x6f, 0xbe, 0xf4, 0x99, 0x42, 0xbe, 0x80, 0x9f, 0x7d, 0xbe, 
  0x60, 0x27, 0x8b, 0xbc, 0x9c, 0x7e, 0xdb, 0x3d, 0xe0, 0xe1, 0x03, 0xbe, 
  0xe0, 0x77, 0x60, 0x3d, 0x90, 0xb1, 0xe3, 0x3c, 0x5a, 0x7c, 0x59, 0x3e, 
  0x70, 0x6a, 0x8e, 0xbe, 0x7a, 0xf0, 0x37, 0x3e, 0xa6, 0x36, 0x51, 0xbe, 
  0x2e, 0x14, 0x22, 0x3e, 0x92, 0xc2, 0x43, 0xbe, 0x59, 0x2f, 0x83, 0x3e, 
  0x86, 0x99, 0x9b, 0xbd, 0xbe, 0x75, 0x5e, 0x3e, 0x2b, 0xc8, 0x8f, 0x3e, 
  0x93, 0x27, 0x80, 0x3e, 0x14, 0xad, 0xb9, 0x3d, 0xde, 0xa2, 0xbe, 0xbd, 
  0x12, 0x4a, 0x4e, 0x3e, 0x20, 0xe4, 0xdc, 0x3d, 0x50, 0xc7, 0xa3, 0x3d, 
  0x26, 0xb4, 0xea, 0xbd, 0x80, 0xa7, 0x53, 0xbe, 0x26, 0x33, 0x72, 0x3e, 
  0xc3, 0x82, 0x97, 0x3e, 0x8c, 0xf3, 0xd8, 0x3d, 0x18, 0xea, 0xe8, 0x3d, 
  0x21, 0x68, 0x9c, 0x3e, 0x41, 0xdc, 0x47, 0xbe, 0x4c, 0xa1, 0x88, 0xbd, 
  0xb5, 0x75, 0x25, 0xbe, 0x08, 0x94, 0x5c, 0xbe, 0x87, 0x52, 0x0f, 0xbe, 
  0xae, 0x40, 0x65, 0x3e, 0x94, 0xfb, 0x2a, 0x3e, 0x0e, 0xec, 0xb3, 0xbd, 
  0x0e, 0x83, 0x03, 0x3e, 0xd9, 0xd8, 0x15, 0xbe, 0xd2, 0x92, 0x65, 0x3e, 
  0xc2, 0x21, 0x72, 0x3e, 0x84, 0xc9, 0x3f, 0x3e, 0x32, 0x09, 0x93, 0xbe, 
  0x55, 0x3c, 0x8d, 0x3e, 0xf8, 0xe9, 0x77, 0xbd, 0x5c, 0x6f, 0x4c, 0xbe, 
  0x8d, 0x7e, 0x97, 0x3e, 0x3a, 0xbf, 0x19, 0xbe, 0xd9, 0x0a, 0x10, 0xbe, 
  0x76, 0xf6, 0x4b, 0x3e, 0xf6, 0x40, 0x77, 0x3e, 0xd7, 0x5f, 0x1e, 0xbe, 
  0xdd, 0x44, 0x2a, 0xbe, 0x0e, 0xe7, 0x53, 0xbe, 0xbb, 0xc9, 0x82, 0xbe, 
  0xdc, 0x9a, 0xc0, 0x3d, 0x3e, 0xa7, 0x7a, 0x3e, 0x57, 0x31, 0x98, 0x3e, 
  0x68, 0x84, 0xc2, 0xbd, 0x60, 0x94, 0xbb, 0x3d, 0x7a, 0xfb, 0x1a, 0xbe, 
  0x2c, 0x11, 0x6d, 0xbd, 0x0e, 0x25, 0x26, 0xbe, 0x00, 0x41, 0x7d, 0xbe, 
  0xea, 0xee, 0x13, 0x3e, 0x00, 0x54, 0x15, 0xbb, 0x40, 0xad, 0xd7, 0xbb, 
  0xc6, 0x40, 0x5b, 0x3e, 0x33, 0x7b, 0x21, 0xbe, 0x84, 0x81, 0x5b, 0xbe, 
  0xdb, 0x97, 0x9b, 0x3e, 0xe6, 0x08, 0x81, 0xbd, 0x4a, 0x4e, 0x44, 0x3e, 
  0x90, 0xce, 0x82, 0xbe, 0xc4, 0xe0, 0xed, 0x3d, 0x0e, 0xdf, 0x2d, 0x3e, 
  0x62, 0x77, 0x0d, 0xbe, 0x39, 0xc1, 0x95, 0xbe, 0x24, 0xaf, 0x9a, 0x3d, 
  0x84, 0xb7, 0x0e, 0x3e, 0x22, 0x05, 0x47, 0x3e, 0xc0, 0x44, 0x84, 0x3d, 
  0xf9, 0x46, 0x7d, 0xbe, 0xae, 0xd9, 0x6e, 0xbe, 0x70, 0x85, 0x51, 0xbe, 
  0xb2, 0x49, 0xd5, 0xbd, 0x38, 0x3c, 0x86, 0xbe, 0xa4, 0x6f, 0x38, 0xbe, 
  0xec, 0xe0, 0x0f, 0x3e, 0x08, 0xe8, 0x1a, 0x3d, 0x43, 0xf6, 0x8e, 0x3e, 
  0xa0, 0xaa, 0x1f, 0x3c, 0xfc, 0xc4, 0x9d, 0xbd, 0x22, 0x28, 0x16, 0xbe, 
  0x3a, 0x1d, 0x54, 0xbe, 0x11, 0xc4, 0x9a, 0x3e, 0xc8, 0x05, 0x3c, 0x3d, 
  0x38, 0xe1, 0x2f, 0xbd, 0x58, 0x16, 0x1f, 0x3e, 0x88, 0x65, 0x19, 0xbd, 
  0xfc, 0x00, 0x8c, 0xbe, 0x06, 0x8e, 0x1d, 0x3e, 0x30, 0xb4, 0x23, 0x3e, 
  0x72, 0x30, 0x47, 0x3e, 0x06, 0x03, 0x8a, 0xbd, 0xe0, 0x15, 0xfa, 0xbc, 
  0xcc, 0xdc, 0x18, 0x3e, 0x16, 0x02, 0x16, 0x3e, 0xc8, 0x6f, 0x21, 0xbd, 
  0xb0, 0x93, 0x65, 0xbd, 0xbe, 0x74, 0x63, 0x3e, 0xe3, 0xb5, 0x96, 0x3e, 
  0xc0, 0xe8, 0x23, 0xbd, 0x5f, 0x3a, 0x9a, 0x3e, 0xa0, 0x7b, 0x51, 0x3c, 
  0x30, 0x0a, 0x38, 0xbd, 0x4f, 0xc2, 0x85, 0x3e, 0x20, 0xfb, 0x20, 0x3d, 
  0x4b, 0x35, 0x6c, 0xbe, 0x00, 0xa2, 0x97, 0x3c, 0xe4, 0x80, 0xf8, 0xbd, 
  0xf2, 0x81, 0xe0, 0xbd, 0xa7, 0xa3, 0x68, 0xbe, 0xe2, 0x82, 0x91, 0xbe, 
  0xef, 0x0d, 0x84, 0x3e, 0xb6, 0x75, 0x71, 0x3e, 0x00, 0xa0, 0x52, 0xbd, 
  0xe1, 0x98, 0x9c, 0x3e, 0xaa, 0x0a, 0x4c, 0x3e, 0x32, 0x70, 0x34, 0x3e, 
  0x4c, 0xda, 0x85, 0xbe, 0xa1, 0x5a, 0x90, 0xbe, 0x30, 0xe4, 0x5b, 0x3d, 
  0x30, 0xce, 0x96, 0xbe, 0x00, 0x28, 0x18, 0x3b, 0xc0, 0x25, 0xdd, 0x3d, 
  0x10, 0x49, 0x44, 0xbd, 0xcc, 0xbc, 0x06, 0xbe, 0x28, 0xef, 0xc2, 0x3d, 
  0x4c, 0x71, 0xb9, 0xbd, 0xa2, 0xc4, 0x5a, 0x3e, 0x7c, 0x7c, 0x97, 0xbe, 
  0x02, 0x09, 0x2e, 0x3e, 0x17, 0x25, 0x9a, 0x3e, 0x8c, 0x87, 0x07, 0x3e, 
  0x5e, 0x82, 0xef, 0xbd, 0x18, 0x88, 0xbc, 0x3d, 0x46, 0xaf, 0x2b, 0x3e, 
  0x50, 0xfb, 0x1d, 0xbd, 0xd0, 0x67, 0xd8, 0x3c, 0xfd, 0xd3, 0x88, 0x3e, 
  0xa0, 0xb1, 0xa1, 0x3c, 0x23, 0x42, 0x95, 0x3e, 0x46, 0x00, 0xfe, 0xbd, 
  0x88, 0xfb, 0x42, 0x3e, 0x62, 0x46, 0x51, 0xbe, 0x68, 0x77, 0x91, 0xbd, 
  0x00, 0x09, 0xfe, 0xbd, 0x70, 0x0b, 0xa9, 0x3c, 0x99, 0x85, 0x35, 0xbe, 
  0xd0, 0x14, 0x82, 0xbe, 0xdd, 0x46, 0x94, 0xbe, 0xab, 0x73, 0x9c, 0x3e, 
  0xb6, 0x10, 0x69, 0xbe, 0x04, 0x94, 0xd5, 0xbd, 0xc0, 0xb0, 0x36, 0x3c, 
  0x16, 0x9d, 0x85, 0xbe, 0x4c, 0x84, 0x98, 0xbd, 0xb9, 0xaa, 0x88, 0x3e, 
  0x9f, 0x2a, 0x94, 0x3e, 0x84, 0x34, 0x03, 0x3e, 0x80, 0x48, 0x06, 0xbc, 
  0x18, 0xea, 0x8b, 0x3d, 0x10, 0x0d, 0xb7, 0xbc, 0xc5, 0x4a, 0x84, 0xbe, 
  0xcf, 0xd8, 0x89, 0x3e, 0x62, 0x8b, 0x11, 0xbe, 0x1f, 0xeb, 0x71, 0xbe, 
  0x52, 0x53, 0x54, 0x3e, 0x4c, 0xf0, 0x1f, 0x3e, 0x1c, 0x78, 0x2c, 0x3e, 
  0xa0, 0x7f, 0xe6, 0x3c, 0x3f, 0xe1, 0x22, 0xbe, 0x00, 0x40, 0x78, 0x3c, 
  0xd8, 0x2f, 0x1e, 0x3e, 0xd3, 0xe2, 0x55, 0xbe, 0x84, 0x61, 0xf9, 0xbd, 
  0x88, 0xef, 0x3a, 0xbe, 0xf8, 0xa1, 0x50, 0x3d, 0xc8, 0xe9, 0x41, 0x3e, 
  0x16, 0xc6, 0x56, 0x3e, 0x48, 0x5b, 0x46, 0x3e, 0xd8, 0x01, 0x50, 0xbd, 
  0x3f, 0x2a, 0x83, 0xbe, 0x4c, 0x30, 0x79, 0xbd, 0x3c, 0xf4, 0x82, 0xbe, 
  0x5e, 0x3e, 0x96, 0xbe, 0x95, 0x17, 0x8b, 0xbe, 0x2f, 0xb2, 0x9a, 0xbe, 
  0x00, 0x00, 0x06, 0x00, 0x08, 0x00, 0x04, 0x00, 0x06, 0x00, 0x00, 0x00, 
  0x04, 0x00, 0x00, 0x00, 0x80, 0x02, 0x00, 0x00, 0x0c, 0x1c, 0xcb, 0xbd, 
  0x24, 0xc9, 0xc1, 0xbd, 0x58, 0x79, 0x54, 0xbd, 0x24, 0xf6, 0xa5, 0xbd, 
  0xfc, 0xd8, 0x9b, 0x3e, 0x94, 0xdd, 0x19, 0x3e, 0x72, 0xb0, 0xbd, 0xbe, 
  0x36, 0x69, 0x28, 0xbe, 0x06, 0xaf, 0xca, 0x3e, 0x58, 0x73, 0xab, 0x3e, 
  0x22, 0x54, 0x21, 0xbe, 0x86, 0x71, 0x81, 0x3e, 0xc4, 0xd7, 0x3c, 0x3e, 
  0x66, 0x97, 0x75, 0xbe, 0xd9, 0x3f, 0x29, 0xbe, 0x86, 0x81, 0xa5, 0xbe, 
  0x00, 0x0b, 0x94, 0x3d, 0xb0, 0x44, 0x54, 0x3d, 0x82, 0x6a, 0xac, 0x3e, 
  0xf2, 0xf4, 0x9e, 0x3e, 0xe0, 0xe4, 0xcb, 0x3e, 0xdb, 0x53, 0x25, 0xbe, 
  0xc0, 0x4f, 0x9f, 0xbd, 0x64, 0x3c, 0x8e, 0x3e, 0xd5, 0xd8, 0xad, 0xbe, 
  0xd9, 0x86, 0x94, 0xbe, 0x70, 0x53, 0x26, 0x3e, 0xdc, 0x31, 0x4c, 0x3e, 
  0x6c, 0x52, 0xb5, 0x3e, 0xf1, 0x74, 0x90, 0xbe, 0x38, 0x06, 0xc8, 0xbe, 
  0x2c, 0x55, 0x85, 0x3d, 0xe0, 0x7e, 0x76, 0x3c, 0x58, 0x56, 0x87, 0xbd, 
  0xa0, 0xaa, 0x99, 0xbe, 0x6c, 0xc8, 0x54, 0x3e, 0x20, 0x5d, 0xff, 0x3d, 
  0x85, 0xf6, 0x21, 0xbe, 0x80, 0xc1, 0xad, 0x3e, 0xc0, 0x4a, 0x91, 0x3d, 
  0x98, 0xdb, 0x5a, 0xbe, 0x74, 0xa2, 0x83, 0xbd, 0x38, 0xe2, 0x0a, 0xbd, 
  0x80, 0x7e, 0x5f, 0x3d, 0xe0, 0x4a, 0xf9, 0x3c, 0xb0, 0xf8, 0xc8, 0x3d, 
  0x30, 0xe4, 0x02, 0xbe, 0x10, 0x81, 0x0d, 0x3e, 0xcb, 0xff, 0xa4, 0xbe, 
  0xd4, 0x45, 0x3e, 0x3e, 0xc0, 0x84, 0x11, 0x3c, 0x30, 0x7f, 0xc1, 0x3d, 
  0x80, 0x02, 0x9b, 0xbe, 0xe0, 0x36, 0x08, 0xbc, 0x04, 0x4c, 0x22, 0x3e, 
  0x0f, 0xb8, 0x40, 0xbe, 0x7a, 0xa9, 0xa1, 0xbe, 0xeb, 0x32, 0x5e, 0xbe, 
  0x40, 0xa3, 0x9e, 0x3e, 0x3a, 0x46, 0x86, 0x3e, 0x40, 0x8c, 0x88, 0x3c, 
  0x94, 0x7e, 0x9c, 0x3e, 0x50, 0x56, 0xa3, 0x3e, 0x67, 0xa1, 0x80, 0xbe, 
  0x03, 0x62, 0x22, 0xbe, 0xe8, 0x55, 0xaa, 0x3e, 0x5c, 0x47, 0x18, 0x3e, 
  0xec, 0x80, 0x36, 0x3e, 0x9e, 0xc7, 0xa8, 0xbe, 0x56, 0x07, 0x8b, 0x3e, 
  0x52, 0x4d, 0xb6, 0xbe, 0xc8, 0x4e, 0x9c, 0x3e, 0xde, 0x74, 0xa0, 0x3e, 
  0xcf, 0x4a, 0x9d, 0xbe, 0x78, 0x57, 0x89, 0x3e, 0x8c, 0x9f, 0xc4, 0xbe, 
  0x38, 0x1b, 0xcc, 0x3e, 0x79, 0x65, 0xaf, 0xbe, 0x10, 0x74, 0x00, 0xbd, 
  0x2a, 0xc5, 0x0f, 0xbe, 0x57, 0x23, 0xce, 0xbe, 0xb4, 0x30, 0x22, 0x3e, 
  0x28, 0xc2, 0x08, 0xbe, 0xd8, 0x47, 0x47, 0x3d, 0xec, 0xbf, 0x2b, 0x3e, 
  0xf0, 0x1f, 0x83, 0xbe, 0xf4, 0x8e, 0xc2, 0x3d, 0xf0, 0x6e, 0xa6, 0x3e, 
  0x1b, 0xf8, 0x95, 0xbe, 0x0c, 0x89, 0xc7, 0x3e, 0x70, 0xaa, 0xd1, 0x3c, 
  0x2a, 0x4a, 0xc5, 0x3e, 0x6c, 0xec, 0xa5, 0xbd, 0xc8, 0xb6, 0x7d, 0xbe, 
  0xc0, 0xcd, 0xe1, 0x3b, 0xda, 0x43, 0x80, 0xbe, 0x0a, 0x8d, 0x82, 0x3e, 
  0xa0, 0x34, 0x11, 0x3c, 0x79, 0x23, 0x82, 0xbe, 0xe8, 0x62, 0x56, 0xbd, 
  0x5c, 0x7b, 0xa6, 0x3e, 0xa8, 0x3c, 0x91, 0xbd, 0x20, 0x2a, 0x11, 0x3c, 
  0x0c, 0x30, 0xc4, 0x3d, 0x14, 0x5a, 0x56, 0x3e, 0x74, 0xf8, 0xa4, 0x3e, 
  0xda, 0x99, 0xa0, 0xbe, 0x00, 0xb8, 0x60, 0xbd, 0x14, 0x01, 0x5f, 0x3e, 
  0xb4, 0xbb, 0x38, 0x3e, 0x70, 0x01, 0x4d, 0xbd, 0x02, 0xa5, 0xac, 0xbe, 
  0x5e, 0x55, 0x8b, 0x3e, 0x6e, 0x48, 0x9f, 0xbe, 0x98, 0xbf, 0x6f, 0x3e, 
  0x50, 0x73, 0xb1, 0xbd, 0xba, 0xa8, 0x9e, 0x3e, 0x90, 0x87, 0xc8, 0x3c, 
  0x94, 0x30, 0xb7, 0xbe, 0xc0, 0x40, 0xe6, 0x3b, 0xf6, 0x46, 0x8d, 0xbe, 
  0x98, 0x4a, 0xf9, 0x3d, 0x60, 0xb9, 0x6e, 0x3d, 0x60, 0xf8, 0x97, 0xbd, 
  0x94, 0x58, 0x0e, 0xbe, 0x24, 0x63, 0x0c, 0x3e, 0xcd, 0x3c, 0xb6, 0xbe, 
  0xac, 0xb0, 0x3f, 0x3e, 0x91, 0x97, 0xc0, 0xbe, 0x10, 0x66, 0x27, 0xbd, 
  0xc0, 0x61, 0x8d, 0x3d, 0x2c, 0xf2, 0x3e, 0x3e, 0x34, 0x39, 0xc7, 0xbd, 
  0x88, 0x28, 0x9a, 0x3e, 0xd0, 0x27, 0x95, 0x3d, 0xec, 0x9a, 0xb4, 0x3d, 
  0x20, 0x29, 0xba, 0xbd, 0x08, 0x6c, 0x32, 0x3e, 0x94, 0x57, 0xf9, 0xbd, 
  0xd0, 0x8f, 0xcd, 0x3e, 0xfc, 0xc6, 0x13, 0x3e, 0x2c, 0xb0, 0xc0, 0xbe, 
  0x92, 0x67, 0xcd, 0xbe, 0x6c, 0x06, 0x09, 0x3e, 0xee, 0x2b, 0xa1, 0x3e, 
  0xb6, 0xab, 0x59, 0xbe, 0x6c, 0xe3, 0xda, 0xbd, 0xb5, 0x6d, 0x78, 0xbe, 
  0x9a, 0x03, 0xca, 0xbe, 0x72, 0x4a, 0x86, 0xbe, 0xf2, 0x44, 0x1c, 0xbe, 
  0xa0, 0x93, 0xe9, 0x3d, 0xc8, 0x12, 0xa6, 0x3e, 0xef, 0xde, 0xc5, 0xbe, 
  0xa0, 0x80, 0x56, 0x3d, 0xe0, 0xf8, 0x62, 0xbd, 0x5b, 0x12, 0x9e, 0xbe, 
  0x3c, 0x9c, 0x49, 0x3e, 0x99, 0xd6, 0x69, 0xbe, 0x6e, 0x23, 0x31, 0xbe, 
  0x60, 0xfb, 0xff, 0xff, 0x64, 0xfb, 0xff, 0xff, 0x0f, 0x00, 0x00, 0x00, 
  0x4d, 0x4c, 0x49, 0x52, 0x20, 0x43, 0x6f, 0x6e, 0x76, 0x65, 0x72, 0x74, 
  0x65, 0x64, 0x2e, 0x00, 0x01, 0x00, 0x00, 0x00, 0x14, 0x00, 0x00, 0x00, 
  0x00, 0x00, 0x0e, 0x00, 0x18, 0x00, 0x14, 0x00, 0x10, 0x00, 0x0c, 0x00, 
  0x08, 0x00, 0x04, 0x00, 0x0e, 0x00, 0x00, 0x00, 0x14, 0x00, 0x00, 0x00, 
  0x1c, 0x00, 0x00, 0x00, 0x08, 0x01, 0x00, 0x00, 0x0c, 0x01, 0x00, 0x00, 
  0x10, 0x01, 0x00, 0x00, 0x04, 0x00, 0x00, 0x00, 0x6d, 0x61, 0x69, 0x6e, 
  0x00, 0x00, 0x00, 0x00, 0x04, 0x00, 0x00, 0x00, 0xb0, 0x00, 0x00, 0x00, 
  0x68, 0x00, 0x00, 0x00, 0x34, 0x00, 0x00, 0x00, 0x10, 0x00, 0x00, 0x00, 
  0x00, 0x00, 0x0a, 0x00, 0x10, 0x00, 0x0c, 0x00, 0x08, 0x00, 0x04, 0x00, 
  0x0a, 0x00, 0x00, 0x00, 0x0c, 0x00, 0x00, 0x00, 0x10, 0x00, 0x00, 0x00, 
  0x01, 0x00, 0x00, 0x00, 0x01, 0x00, 0x00, 0x00, 0x07, 0x00, 0x00, 0x00, 
  0x01, 0x00, 0x00, 0x00, 0x06, 0x00, 0x00, 0x00, 0x9a, 0xff, 0xff, 0xff, 
  0x10, 0x00, 0x00, 0x00, 0x00, 0x00, 0x00, 0x08, 0x0c, 0x00, 0x00, 0x00, 
  0x10, 0x00, 0x00, 0x00, 0x0c, 0xfc, 0xff, 0xff, 0x01, 0x00, 0x00, 0x00, 
  0x06, 0x00, 0x00, 0x00, 0x03, 0x00, 0x00, 0x00, 0x05, 0x00, 0x00, 0x00, 
  0x03, 0x00, 0x00, 0x00, 0xff, 0xff, 0xff, 0xff, 0xca, 0xff, 0xff, 0xff, 
  0x10, 0x00, 0x00, 0x00, 0x00, 0x00, 0x00, 0x08, 0x10, 0x00, 0x00, 0x00, 
  0x14, 0x00, 0x00, 0x00, 0xba, 0xff, 0xff, 0xff, 0x00, 0x00, 0x00, 0x01, 
  0x01, 0x00, 0x00, 0x00, 0x05, 0x00, 0x00, 0x00, 0x03, 0x00, 0x00, 0x00, 
  0x04, 0x00, 0x00, 0x00, 0x02, 0x00, 0x00, 0x00, 0xff, 0xff, 0xff, 0xff, 
  0x00, 0x00, 0x0e, 0x00, 0x16, 0x00, 0x00, 0x00, 0x10, 0x00, 0x0c, 0x00, 
  0x0b, 0x00, 0x04, 0x00, 0x0e, 0x00, 0x00, 0x00, 0x18, 0x00, 0x00, 0x00, 
  0x00, 0x00, 0x00, 0x08, 0x18, 0x00, 0x00, 0x00, 0x1c, 0x00, 0x00, 0x00, 
  0x00, 0x00, 0x06, 0x00, 0x08, 0x00, 0x07, 0x00, 0x06, 0x00, 0x00, 0x00, 
  0x00, 0x00, 0x00, 0x01, 0x01, 0x00, 0x00, 0x00, 0x04, 0x00, 0x00, 0x00, 
  0x03, 0x00, 0x00, 0x00, 0x00, 0x00, 0x00, 0x00, 0x01, 0x00, 0x00, 0x00, 
  0xff, 0xff, 0xff, 0xff, 0x01, 0x00, 0x00, 0x00, 0x07, 0x00, 0x00, 0x00, 
  0x01, 0x00, 0x00, 0x00, 0x00, 0x00, 0x00, 0x00, 0x08, 0x00, 0x00, 0x00, 
  0x1c, 0x03, 0x00, 0x00, 0xb4, 0x02, 0x00, 0x00, 0x50, 0x02, 0x00, 0x00, 
  0x04, 0x02, 0x00, 0x00, 0x70, 0x01, 0x00, 0x00, 0xdc, 0x00, 0x00, 0x00, 
  0x60, 0x00, 0x00, 0x00, 0x04, 0x00, 0x00, 0x00, 0x1a, 0xfd, 0xff, 0xff, 
  0x00, 0x00, 0x00, 0x01, 0x14, 0x00, 0x00, 0x00, 0x1c, 0x00, 0x00, 0x00, 
  0x1c, 0x00, 0x00, 0x00, 0x08, 0x00, 0x00, 0x00, 0x34, 0x00, 0x00, 0x00, 
  0x02, 0x00, 0x00, 0x00, 0xff, 0xff, 0xff, 0xff, 0x04, 0x00, 0x00, 0x00, 
  0x04, 0xfd, 0xff, 0xff, 0x19, 0x00, 0x00, 0x00, 0x53, 0x74, 0x61, 0x74, 
  0x65, 0x66, 0x75, 0x6c, 0x50, 0x61, 0x72, 0x74, 0x69, 0x74, 0x69, 0x6f, 
  0x6e, 0x65, 0x64, 0x43, 0x61, 0x6c, 0x6c, 0x3a, 0x30, 0x00, 0x00, 0x00, 
  0x02, 0x00, 0x00, 0x00, 0x01, 0x00, 0x00, 0x00, 0x04, 0x00, 0x00, 0x00, 
  0x72, 0xfd, 0xff, 0xff, 0x00, 0x00, 0x00, 0x01, 0x14, 0x00, 0x00, 0x00, 
  0x1c, 0x00, 0x00, 0x00, 0x1c, 0x00, 0x00, 0x00, 0x07, 0x00, 0x00, 0x00, 
  0x54, 0x00, 0x00, 0x00, 0x02, 0x00, 0x00, 0x00, 0xff, 0xff, 0xff, 0xff, 
  0x04, 0x00, 0x00, 0x00, 0x5c, 0xfd, 0xff, 0xff, 0x38, 0x00, 0x00, 0x00, 
  0x65, 0x73, 0x70, 0x33, 0x32, 0x5f, 0x61, 0x63, 0x74, 0x6f, 0x72, 0x2f, 
  0x64, 0x65, 0x6e, 0x73, 0x65, 0x5f, 0x36, 0x35, 0x2f, 0x4d, 0x61, 0x74, 
  0x4d, 0x75, 0x6c, 0x3b, 0x65, 0x73, 0x70, 0x33, 0x32, 0x5f, 0x61, 0x63, 
  0x74, 0x6f, 0x72, 0x2f, 0x64, 0x65, 0x6e, 0x73, 0x65, 0x5f, 0x36, 0x35, 
  0x2f, 0x42, 0x69, 0x61, 0x73, 0x41, 0x64, 0x64, 0x00, 0x00, 0x00, 0x00, 
  0x02, 0x00, 0x00, 0x00, 0x01, 0x00, 0x00, 0x00, 0x04, 0x00, 0x00, 0x00, 
  0xea, 0xfd, 0xff, 0xff, 0x00, 0x00, 0x00, 0x01, 0x14, 0x00, 0x00, 0x00, 
  0x1c, 0x00, 0x00, 0x00, 0x1c, 0x00, 0x00, 0x00, 0x06, 0x00, 0x00, 0x00, 
  0x6c, 0x00, 0x00, 0x00, 0x02, 0x00, 0x00, 0x00, 0xff, 0xff, 0xff, 0xff, 
  0x20, 0x00, 0x00, 0x00, 0xd4, 0xfd, 0xff, 0xff, 0x52, 0x00, 0x00, 0x00, 
  0x65, 0x73, 0x70, 0x33, 0x32, 0x5f, 0x61, 0x63, 0x74, 0x6f, 0x72, 0x2f, 
  0x64, 0x65, 0x6e, 0x73, 0x65, 0x5f, 0x36, 0x34, 0x2f, 0x4d, 0x61, 0x74, 
  0x4d, 0x75, 0x6c, 0x3b, 0x65, 0x73, 0x70, 0x33, 0x32, 0x5f, 0x61, 0x63, 
  0x74, 0x6f, 0x72, 0x2f, 0x64, 0x65, 0x6e, 0x73, 0x65, 0x5f, 0x36, 0x34, 
  0x2f, 0x52, 0x65, 0x6c, 0x75, 0x3b, 0x65, 0x73, 0x70, 0x33, 0x32, 0x5f, 
  0x61, 0x63, 0x74, 0x6f, 0x72, 0x2f, 0x64, 0x65, 0x6e, 0x73, 0x65, 0x5f, 
  0x36, 0x34, 0x2f, 0x42, 0x69, 0x61, 0x73, 0x41, 0x64, 0x64, 0x00, 0x00, 
  0x02, 0x00, 0x00, 0x00, 0x01, 0x00, 0x00, 0x00, 0x20, 0x00, 0x00, 0x00, 
  0x7a, 0xfe, 0xff, 0xff, 0x00, 0x00, 0x00, 0x01, 0x14, 0x00, 0x00, 0x00, 
  0x1c, 0x00, 0x00, 0x00, 0x1c, 0x00, 0x00, 0x00, 0x05, 0x00, 0x00, 0x00, 
  0x6c, 0x00, 0x00, 0x00, 0x02, 0x00, 0x00, 0x00, 0xff, 0xff, 0xff, 0xff, 
  0x20, 0x00, 0x00, 0x00, 0x64, 0xfe, 0xff, 0xff, 0x52, 0x00, 0x00, 0x00, 
  0x65, 0x73, 0x70, 0x33, 0x32, 0x5f, 0x61, 0x63, 0x74, 0x6f, 0x72, 0x2f, 
  0x64, 0x65, 0x6e, 0x73, 0x65, 0x5f, 0x36, 0x33, 0x2f, 0x4d, 0x61, 0x74, 
  0x4d, 0x75, 0x6c, 0x3b, 0x65, 0x73, 0x70, 0x33, 0x32, 0x5f, 0x61, 0x63, 
  0x74, 0x6f, 0x72, 0x2f, 0x64, 0x65, 0x6e, 0x73, 0x65, 0x5f, 0x36, 0x33, 
  0x2f, 0x52, 0x65, 0x6c, 0x75, 0x3b, 0x65, 0x73, 0x70, 0x33, 0x32, 0x5f, 
  0x61, 0x63, 0x74, 0x6f, 0x72, 0x2f, 0x64, 0x65, 0x6e, 0x73, 0x65, 0x5f, 
  0x36, 0x33, 0x2f, 0x42, 0x69, 0x61, 0x73, 0x41, 0x64, 0x64, 0x00, 0x00, 
  0x02, 0x00, 0x00, 0x00, 0x01, 0x00, 0x00, 0x00, 0x20, 0x00, 0x00, 0x00, 
  0x6e, 0xff, 0xff, 0xff, 0x00, 0x00, 0x00, 0x01, 0x10, 0x00, 0x00, 0x00, 
  0x10, 0x00, 0x00, 0x00, 0x04, 0x00, 0x00, 0x00, 0x28, 0x00, 0x00, 0x00, 
  0xe4, 0xfe, 0xff, 0xff, 0x1b, 0x00, 0x00, 0x00, 0x65, 0x73, 0x70, 0x33, 
  0x32, 0x5f, 0x61, 0x63, 0x74, 0x6f, 0x72, 0x2f, 0x64, 0x65, 0x6e, 0x73, 
  0x65, 0x5f, 0x36, 0x35, 0x2f, 0x4d, 0x61, 0x74, 0x4d, 0x75, 0x6c, 0x00, 
  0x02, 0x00, 0x00, 0x00, 0x04, 0x00, 0x00, 0x00, 0x20, 0x00, 0x00, 0x00, 
  0xb6, 0xff, 0xff, 0xff, 0x00, 0x00, 0x00, 0x01, 0x10, 0x00, 0x00, 0x00, 
  0x10, 0x00, 0x00, 0x00, 0x03, 0x00, 0x00, 0x00, 0x28, 0x00, 0x00, 0x00, 
  0x2c, 0xff, 0xff, 0xff, 0x1b, 0x00, 0x00, 0x00, 0x65, 0x73, 0x70, 0x33, 
  0x32, 0x5f, 0x61, 0x63, 0x74, 0x6f, 0x72, 0x2f, 0x64, 0x65, 0x6e, 0x73, 
  0x65, 0x5f, 0x36, 0x34, 0x2f, 0x4d, 0x61, 0x74, 0x4d, 0x75, 0x6c, 0x00, 
  0x02, 0x00, 0x00, 0x00, 0x20, 0x00, 0x00, 0x00, 0x20, 0x00, 0x00, 0x00, 
  0x00, 0x00, 0x16, 0x00, 0x18, 0x00, 0x14, 0x00, 0x00, 0x00, 0x10, 0x00, 
  0x0c, 0x00, 0x08, 0x00, 0x00, 0x00, 0x00, 0x00, 0x00, 0x00, 0x07, 0x00, 
  0x16, 0x00, 0x00, 0x00, 0x00, 0x00, 0x00, 0x01, 0x10, 0x00, 0x00, 0x00, 
  0x10, 0x00, 0x00, 0x00, 0x02, 0x00, 0x00, 0x00, 0x2c, 0x00, 0x00, 0x00, 
  0x8c, 0xff, 0xff, 0xff, 0x1c, 0x00, 0x00, 0x00, 0x65, 0x73, 0x70, 0x33, 
  0x32, 0x5f, 0x61, 0x63, 0x74, 0x6f, 0x72, 0x2f, 0x64, 0x65, 0x6e, 0x73, 
  0x65, 0x5f, 0x36, 0x33, 0x2f, 0x4d, 0x61, 0x74, 0x4d, 0x75, 0x6c, 0x31, 
  0x00, 0x00, 0x00, 0x00, 0x02, 0x00, 0x00, 0x00, 0x20, 0x00, 0x00, 0x00, 
  0x05, 0x00, 0x00, 0x00, 0x00, 0x00, 0x16, 0x00, 0x1c, 0x00, 0x18, 0x00, 
  0x00, 0x00, 0x14, 0x00, 0x10, 0x00, 0x0c, 0x00, 0x00, 0x00, 0x00, 0x00, 
  0x08, 0x00, 0x07, 0x00, 0x16, 0x00, 0x00, 0x00, 0x00, 0x00, 0x00, 0x01, 
  0x14, 0x00, 0x00, 0x00, 0x20, 0x00, 0x00, 0x00, 0x20, 0x00, 0x00, 0x00, 
  0x01, 0x00, 0x00, 0x00, 0x40, 0x00, 0x00, 0x00, 0x02, 0x00, 0x00, 0x00, 
  0xff, 0xff, 0xff, 0xff, 0x05, 0x00, 0x00, 0x00, 0x04, 0x00, 0x04, 0x00, 
  0x04, 0x00, 0x00, 0x00, 0x20, 0x00, 0x00, 0x00, 0x73, 0x65, 0x72, 0x76, 
  0x69, 0x6e, 0x67, 0x5f, 0x64, 0x65, 0x66, 0x61, 0x75, 0x6c, 0x74, 0x5f, 
  0x64, 0x65, 0x6e, 0x73, 0x65, 0x5f, 0x36, 0x33, 0x5f, 0x69, 0x6e, 0x70, 
  0x75, 0x74, 0x3a, 0x30, 0x00, 0x00, 0x00, 0x00, 0x02, 0x00, 0x00, 0x00, 
  0x01, 0x00, 0x00, 0x00, 0x05, 0x00, 0x00, 0x00, 0x02, 0x00, 0x00, 0x00, 
  0x20, 0x00, 0x00, 0x00, 0x04, 0x00, 0x00, 0x00, 0xf4, 0xff, 0xff, 0xff, 
  0x1c, 0x00, 0x00, 0x00, 0x00, 0x00, 0x00, 0x1c, 0x0c, 0x00, 0x0c, 0x00, 
  0x0b, 0x00, 0x00, 0x00, 0x00, 0x00, 0x04, 0x00, 0x0c, 0x00, 0x00, 0x00, 
  0x09, 0x00, 0x00, 0x00, 0x00, 0x00, 0x00, 0x09, 
};

const unsigned int actor_model_len = 7040;
