#include "actor_task0.h"

const uint8_t actor_model[] = {

  0x1c, 0x00, 0x00, 0x00, 0x54, 0x46, 0x4c, 0x33, 0x14, 0x00, 0x20, 0x00, 
  0x1c, 0x00, 0x18, 0x00, 0x14, 0x00, 0x10, 0x00, 0x0c, 0x00, 0x00, 0x00, 
  0x08, 0x00, 0x04, 0x00, 0x14, 0x00, 0x00, 0x00, 0x1c, 0x00, 0x00, 0x00, 
  0x8c, 0x00, 0x00, 0x00, 0xe4, 0x00, 0x00, 0x00, 0x50, 0x16, 0x00, 0x00, 
  0x60, 0x16, 0x00, 0x00, 0x1c, 0x1b, 0x00, 0x00, 0x03, 0x00, 0x00, 0x00, 
  0x01, 0x00, 0x00, 0x00, 0x04, 0x00, 0x00, 0x00, 0x62, 0xe9, 0xff, 0xff, 
  0x0c, 0x00, 0x00, 0x00, 0x1c, 0x00, 0x00, 0x00, 0x3c, 0x00, 0x00, 0x00, 
  0x0f, 0x00, 0x00, 0x00, 0x73, 0x65, 0x72, 0x76, 0x69, 0x6e, 0x67, 0x5f, 
  0x64, 0x65, 0x66, 0x61, 0x75, 0x6c, 0x74, 0x00, 0x01, 0x00, 0x00, 0x00, 
  0x04, 0x00, 0x00, 0x00, 0x90, 0xff, 0xff, 0xff, 0x07, 0x00, 0x00, 0x00, 
  0x04, 0x00, 0x00, 0x00, 0x08, 0x00, 0x00, 0x00, 0x64, 0x65, 0x6e, 0x73, 
  0x65, 0x5f, 0x36, 0x35, 0x00, 0x00, 0x00, 0x00, 0x01, 0x00, 0x00, 0x00, 
  0x04, 0x00, 0x00, 0x00, 0xb2, 0xec, 0xff, 0xff, 0x04, 0x00, 0x00, 0x00, 
  0x0e, 0x00, 0x00, 0x00, 0x64, 0x65, 0x6e, 0x73, 0x65, 0x5f, 0x36, 0x33, 
  0x5f, 0x69, 0x6e, 0x70, 0x75, 0x74, 0x00, 0x00, 0x02, 0x00, 0x00, 0x00, 
  0x34, 0x00, 0x00, 0x00, 0x04, 0x00, 0x00, 0x00, 0xdc, 0xff, 0xff, 0xff, 
  0x0a, 0x00, 0x00, 0x00, 0x04, 0x00, 0x00, 0x00, 0x13, 0x00, 0x00, 0x00, 
  0x43, 0x4f, 0x4e, 0x56, 0x45, 0x52, 0x53, 0x49, 0x4f, 0x4e, 0x5f, 0x4d, 
  0x45, 0x54, 0x41, 0x44, 0x41, 0x54, 0x41, 0x00, 0x08, 0x00, 0x0c, 0x00, 
  0x08, 0x00, 0x04, 0x00, 0x08, 0x00, 0x00, 0x00, 0x09, 0x00, 0x00, 0x00, 
  0x04, 0x00, 0x00, 0x00, 0x13, 0x00, 0x00, 0x00, 0x6d, 0x69, 0x6e, 0x5f, 
  0x72, 0x75, 0x6e, 0x74, 0x69, 0x6d, 0x65, 0x5f, 0x76, 0x65, 0x72, 0x73, 
  0x69, 0x6f, 0x6e, 0x00, 0x0b, 0x00, 0x00, 0x00, 0x68, 0x15, 0x00, 0x00, 
  0x60, 0x15, 0x00, 0x00, 0xd0, 0x12, 0x00, 0x00, 0xb8, 0x02, 0x00, 0x00, 
  0xa8, 0x00, 0x00, 0x00, 0xa0, 0x00, 0x00, 0x00, 0x98, 0x00, 0x00, 0x00, 
  0x90, 0x00, 0x00, 0x00, 0x88, 0x00, 0x00, 0x00, 0x68, 0x00, 0x00, 0x00, 
  0x04, 0x00, 0x00, 0x00, 0x5a, 0xed, 0xff, 0xff, 0x04, 0x00, 0x00, 0x00, 
  0x54, 0x00, 0x00, 0x00, 0x0c, 0x00, 0x00, 0x00, 0x08, 0x00, 0x0e, 0x00, 
  0x08, 0x00, 0x04, 0x00, 0x08, 0x00, 0x00, 0x00, 0x10, 0x00, 0x00, 0x00, 
  0x24, 0x00, 0x00, 0x00, 0x00, 0x00, 0x06, 0x00, 0x08, 0x00, 0x04, 0x00, 
  0x06, 0x00, 0x00, 0x00, 0x04, 0x00, 0x00, 0x00, 0x00, 0x00, 0x00, 0x00, 
  0x00, 0x00, 0x0a, 0x00, 0x10, 0x00, 0x0c, 0x00, 0x08, 0x00, 0x04, 0x00, 
  0x0a, 0x00, 0x00, 0x00, 0x02, 0x00, 0x00, 0x00, 0x02, 0x00, 0x00, 0x00, 
  0x04, 0x00, 0x00, 0x00, 0x06, 0x00, 0x00, 0x00, 0x32, 0x2e, 0x31, 0x33, 
  0x2e, 0x30, 0x00, 0x00, 0xba, 0xed, 0xff, 0xff, 0x04, 0x00, 0x00, 0x00, 
  0x10, 0x00, 0x00, 0x00, 0x31, 0x2e, 0x31, 0x34, 0x2e, 0x30, 0x00, 0x00, 
  0x00, 0x00, 0x00, 0x00, 0x00, 0x00, 0x00, 0x00, 0xa4, 0xe6, 0xff, 0xff, 
  0xa8, 0xe6, 0xff, 0xff, 0xac, 0xe6, 0xff, 0xff, 0xb0, 0xe6, 0xff, 0xff, 
  0xe6, 0xed, 0xff, 0xff, 0x04, 0x00, 0x00, 0x00, 0x00, 0x02, 0x00, 0x00, 
  0x7c, 0xc9, 0x80, 0xbe, 0x28, 0xea, 0xf6, 0xbd, 0x08, 0xad, 0x18, 0xbe, 
  0xb0, 0x87, 0x89, 0x3d, 0x7a, 0x21, 0xc0, 0xbe, 0xec, 0x3d, 0xc5, 0xbe, 
  0x6a, 0x60, 0x9d, 0x3e, 0x58, 0xbc, 0x4b, 0x3e, 0xc0, 0x66, 0x01, 0x3e, 
  0x1a, 0x27, 0x8e, 0x3e, 0xe8, 0xf9, 0xfa, 0x3d, 0x80, 0x37, 0x2c, 0xbe, 
  0x40, 0x0c, 0x09, 0x3d, 0xaa, 0x5d, 0x94, 0xbe, 0xd6, 0xb9, 0xa2, 0xbe, 
  0x18, 0xb0, 0x68, 0x3e, 0xf4, 0x30, 0x8e, 0x3d, 0x67, 0x19, 0x43, 0xbe, 
  0x00, 0x77, 0x5b, 0x3b, 0xe8, 0x5d, 0x78, 0xbd, 0x40, 0x13, 0x6f, 0xbd, 
  0x2c, 0x51, 0x86, 0xbe, 0xc0, 0x6a, 0x6e, 0x3e, 0xc0, 0xfd, 0x5b, 0x3d, 
  0x68, 0xb4, 0x92, 0xbe, 0x15, 0xbf, 0x93, 0xbe, 0x50, 0xe9, 0x80, 0xbe, 
  0x2f, 0x1a, 0x35, 0xbe, 0x50, 0xc2, 0x62, 0x3e, 0x54, 0x12, 0x4f, 0x3e, 
  0x10, 0xfc, 0xfd, 0x3c, 0x50, 0x8a, 0xb5, 0xbe, 0x21, 0xb8, 0xb8, 0xbe, 
  0xc8, 0x5a, 0x5e, 0xbd, 0xa0, 0xf3, 0x8d, 0xbc, 0xb4, 0x51, 0x1d, 0x3e, 
  0xac, 0x3f, 0x60, 0xbe, 0x26, 0x0a, 0x86, 0x3e, 0xe0, 0x60, 0x2a, 0x3c, 
  0x20, 0x9e, 0xdb, 0x3d, 0x58, 0x5e, 0x53, 0xbd, 0x70, 0x1e, 0x86, 0xbe, 
  0x48, 0x46, 0x39, 0x3e, 0x74, 0xd8, 0x9c, 0x3d, 0xa8, 0x1a, 0x8c, 0xbe, 
  0x4c, 0x25, 0xbe, 0xbe, 0x54, 0x96, 0xb1, 0xbd, 0xae, 0x62, 0x89, 0xbe, 
  0x50, 0x72, 0xe6, 0xbc, 0xb6, 0xc3, 0xa6, 0xbe, 0x5c, 0xc1, 0xb1, 0x3e, 
  0x20, 0x4a, 0xaa, 0x3d, 0x30, 0x68, 0x61, 0x3e, 0x50, 0xf8, 0x34, 0x3d, 
  0xd0, 0xa0, 0x24, 0xbd, 0x90, 0xff, 0x27, 0x3e, 0x14, 0x28, 0xcc, 0x3e, 
  0xd0, 0x67, 0x4d, 0xbd, 0xb4, 0x1a, 0xa8, 0x3e, 0x34, 0xc9, 0xae, 0x3e, 
  0xa4, 0x46, 0xbb, 0xbd, 0x80, 0xc6, 0x63, 0x3d, 0xe0, 0x95, 0xb3, 0xbe, 
  0xc4, 0xba, 0x95, 0xbe, 0xf0, 0x5b, 0xa3, 0xbc, 0xe0, 0x0b, 0x74, 0xbd, 
  0x74, 0xdc, 0xce, 0xbe, 0xf0, 0x05, 0x1a, 0xbd, 0xf0, 0xdd, 0xeb, 0x3c, 
  0x0c, 0x64, 0xcd, 0x3e, 0xd0, 0x60, 0xc8, 0x3d, 0xaf, 0xef, 0x4c, 0xbe, 
  0x9e, 0x7b, 0x6f, 0xbe, 0xd8, 0x51, 0x16, 0x3e, 0xa0, 0x49, 0x8c, 0x3c, 
  0x78, 0x1a, 0xf0, 0x3d, 0xa4, 0x98, 0x6a, 0x3e, 0x0c, 0x1e, 0x8f, 0x3d, 
  0x73, 0x79, 0x6f, 0xbe, 0x9e, 0x68, 0x3e, 0xbe, 0x3c, 0x7f, 0x9f, 0x3e, 
  0x03, 0x14, 0x62, 0xbe, 0x28, 0x9f, 0xc8, 0x3d, 0xe8, 0xc2, 0xc4, 0xbd, 
  0xd8, 0x14, 0x9c, 0x3d, 0xc3, 0x13, 0x69, 0xbe, 0x30, 0x79, 0xee, 0x3d, 
  0xde, 0x15, 0x84, 0x3e, 0x3d, 0x5b, 0x94, 0xbe, 0x2c, 0x25, 0x8f, 0x3e, 
  0x27, 0xfa, 0x40, 0xbe, 0xac, 0x4b, 0x3a, 0x3e, 0x80, 0x41, 0x7e, 0xbc, 
  0x7c, 0x0a, 0xb8, 0x3e, 0xa8, 0x54, 0x6c, 0x3d, 0x12, 0xee, 0x8b, 0x3e, 
  0x24, 0xfc, 0x01, 0x3e, 0xb3, 0xa2, 0x56, 0xbe, 0x7c, 0x03, 0x8e, 0x3e, 
  0xb4, 0xa8, 0x53, 0x3e, 0x80, 0xa0, 0x4f, 0xbb, 0x3e, 0xd9, 0xba, 0x3e, 
  0x98, 0xb0, 0xfd, 0x3d, 0x98, 0x9c, 0x23, 0x3e, 0x13, 0x87, 0xb8, 0xbe, 
  0x7c, 0xf9, 0x9b, 0xbd, 0x8a, 0x10, 0x90, 0xbe, 0x44, 0x3c, 0xc3, 0xbd, 
  0x40, 0xea, 0xc8, 0x3d, 0xc8, 0xf5, 0xbf, 0xbe, 0x60, 0x33, 0x3e, 0x3c, 
  0x89, 0x14, 0xaa, 0xbe, 0xf4, 0xfb, 0x7d, 0x3e, 0x20, 0xf4, 0x58, 0x3c, 
  0xc8, 0x20, 0x4b, 0x3e, 0xe3, 0xaf, 0x3d, 0xbe, 0x23, 0xb9, 0x6e, 0xbe, 
  0x9a, 0xee, 0xa2, 0xbe, 0xf2, 0x7b, 0x04, 0xbe, 0x10, 0x3a, 0x8b, 0x3d, 
  0x30, 0x27, 0x99, 0x3e, 0xf4, 0x8b, 0xac, 0x3d, 0xa0, 0xe7, 0xc7, 0x3e, 
  0x4e, 0x28, 0x87, 0x3e, 0xc0, 0xf8, 0x66, 0x3d, 0x34, 0x28, 0x8c, 0xbe, 
  0x5c, 0x3a, 0x7d, 0x3e, 0xee, 0xbb, 0x8a, 0xbe, 0xf2, 0xef, 0xff, 0xff, 
  0x04, 0x00, 0x00, 0x00, 0x00, 0x10, 0x00, 0x00, 0xce, 0x45, 0xa1, 0xbd, 
  0x02, 0x38, 0x70, 0x3e, 0x38, 0xad, 0x50, 0xbd, 0x4f, 0x83, 0x30, 0xbe, 
  0xb0, 0x0f, 0x94, 0xbc, 0xcc, 0xa0, 0x95, 0xbe, 0xc6, 0xf8, 0x55, 0x3e, 
  0x93, 0xa3, 0x1b, 0xbe, 0x0e, 0x17, 0x84, 0xbd, 0xb0, 0xfc, 0x1a, 0x3d, 
  0xda, 0xe2, 0x65, 0x3e, 0x64, 0xc5, 0x86, 0xbe, 0xdd, 0xbf, 0x99, 0x3e, 
  0x76, 0xef, 0x83, 0xbe, 0x7c, 0xdc, 0x7d, 0xbd, 0x52, 0x0e, 0x61, 0x3e, 
  0xdc, 0x06, 0x0d, 0x3e, 0xc2, 0x50, 0x14, 0x3e, 0xf7, 0x5c, 0x90, 0x3e, 
  0x59, 0xef, 0x3b, 0xbe, 0xde, 0xd3, 0x7c, 0xbe, 0xa0, 0x40, 0x82, 0x3c, 
  0x82, 0x42, 0x5c, 0xbe, 0xd0, 0x37, 0x9b, 0x3d, 0x2a, 0x31, 0x70, 0x3e, 
  0x04, 0xf2, 0xd1, 0xbd, 0xb3, 0xa6, 0x92, 0x3e, 0x13, 0xfa, 0x93, 0x3e, 
  0x10, 0xb7, 0xbf, 0x3c, 0xd8, 0x33, 0x22, 0xbd, 0x0b, 0x1a, 0x0c, 0xbe, 
  0x7e, 0xea, 0x2c, 0x3e, 0xd6, 0xf1, 0x07, 0xbe, 0x60, 0xdc, 0x2b, 0x3e, 
  0xc0, 0xb2, 0x3d, 0x3d, 0xc3, 0x97, 0x8e, 0x3e, 0xe0, 0x35, 0x6c, 0x3d, 
  0x5a, 0x8e, 0x46, 0x3e, 0x4b, 0x8a, 0x94, 0xbe, 0x8a, 0xbf, 0x8f, 0xbe, 
  0x10, 0x0e, 0x08, 0xbd, 0xe4, 0x72, 0x02, 0x3e, 0x68, 0x57, 0x33, 0x3d, 
  0x72, 0x45, 0x7f, 0x3e, 0xde, 0x68, 0x46, 0xbe, 0x80, 0xdc, 0xd8, 0xbd, 
  0xa2, 0x99, 0x81, 0xbe, 0x04, 0x43, 0xfd, 0x3d, 0x32, 0xa5, 0x45, 0xbe, 
  0x1c, 0x91, 0x27, 0x3e, 0x08, 0x0f, 0x3c, 0xbd, 0x56, 0xad, 0xe6, 0xbd, 
  0x06, 0x82, 0xc1, 0xbd, 0xf8, 0x38, 0x46, 0xbe, 0x10, 0xd5, 0xb5, 0xbc, 
  0x10, 0x57, 0xb7, 0x3d, 0x90, 0x76, 0xd5, 0x3c, 0x46, 0xb7, 0x67, 0x3e, 
  0xe2, 0x87, 0x80, 0xbe, 0x72, 0x7d, 0x4c, 0xbe, 0x00, 0xc6, 0x34, 0x3b, 
  0x5c, 0x8f, 0x90, 0xbe, 0xb7, 0x13, 0x98, 0xbe, 0x44, 0xed, 0x13, 0xbe, 
  0x32, 0x56, 0x37, 0x3e, 0x10, 0xe6, 0xb1, 0xbd, 0xcf, 0xa5, 0x8d, 0x3e, 
  0x90, 0xad, 0xa1, 0xbd, 0x47, 0x68, 0x76, 0xbe, 0x8d, 0x22, 0x0d, 0xbe, 
  0xe8, 0xc8, 0xb2, 0xbd, 0x73, 0xad, 0x89, 0x3e, 0x0c, 0x27, 0x69, 0xbe, 
  0xa4, 0x69, 0x37, 0xbe, 0x68, 0x42, 0x1c, 0xbe, 0x9e, 0x31, 0xd5, 0xbd, 
  0x38, 0x24, 0x34, 0x3e, 0xca, 0x5d, 0x1c, 0x3e, 0xbc, 0xdd, 0xd5, 0x3d, 
  0x15, 0xce, 0x2b, 0xbe, 0x8d, 0x75, 0x80, 0xbe, 0x30, 0x37, 0x95, 0x3d, 
  0x2c, 0xed, 0xf9, 0xbd, 0x40, 0xa3, 0x6a, 0xbc, 0x40, 0x64, 0x43, 0x3e, 
  0x98, 0xff, 0x58, 0xbd, 0x08, 0x00, 0x66, 0xbe, 0x30, 0x03, 0xd9, 0xbc, 
  0x38, 0x74, 0x32, 0xbd, 0xe0, 0xb5, 0x3a, 0xbc, 0x26, 0x87, 0x5a, 0x3e, 
  0xec, 0xb5, 0x96, 0x3d, 0x2f, 0x91, 0x84, 0xbe, 0xa8, 0x8b, 0x72, 0xbe, 
  0xbd, 0x9a, 0x93, 0xbe, 0x36, 0x02, 0xe6, 0xbd, 0xa3, 0x81, 0x83, 0x3e, 
  0x06, 0x51, 0x18, 0x3e, 0xa8, 0xff, 0xda, 0x3d, 0x58, 0xc5, 0x60, 0x3d, 
  0x35, 0xf9, 0x90, 0x3e, 0xca, 0xe0, 0x4f, 0x3e, 0x63, 0x47, 0x87, 0x3e, 
  0x9c, 0x08, 0x2d, 0x3e, 0xe8, 0x91, 0x63, 0x3d, 0xe0, 0x78, 0x1b, 0xbc, 
  0x90, 0x59, 0xad, 0xbc, 0x6e, 0x0a, 0x48, 0x3e, 0x18, 0x84, 0x3e, 0xbd, 
  0xcd, 0xd0, 0x90, 0xbe, 0x58, 0xb7, 0x38, 0x3e, 0xc8, 0x39, 0xd6, 0x3d, 
  0x14, 0xb6, 0xf3, 0x3d, 0xe4, 0x97, 0x65, 0xbe, 0x50, 0x6a, 0x8d, 0xbd, 
  0x00, 0x73, 0x29, 0x3b, 0x46, 0xde, 0x76, 0x3e, 0x3e, 0x01, 0x57, 0xbe, 
  0xbd, 0x1f, 0x11, 0xbe, 0x2a, 0x91, 0x51, 0x3e, 0xb4, 0x11, 0x5d, 0xbe, 
  0x0a, 0x8d, 0x78, 0x3e, 0xaa, 0xef, 0x4f, 0xbe, 0x26, 0x37, 0x59, 0x3e, 
  0x26, 0x22, 0x30, 0x3e, 0xfe, 0x6f, 0x4c, 0xbe, 0x86, 0xfc, 0x3e, 0x3e, 
  0x88, 0x6b, 0xe1, 0xbd, 0x4f, 0x73, 0x93, 0xbe, 0x24, 0x43, 0x68, 0xbd, 
  0x1a, 0x69, 0x80, 0xbe, 0xc0, 0x5e, 0x12, 0xbc, 0xe6, 0x74, 0x6b, 0x3e, 
  0xc9, 0xa3, 0x38, 0xbe, 0x34, 0x4a, 0x11, 0x3e, 0x9e, 0x7b, 0x53, 0xbe, 
  0xae, 0xf9, 0x94, 0xbd, 0x02, 0x43, 0x75, 0x3e, 0xe6, 0x61, 0x85, 0xbe, 
  0x98, 0x7c, 0xff, 0xbd, 0xe2, 0x23, 0x01, 0x3e, 0x00, 0x4b, 0xa1, 0x3a, 
  0xe8, 0x91, 0x9a, 0x3d, 0xee, 0x37, 0x19, 0xbe, 0x26, 0x83, 0x18, 0x3e, 
  0x98, 0x07, 0x38, 0x3e, 0x80, 0x84, 0x2d, 0x3d, 0xb1, 0x5d, 0x90, 0xbe, 
  0xd4, 0x28, 0x28, 0xbe, 0x72, 0x86, 0x49, 0x3e, 0x05, 0x8d, 0x83, 0x3e, 
  0xda, 0x94, 0x5a, 0x3e, 0xe3, 0x93, 0x98, 0x3e, 0x73, 0xe5, 0x84, 0x3e, 
  0x80, 0x4e, 0x78, 0xbe, 0x30, 0x21, 0x3f, 0x3e, 0xab, 0xdd, 0x98, 0x3e, 
  0x7a, 0xe0, 0x6f, 0x3e, 0x00, 0xb3, 0x62, 0xbe, 0xb0, 0x5e, 0xeb, 0x3c, 
  0x6c, 0xa1, 0x85, 0xbe, 0x4e, 0x13, 0x5f, 0x3e, 0x00, 0xc7, 0xf0, 0xba, 
  0xf8, 0xc4, 0x2a, 0xbd, 0x34, 0x02, 0xc2, 0xbd, 0xff, 0x9f, 0x99, 0xbe, 
  0xb8, 0x9d, 0x41, 0xbd, 0x00, 0x81, 0x20, 0x3c, 0x00, 0xb7, 0x1c, 0x3c, 
  0xa6, 0x37, 0x78, 0x3e, 0xd7, 0xd4, 0x2d, 0xbe, 0x60, 0x64, 0xd0, 0x3c, 
  0x20, 0x1f, 0xc8, 0x3d, 0xa0, 0xce, 0x55, 0xbd, 0x7e, 0xdc, 0x3e, 0x3e, 
  0x41, 0x38, 0x84, 0x3e, 0xcf, 0xc2, 0x6e, 0xbe, 0xa8, 0x65, 0x81, 0xbe, 
  0x38, 0x9b, 0x54, 0x3d, 0x0c, 0x01, 0x84, 0xbe, 0x38, 0x01, 0xea, 0x3d, 
  0xf2, 0x7c, 0x9c, 0xbe, 0x5f, 0x2a, 0x81, 0x3e, 0xe1, 0x6b, 0x99, 0x3e, 
  0xa0, 0x5d, 0x7c, 0xbc, 0xf8, 0x25, 0x8a, 0x3d, 0xf0, 0x14, 0x42, 0x3e, 
  0x58, 0xb7, 0x22, 0xbd, 0xd0, 0x58, 0x19, 0x3d, 0xc8, 0x07, 0x93, 0xbd, 
  0x96, 0x60, 0x47, 0x3e, 0x08, 0xc8, 0x70, 0xbe, 0xb5, 0x20, 0x81, 0xbe, 
  0x90, 0xbc, 0xc5, 0x3c, 0x95, 0xeb, 0x00, 0xbe, 0x46, 0xb9, 0x73, 0xbe, 
  0x30, 0x81, 0x64, 0xbd, 0xfc, 0x87, 0xa2, 0x3d, 0x90, 0x47, 0x8f, 0xbc, 
  0x8a, 0x7e, 0x8c, 0xbe, 0x17, 0xae, 0x9b, 0xbe, 0x1e, 0xf6, 0x94, 0xbd, 
  0x0e, 0xef, 0x61, 0x3e, 0xe6, 0xf9, 0x49, 0x3e, 0x5f, 0xb4, 0x93, 0x3e, 
  0xba, 0xa4, 0xf6, 0xbd, 0x78, 0x17, 0x47, 0xbd, 0x82, 0x43, 0x6b, 0x3e, 
  0xc0, 0x47, 0x4a, 0xbd, 0x56, 0x32, 0x73, 0x3e, 0x7a, 0x94, 0x9b, 0xbd, 
  0xa6, 0xa0, 0xd9, 0xbd, 0xec, 0x65, 0x74, 0xbe, 0x33, 0x66, 0x9b, 0x3e, 
  0x34, 0xf6, 0x99, 0xbe, 0xf7, 0x84, 0x7a, 0xbe, 0xed, 0xf0, 0x34, 0xbe, 
  0x40, 0x1f, 0x5d, 0xbe, 0xec, 0xa1, 0xe6, 0x3d, 0xf8, 0x29, 0xa0, 0x3d, 
  0x4a, 0x63, 0x93, 0xbd, 0x52, 0x03, 0x1b, 0x3e, 0xd8, 0x1e, 0xbc, 0x3d, 
  0xde, 0xec, 0x52, 0x3e, 0x22, 0xbb, 0x1f, 0x3e, 0x59, 0xe9, 0x96, 0x3e, 
  0xb0, 0x73, 0x17, 0xbd, 0xa0, 0x30, 0x7d, 0x3c, 0xee, 0xfd, 0xf1, 0xbd, 
  0x16, 0x1f, 0x52, 0x3e, 0x90, 0x59, 0x68, 0x3d, 0x47, 0xb9, 0x38, 0xbe, 
  0x2b, 0x18, 0x8c, 0x3e, 0xf7, 0xc5, 0x99, 0x3e, 0xee, 0xe7, 0x9a, 0xbe, 
  0x90, 0x73, 0xc9, 0xbd, 0x16, 0xac, 0x15, 0x3e, 0x44, 0x82, 0x82, 0xbe, 
  0x8a, 0x84, 0x92, 0xbe, 0xd0, 0x96, 0xe5, 0x3d, 0xae, 0x45, 0x50, 0xbe, 
  0x70, 0x25, 0xef, 0x3d, 0xbe, 0x4d, 0x6e, 0x3e, 0x36, 0x51, 0x47, 0x3e, 
  0x0a, 0xc6, 0x5b, 0x3e, 0xfc, 0xa3, 0x16, 0x3e, 0x05, 0x3f, 0x97, 0xbe, 
  0x1e, 0xc3, 0x67, 0x3e, 0x28, 0x3d, 0x73, 0x3d, 0x2e, 0x8b, 0xdd, 0xbd, 
  0x28, 0x30, 0x84, 0x3d, 0xac, 0x88, 0x8a, 0xbd, 0x88, 0x1d, 0x56, 0xbd, 
  0x00, 0xc5, 0x3e, 0x3c, 0xff, 0xbc, 0x81, 0x3e, 0xc4, 0x25, 0x82, 0x3d, 
  0x50, 0xf8, 0x99, 0xbd, 0x5a, 0xe1, 0x14, 0x3e, 0x90, 0xf2, 0xa0, 0xbc, 
  0xea, 0x55, 0x79, 0xbe, 0x5e, 0x82, 0x52, 0x3e, 0xbb, 0x2e, 0x80, 0x3e, 
  0xde, 0x3a, 0x4e, 0xbe, 0xac, 0x69, 0x18, 0x3e, 0xc2, 0x88, 0x43, 0xbe, 
  0x58, 0x3a, 0x25, 0xbe, 0xa9, 0x0e, 0x81, 0xbe, 0x94, 0xb8, 0xbb, 0xbd, 
  0x12, 0x90, 0x49, 0x3e, 0xeb, 0x7a, 0x16, 0xbe, 0x0c, 0x25, 0x6b, 0xbd, 
  0x85, 0xcb, 0x76, 0xbe, 0x40, 0xa3, 0xe5, 0xbb, 0x00, 0x09, 0x4b, 0xbc, 
  0x32, 0x0f, 0x59, 0xbe, 0x23, 0x7c, 0x94, 0x3e, 0xf8, 0xbc, 0x53, 0xbe, 
  0x10, 0x66, 0xb4, 0xbc, 0xa8, 0x8d, 0x0e, 0x3d, 0xd4, 0x8d, 0x9c, 0xbd, 
  0x14, 0x95, 0xf7, 0x3d, 0x08, 0x2e, 0xce, 0xbd, 0x3e, 0x07, 0x51, 0x3e, 
  0xc9, 0xbe, 0x17, 0xbe, 0x00, 0xc1, 0x37, 0x3d, 0xac, 0x0d, 0xe0, 0xbd, 
  0xf2, 0x21, 0x8e, 0xbe, 0xc8, 0x87, 0x40, 0x3d, 0x55, 0xc5, 0x87, 0xbe, 
  0x98, 0x63, 0x87, 0xbe, 0x30, 0x40, 0xc1, 0x3d, 0x47, 0xcb, 0x94, 0x3e, 
  0xed, 0x21, 0x21, 0xbe, 0xf2, 0x22, 0x2f, 0xbe, 0xac, 0xce, 0x59, 0xbe, 
  0x44, 0xcd, 0x2a, 0x3e, 0xcb, 0x12, 0x18, 0xbe, 0x10, 0xde, 0xdb, 0x3d, 
  0x02, 0x34, 0x64, 0x3e, 0x10, 0x91, 0x40, 0x3d, 0x10, 0x92, 0x41, 0xbe, 
  0x40, 0x05, 0x75, 0x3c, 0x15, 0x66, 0x95, 0x3e, 0x12, 0x04, 0x71, 0x3e, 
  0xdc, 0x08, 0xc6, 0x3d, 0xe8, 0x64, 0x06, 0x3d, 0x9f, 0xb0, 0x96, 0x3e, 
  0xa6, 0x1b, 0x55, 0xbe, 0x1e, 0x85, 0xe7, 0xbd, 0xbc, 0x6d, 0xaa, 0x3d, 
  0xf8, 0xda, 0x3e, 0x3d, 0x7e, 0xd8, 0x66, 0x3e, 0x94, 0x0b, 0x48, 0xbe, 
  0x16, 0x02, 0x6c, 0x3e, 0x0e, 0x4c, 0x33, 0x3e, 0x49, 0x55, 0x34, 0xbe, 
  0x60, 0xe9, 0x31, 0x3e, 0x4c, 0xed, 0x5b, 0xbe, 0x44, 0x28, 0xd0, 0x3d, 
  0x8e, 0xb2, 0x02, 0x3e, 0xff, 0x72, 0x85, 0xbe, 0xc2, 0xb4, 0xb8, 0xbd, 
  0xb3, 0xbb, 0x87, 0x3e, 0xdd, 0xc0, 0x86, 0x3e, 0xba, 0x4f, 0xdf, 0xbd, 
  0x6f, 0xb5, 0x91, 0xbe, 0x00, 0xb7, 0x9c, 0x3b, 0x94, 0xf3, 0xf7, 0x3d, 
  0xe9, 0x0a, 0x94, 0xbe, 0xa4, 0xdf, 0x3b, 0x3e, 0x00, 0xea, 0xd8, 0x3b, 
  0xca, 0x17, 0x6f, 0x3e, 0x4e, 0x50, 0xbd, 0xbd, 0xc6, 0x38, 0x70, 0x3e, 
  0x76, 0x1b, 0x33, 0x3e, 0x70, 0xe2, 0xfb, 0x3d, 0x8e, 0x34, 0x24, 0x3e, 
  0x10, 0x45, 0x8e, 0xbe, 0x07, 0xb2, 0x8f, 0xbe, 0xbd, 0x7f, 0x80, 0xbe, 
  0xee, 0x24, 0x8e, 0xbd, 0xb8, 0x84, 0xed, 0xbd, 0x20, 0x93, 0x32, 0xbd, 
  0xea, 0x80, 0x5a, 0x3e, 0x82, 0xd8, 0x77, 0x3e, 0xc8, 0x98, 0x71, 0xbd, 
  0x46, 0x1d, 0xac, 0xbd, 0xa8, 0x86, 0x12, 0xbd, 0x04, 0xb4, 0x0a, 0x3e, 
  0xfa, 0x68, 0x47, 0xbe, 0x6d, 0x19, 0x79, 0xbe, 0x60, 0x7a, 0xa6, 0xbc, 
  0x80, 0xda, 0x50, 0xbc, 0x55, 0xf3, 0x98, 0x3e, 0x87, 0xd5, 0x8e, 0x3e, 
  0x00, 0x2b, 0xd5, 0x3b, 0x73, 0xef, 0x89, 0x3e, 0x68, 0x4d, 0x72, 0xbe, 
  0xd2, 0x89, 0x3c, 0x3e, 0xfa, 0xf1, 0x77, 0x3e, 0x21, 0x6c, 0x90, 0x3e, 
  0x00, 0xd9, 0x8f, 0x3b, 0xce, 0xfc, 0x50, 0x3e, 0xa6, 0x01, 0x48, 0x3e, 
  0x4c, 0x62, 0x66, 0xbe, 0x78, 0x1c, 0xbc, 0x3d, 0x5e, 0x3c, 0x71, 0x3e, 
  0x37, 0xdb, 0x87, 0x3e, 0xbb, 0x9c, 0x8d, 0x3e, 0x5e, 0x43, 0x7b, 0x3e, 
  0xcc, 0xc6, 0xb5, 0x3d, 0xa2, 0x6c, 0x80, 0xbd, 0xe2, 0x97, 0x6e, 0xbe, 
  0x54, 0x5d, 0x8a, 0xbe, 0xe0, 0xd6, 0x89, 0xbc, 0x68, 0x04, 0x26, 0x3e, 
  0x00, 0x44, 0xb0, 0xbb, 0xe0, 0x52, 0xff, 0xbd, 0x80, 0xcf, 0x42, 0xbe, 
  0x90, 0x35, 0x54, 0xbd, 0xf8, 0x7d, 0x34, 0x3e, 0xf5, 0x7b, 0x82, 0x3e, 
  0x1a, 0x1c, 0x43, 0xbe, 0xe4, 0x90, 0x95, 0x3d, 0xf8, 0x8b, 0xcc, 0x3d, 
  0x00, 0x99, 0x45, 0xbc, 0x0a, 0x07, 0x62, 0x3e, 0x07, 0xa9, 0x96, 0xbe, 
  0x88, 0x16, 0x88, 0xbe, 0x5c, 0x05, 0x63, 0xbe, 0x50, 0xcb, 0xa2, 0xbc, 
  0xf3, 0x28, 0x8a, 0xbe, 0x70, 0xfc, 0x30, 0x3d, 0x84, 0x54, 0x13, 0xbe, 
  0xe0, 0x0e, 0x5d, 0x3d, 0x42, 0x2c, 0x02, 0xbe, 0xfa, 0x3e, 0x0a, 0xbe, 
  0xc0, 0x69, 0x33, 0xbc, 0x72, 0x72, 0x4c, 0x3e, 0x5a, 0x4f, 0x51, 0x3e, 
  0xcf, 0x04, 0x97, 0x3e, 0xc2, 0x4c, 0x98, 0xbe, 0x1f, 0x7a, 0x93, 0xbe, 
  0x40, 0x03, 0x9d, 0x3d, 0xaa, 0xc9, 0x76, 0x3e, 0xfa, 0xc9, 0x0b, 0x3e, 
  0x1b, 0xf2, 0x91, 0xbe, 0x6a, 0xa5, 0x21, 0x3e, 0xb6, 0x15, 0x3f, 0xbe, 
  0x80, 0xce, 0x41, 0x3b, 0x5a, 0x1b, 0x47, 0x3e, 0xdc, 0xa8, 0xfa, 0x3d, 
  0x08, 0xa7, 0x5a, 0xbe, 0x84, 0xbf, 0x0c, 0xbe, 0xea, 0xdf, 0xd1, 0xbd, 
  0xd0, 0x6a, 0x85, 0x3d, 0xed, 0xdf, 0x91, 0xbe, 0xdc, 0x93, 0x94, 0xbe, 
  0x50, 0x3a, 0xa3, 0xbc, 0xfc, 0x29, 0x92, 0x3d, 0x58, 0xc6, 0xa3, 0x3d, 
  0xdc, 0x24, 0x99, 0xbe, 0x78, 0x1a, 0x5f, 0xbe, 0x80, 0x96, 0x1d, 0xbc, 
  0xa3, 0xf4, 0x99, 0x3e, 0x8c, 0x40, 0x40, 0x3e, 0x80, 0x75, 0x9c, 0xbb, 
  0xc5, 0xd1, 0x96, 0xbe, 0xfe, 0x8e, 0x96, 0xbe, 0x20, 0x17, 0x73, 0xbe, 
  0x54, 0xbc, 0x6d, 0xbe, 0x31, 0xe1, 0x99, 0x3e, 0xd8, 0x43, 0x11, 0xbd, 
  0x00, 0xa8, 0xa2, 0xb9, 0x98, 0x22, 0x02, 0xbd, 0x00, 0xc3, 0x48, 0x3b, 
  0x40, 0x1f, 0x2e, 0x3c, 0x7a, 0x3b, 0x96, 0xbe, 0x0e, 0xe7, 0x2b, 0x3e, 
  0x80, 0x4d, 0x78, 0x3d, 0xed, 0x05, 0x93, 0x3e, 0x01, 0xb6, 0x7d, 0xbe, 
  0x20, 0xf2, 0xd5, 0x3c, 0x26, 0x4e, 0x7b, 0xbe, 0x7e, 0x12, 0x87, 0xbe, 
  0x8a, 0x8a, 0x77, 0x3e, 0xee, 0xaf, 0x72, 0x3e, 0x40, 0x26, 0xe8, 0x3d, 
  0x59, 0x84, 0x8d, 0x3e, 0x60, 0xee, 0x93, 0xbe, 0x7e, 0xa7, 0x54, 0xbe, 
  0xcf, 0x85, 0x85, 0xbe, 0x50, 0x99, 0x20, 0x3e, 0x92, 0x16, 0x8d, 0xbe, 
  0x58, 0x34, 0x05, 0xbd, 0x3b, 0x63, 0x83, 0x3e, 0xa1, 0x3c, 0x9a, 0x3e, 
  0x5c, 0x50, 0x0f, 0x3e, 0x3f, 0x1e, 0x47, 0xbe, 0x20, 0x9a, 0x2a, 0x3c, 
  0x1a, 0xbb, 0x6b, 0x3e, 0x61, 0x43, 0x42, 0xbe, 0x84, 0x4e, 0x3a, 0xbe, 
  0x4b, 0x57, 0x30, 0xbe, 0xbe, 0x37, 0x29, 0x3e, 0x00, 0x10, 0xd4, 0x3a, 
  0x19, 0x65, 0x23, 0xbe, 0x00, 0x5c, 0xda, 0xba, 0x4c, 0xff, 0x3c, 0x3e, 
  0x4c, 0x99, 0x5c, 0xbe, 0x00, 0x5c, 0xbc, 0x3b, 0x00, 0x1d, 0x09, 0x3e, 
  0x2c, 0x48, 0x66, 0xbd, 0xb2, 0xa3, 0xe3, 0xbd, 0xb4, 0xf6, 0x38, 0x3e, 
  0xca, 0xfd, 0x94, 0xbe, 0x80, 0xac, 0x1e, 0x3c, 0xcc, 0xb7, 0xef, 0xbd, 
  0xa1, 0xc1, 0x96, 0x3e, 0x3e, 0x1c, 0xd3, 0xbd, 0xfc, 0x94, 0x89, 0xbd, 
  0x80, 0xe2, 0x5e, 0xbd, 0x5b, 0xa8, 0x92, 0x3e, 0x86, 0x37, 0x67, 0x3e, 
  0xf2, 0xb7, 0xa6, 0xbd, 0x66, 0xbb, 0x81, 0xbe, 0x14, 0x3e, 0x6b, 0xbd, 
  0xca, 0x00, 0x6c, 0x3e, 0x18, 0x71, 0xc0, 0xbd, 0xa0, 0xf4, 0x92, 0xbc, 
  0x00, 0x83, 0x60, 0xbe, 0x6e, 0xc6, 0x46, 0x3e, 0xe6, 0xc0, 0x4e, 0x3e, 
  0x5a, 0x2d, 0x1b, 0x3e, 0x60, 0x6a, 0x79, 0xbe, 0x20, 0x61, 0x9a, 0xbc, 
  0x90, 0xbb, 0xc7, 0x3c, 0x46, 0x38, 0x8f, 0xbd, 0x03, 0x45, 0x9b, 0x3e, 
  0x80, 0xb4, 0xe7, 0x3d, 0x62, 0xdd, 0x97, 0xbe, 0x04, 0x35, 0x6d, 0xbe, 
  0x54, 0x74, 0xd1, 0xbd, 0xa0, 0x82, 0x40, 0x3e, 0x12, 0xe6, 0x56, 0x3e, 
  0x48, 0xd9, 0xa6, 0xbd, 0xdd, 0xc9, 0x95, 0x3e, 0xea, 0x81, 0x6c, 0x3e, 
  0x34, 0x3d, 0x63, 0xbe, 0x10, 0x37, 0x24, 0x3e, 0x84, 0x32, 0x9c, 0xbe, 
  0x62, 0x49, 0x15, 0x3e, 0x4e, 0x55, 0x56, 0x3e, 0x67, 0xf3, 0x97, 0x3e, 
  0x58, 0x3c, 0x3a, 0xbd, 0x2a, 0xc8, 0x02, 0xbe, 0xaa, 0xc0, 0x6a, 0xbe, 
  0x5e, 0x90, 0xc4, 0xbd, 0xa8, 0xc3, 0x46, 0xbe, 0x55, 0xf3, 0x93, 0x3e, 
  0xb6, 0xce, 0x5b, 0x3e, 0xb3, 0x6e, 0x1f, 0xbe, 0xfd, 0xdd, 0x03, 0xbe, 
  0x6f, 0x8e, 0x14, 0xbe, 0xc4, 0x55, 0xb0, 0x3d, 0x14, 0x93, 0x62, 0xbe, 
  0x98, 0xa8, 0x2e, 0x3d, 0x86, 0x5a, 0x58, 0xbe, 0xa9, 0xd9, 0x5d, 0xbe, 
  0x36, 0x09, 0x3f, 0x3e, 0xf6, 0x5b, 0x79, 0xbe, 0x5c, 0xe9, 0xc5, 0xbd, 
  0x80, 0x83, 0x75, 0xbb, 0xb8, 0x7e, 0xdb, 0xbd, 0x3e, 0x6f, 0x03, 0x3e, 
  0x38, 0x2c, 0x1e, 0xbd, 0xc0, 0x1b, 0x0b, 0xbd, 0x50, 0x27, 0x71, 0xbe, 
  0x00, 0xf3, 0x85, 0xbb, 0xc2, 0x94, 0x4c, 0x3e, 0x75, 0x24, 0x5f, 0xbe, 
  0x10, 0x89, 0x96, 0xbc, 0x90, 0x06, 0x3b, 0xbd, 0xec, 0x08, 0x1c, 0x3e, 
  0x7f, 0x10, 0x27, 0xbe, 0xfe, 0x4b, 0xd5, 0xbd, 0x46, 0x88, 0x85, 0xbd, 
  0x50, 0x9c, 0x82, 0xbe, 0xd0, 0x68, 0xd9, 0xbd, 0x20, 0x3e, 0xc9, 0x3d, 
  0x60, 0x3e, 0x0d, 0x3d, 0xf4, 0x1f, 0x82, 0xbd, 0xe8, 0x2a, 0xd0, 0xbd, 
  0xe4, 0x27, 0x1d, 0x3e, 0xf4, 0x6b, 0xd2, 0xbd, 0xdf, 0xd3, 0x97, 0x3e, 
  0x50, 0x88, 0x74, 0xbe, 0xf0, 0x72, 0x84, 0xbc, 0x82, 0x28, 0x76, 0x3e, 
  0x10, 0x5a, 0x9a, 0x3d, 0x7a, 0x85, 0x48, 0x3e, 0x27, 0xf2, 0x10, 0xbe, 
  0x5c, 0x6e, 0xd9, 0xbd, 0x38, 0x96, 0x8b, 0xbe, 0x24, 0x27, 0xa8, 0xbd, 
  0x00, 0x26, 0x24, 0xbd, 0xf0, 0xfa, 0x9d, 0xbc, 0x6e, 0x3a, 0xa8, 0xbd, 
  0xb8, 0xba, 0x40, 0x3e, 0xbe, 0xcb, 0x72, 0x3e, 0xd0, 0x9d, 0x9b, 0xbe, 
  0xc8, 0xcc, 0xc2, 0x3d, 0xdd, 0x8d, 0x96, 0x3e, 0x88, 0xaa, 0x0b, 0x3e, 
  0x20, 0x02, 0x4e, 0xbc, 0xc2, 0x64, 0xf8, 0xbd, 0xec, 0x70, 0xab, 0xbd, 
  0x60, 0xc1, 0x9d, 0xbc, 0x28, 0xb2, 0x19, 0x3e, 0x1a, 0x99, 0x93, 0xbd, 
  0xff, 0x31, 0x8d, 0x3e, 0xd1, 0xb1, 0x99, 0x3e, 0x42, 0x1e, 0x9c, 0xbd, 
  0x25, 0x23, 0x26, 0xbe, 0xf8, 0xb0, 0xde, 0xbd, 0x90, 0x83, 0xa3, 0xbd, 
  0xa8, 0x2d, 0xbc, 0x3d, 0xdc, 0x53, 0xe7, 0x3d, 0x66, 0x43, 0xb8, 0xbd, 
  0x24, 0xd1, 0xdd, 0x3d, 0x40, 0x58, 0x84, 0x3c, 0xa8, 0xa2, 0x0c, 0x3e, 
  0x9a, 0xb3, 0x5f, 0xbe, 0xd6, 0x5b, 0x40, 0xbe, 0x76, 0xae, 0xd8, 0xbd, 
  0xe0, 0x2e, 0xdc, 0xbc, 0x6b, 0x07, 0x32, 0xbe, 0x20, 0xca, 0x8a, 0x3c, 
  0xa8, 0xec, 0xa2, 0x3d, 0x1d, 0x01, 0x91, 0x3e, 0x18, 0x6d, 0x00, 0x3e, 
  0xee, 0x56, 0x1f, 0x3e, 0x14, 0xa3, 0x7d, 0xbd, 0x46, 0xdf, 0xca, 0xbd, 
  0xd0, 0x7b, 0x16, 0xbd, 0x6d, 0x3a, 0x9b, 0xbe, 0xd4, 0x10, 0xa4, 0x3d, 
  0xdc, 0x65, 0x60, 0xbe, 0x1a, 0x02, 0x0c, 0xbe, 0xb9, 0x85, 0x08, 0xbe, 
  0x12, 0x4e, 0x5b, 0x3e, 0xc8, 0x3b, 0xf2, 0xbd, 0x18, 0x91, 0x5c, 0xbd, 
  0x20, 0xe3, 0x4b, 0xbe, 0x30, 0x59, 0x14, 0x3d, 0x50, 0x25, 0xbe, 0x3c, 
  0x40, 0xf0, 0x91, 0xbe, 0x98, 0x3a, 0x27, 0xbe, 0x78, 0x07, 0xfa, 0x3d, 
  0x34, 0x42, 0x8f, 0xbe, 0x40, 0x2c, 0x8e, 0xbb, 0x2c, 0xa5, 0x01, 0x3e, 
  0xe1, 0x84, 0x1b, 0xbe, 0x32, 0x57, 0x2c, 0x3e, 0xff, 0x71, 0x8c, 0x3e, 
  0xa0, 0x61, 0xbf, 0x3d, 0xc0, 0x16, 0xec, 0xbd, 0xe0, 0x1b, 0x0f, 0x3e, 
  0x1e, 0x30, 0x50, 0x3e, 0xd2, 0xa9, 0x18, 0x3e, 0x70, 0x83, 0x8f, 0x3c, 
  0x6c, 0x99, 0xd5, 0x3d, 0x62, 0xdd, 0x11, 0xbe, 0x68, 0xe8, 0x43, 0x3e, 
  0x9a, 0x75, 0x41, 0xbe, 0x78, 0xa9, 0x53, 0xbe, 0x78, 0xb9, 0x84, 0xbe, 
  0x26, 0xde, 0x0f, 0x3e, 0xfe, 0xe0, 0x74, 0x3e, 0x00, 0x53, 0x58, 0xbd, 
  0xc0, 0x95, 0x02, 0x3c, 0x70, 0xae, 0x3d, 0xbe, 0x00, 0xbc, 0x8b, 0xba, 
  0xa8, 0x93, 0x33, 0x3d, 0x0e, 0x93, 0x65, 0x3e, 0x92, 0x82, 0x50, 0x3e, 
  0x63, 0xf6, 0x18, 0xbe, 0x94, 0x87, 0x23, 0xbe, 0x24, 0xcd, 0x1b, 0x3e, 
  0x00, 0x15, 0xe9, 0x3b, 0xc6, 0x6b, 0x66, 0xbe, 0x18, 0x56, 0x05, 0xbd, 
  0x81, 0xdd, 0x25, 0xbe, 0xf0, 0xd3, 0xa3, 0xbd, 0x78, 0xef, 0x95, 0xbd, 
  0x40, 0xd2, 0x39, 0xbd, 0x7a, 0x99, 0x35, 0x3e, 0x72, 0xc2, 0x62, 0x3e, 
  0x10, 0xd8, 0x61, 0x3d, 0x80, 0x0a, 0xf0, 0x3c, 0xda, 0x06, 0xee, 0xbd, 
  0xb6, 0x4e, 0x78, 0xbe, 0x38, 0x5e, 0x23, 0x3d, 0x78, 0x1c, 0x3d, 0xbd, 
  0x17, 0x55, 0x92, 0xbe, 0xa0, 0x9f, 0x75, 0xbc, 0xbc, 0x39, 0x76, 0xbe, 
  0x3e, 0xd2, 0x91, 0xbe, 0x80, 0xb1, 0x64, 0xbd, 0xb7, 0x1c, 0x94, 0xbe, 
  0xaf, 0x0a, 0x8d, 0x3e, 0x46, 0x1b, 0x2d, 0x3e, 0x70, 0xad, 0xf0, 0xbd, 
  0x7e, 0x87, 0x1c, 0xbe, 0x88, 0x00, 0x20, 0xbd, 0xe0, 0xb3, 0x6a, 0xbc, 
  0x00, 0xdf, 0xb0, 0xbc, 0xa8, 0x7c, 0xf9, 0x3d, 0x80, 0x5b, 0xab, 0x3d, 
  0xf2, 0x58, 0xdf, 0xbd, 0x22, 0x00, 0x79, 0x3e, 0x78, 0x44, 0xc7, 0x3d, 
  0x0e, 0xb5, 0x52, 0x3e, 0x78, 0x07, 0x31, 0x3e, 0x78, 0x6a, 0x0a, 0x3d, 
  0xac, 0x07, 0xf7, 0x3d, 0x60, 0x81, 0x62, 0xbe, 0xbf, 0x78, 0x86, 0x3e, 
  0xba, 0x94, 0xb4, 0xbd, 0x80, 0x6e, 0xd0, 0x3b, 0x79, 0xbe, 0x1e, 0xbe, 
  0x9a, 0x7b, 0x04, 0x3e, 0xa5, 0x6d, 0x11, 0xbe, 0x98, 0x12, 0xc0, 0x3d, 
  0xb0, 0x76, 0xfc, 0xbc, 0x00, 0x14, 0x7c, 0x3b, 0x10, 0x01, 0xa5, 0x3d, 
  0xd2, 0xb8, 0x27, 0xbe, 0xd4, 0x57, 0xf9, 0x3d, 0xa2, 0x46, 0x60, 0x3e, 
  0x6d, 0x3b, 0x8b, 0xbe, 0xe6, 0x16, 0x56, 0x3e, 0x38, 0x7d, 0x48, 0x3d, 
  0xac, 0x23, 0xe6, 0x3d, 0x25, 0xc0, 0x84, 0x3e, 0xf6, 0x2f, 0x67, 0x3e, 
  0x12, 0xc6, 0x56, 0x3e, 0xb8, 0x03, 0x7d, 0x3d, 0x6e, 0x48, 0x08, 0xbe, 
  0x00, 0xcb, 0xa5, 0xbd, 0xc0, 0x02, 0x06, 0x3e, 0xc0, 0x00, 0xbc, 0x3b, 
  0x41, 0x7d, 0x1a, 0xbe, 0xe0, 0xa0, 0xfb, 0xbd, 0x9e, 0x2d, 0x38, 0x3e, 
  0xc4, 0xd3, 0x55, 0xbe, 0xde, 0x50, 0x55, 0xbe, 0x68, 0xb5, 0x47, 0xbe, 
  0x91, 0xab, 0x37, 0xbe, 0xc8, 0x50, 0xe2, 0x3d, 0x96, 0x19, 0x76, 0x3e, 
  0x66, 0x48, 0x14, 0x3e, 0xd4, 0x50, 0x49, 0xbe, 0x1a, 0x35, 0x57, 0xbe, 
  0xa0, 0xd0, 0x70, 0xbe, 0x44, 0x72, 0x94, 0x3d, 0xfe, 0x7c, 0xd6, 0xbd, 
  0xa6, 0x40, 0x63, 0x3e, 0x71, 0xf7, 0x09, 0xbe, 0x8b, 0x47, 0x95, 0xbe, 
  0xa8, 0xba, 0xdb, 0x3d, 0x09, 0xf5, 0x83, 0x3e, 0x64, 0xa5, 0xe4, 0xbd, 
  0xf8, 0xfd, 0x12, 0x3d, 0x58, 0xef, 0xf1, 0x3d, 0x58, 0x13, 0x0c, 0x3e, 
  0x30, 0xfd, 0x20, 0x3d, 0x94, 0x31, 0x81, 0xbe, 0xfa, 0xc9, 0x19, 0x3e, 
  0x5a, 0x43, 0x2e, 0x3e, 0xe6, 0x89, 0x7f, 0x3e, 0x5c, 0x5e, 0x42, 0x3e, 
  0x2a, 0xc2, 0x16, 0x3e, 0x45, 0x9a, 0x81, 0x3e, 0xa0, 0x7f, 0x4e, 0x3c, 
  0x03, 0x1f, 0x97, 0x3e, 0xb0, 0x24, 0x31, 0xbe, 0x2a, 0x48, 0x67, 0x3e, 
  0xf0, 0x07, 0x36, 0xbd, 0x94, 0x78, 0x3e, 0xbe, 0xd0, 0x9f, 0x31, 0xbe, 
  0x68, 0xbb, 0xf4, 0x3d, 0x58, 0x2b, 0x90, 0xbe, 0xa6, 0x5b, 0x18, 0xbe, 
  0x81, 0xf9, 0x8f, 0xbe, 0x16, 0xb0, 0x5a, 0x3e, 0x18, 0x9c, 0x22, 0x3d, 
  0x68, 0xf8, 0x3d, 0x3d, 0xb8, 0x11, 0x2e, 0x3d, 0xea, 0x0a, 0x56, 0xbe, 
  0x87, 0xa0, 0x99, 0x3e, 0x00, 0x8e, 0xac, 0xba, 0xdf, 0x92, 0x10, 0xbe, 
  0x9a, 0x10, 0x69, 0x3e, 0x28, 0x6a, 0x51, 0xbd, 0x00, 0xe0, 0xf7, 0xba, 
  0xdb, 0xbb, 0x8c, 0x3e, 0xc0, 0x56, 0xf5, 0x3d, 0x96, 0xf6, 0xde, 0xbd, 
  0x00, 0xf4, 0x8c, 0xb9, 0xac, 0xfa, 0x7c, 0xbe, 0x70, 0x00, 0x46, 0x3d, 
  0x98, 0x35, 0xe0, 0xbd, 0xba, 0x5f, 0x71, 0x3e, 0x8e, 0xb6, 0x0b, 0x3e, 
  0x58, 0xfa, 0x41, 0x3d, 0x80, 0x5a, 0x3b, 0x3e, 0x10, 0x11, 0x66, 0x3d, 
  0x18, 0x01, 0x29, 0x3d, 0x18, 0xcd, 0x9c, 0x3d, 0x32, 0x23, 0x81, 0xbd, 
  0xc0, 0x38, 0xdf, 0x3b, 0xf5, 0x25, 0x8f, 0x3e, 0x24, 0x56, 0x8d, 0x3d, 
  0xe0, 0xc4, 0xb4, 0xbd, 0xc0, 0x55, 0x45, 0x3d, 0x9c, 0xec, 0xb5, 0x3d, 
  0xcb, 0x34, 0x38, 0xbe, 0x0c, 0xab, 0x1c, 0x3e, 0x9a, 0x1d, 0x0a, 0x3e, 
  0x53, 0x20, 0x18, 0xbe, 0xa4, 0x8f, 0xfe, 0xbd, 0x18, 0x33, 0x46, 0xbe, 
  0x28, 0x1d, 0x15, 0x3d, 0xaa, 0x89, 0x8e, 0xbd, 0x92, 0x4d, 0xde, 0xbd, 
  0xac, 0xdf, 0xe3, 0x3d, 0xc2, 0x28, 0x8f, 0xbe, 0xe4, 0x4a, 0xfd, 0x3d, 
  0x82, 0x1c, 0x49, 0xbe, 0x08, 0x77, 0x87, 0xbd, 0x4b, 0x60, 0x0a, 0xbe, 
  0xe6, 0xa6, 0x79, 0x3e, 0xc8, 0x1d, 0x82, 0xbe, 0x36, 0xb0, 0x81, 0xbe, 
  0xdd, 0xc2, 0x89, 0xbe, 0xa0, 0x1b, 0xa5, 0xbc, 0x16, 0xd0, 0x57, 0x3e, 
  0x4a, 0x0d, 0xd8, 0xbd, 0x04, 0x3a, 0x82, 0xbd, 0xf2, 0x3a, 0x48, 0xbe, 
  0xaf, 0xd5, 0x88, 0xbe, 0xb4, 0xa8, 0x0e, 0x3e, 0xa7, 0xd7, 0x85, 0x3e, 
  0x02, 0x37, 0x6d, 0xbe, 0x10, 0xb4, 0x03, 0x3e, 0xf5, 0x7b, 0x82, 0x3e, 
  0x20, 0x44, 0xc2, 0x3c, 0x88, 0xba, 0x98, 0x3d, 0x4f, 0x67, 0x9a, 0x3e, 
  0xe2, 0x74, 0x64, 0xbe, 0x32, 0x5a, 0x56, 0x3e, 0xbf, 0xf7, 0x7e, 0xbe, 
  0xb4, 0xd1, 0x9a, 0x3d, 0x12, 0x62, 0x3a, 0xbe, 0x82, 0x83, 0x74, 0x3e, 
  0x80, 0xd9, 0xea, 0xbc, 0x2d, 0x71, 0x8f, 0x3e, 0x94, 0x8c, 0xb8, 0x3d, 
  0x18, 0xf8, 0x7b, 0xbd, 0xa0, 0x1c, 0x27, 0x3e, 0x90, 0xe7, 0x38, 0x3d, 
  0x64, 0x40, 0x57, 0xbe, 0xe1, 0x0a, 0x28, 0xbe, 0xfa, 0xeb, 0x67, 0x3e, 
  0x97, 0x30, 0x95, 0xbe, 0x60, 0xd4, 0x51, 0xbc, 0xee, 0xc8, 0x49, 0x3e, 
  0x28, 0xe7, 0xe9, 0x3d, 0x26, 0xfc, 0x7c, 0xbe, 0x00, 0x12, 0xc1, 0x3d, 
  0x86, 0x70, 0x59, 0x3e, 0xc4, 0x00, 0x0c, 0x3e, 0x94, 0xb8, 0x50, 0xbe, 
  0x36, 0xde, 0x4a, 0x3e, 0x3f, 0x9b, 0x90, 0xbe, 0xb8, 0xa2, 0x40, 0x3e, 
  0x18, 0xc9, 0xeb, 0xbd, 0x72, 0x17, 0x55, 0x3e, 0xee, 0xb5, 0x4c, 0x3e, 
  0xa0, 0xa4, 0x5c, 0xbc, 0x7b, 0xcc, 0x85, 0x3e, 0x91, 0x06, 0x83, 0xbe, 
  0x30, 0x2e, 0x4a, 0x3d, 0x90, 0x44, 0x04, 0xbe, 0x30, 0x59, 0x73, 0xbd, 
  0x0e, 0xf9, 0xef, 0xbd, 0x60, 0xc4, 0xa4, 0x3c, 0xeb, 0x37, 0x90, 0x3e, 
  0xb0, 0x56, 0x5f, 0xbe, 0x1a, 0xf3, 0x7d, 0x3e, 0xe6, 0xcc, 0x71, 0x3e, 
  0xae, 0xa8, 0x8f, 0xbe, 0x8e, 0x34, 0xfa, 0xbd, 0x40, 0xff, 0x2f, 0x3c, 
  0x30, 0xee, 0x13, 0xbd, 0xee, 0xc3, 0x67, 0x3e, 0x1e, 0xea, 0xf6, 0xbd, 
  0x10, 0x53, 0xa9, 0x3c, 0x80, 0xd5, 0x56, 0x3c, 0xfa, 0xed, 0x51, 0xbe, 
  0x0c, 0xa6, 0x12, 0xbe, 0x08, 0x1b, 0xd4, 0xbd, 0x64, 0x18, 0x99, 0xbe, 
  0x49, 0xb5, 0x9c, 0xbe, 0x5c, 0x15, 0x03, 0x3e, 0xc0, 0x88, 0x10, 0xbc, 
  0x90, 0x66, 0x20, 0xbd, 0xad, 0x45, 0x8b, 0x3e, 0x3a, 0x23, 0x4c, 0x3e, 
  0x3e, 0x01, 0x57, 0xbe, 0x81, 0x1c, 0x8d, 0x3e, 0x1c, 0x44, 0xa0, 0x3d, 
  0xc0, 0x0f, 0xf4, 0x3c, 0xc0, 0x88, 0x94, 0xbb, 0xdc, 0x6d, 0x87, 0xbe, 
  0x29, 0xdd, 0x6e, 0xbe, 0x90, 0xc5, 0x4b, 0xbd, 0xbd, 0x70, 0x4c, 0xbe, 
  0xaa, 0xce, 0x22, 0x3e, 0x18, 0x29, 0x3e, 0x3d, 0x25, 0x63, 0x83, 0x3e, 
  0x00, 0x22, 0x91, 0xba, 0xb6, 0xf2, 0x8c, 0xbd, 0xf3, 0xd6, 0x09, 0xbe, 
  0x68, 0xa8, 0x0d, 0xbd, 0xbe, 0x45, 0x6c, 0x3e, 0x60, 0x24, 0x5c, 0xbc, 
  0xc8, 0xd8, 0xb9, 0x3d, 0x08, 0x52, 0x1e, 0x3d, 0x40, 0x5b, 0xb2, 0xbc, 
  0xea, 0xfc, 0x1e, 0x3e, 0x4a, 0x9f, 0x83, 0xbe, 0xb6, 0x84, 0x5b, 0xbe, 
  0xfe, 0x61, 0x2c, 0x3e, 0xba, 0x7c, 0x54, 0x3e, 0x5c, 0x19, 0x67, 0xbe, 
  0xaa, 0x9b, 0x5f, 0x3e, 0x40, 0x78, 0x66, 0xbe, 0x88, 0x3b, 0x8c, 0xbe, 
  0x40, 0x6b, 0xb4, 0x3c, 0x00, 0xd0, 0x5f, 0xb9, 0x4c, 0x6d, 0xd2, 0xbd, 
  0xcc, 0x29, 0xdb, 0x3d, 0xbe, 0xe1, 0x65, 0x3e, 0x7a, 0xc6, 0x81, 0xbe, 
  0x40, 0x86, 0x49, 0x3d, 0x10, 0xe5, 0xcc, 0x3d, 0x00, 0xf1, 0x9c, 0x3a, 
  0x9e, 0x8e, 0x98, 0xbe, 0x98, 0x16, 0x38, 0x3e, 0x00, 0x1c, 0x9d, 0xb9, 
  0xd0, 0xc2, 0x20, 0xbd, 0x80, 0xcb, 0xf2, 0x3c, 0x3b, 0x04, 0x01, 0xbe, 
  0x50, 0x09, 0x96, 0xbe, 0xaa, 0x2b, 0xb8, 0xbd, 0x4e, 0xc3, 0x75, 0x3e, 
  0x08, 0x64, 0xaf, 0x3d, 0xea, 0x47, 0x40, 0x3e, 0xa3, 0xa9, 0x0f, 0xbe, 
  0x31, 0xcd, 0x97, 0x3e, 0x3f, 0x36, 0x9b, 0xbe, 0x98, 0x4c, 0xf7, 0x3d, 
  0x9c, 0x59, 0x84, 0x3d, 0xd4, 0xcf, 0x22, 0x3e, 0xc8, 0xa9, 0x81, 0xbe, 
  0x52, 0xb6, 0x3d, 0x3e, 0x47, 0x24, 0x19, 0xbe, 0xfe, 0xa4, 0x7d, 0xbe, 
  0xe3, 0xc7, 0x84, 0xbe, 0x20, 0x14, 0x82, 0xbd, 0xed, 0xe6, 0x9a, 0x3e, 
  0x08, 0x93, 0x89, 0xbd, 0x10, 0x4b, 0x92, 0xbe, 0x26, 0x60, 0x20, 0xbe, 
  0x0e, 0xf2, 0x08, 0x3e, 0x64, 0x46, 0x54, 0xbe, 0x4c, 0xf9, 0x46, 0xbe, 
  0x7a, 0xbf, 0x19, 0x3e, 0x08, 0xe3, 0x66, 0xbe, 0x68, 0x5c, 0x55, 0xbd, 
  0x10, 0x5b, 0x33, 0xbd, 0x9e, 0xf9, 0x79, 0x3e, 0x85, 0x5c, 0x99, 0x3e, 
  0x42, 0xa9, 0x45, 0x3e, 0x49, 0x13, 0x86, 0xbe, 0x1e, 0x82, 0x7a, 0x3e, 
  0x12, 0x18, 0x0c, 0xbe, 0xf1, 0x08, 0x98, 0x3e, 0x5e, 0x57, 0x4a, 0x3e, 
  0x64, 0x3b, 0x3d, 0x3e, 0x28, 0x07, 0x49, 0x3d, 0x6c, 0x23, 0xe5, 0xbd, 
  0x7a, 0x27, 0x89, 0xbe, 0x20, 0x41, 0xca, 0xbd, 0xe1, 0xaa, 0x3d, 0xbe, 
  0x98, 0xb9, 0x13, 0x3e, 0x62, 0xf1, 0x83, 0xbe, 0x1f, 0x8b, 0x9b, 0x3e, 
  0x41, 0x7e, 0x26, 0xbe, 0x80, 0xe1, 0x9d, 0x3d, 0xf0, 0xd8, 0x45, 0x3d, 
  0x40, 0x53, 0x9e, 0xbd, 0x55, 0x28, 0x97, 0x3e, 0x9a, 0x3f, 0x36, 0x3e, 
  0xbb, 0x61, 0x93, 0xbe, 0x82, 0xd9, 0x52, 0x3e, 0xe6, 0x60, 0x43, 0x3e, 
  0xd8, 0x74, 0xc7, 0x3d, 0xee, 0x79, 0x55, 0x3e, 0x15, 0x57, 0x97, 0x3e, 
  0xa8, 0xe2, 0x2a, 0x3d, 0x5c, 0x04, 0xf5, 0x3d, 0xd8, 0xec, 0x0b, 0x3e, 
  0x97, 0xc1, 0x4c, 0xbe, 0x09, 0x51, 0x93, 0xbe, 0x0d, 0x9c, 0x96, 0xbe, 
  0x94, 0x82, 0xb8, 0x3d, 0x2e, 0xef, 0x2a, 0xbe, 0x42, 0xe2, 0x82, 0xbe, 
  0x1a, 0x62, 0xbd, 0xbd, 0xec, 0xfa, 0xfe, 0x3d, 0xb2, 0x2e, 0x71, 0x3e, 
  0x38, 0x26, 0x4d, 0xbd, 0x18, 0xd9, 0x73, 0xbe, 0xe8, 0x41, 0xa9, 0xbd, 
  0xb0, 0xa1, 0x73, 0x3d, 0x98, 0x44, 0x65, 0x3d, 0x64, 0x71, 0x01, 0x3e, 
  0x72, 0x3e, 0x14, 0x3e, 0x98, 0xa4, 0xc6, 0x3d, 0x88, 0x8e, 0xdb, 0x3d, 
  0x08, 0x17, 0x56, 0xbd, 0x80, 0xf6, 0x1f, 0xbb, 0xa4, 0x5d, 0x89, 0x3d, 
  0x5e, 0x54, 0x4d, 0x3e, 0x8c, 0xfa, 0x0b, 0x3e, 0x20, 0xf9, 0x01, 0x3e, 
  0xa4, 0xb9, 0xa7, 0xbd, 0xbd, 0x7a, 0x9a, 0x3e, 0x34, 0xf7, 0x92, 0x3d, 
  0xbc, 0xb1, 0x80, 0xbe, 0x72, 0x76, 0x37, 0x3e, 0xd8, 0xed, 0xa3, 0xbd, 
  0x08, 0xc8, 0xca, 0x3d, 0x28, 0x51, 0x22, 0x3d, 0xfe, 0x72, 0xf0, 0xbd, 
  0x5e, 0x8e, 0x63, 0x3e, 0xc8, 0xdb, 0x01, 0xbd, 0x30, 0x16, 0x18, 0x3d, 
  0x13, 0x83, 0x3b, 0xbe, 0x04, 0x8f, 0x2e, 0x3e, 0x60, 0x65, 0x68, 0x3d, 
  0x00, 0x00, 0x06, 0x00, 0x08, 0x00, 0x04, 0x00, 0x06, 0x00, 0x00, 0x00, 
  0x04, 0x00, 0x00, 0x00, 0x80, 0x02, 0x00, 0x00, 0x03, 0xb4, 0x9e, 0xbe, 
  0xae, 0x91, 0x9c, 0x3e, 0x6c, 0x32, 0xae, 0x3e, 0x6c, 0xc6, 0x87, 0x3e, 
  0xa4, 0x03, 0x96, 0xbd, 0xdc, 0xa5, 0x15, 0x3e, 0xb2, 0x91, 0x9e, 0xbe, 
  0x07, 0x57, 0x27, 0xbe, 0x00, 0x3c, 0xf4, 0xb9, 0xa0, 0x3a, 0x26, 0xbe, 
  0x75, 0xf0, 0x72, 0xbe, 0xa4, 0xdd, 0xb0, 0x3e, 0xa0, 0x3e, 0x46, 0x3e, 
  0x28, 0xd8, 0x89, 0xbe, 0x50, 0x5e, 0xda, 0xbc, 0xf0, 0x9a, 0xba, 0xbc, 
  0x74, 0xe6, 0x8d, 0xbe, 0x82, 0x0b, 0xaf, 0x3e, 0x00, 0xb3, 0xff, 0xbd, 
  0xfe, 0x7f, 0x0e, 0xbe, 0x92, 0x8f, 0x08, 0xbe, 0x10, 0x07, 0xd3, 0xbd, 
  0xb2, 0xfa, 0xbb, 0xbe, 0x18, 0x2c, 0x31, 0xbd, 0xfe, 0xfe, 0x04, 0xbe, 
  0x5e, 0xc5, 0x9b, 0x3e, 0xae, 0xba, 0xab, 0xbe, 0xa1, 0xc0, 0x41, 0xbe, 
  0x3c, 0xe7, 0x4f, 0x3e, 0x1c, 0x7b, 0xb1, 0xbd, 0x5e, 0x25, 0xb6, 0x3e, 
  0x6d, 0xd4, 0xbb, 0xbe, 0x65, 0x47, 0xc9, 0xbe, 0xb4, 0xb8, 0x55, 0x3e, 
  0x80, 0x10, 0x3e, 0xbb, 0xe0, 0x1f, 0x7f, 0xbd, 0x00, 0x2c, 0x48, 0xbc, 
  0x30, 0xa5, 0x26, 0xbe, 0x68, 0xd8, 0x1e, 0xbd, 0x80, 0x46, 0x7b, 0xbb, 
  0x69, 0xfe, 0xa5, 0xbe, 0xe7, 0xd0, 0x2c, 0xbe, 0x98, 0x96, 0x01, 0x3d, 
  0xb8, 0x48, 0x88, 0x3e, 0x0c, 0x78, 0x17, 0x3e, 0x24, 0xb3, 0x98, 0x3e, 
  0x32, 0x5c, 0x52, 0xbe, 0xa3, 0x60, 0xc3, 0xbe, 0x1e, 0x00, 0xac, 0x3e, 
  0x02, 0x22, 0xc3, 0xbe, 0x19, 0xb6, 0xb3, 0xbe, 0xe0, 0x11, 0xb7, 0xbe, 
  0x38, 0x8f, 0x92, 0x3e, 0x58, 0x40, 0x55, 0xbe, 0x90, 0x61, 0x24, 0x3e, 
  0x48, 0x0d, 0xce, 0x3d, 0xc3, 0xe8, 0xc9, 0xbe, 0xd0, 0x02, 0x85, 0xbd, 
  0x30, 0xca, 0x7c, 0xbd, 0xbe, 0xc5, 0xae, 0x3e, 0xbe, 0xc2, 0xc7, 0x3e, 
  0x58, 0xc5, 0x80, 0x3e, 0xc8, 0xc4, 0xc3, 0xbd, 0x78, 0xd0, 0x68, 0x3e, 
  0xaa, 0xaa, 0x1b, 0xbe, 0x38, 0x61, 0x1f, 0xbd, 0x91, 0x8f, 0xaa, 0xbe, 
  0xf3, 0xa8, 0x9d, 0xbe, 0x47, 0x2e, 0xc5, 0xbe, 0x14, 0xd9, 0x2b, 0x3e, 
  0x04, 0xfa, 0x64, 0x3e, 0x61, 0xed, 0xc1, 0xbe, 0x35, 0xac, 0xaa, 0xbe, 
  0xb8, 0x90, 0x7a, 0x3e, 0xcb, 0x6f, 0x2f, 0xbe, 0x00, 0xb0, 0xe4, 0x3c, 
  0x0c, 0xfa, 0x0b, 0x3e, 0x98, 0x6d, 0x8d, 0x3e, 0x00, 0x6a, 0x53, 0x3a, 
  0x9d, 0x60, 0x37, 0xbe, 0xb4, 0xef, 0x97, 0x3e, 0x6c, 0xb2, 0x97, 0xbd, 
  0x6f, 0x65, 0x2e, 0xbe, 0xda, 0x31, 0xbb, 0x3e, 0x20, 0xc8, 0x35, 0x3c, 
  0x0c, 0xcb, 0x18, 0x3e, 0xd0, 0xd3, 0x0d, 0x3e, 0xa4, 0x79, 0xcc, 0xbe, 
  0x56, 0x5a, 0xbe, 0x3e, 0xba, 0xf4, 0xc1, 0xbe, 0x58, 0xbb, 0xd0, 0x3d, 
  0xd0, 0x7b, 0x86, 0x3e, 0xde, 0x7f, 0x96, 0x3e, 0xe4, 0xd1, 0xa0, 0xbd, 
  0xee, 0xd2, 0x17, 0xbe, 0x60, 0x00, 0x27, 0x3c, 0x98, 0xf4, 0x07, 0x3d, 
  0x2a, 0x9e, 0xa1, 0x3e, 0x80, 0xff, 0xdd, 0xbd, 0x90, 0xd1, 0xfe, 0xbc, 
  0x50, 0x34, 0xd0, 0xbc, 0x20, 0xdc, 0x78, 0x3c, 0xd4, 0xcc, 0xf3, 0xbd, 
  0xda, 0xe0, 0x7c, 0xbe, 0x26, 0x4f, 0xb8, 0x3e, 0xe8, 0xd3, 0x26, 0x3e, 
  0x6c, 0xe3, 0x58, 0xbe, 0x9c, 0x6c, 0x88, 0xbd, 0x46, 0xdd, 0xab, 0x3e, 
  0x7c, 0x68, 0xa0, 0xbd, 0x40, 0xcc, 0xc4, 0xbb, 0xc4, 0x17, 0xac, 0x3e, 
  0x56, 0x44, 0xb6, 0x3e, 0x20, 0x55, 0x97, 0x3c, 0xf8, 0x7a, 0x1b, 0xbe, 
  0xc6, 0x13, 0xbf, 0x3e, 0xc0, 0xc6, 0x2b, 0x3d, 0x68, 0xfa, 0x3c, 0x3e, 
  0xd8, 0x46, 0x1d, 0x3e, 0x3e, 0xdf, 0xcd, 0x3e, 0x1c, 0x6e, 0x3a, 0x3e, 
  0x2e, 0xa2, 0x92, 0xbe, 0x5c, 0xa1, 0x38, 0x3e, 0x88, 0xd0, 0x49, 0x3e, 
  0x74, 0xa7, 0xd0, 0xbd, 0xa0, 0x1e, 0xd8, 0xbd, 0xc0, 0x4f, 0xcd, 0xbe, 
  0x87, 0x89, 0x24, 0xbe, 0xe1, 0xd6, 0xbd, 0xbe, 0x28, 0x89, 0xd8, 0x3d, 
  0xaa, 0xfa, 0xcb, 0x3e, 0x08, 0xa9, 0x79, 0x3d, 0x70, 0x08, 0x4c, 0x3e, 
  0x88, 0x93, 0x5c, 0x3e, 0xf8, 0xea, 0x17, 0x3e, 0x58, 0xa9, 0x0c, 0xbe, 
  0xf0, 0xdb, 0x17, 0x3d, 0x9a, 0x1b, 0xb0, 0xbe, 0x7b, 0xc3, 0x87, 0xbe, 
  0x24, 0xc0, 0xb6, 0x3d, 0xe8, 0x3b, 0x3a, 0x3e, 0x23, 0x0e, 0x3f, 0xbe, 
  0xbf, 0x3d, 0x98, 0xbe, 0x51, 0x5d, 0x39, 0xbe, 0xcc, 0x3a, 0xc1, 0xbe, 
  0x48, 0x50, 0xb4, 0x3e, 0xb4, 0x78, 0x80, 0x3e, 0x30, 0x0d, 0xd3, 0xbc, 
  0x28, 0xd5, 0xc5, 0xbe, 0x74, 0xff, 0x59, 0x3e, 0x20, 0x06, 0x53, 0x3e, 
  0xe8, 0x3f, 0x36, 0xbe, 0xae, 0x37, 0xb6, 0x3e, 0x3c, 0x16, 0x37, 0x3e, 
  0x4a, 0x0f, 0x85, 0x3e, 0x40, 0x2f, 0x99, 0x3e, 0x80, 0xaa, 0xff, 0x3b, 
  0x74, 0x17, 0x53, 0x3e, 0xdc, 0xad, 0x8a, 0x3e, 0x60, 0xe5, 0xad, 0x3d, 
  0x60, 0xfb, 0xff, 0xff, 0x64, 0xfb, 0xff, 0xff, 0x0f, 0x00, 0x00, 0x00, 
  0x4d, 0x4c, 0x49, 0x52, 0x20, 0x43, 0x6f, 0x6e, 0x76, 0x65, 0x72, 0x74, 
  0x65, 0x64, 0x2e, 0x00, 0x01, 0x00, 0x00, 0x00, 0x14, 0x00, 0x00, 0x00, 
  0x00, 0x00, 0x0e, 0x00, 0x18, 0x00, 0x14, 0x00, 0x10, 0x00, 0x0c, 0x00, 
  0x08, 0x00, 0x04, 0x00, 0x0e, 0x00, 0x00, 0x00, 0x14, 0x00, 0x00, 0x00, 
  0x1c, 0x00, 0x00, 0x00, 0x08, 0x01, 0x00, 0x00, 0x0c, 0x01, 0x00, 0x00, 
  0x10, 0x01, 0x00, 0x00, 0x04, 0x00, 0x00, 0x00, 0x6d, 0x61, 0x69, 0x6e, 
  0x00, 0x00, 0x00, 0x00, 0x04, 0x00, 0x00, 0x00, 0xb0, 0x00, 0x00, 0x00, 
  0x68, 0x00, 0x00, 0x00, 0x34, 0x00, 0x00, 0x00, 0x10, 0x00, 0x00, 0x00, 
  0x00, 0x00, 0x0a, 0x00, 0x10, 0x00, 0x0c, 0x00, 0x08, 0x00, 0x04, 0x00, 
  0x0a, 0x00, 0x00, 0x00, 0x0c, 0x00, 0x00, 0x00, 0x10, 0x00, 0x00, 0x00, 
  0x01, 0x00, 0x00, 0x00, 0x01, 0x00, 0x00, 0x00, 0x07, 0x00, 0x00, 0x00, 
  0x01, 0x00, 0x00, 0x00, 0x06, 0x00, 0x00, 0x00, 0x9a, 0xff, 0xff, 0xff, 
  0x10, 0x00, 0x00, 0x00, 0x00, 0x00, 0x00, 0x08, 0x0c, 0x00, 0x00, 0x00, 
  0x10, 0x00, 0x00, 0x00, 0x0c, 0xfc, 0xff, 0xff, 0x01, 0x00, 0x00, 0x00, 
  0x06, 0x00, 0x00, 0x00, 0x03, 0x00, 0x00, 0x00, 0x05, 0x00, 0x00, 0x00, 
  0x03, 0x00, 0x00, 0x00, 0xff, 0xff, 0xff, 0xff, 0xca, 0xff, 0xff, 0xff, 
  0x10, 0x00, 0x00, 0x00, 0x00, 0x00, 0x00, 0x08, 0x10, 0x00, 0x00, 0x00, 
  0x14, 0x00, 0x00, 0x00, 0xba, 0xff, 0xff, 0xff, 0x00, 0x00, 0x00, 0x01, 
  0x01, 0x00, 0x00, 0x00, 0x05, 0x00, 0x00, 0x00, 0x03, 0x00, 0x00, 0x00, 
  0x04, 0x00, 0x00, 0x00, 0x02, 0x00, 0x00, 0x00, 0xff, 0xff, 0xff, 0xff, 
  0x00, 0x00, 0x0e, 0x00, 0x16, 0x00, 0x00, 0x00, 0x10, 0x00, 0x0c, 0x00, 
  0x0b, 0x00, 0x04, 0x00, 0x0e, 0x00, 0x00, 0x00, 0x18, 0x00, 0x00, 0x00, 
  0x00, 0x00, 0x00, 0x08, 0x18, 0x00, 0x00, 0x00, 0x1c, 0x00, 0x00, 0x00, 
  0x00, 0x00, 0x06, 0x00, 0x08, 0x00, 0x07, 0x00, 0x06, 0x00, 0x00, 0x00, 
  0x00, 0x00, 0x00, 0x01, 0x01, 0x00, 0x00, 0x00, 0x04, 0x00, 0x00, 0x00, 
  0x03, 0x00, 0x00, 0x00, 0x00, 0x00, 0x00, 0x00, 0x01, 0x00, 0x00, 0x00, 
  0xff, 0xff, 0xff, 0xff, 0x01, 0x00, 0x00, 0x00, 0x07, 0x00, 0x00, 0x00, 
  0x01, 0x00, 0x00, 0x00, 0x00, 0x00, 0x00, 0x00, 0x08, 0x00, 0x00, 0x00, 
  0x1c, 0x03, 0x00, 0x00, 0xb4, 0x02, 0x00, 0x00, 0x50, 0x02, 0x00, 0x00, 
  0x04, 0x02, 0x00, 0x00, 0x70, 0x01, 0x00, 0x00, 0xdc, 0x00, 0x00, 0x00, 
  0x60, 0x00, 0x00, 0x00, 0x04, 0x00, 0x00, 0x00, 0x1a, 0xfd, 0xff, 0xff, 
  0x00, 0x00, 0x00, 0x01, 0x14, 0x00, 0x00, 0x00, 0x1c, 0x00, 0x00, 0x00, 
  0x1c, 0x00, 0x00, 0x00, 0x08, 0x00, 0x00, 0x00, 0x34, 0x00, 0x00, 0x00, 
  0x02, 0x00, 0x00, 0x00, 0xff, 0xff, 0xff, 0xff, 0x04, 0x00, 0x00, 0x00, 
  0x04, 0xfd, 0xff, 0xff, 0x19, 0x00, 0x00, 0x00, 0x53, 0x74, 0x61, 0x74, 
  0x65, 0x66, 0x75, 0x6c, 0x50, 0x61, 0x72, 0x74, 0x69, 0x74, 0x69, 0x6f, 
  0x6e, 0x65, 0x64, 0x43, 0x61, 0x6c, 0x6c, 0x3a, 0x30, 0x00, 0x00, 0x00, 
  0x02, 0x00, 0x00, 0x00, 0x01, 0x00, 0x00, 0x00, 0x04, 0x00, 0x00, 0x00, 
  0x72, 0xfd, 0xff, 0xff, 0x00, 0x00, 0x00, 0x01, 0x14, 0x00, 0x00, 0x00, 
  0x1c, 0x00, 0x00, 0x00, 0x1c, 0x00, 0x00, 0x00, 0x07, 0x00, 0x00, 0x00, 
  0x54, 0x00, 0x00, 0x00, 0x02, 0x00, 0x00, 0x00, 0xff, 0xff, 0xff, 0xff, 
  0x04, 0x00, 0x00, 0x00, 0x5c, 0xfd, 0xff, 0xff, 0x38, 0x00, 0x00, 0x00, 
  0x65, 0x73, 0x70, 0x33, 0x32, 0x5f, 0x61, 0x63, 0x74, 0x6f, 0x72, 0x2f, 
  0x64, 0x65, 0x6e, 0x73, 0x65, 0x5f, 0x36, 0x35, 0x2f, 0x4d, 0x61, 0x74, 
  0x4d, 0x75, 0x6c, 0x3b, 0x65, 0x73, 0x70, 0x33, 0x32, 0x5f, 0x61, 0x63, 
  0x74, 0x6f, 0x72, 0x2f, 0x64, 0x65, 0x6e, 0x73, 0x65, 0x5f, 0x36, 0x35, 
  0x2f, 0x42, 0x69, 0x61, 0x73, 0x41, 0x64, 0x64, 0x00, 0x00, 0x00, 0x00, 
  0x02, 0x00, 0x00, 0x00, 0x01, 0x00, 0x00, 0x00, 0x04, 0x00, 0x00, 0x00, 
  0xea, 0xfd, 0xff, 0xff, 0x00, 0x00, 0x00, 0x01, 0x14, 0x00, 0x00, 0x00, 
  0x1c, 0x00, 0x00, 0x00, 0x1c, 0x00, 0x00, 0x00, 0x06, 0x00, 0x00, 0x00, 
  0x6c, 0x00, 0x00, 0x00, 0x02, 0x00, 0x00, 0x00, 0xff, 0xff, 0xff, 0xff, 
  0x20, 0x00, 0x00, 0x00, 0xd4, 0xfd, 0xff, 0xff, 0x52, 0x00, 0x00, 0x00, 
  0x65, 0x73, 0x70, 0x33, 0x32, 0x5f, 0x61, 0x63, 0x74, 0x6f, 0x72, 0x2f, 
  0x64, 0x65, 0x6e, 0x73, 0x65, 0x5f, 0x36, 0x34, 0x2f, 0x4d, 0x61, 0x74, 
  0x4d, 0x75, 0x6c, 0x3b, 0x65, 0x73, 0x70, 0x33, 0x32, 0x5f, 0x61, 0x63, 
  0x74, 0x6f, 0x72, 0x2f, 0x64, 0x65, 0x6e, 0x73, 0x65, 0x5f, 0x36, 0x34, 
  0x2f, 0x52, 0x65, 0x6c, 0x75, 0x3b, 0x65, 0x73, 0x70, 0x33, 0x32, 0x5f, 
  0x61, 0x63, 0x74, 0x6f, 0x72, 0x2f, 0x64, 0x65, 0x6e, 0x73, 0x65, 0x5f, 
  0x36, 0x34, 0x2f, 0x42, 0x69, 0x61, 0x73, 0x41, 0x64, 0x64, 0x00, 0x00, 
  0x02, 0x00, 0x00, 0x00, 0x01, 0x00, 0x00, 0x00, 0x20, 0x00, 0x00, 0x00, 
  0x7a, 0xfe, 0xff, 0xff, 0x00, 0x00, 0x00, 0x01, 0x14, 0x00, 0x00, 0x00, 
  0x1c, 0x00, 0x00, 0x00, 0x1c, 0x00, 0x00, 0x00, 0x05, 0x00, 0x00, 0x00, 
  0x6c, 0x00, 0x00, 0x00, 0x02, 0x00, 0x00, 0x00, 0xff, 0xff, 0xff, 0xff, 
  0x20, 0x00, 0x00, 0x00, 0x64, 0xfe, 0xff, 0xff, 0x52, 0x00, 0x00, 0x00, 
  0x65, 0x73, 0x70, 0x33, 0x32, 0x5f, 0x61, 0x63, 0x74, 0x6f, 0x72, 0x2f, 
  0x64, 0x65, 0x6e, 0x73, 0x65, 0x5f, 0x36, 0x33, 0x2f, 0x4d, 0x61, 0x74, 
  0x4d, 0x75, 0x6c, 0x3b, 0x65, 0x73, 0x70, 0x33, 0x32, 0x5f, 0x61, 0x63, 
  0x74, 0x6f, 0x72, 0x2f, 0x64, 0x65, 0x6e, 0x73, 0x65, 0x5f, 0x36, 0x33, 
  0x2f, 0x52, 0x65, 0x6c, 0x75, 0x3b, 0x65, 0x73, 0x70, 0x33, 0x32, 0x5f, 
  0x61, 0x63, 0x74, 0x6f, 0x72, 0x2f, 0x64, 0x65, 0x6e, 0x73, 0x65, 0x5f, 
  0x36, 0x33, 0x2f, 0x42, 0x69, 0x61, 0x73, 0x41, 0x64, 0x64, 0x00, 0x00, 
  0x02, 0x00, 0x00, 0x00, 0x01, 0x00, 0x00, 0x00, 0x20, 0x00, 0x00, 0x00, 
  0x6e, 0xff, 0xff, 0xff, 0x00, 0x00, 0x00, 0x01, 0x10, 0x00, 0x00, 0x00, 
  0x10, 0x00, 0x00, 0x00, 0x04, 0x00, 0x00, 0x00, 0x28, 0x00, 0x00, 0x00, 
  0xe4, 0xfe, 0xff, 0xff, 0x1b, 0x00, 0x00, 0x00, 0x65, 0x73, 0x70, 0x33, 
  0x32, 0x5f, 0x61, 0x63, 0x74, 0x6f, 0x72, 0x2f, 0x64, 0x65, 0x6e, 0x73, 
  0x65, 0x5f, 0x36, 0x35, 0x2f, 0x4d, 0x61, 0x74, 0x4d, 0x75, 0x6c, 0x00, 
  0x02, 0x00, 0x00, 0x00, 0x04, 0x00, 0x00, 0x00, 0x20, 0x00, 0x00, 0x00, 
  0xb6, 0xff, 0xff, 0xff, 0x00, 0x00, 0x00, 0x01, 0x10, 0x00, 0x00, 0x00, 
  0x10, 0x00, 0x00, 0x00, 0x03, 0x00, 0x00, 0x00, 0x28, 0x00, 0x00, 0x00, 
  0x2c, 0xff, 0xff, 0xff, 0x1b, 0x00, 0x00, 0x00, 0x65, 0x73, 0x70, 0x33, 
  0x32, 0x5f, 0x61, 0x63, 0x74, 0x6f, 0x72, 0x2f, 0x64, 0x65, 0x6e, 0x73, 
  0x65, 0x5f, 0x36, 0x34, 0x2f, 0x4d, 0x61, 0x74, 0x4d, 0x75, 0x6c, 0x00, 
  0x02, 0x00, 0x00, 0x00, 0x20, 0x00, 0x00, 0x00, 0x20, 0x00, 0x00, 0x00, 
  0x00, 0x00, 0x16, 0x00, 0x18, 0x00, 0x14, 0x00, 0x00, 0x00, 0x10, 0x00, 
  0x0c, 0x00, 0x08, 0x00, 0x00, 0x00, 0x00, 0x00, 0x00, 0x00, 0x07, 0x00, 
  0x16, 0x00, 0x00, 0x00, 0x00, 0x00, 0x00, 0x01, 0x10, 0x00, 0x00, 0x00, 
  0x10, 0x00, 0x00, 0x00, 0x02, 0x00, 0x00, 0x00, 0x2c, 0x00, 0x00, 0x00, 
  0x8c, 0xff, 0xff, 0xff, 0x1c, 0x00, 0x00, 0x00, 0x65, 0x73, 0x70, 0x33, 
  0x32, 0x5f, 0x61, 0x63, 0x74, 0x6f, 0x72, 0x2f, 0x64, 0x65, 0x6e, 0x73, 
  0x65, 0x5f, 0x36, 0x33, 0x2f, 0x4d, 0x61, 0x74, 0x4d, 0x75, 0x6c, 0x31, 
  0x00, 0x00, 0x00, 0x00, 0x02, 0x00, 0x00, 0x00, 0x20, 0x00, 0x00, 0x00, 
  0x05, 0x00, 0x00, 0x00, 0x00, 0x00, 0x16, 0x00, 0x1c, 0x00, 0x18, 0x00, 
  0x00, 0x00, 0x14, 0x00, 0x10, 0x00, 0x0c, 0x00, 0x00, 0x00, 0x00, 0x00, 
  0x08, 0x00, 0x07, 0x00, 0x16, 0x00, 0x00, 0x00, 0x00, 0x00, 0x00, 0x01, 
  0x14, 0x00, 0x00, 0x00, 0x20, 0x00, 0x00, 0x00, 0x20, 0x00, 0x00, 0x00, 
  0x01, 0x00, 0x00, 0x00, 0x40, 0x00, 0x00, 0x00, 0x02, 0x00, 0x00, 0x00, 
  0xff, 0xff, 0xff, 0xff, 0x05, 0x00, 0x00, 0x00, 0x04, 0x00, 0x04, 0x00, 
  0x04, 0x00, 0x00, 0x00, 0x20, 0x00, 0x00, 0x00, 0x73, 0x65, 0x72, 0x76, 
  0x69, 0x6e, 0x67, 0x5f, 0x64, 0x65, 0x66, 0x61, 0x75, 0x6c, 0x74, 0x5f, 
  0x64, 0x65, 0x6e, 0x73, 0x65, 0x5f, 0x36, 0x33, 0x5f, 0x69, 0x6e, 0x70, 
  0x75, 0x74, 0x3a, 0x30, 0x00, 0x00, 0x00, 0x00, 0x02, 0x00, 0x00, 0x00, 
  0x01, 0x00, 0x00, 0x00, 0x05, 0x00, 0x00, 0x00, 0x02, 0x00, 0x00, 0x00, 
  0x20, 0x00, 0x00, 0x00, 0x04, 0x00, 0x00, 0x00, 0xf4, 0xff, 0xff, 0xff, 
  0x1c, 0x00, 0x00, 0x00, 0x00, 0x00, 0x00, 0x1c, 0x0c, 0x00, 0x0c, 0x00, 
  0x0b, 0x00, 0x00, 0x00, 0x00, 0x00, 0x04, 0x00, 0x0c, 0x00, 0x00, 0x00, 
  0x09, 0x00, 0x00, 0x00, 0x00, 0x00, 0x00, 0x09, 
};

const unsigned int actor_model_len = 7040;
