#include "actor_task0.h"

const uint8_t actor_model[] = {

  0x1c, 0x00, 0x00, 0x00, 0x54, 0x46, 0x4c, 0x33, 0x14, 0x00, 0x20, 0x00, 
  0x1c, 0x00, 0x18, 0x00, 0x14, 0x00, 0x10, 0x00, 0x0c, 0x00, 0x00, 0x00, 
  0x08, 0x00, 0x04, 0x00, 0x14, 0x00, 0x00, 0x00, 0x1c, 0x00, 0x00, 0x00, 
  0x8c, 0x00, 0x00, 0x00, 0xe4, 0x00, 0x00, 0x00, 0x50, 0x19, 0x00, 0x00, 
  0x60, 0x19, 0x00, 0x00, 0x1c, 0x1e, 0x00, 0x00, 0x03, 0x00, 0x00, 0x00, 
  0x01, 0x00, 0x00, 0x00, 0x04, 0x00, 0x00, 0x00, 0x62, 0xe6, 0xff, 0xff, 
  0x0c, 0x00, 0x00, 0x00, 0x1c, 0x00, 0x00, 0x00, 0x3c, 0x00, 0x00, 0x00, 
  0x0f, 0x00, 0x00, 0x00, 0x73, 0x65, 0x72, 0x76, 0x69, 0x6e, 0x67, 0x5f, 
  0x64, 0x65, 0x66, 0x61, 0x75, 0x6c, 0x74, 0x00, 0x01, 0x00, 0x00, 0x00, 
  0x04, 0x00, 0x00, 0x00, 0x90, 0xff, 0xff, 0xff, 0x07, 0x00, 0x00, 0x00, 
  0x04, 0x00, 0x00, 0x00, 0x08, 0x00, 0x00, 0x00, 0x64, 0x65, 0x6e, 0x73, 
  0x65, 0x5f, 0x36, 0x35, 0x00, 0x00, 0x00, 0x00, 0x01, 0x00, 0x00, 0x00, 
  0x04, 0x00, 0x00, 0x00, 0xb2, 0xea, 0xff, 0xff, 0x04, 0x00, 0x00, 0x00, 
  0x0e, 0x00, 0x00, 0x00, 0x64, 0x65, 0x6e, 0x73, 0x65, 0x5f, 0x36, 0x33, 
  0x5f, 0x69, 0x6e, 0x70, 0x75, 0x74, 0x00, 0x00, 0x02, 0x00, 0x00, 0x00, 
  0x34, 0x00, 0x00, 0x00, 0x04, 0x00, 0x00, 0x00, 0xdc, 0xff, 0xff, 0xff, 
  0x0a, 0x00, 0x00, 0x00, 0x04, 0x00, 0x00, 0x00, 0x13, 0x00, 0x00, 0x00, 
  0x43, 0x4f, 0x4e, 0x56, 0x45, 0x52, 0x53, 0x49, 0x4f, 0x4e, 0x5f, 0x4d, 
  0x45, 0x54, 0x41, 0x44, 0x41, 0x54, 0x41, 0x00, 0x08, 0x00, 0x0c, 0x00, 
  0x08, 0x00, 0x04, 0x00, 0x08, 0x00, 0x00, 0x00, 0x09, 0x00, 0x00, 0x00, 
  0x04, 0x00, 0x00, 0x00, 0x13, 0x00, 0x00, 0x00, 0x6d, 0x69, 0x6e, 0x5f, 
  0x72, 0x75, 0x6e, 0x74, 0x69, 0x6d, 0x65, 0x5f, 0x76, 0x65, 0x72, 0x73, 
  0x69, 0x6f, 0x6e, 0x00, 0x0b, 0x00, 0x00, 0x00, 0x68, 0x18, 0x00, 0x00, 
  0x60, 0x18, 0x00, 0x00, 0xd0, 0x14, 0x00, 0x00, 0xb8, 0x04, 0x00, 0x00, 
  0xa8, 0x00, 0x00, 0x00, 0xa0, 0x00, 0x00, 0x00, 0x98, 0x00, 0x00, 0x00, 
  0x90, 0x00, 0x00, 0x00, 0x88, 0x00, 0x00, 0x00, 0x68, 0x00, 0x00, 0x00, 
  0x04, 0x00, 0x00, 0x00, 0x5a, 0xeb, 0xff, 0xff, 0x04, 0x00, 0x00, 0x00, 
  0x54, 0x00, 0x00, 0x00, 0x0c, 0x00, 0x00, 0x00, 0x08, 0x00, 0x0e, 0x00, 
  0x08, 0x00, 0x04, 0x00, 0x08, 0x00, 0x00, 0x00, 0x10, 0x00, 0x00, 0x00, 
  0x24, 0x00, 0x00, 0x00, 0x00, 0x00, 0x06, 0x00, 0x08, 0x00, 0x04, 0x00, 
  0x06, 0x00, 0x00, 0x00, 0x04, 0x00, 0x00, 0x00, 0x00, 0x00, 0x00, 0x00, 
  0x00, 0x00, 0x0a, 0x00, 0x10, 0x00, 0x0c, 0x00, 0x08, 0x00, 0x04, 0x00, 
  0x0a, 0x00, 0x00, 0x00, 0x02, 0x00, 0x00, 0x00, 0x02, 0x00, 0x00, 0x00, 
  0x04, 0x00, 0x00, 0x00, 0x06, 0x00, 0x00, 0x00, 0x32, 0x2e, 0x31, 0x33, 
  0x2e, 0x30, 0x00, 0x00, 0xba, 0xeb, 0xff, 0xff, 0x04, 0x00, 0x00, 0x00, 
  0x10, 0x00, 0x00, 0x00, 0x31, 0x2e, 0x31, 0x34, 0x2e, 0x30, 0x00, 0x00, 
  0x00, 0x00, 0x00, 0x00, 0x00, 0x00, 0x00, 0x00, 0xa4, 0xe3, 0xff, 0xff, 
  0xa8, 0xe3, 0xff, 0xff, 0xac, 0xe3, 0xff, 0xff, 0xb0, 0xe3, 0xff, 0xff, 
  0xe6, 0xeb, 0xff, 0xff, 0x04, 0x00, 0x00, 0x00, 0x00, 0x04, 0x00, 0x00, 
  0xb8, 0xfa, 0xab, 0xbd, 0xf8, 0x46, 0x9f, 0x3d, 0x50, 0xaf, 0x5c, 0x3e, 
  0xac, 0xf3, 0x8d, 0x3e, 0x8c, 0x7b, 0xfc, 0xbd, 0xda, 0x95, 0x03, 0xbe, 
  0xc1, 0x2e, 0xb8, 0xbe, 0x60, 0x88, 0x95, 0x3e, 0x24, 0xcd, 0x47, 0x3e, 
  0xb5, 0xcc, 0xa0, 0xbe, 0xda, 0x09, 0x4f, 0xbe, 0xb0, 0x64, 0xf9, 0x3d, 
  0x40, 0x63, 0xcb, 0xbc, 0x60, 0x09, 0x76, 0x3d, 0x1e, 0x44, 0x96, 0x3e, 
  0xca, 0x57, 0xae, 0xbe, 0x2d, 0x38, 0xb9, 0xbe, 0xd8, 0xfd, 0xa5, 0x3e, 
  0x9a, 0x14, 0x8b, 0x3e, 0x74, 0xc5, 0x94, 0xbe, 0x6e, 0x0d, 0x92, 0x3e, 
  0xd6, 0x2f, 0x28, 0xbe, 0x32, 0x03, 0x8a, 0xbe, 0x02, 0xa1, 0xc1, 0x3e, 
  0x4c, 0x11, 0xb2, 0x3e, 0x10, 0x75, 0x68, 0xbd, 0xf4, 0x44, 0x81, 0x3d, 
  0x3a, 0xf1, 0x07, 0xbe, 0x03, 0xbc, 0x88, 0xbe, 0xb7, 0x80, 0xaf, 0xbe, 
  0x50, 0xb6, 0xee, 0xbd, 0x48, 0x3a, 0xe7, 0x3d, 0x7c, 0xe6, 0x42, 0x3e, 
  0x86, 0x62, 0xb1, 0x3e, 0x20, 0xf2, 0xf5, 0xbc, 0x14, 0x6c, 0xbe, 0x3d, 
  0x5c, 0x10, 0x9d, 0x3e, 0x84, 0xc9, 0x8f, 0x3e, 0xb4, 0x07, 0xf4, 0xbd, 
  0x4d, 0xb8, 0x6b, 0xbe, 0x78, 0x89, 0x9d, 0x3d, 0x26, 0x51, 0xa7, 0x3e, 
  0x00, 0x37, 0xe5, 0xbc, 0x70, 0x74, 0xc7, 0x3c, 0x34, 0xe5, 0xa5, 0xbd, 
  0xa7, 0x4c, 0x85, 0xbe, 0x4c, 0x3d, 0xb6, 0x3e, 0xc6, 0x72, 0xb5, 0x3e, 
  0x3a, 0x64, 0x02, 0xbe, 0x5c, 0x93, 0x14, 0xbe, 0x98, 0x82, 0x05, 0x3e, 
  0x88, 0xd8, 0xa9, 0x3d, 0xa0, 0x7b, 0xc4, 0xbc, 0xec, 0x02, 0x2a, 0x3e, 
  0x58, 0x64, 0xc5, 0x3e, 0xf8, 0xab, 0x20, 0x3d, 0x60, 0xaf, 0x3e, 0x3e, 
  0x27, 0xac, 0x21, 0xbe, 0x14, 0x5c, 0xce, 0xbd, 0x31, 0x53, 0xc2, 0xbe, 
  0xc0, 0xd1, 0x57, 0x3e, 0xe8, 0xd6, 0x91, 0xbe, 0x7c, 0xa7, 0xa4, 0xbe, 
  0x7c, 0xe9, 0xc2, 0x3e, 0xc8, 0x27, 0x94, 0x3d, 0x58, 0xa7, 0x23, 0x3e, 
  0x58, 0x51, 0x21, 0xbd, 0x44, 0x38, 0x48, 0x3e, 0xb8, 0x20, 0x69, 0x3e, 
  0x88, 0x28, 0xb2, 0x3e, 0x10, 0x10, 0xac, 0x3d, 0xc4, 0x47, 0xbe, 0xbd, 
  0xb0, 0xd1, 0xa4, 0x3e, 0x6f, 0x69, 0xb9, 0xbe, 0x30, 0x76, 0x4b, 0x3e, 
  0x5c, 0x7e, 0x94, 0xbe, 0xcc, 0x91, 0x9e, 0x3d, 0x24, 0xeb, 0x88, 0x3e, 
  0xd0, 0x32, 0xfb, 0x3c, 0xc0, 0x25, 0xea, 0xbc, 0x4c, 0xc3, 0xc4, 0xbe, 
  0xe0, 0xa1, 0x48, 0x3d, 0x46, 0x3c, 0x81, 0x3e, 0x62, 0x6a, 0x03, 0xbe, 
  0xfc, 0xd7, 0xa7, 0xbd, 0x20, 0x0b, 0x79, 0xbc, 0x48, 0x85, 0x9e, 0x3e, 
  0xed, 0x21, 0x0d, 0xbe, 0x24, 0x39, 0x25, 0x3e, 0x90, 0x60, 0x6d, 0xbd, 
  0xac, 0xa1, 0x50, 0x3e, 0x7a, 0x4d, 0x94, 0xbe, 0x8a, 0x95, 0x94, 0x3e, 
  0x46, 0x1f, 0xaa, 0xbe, 0x5c, 0x92, 0x68, 0xbe, 0xae, 0xe4, 0x00, 0xbe, 
  0x38, 0x37, 0xe3, 0xbd, 0x28, 0xe7, 0xb7, 0xbd, 0xcb, 0x45, 0x2e, 0xbe, 
  0x8a, 0xcc, 0x98, 0xbe, 0xe0, 0x94, 0xe7, 0xbd, 0x96, 0x31, 0x9c, 0x3e, 
  0xe6, 0x05, 0x80, 0xbe, 0xb8, 0x60, 0x07, 0x3e, 0x03, 0x68, 0x1b, 0xbe, 
  0x10, 0xc7, 0xb9, 0xbc, 0x64, 0x2f, 0x1b, 0x3e, 0xdb, 0x71, 0xc1, 0xbe, 
  0xb6, 0x3e, 0x59, 0xbe, 0x5e, 0x33, 0x93, 0xbe, 0xe4, 0xfc, 0x53, 0x3e, 
  0x08, 0x08, 0xf0, 0xbd, 0x80, 0xe3, 0xd0, 0x3d, 0x11, 0x5f, 0xa9, 0xbe, 
  0x78, 0xf2, 0x6f, 0x3e, 0xb0, 0x35, 0xc3, 0xbc, 0x1c, 0xc9, 0x1e, 0x3e, 
  0xcc, 0xb0, 0xd8, 0x3d, 0xc4, 0xd8, 0x5f, 0x3e, 0xd2, 0x7b, 0x9a, 0x3e, 
  0x0c, 0x8b, 0xc5, 0xbe, 0xf0, 0x0b, 0x3e, 0xbd, 0xd0, 0x4e, 0x95, 0x3e, 
  0x90, 0x65, 0x03, 0xbe, 0x58, 0x10, 0x1c, 0xbd, 0xa8, 0xc1, 0x3c, 0xbd, 
  0xb0, 0x8a, 0x13, 0x3d, 0x7f, 0xcc, 0x8b, 0xbe, 0x10, 0xbb, 0xa6, 0x3e, 
  0x4c, 0x17, 0xc3, 0xbe, 0x6c, 0x14, 0x88, 0x3d, 0x20, 0x65, 0x94, 0xbd, 
  0x30, 0x3f, 0x93, 0x3e, 0xcb, 0xe3, 0x41, 0xbe, 0x98, 0xe5, 0xb2, 0x3e, 
  0x4c, 0x47, 0xc0, 0x3e, 0x70, 0x59, 0x74, 0x3d, 0x4d, 0x4a, 0x3b, 0xbe, 
  0xc8, 0x8d, 0x00, 0x3e, 0x54, 0xf3, 0x98, 0xbe, 0x03, 0x60, 0x63, 0xbe, 
  0x80, 0x1f, 0x13, 0x3d, 0xb8, 0xa2, 0x8d, 0x3d, 0xac, 0x87, 0x22, 0x3e, 
  0x28, 0x22, 0x1c, 0x3d, 0xd1, 0x79, 0x84, 0xbe, 0xb0, 0x8c, 0x7c, 0x3e, 
  0x68, 0xfe, 0x17, 0x3e, 0xee, 0xbf, 0xaf, 0x3e, 0x2c, 0xd2, 0xc6, 0x3d, 
  0x10, 0xd2, 0x85, 0xbe, 0x50, 0xfa, 0xbd, 0xbd, 0x48, 0x48, 0xb6, 0x3e, 
  0x7f, 0x89, 0x4b, 0xbe, 0x86, 0xae, 0x95, 0x3e, 0xf0, 0xa7, 0xbf, 0x3c, 
  0x13, 0xc0, 0x4f, 0xbe, 0x18, 0x85, 0xa0, 0x3e, 0x8c, 0xcc, 0xd2, 0x3d, 
  0x50, 0x10, 0x95, 0xbe, 0x40, 0x08, 0x8a, 0x3b, 0xe4, 0x84, 0x9b, 0xbe, 
  0x03, 0x34, 0x25, 0xbe, 0x18, 0x5d, 0xac, 0xbd, 0xa8, 0x57, 0xb6, 0x3e, 
  0x84, 0x1a, 0x06, 0xbe, 0x5c, 0x51, 0x5d, 0x3e, 0x7c, 0x3d, 0xc2, 0xbd, 
  0xb4, 0xc5, 0xab, 0xbd, 0xc0, 0xe3, 0x80, 0xbe, 0xfd, 0xb2, 0x4b, 0xbe, 
  0x44, 0x23, 0x0f, 0x3e, 0xb3, 0x35, 0x84, 0xbe, 0x29, 0x4e, 0x15, 0xbe, 
  0x25, 0x6d, 0xa4, 0xbe, 0x98, 0x78, 0xdc, 0x3d, 0x64, 0xd5, 0x48, 0x3e, 
  0xce, 0x6a, 0x94, 0x3e, 0x30, 0x70, 0x46, 0xbd, 0x24, 0xe7, 0x7e, 0x3e, 
  0xb3, 0x24, 0x39, 0xbe, 0x5e, 0x28, 0x9c, 0x3e, 0x96, 0xc4, 0x89, 0xbe, 
  0x75, 0xb5, 0xb1, 0xbe, 0x30, 0x58, 0x1e, 0x3d, 0x54, 0xb3, 0x6a, 0x3e, 
  0x30, 0xaa, 0x02, 0x3e, 0x04, 0x75, 0xbf, 0x3e, 0xc0, 0x0f, 0xcc, 0xbc, 
  0x5f, 0x1a, 0x29, 0xbe, 0xd0, 0x75, 0x88, 0x3e, 0x08, 0x22, 0x90, 0x3e, 
  0x0c, 0x73, 0x84, 0xbd, 0xba, 0x31, 0x1d, 0xbe, 0xf8, 0x86, 0xe8, 0x3d, 
  0xde, 0x18, 0x86, 0x3e, 0xb8, 0x32, 0x8f, 0xbe, 0xae, 0x34, 0xa0, 0xbe, 
  0x00, 0xcf, 0x9d, 0xbb, 0x00, 0xae, 0x1a, 0x3a, 0x50, 0x1b, 0x6e, 0xbe, 
  0xcb, 0xe0, 0x30, 0xbe, 0x9a, 0xfa, 0x3d, 0xbe, 0xb0, 0x05, 0x0f, 0x3e, 
  0x51, 0xca, 0x33, 0xbe, 0xa1, 0x29, 0xbf, 0xbe, 0x78, 0x2e, 0x7a, 0xbd, 
  0xec, 0x42, 0xa2, 0x3e, 0x82, 0x43, 0xb5, 0xbe, 0xa2, 0xb6, 0xac, 0xbe, 
  0x90, 0x72, 0xa6, 0xbd, 0x2c, 0xc0, 0x77, 0xbe, 0x10, 0xff, 0x25, 0xbd, 
  0xb4, 0x85, 0x82, 0xbe, 0xf4, 0x87, 0x81, 0xbe, 0x00, 0x81, 0xe6, 0xbc, 
  0xbd, 0x96, 0xae, 0xbe, 0x46, 0xc6, 0x98, 0x3e, 0xe0, 0x4b, 0x8a, 0x3e, 
  0xbe, 0xc0, 0x93, 0xbe, 0x94, 0xdd, 0xa6, 0xbe, 0xa0, 0xc6, 0xbc, 0x3e, 
  0xd6, 0x71, 0x20, 0xbe, 0x80, 0xfa, 0xf6, 0x3b, 0xd5, 0x71, 0x9c, 0xbe, 
  0xd8, 0x60, 0xe1, 0x3d, 0x4b, 0x7f, 0x4d, 0xbe, 0x06, 0xa8, 0x1d, 0xbe, 
  0x80, 0xd3, 0xbb, 0xbe, 0x31, 0xa8, 0x23, 0xbe, 0x20, 0x56, 0x84, 0x3c, 
  0xad, 0xa7, 0xa4, 0xbe, 0x5c, 0x97, 0x7d, 0x3e, 0x80, 0x19, 0xb6, 0x3d, 
  0x52, 0x25, 0xa6, 0xbe, 0x00, 0xec, 0xe8, 0x3a, 0xf0, 0x30, 0x12, 0x3d, 
  0x7a, 0xed, 0x8e, 0x3e, 0x81, 0xeb, 0x8b, 0xbe, 0x9c, 0x8e, 0x75, 0x3e, 
  0x80, 0x8d, 0x03, 0xbc, 0x30, 0xeb, 0x4d, 0xbd, 0x8c, 0x09, 0xb9, 0x3d, 
  0xa5, 0xe0, 0x41, 0xbe, 0x28, 0x55, 0xa1, 0xbd, 0x72, 0x63, 0xa9, 0x3e, 
  0xb8, 0xc1, 0x39, 0x3e, 0x78, 0x96, 0x8e, 0x3e, 0x44, 0x72, 0x80, 0xbd, 
  0x00, 0x5e, 0xe3, 0xba, 0xf0, 0xd8, 0x97, 0x3e, 0xc8, 0x20, 0xfd, 0x3d, 
  0xe0, 0xc1, 0x2c, 0x3d, 0xac, 0x20, 0x36, 0x3e, 0xe0, 0x46, 0xba, 0xbc, 
  0x3a, 0x3a, 0x90, 0xbe, 0xf2, 0xef, 0xff, 0xff, 0x04, 0x00, 0x00, 0x00, 
  0x00, 0x10, 0x00, 0x00, 0x0d, 0x8a, 0x14, 0xbe, 0xf6, 0x2c, 0x7e, 0x3e, 
  0x12, 0xad, 0x53, 0x3e, 0x49, 0xf6, 0x8f, 0x3e, 0xf4, 0x6a, 0x88, 0x3d, 
  0x2a, 0xfc, 0x10, 0x3e, 0xd1, 0xc6, 0x8b, 0x3e, 0xe2, 0xdb, 0x65, 0xbe, 
  0xd0, 0x3c, 0x8e, 0x3d, 0x04, 0xab, 0x93, 0x3d, 0xd0, 0x1f, 0xbe, 0xbc, 
  0xe8, 0x12, 0x53, 0xbd, 0xe0, 0x5a, 0x35, 0x3d, 0x2d, 0x04, 0x8a, 0x3e, 
  0x05, 0xeb, 0x18, 0xbe, 0x31, 0xa7, 0x9c, 0xbe, 0xf1, 0xf2, 0x03, 0xbe, 
  0x60, 0x6b, 0xc6, 0x3c, 0xc8, 0x55, 0x2b, 0xbd, 0xd8, 0x4d, 0x8a, 0xbe, 
  0x04, 0x7a, 0xb5, 0xbd, 0x08, 0x9c, 0x04, 0x3e, 0x5f, 0x41, 0x97, 0x3e, 
  0x98, 0x87, 0xd6, 0x3d, 0x7b, 0xb2, 0x4b, 0xbe, 0x0d, 0x60, 0x67, 0xbe, 
  0xc0, 0x0a, 0x4e, 0xbc, 0x8a, 0xe2, 0x3a, 0x3e, 0x8d, 0xb3, 0x80, 0x3e, 
  0xac, 0x82, 0xe7, 0xbd, 0xba, 0x3e, 0x7e, 0x3e, 0x8f, 0x68, 0x6c, 0xbe, 
  0x0c, 0xdc, 0xd8, 0x3d, 0xe1, 0xab, 0x1f, 0xbe, 0xeb, 0x5b, 0x1a, 0xbe, 
  0x84, 0xfd, 0x15, 0xbe, 0x34, 0x51, 0xce, 0x3d, 0x5d, 0xc3, 0x21, 0xbe, 
  0x70, 0x5e, 0xdd, 0x3d, 0x60, 0xc1, 0x29, 0xbc, 0xca, 0x53, 0x45, 0x3e, 
  0x12, 0xd2, 0x79, 0x3e, 0x1c, 0xd2, 0x58, 0xbe, 0x90, 0x96, 0x66, 0xbe, 
  0x01, 0x5e, 0x05, 0xbe, 0xf9, 0x26, 0x83, 0x3e, 0x42, 0x01, 0x1b, 0xbe, 
  0x4c, 0x34, 0xa7, 0xbd, 0xe0, 0x12, 0x1b, 0xbd, 0x0c, 0xe0, 0x64, 0xbe, 
  0x33, 0x22, 0x8f, 0x3e, 0x00, 0xc7, 0xa4, 0x3a, 0xc2, 0x49, 0x7a, 0x3e, 
  0x2d, 0xc5, 0x85, 0x3e, 0x50, 0x1c, 0x28, 0x3d, 0x26, 0x1b, 0x64, 0x3e, 
  0x0a, 0x00, 0x54, 0x3e, 0x82, 0x7f, 0xd9, 0xbd, 0x90, 0xc2, 0xfc, 0x3d, 
  0x72, 0x51, 0x48, 0xbe, 0xf8, 0xc5, 0x75, 0x3d, 0x86, 0x80, 0x5b, 0xbe, 
  0x4f, 0x30, 0x0f, 0xbe, 0x30, 0x29, 0xcc, 0x3d, 0x04, 0x28, 0xb2, 0x3d, 
  0x14, 0x4d, 0xf5, 0x3d, 0xa0, 0x3d, 0x28, 0x3e, 0x80, 0x68, 0x43, 0xbb, 
  0x75, 0x86, 0x9b, 0x3e, 0x01, 0xda, 0x8f, 0x3e, 0x48, 0xa6, 0xda, 0x3d, 
  0x75, 0xd1, 0x8e, 0x3e, 0xc0, 0xa6, 0x78, 0x3d, 0xd6, 0x94, 0x64, 0xbe, 
  0x09, 0x7c, 0x32, 0xbe, 0x80, 0x50, 0x37, 0x3b, 0x64, 0x07, 0x44, 0x3e, 
  0x3a, 0x52, 0x84, 0xbe, 0xce, 0x1f, 0x59, 0xbe, 0x41, 0x99, 0x8a, 0x3e, 
  0x23, 0xce, 0x87, 0xbe, 0xc5, 0xa2, 0x62, 0xbe, 0x56, 0x76, 0x48, 0x3e, 
  0x3a, 0x2d, 0x26, 0xbe, 0xca, 0xc1, 0xff, 0xbd, 0x90, 0xc7, 0x3d, 0xbd, 
  0x41, 0xc3, 0x35, 0xbe, 0x5e, 0x3b, 0x3b, 0x3e, 0x64, 0x50, 0x8a, 0xbe, 
  0x7e, 0x6e, 0x86, 0xbd, 0x52, 0x02, 0xed, 0xbd, 0x7b, 0x32, 0x8a, 0x3e, 
  0x3b, 0x36, 0x9b, 0x3e, 0x04, 0xa8, 0xb0, 0x3d, 0x70, 0x99, 0x13, 0x3d, 
  0xbc, 0xff, 0xea, 0x3d, 0x4a, 0x1d, 0xfb, 0xbd, 0xc8, 0xf9, 0x7e, 0x3d, 
  0x4b, 0x06, 0x55, 0xbe, 0xf4, 0xf0, 0x44, 0x3e, 0x1a, 0xfa, 0x24, 0x3e, 
  0x30, 0x75, 0x69, 0x3d, 0xfe, 0x11, 0x07, 0xbe, 0xc8, 0x63, 0x16, 0xbd, 
  0xb8, 0x7b, 0x7e, 0x3d, 0x80, 0x11, 0xeb, 0x3d, 0x30, 0x09, 0x8b, 0x3d, 
  0xa0, 0xcf, 0x26, 0x3d, 0x1f, 0x82, 0x8e, 0x3e, 0x28, 0x5f, 0x45, 0xbd, 
  0x30, 0x57, 0x33, 0x3e, 0xec, 0x9a, 0x30, 0x3e, 0xbf, 0x91, 0x8d, 0x3e, 
  0x30, 0x60, 0x44, 0x3d, 0xbc, 0x82, 0x43, 0xbe, 0xe0, 0x2b, 0x35, 0xbd, 
  0xe6, 0xaf, 0x2e, 0x3e, 0x7a, 0x91, 0x29, 0xbe, 0x76, 0xde, 0xd1, 0xbd, 
  0x15, 0xf2, 0x98, 0xbe, 0xf9, 0x78, 0x9c, 0x3e, 0xf0, 0xad, 0xca, 0x3d, 
  0xbc, 0xa8, 0x07, 0x3e, 0x66, 0x22, 0x99, 0xbd, 0x3d, 0x7f, 0x25, 0xbe, 
  0x23, 0x3c, 0x89, 0x3e, 0x1c, 0x0d, 0x9f, 0x3d, 0x70, 0xce, 0xa5, 0x3c, 
  0x89, 0x48, 0x0d, 0xbe, 0x9b, 0xef, 0x0c, 0xbe, 0x86, 0x28, 0x86, 0xbd, 
  0xe8, 0x94, 0x52, 0xbe, 0xae, 0xc6, 0xd4, 0xbd, 0x9a, 0xea, 0x35, 0x3e, 
  0xe5, 0xbc, 0x8f, 0x3e, 0x20, 0xc8, 0x82, 0xbe, 0x90, 0xac, 0x96, 0xbc, 
  0x4a, 0xcd, 0x50, 0x3e, 0x46, 0xac, 0x24, 0xbe, 0xce, 0xae, 0x5a, 0x3e, 
  0x00, 0x70, 0x92, 0x39, 0xc5, 0xc6, 0x93, 0x3e, 0x88, 0xad, 0x70, 0xbe, 
  0x4a, 0x58, 0x7d, 0xbe, 0x2a, 0x20, 0x4b, 0xbe, 0x79, 0x7b, 0x4a, 0xbe, 
  0xc4, 0x43, 0xc6, 0xbd, 0x42, 0x6f, 0x06, 0x3e, 0xec, 0x8d, 0x9c, 0xbe, 
  0xe6, 0x75, 0x40, 0xbe, 0x08, 0xeb, 0x3c, 0x3d, 0xea, 0xdb, 0x68, 0x3e, 
  0x69, 0x87, 0x80, 0x3e, 0xc3, 0x51, 0x17, 0xbe, 0x4c, 0x7a, 0x4d, 0xbe, 
  0x33, 0x9a, 0x8e, 0x3e, 0x7c, 0xd1, 0x84, 0xbe, 0xc4, 0x6c, 0x69, 0xbd, 
  0x31, 0x43, 0x91, 0x3e, 0x60, 0xf1, 0x31, 0x3e, 0x98, 0xe6, 0x82, 0x3d, 
  0xba, 0x8f, 0x93, 0xbd, 0x76, 0xe6, 0x7f, 0x3e, 0xb3, 0x57, 0x8a, 0xbe, 
  0x60, 0x45, 0x96, 0x3c, 0x70, 0xf2, 0xda, 0xbc, 0x25, 0x7d, 0x93, 0xbe, 
  0xe0, 0xaf, 0x89, 0xbc, 0xd7, 0xc7, 0x36, 0xbe, 0x72, 0x43, 0x92, 0xbe, 
  0x20, 0xa9, 0xa1, 0xbd, 0x0e, 0x4d, 0x3d, 0x3e, 0x76, 0x60, 0x5e, 0x3e, 
  0x6c, 0xbe, 0xe0, 0xbd, 0xac, 0x63, 0xb2, 0x3d, 0x2e, 0xe0, 0x73, 0x3e, 
  0xf8, 0x94, 0x2f, 0x3d, 0xee, 0xc8, 0x7d, 0x3e, 0x34, 0x14, 0x49, 0xbe, 
  0x78, 0x48, 0xe1, 0xbd, 0xa0, 0xc4, 0x6e, 0xbc, 0xa8, 0x8b, 0x7f, 0xbe, 
  0x89, 0x64, 0x15, 0xbe, 0x7a, 0x57, 0x69, 0x3e, 0x08, 0x3f, 0x16, 0x3d, 
  0x70, 0xd2, 0x79, 0xbe, 0xf0, 0x02, 0x24, 0x3d, 0x00, 0xfd, 0x45, 0x3e, 
  0x06, 0x60, 0x3e, 0x3e, 0x8e, 0xd2, 0x77, 0xbe, 0x56, 0xb4, 0xcb, 0xbd, 
  0xad, 0x50, 0x8a, 0xbe, 0xeb, 0xca, 0x81, 0xbe, 0x3a, 0x49, 0x7c, 0x3e, 
  0xc0, 0x13, 0xb5, 0x3d, 0x4a, 0xcc, 0x4b, 0x3e, 0xa7, 0x71, 0x2f, 0xbe, 
  0xac, 0x33, 0x9c, 0xbe, 0x60, 0xdb, 0xe2, 0xbd, 0x88, 0xd6, 0x3c, 0xbd, 
  0xdd, 0x2f, 0x18, 0xbe, 0x10, 0x8d, 0x95, 0xbc, 0xfc, 0xa2, 0x8c, 0xbd, 
  0xd6, 0xd8, 0x7e, 0x3e, 0xf7, 0x56, 0x8c, 0x3e, 0x64, 0xae, 0x91, 0xbe, 
  0xe0, 0x96, 0x14, 0x3e, 0x26, 0x5c, 0x3f, 0x3e, 0x64, 0xe1, 0xd4, 0x3d, 
  0x2e, 0x73, 0x90, 0xbd, 0x00, 0x7a, 0x64, 0x3b, 0xfa, 0x20, 0x5d, 0x3e, 
  0xad, 0x78, 0x8e, 0x3e, 0xe6, 0x21, 0x7f, 0x3e, 0x1c, 0x61, 0xbd, 0xbd, 
  0xa4, 0x9e, 0x4f, 0xbe, 0xf1, 0xc2, 0x89, 0xbe, 0x5d, 0x9e, 0x6f, 0xbe, 
  0xbc, 0xe9, 0x78, 0xbe, 0xad, 0xda, 0x98, 0xbe, 0x6c, 0xab, 0x57, 0xbe, 
  0x90, 0x3b, 0x11, 0xbe, 0xa0, 0xfb, 0x51, 0xbe, 0xdc, 0x49, 0x38, 0x3e, 
  0xeb, 0x58, 0x5a, 0xbe, 0x72, 0xf2, 0x50, 0x3e, 0x57, 0x61, 0x94, 0x3e, 
  0xc0, 0x51, 0x6f, 0x3c, 0x18, 0x07, 0x56, 0x3d, 0x23, 0x50, 0x30, 0xbe, 
  0x50, 0x00, 0x84, 0x3d, 0x48, 0x14, 0xf2, 0xbd, 0x64, 0x40, 0x1d, 0x3e, 
  0xf8, 0x46, 0x9f, 0x3d, 0x58, 0xda, 0x62, 0xbd, 0x40, 0x9e, 0x11, 0xbe, 
  0xe6, 0x30, 0x7a, 0xbe, 0x10, 0x96, 0x7d, 0xbd, 0xf0, 0xa9, 0xc9, 0x3c, 
  0x46, 0xcd, 0x7f, 0x3e, 0xe0, 0xdb, 0x2c, 0x3d, 0xb4, 0x57, 0x96, 0xbe, 
  0xe6, 0x0b, 0x23, 0xbe, 0xb6, 0x67, 0x8f, 0xbe, 0x20, 0x84, 0x1c, 0x3c, 
  0x5a, 0x58, 0x6a, 0x3e, 0x18, 0x27, 0x08, 0xbe, 0xf0, 0x09, 0x89, 0x3d, 
  0xa3, 0x68, 0x8d, 0xbe, 0xf8, 0xa9, 0xf2, 0x3d, 0xe8, 0xaa, 0x39, 0x3d, 
  0x92, 0x01, 0x6b, 0x3e, 0x96, 0x2f, 0x1b, 0xbe, 0x00, 0xaa, 0x39, 0xba, 
  0x37, 0xe9, 0x87, 0x3e, 0x08, 0x84, 0xc7, 0x3d, 0x7b, 0x97, 0x84, 0x3e, 
  0xe3, 0x26, 0x7a, 0xbe, 0xf8, 0xd0, 0xea, 0x3d, 0xb7, 0x29, 0x0e, 0xbe, 
  0xf5, 0x09, 0x52, 0xbe, 0x97, 0x09, 0x93, 0x3e, 0x55, 0x89, 0x8e, 0x3e, 
  0x06, 0xfa, 0x6e, 0x3e, 0xec, 0xc5, 0x19, 0x3e, 0x91, 0xb9, 0x8e, 0xbe, 
  0xa0, 0x79, 0x12, 0x3d, 0x1c, 0x09, 0x95, 0xbe, 0xd7, 0x2f, 0x8a, 0xbe, 
  0xa5, 0x3c, 0x8b, 0x3e, 0xfc, 0xa4, 0x9d, 0x3d, 0x50, 0x79, 0xcb, 0x3c, 
  0xe9, 0x1c, 0x8c, 0x3e, 0x24, 0x95, 0x94, 0xbe, 0x40, 0xa0, 0xb3, 0x3b, 
  0x12, 0x8a, 0x54, 0x3e, 0x40, 0xc6, 0x85, 0xbb, 0xa9, 0xbe, 0x99, 0x3e, 
  0xac, 0x75, 0x35, 0x3e, 0x0a, 0x66, 0xe7, 0xbd, 0x20, 0x91, 0x45, 0xbc, 
  0x60, 0x6c, 0xde, 0xbc, 0x08, 0x6f, 0xa2, 0x3d, 0xf4, 0xaf, 0xa2, 0x3d, 
  0xa5, 0xa6, 0x98, 0x3e, 0x66, 0xb5, 0x2f, 0x3e, 0xfb, 0xe7, 0x1e, 0xbe, 
  0xa8, 0xa0, 0x30, 0xbd, 0xc4, 0x64, 0x8e, 0x3d, 0x88, 0x33, 0xe8, 0xbd, 
  0xc4, 0xa3, 0x7d, 0xbe, 0xf6, 0x9a, 0x30, 0xbe, 0x14, 0x18, 0xdf, 0xbd, 
  0xc0, 0xfa, 0x07, 0x3e, 0x41, 0xbe, 0x84, 0x3e, 0x3a, 0x29, 0x1e, 0xbe, 
  0x59, 0xb0, 0x81, 0x3e, 0xf4, 0xb4, 0x9d, 0x3d, 0x3f, 0xef, 0x99, 0x3e, 
  0x59, 0x1b, 0x96, 0x3e, 0x54, 0xac, 0x44, 0xbe, 0xd8, 0x6c, 0x35, 0xbd, 
  0x15, 0x36, 0x9c, 0x3e, 0xc6, 0x82, 0x51, 0x3e, 0x38, 0x27, 0x6d, 0xbd, 
  0x1b, 0x36, 0x24, 0xbe, 0xcd, 0x23, 0x89, 0x3e, 0x40, 0x47, 0x4e, 0xbd, 
  0xd0, 0x84, 0xd0, 0xbc, 0x2f, 0xb5, 0x0e, 0xbe, 0x40, 0xfb, 0x19, 0xbd, 
  0xa0, 0x43, 0x8d, 0xbe, 0x3b, 0x09, 0x8b, 0x3e, 0xe8, 0x7a, 0xd9, 0x3d, 
  0x18, 0xfc, 0xb4, 0x3d, 0x9c, 0x59, 0x00, 0x3e, 0x80, 0x10, 0x57, 0xbd, 
  0xb4, 0xdf, 0x8a, 0x3d, 0xa0, 0x34, 0xe6, 0x3d, 0x00, 0xf0, 0x90, 0xbe, 
  0xb0, 0x09, 0x0b, 0x3d, 0xd8, 0xaf, 0x5a, 0xbd, 0x96, 0x13, 0x41, 0x3e, 
  0xad, 0x92, 0x32, 0xbe, 0xa4, 0x14, 0xf7, 0x3d, 0x00, 0x0d, 0xb8, 0x3c, 
  0x1d, 0x87, 0x73, 0xbe, 0x5b, 0x37, 0x90, 0x3e, 0xca, 0x79, 0xcc, 0xbd, 
  0xb9, 0xac, 0x80, 0x3e, 0xa6, 0xf8, 0x50, 0x3e, 0x78, 0xdf, 0x57, 0x3d, 
  0xb2, 0x41, 0x5f, 0xbe, 0xfc, 0x0c, 0x0f, 0xbe, 0x2e, 0xc5, 0xf2, 0xbd, 
  0xb0, 0x1b, 0x8e, 0xbe, 0x20, 0x97, 0x7c, 0xbe, 0xad, 0xa6, 0x96, 0x3e, 
  0xd1, 0x0d, 0x94, 0xbe, 0xe8, 0xbc, 0xc3, 0xbd, 0x64, 0x64, 0xfe, 0x3d, 
  0x2b, 0xca, 0x8a, 0x3e, 0x66, 0x15, 0x35, 0x3e, 0xee, 0x7d, 0x95, 0xbe, 
  0xd0, 0xaa, 0x1b, 0xbd, 0xc8, 0x18, 0x43, 0x3d, 0xf0, 0xbe, 0x42, 0x3d, 
  0x8f, 0x3a, 0x5f, 0xbe, 0x70, 0x73, 0x9e, 0xbd, 0x14, 0x22, 0x53, 0xbe, 
  0x9a, 0xbc, 0x28, 0x3e, 0x4c, 0x3a, 0xd0, 0xbd, 0xb6, 0x35, 0x81, 0xbe, 
  0x51, 0x5c, 0x46, 0xbe, 0x30, 0x39, 0x9f, 0x3d, 0x14, 0x2d, 0xe9, 0x3d, 
  0xb3, 0xa7, 0x9b, 0x3e, 0xe4, 0x4f, 0xf3, 0x3d, 0x37, 0x25, 0x9a, 0x3e, 
  0xe0, 0xa5, 0xfa, 0x3d, 0xba, 0xc7, 0x6a, 0xbe, 0x80, 0x98, 0x78, 0x3d, 
  0x30, 0x2f, 0x52, 0xbd, 0x46, 0xf7, 0x3b, 0x3e, 0x96, 0xcb, 0x2c, 0x3e, 
  0x2e, 0xac, 0x63, 0x3e, 0x86, 0xa4, 0x8b, 0xbe, 0xda, 0x97, 0xa7, 0xbd, 
  0x12, 0x76, 0x1b, 0x3e, 0x8b, 0x78, 0x99, 0x3e, 0x40, 0x1d, 0x51, 0x3c, 
  0x07, 0xd7, 0x24, 0xbe, 0xaa, 0x27, 0x15, 0x3e, 0x62, 0x37, 0xe7, 0xbd, 
  0x1a, 0x1d, 0x17, 0x3e, 0x98, 0x5b, 0x96, 0x3d, 0x8a, 0x3b, 0x55, 0x3e, 
  0xb2, 0x11, 0x8c, 0xbd, 0x80, 0x27, 0xc0, 0xbd, 0xac, 0x2e, 0xc5, 0x3d, 
  0x2a, 0x36, 0xeb, 0xbd, 0x2e, 0x1b, 0x1c, 0x3e, 0x04, 0x34, 0xf6, 0x3d, 
  0xaa, 0x81, 0x36, 0x3e, 0x0e, 0x4a, 0xa5, 0xbd, 0xb0, 0xb7, 0x5c, 0xbd, 
  0xb0, 0x46, 0x1f, 0x3e, 0xd4, 0x6a, 0x83, 0x3d, 0x90, 0x0a, 0x88, 0xbc, 
  0x9c, 0xf4, 0x63, 0xbe, 0x00, 0x04, 0x5a, 0x3d, 0x18, 0xc8, 0xee, 0xbd, 
  0x34, 0x35, 0x2f, 0xbe, 0xf6, 0x43, 0xa4, 0xbd, 0x2d, 0xc5, 0x93, 0x3e, 
  0x34, 0xf7, 0xc3, 0x3d, 0xd8, 0xe6, 0x31, 0x3d, 0x94, 0xb5, 0x3f, 0x3e, 
  0x89, 0x72, 0x7a, 0xbe, 0x86, 0x77, 0xdb, 0xbd, 0x8b, 0x49, 0x12, 0xbe, 
  0x68, 0x25, 0x61, 0x3d, 0xbc, 0x5d, 0xb9, 0x3d, 0x00, 0x08, 0xb6, 0x3c, 
  0x17, 0x41, 0x8e, 0x3e, 0xa0, 0x67, 0xd9, 0x3c, 0x60, 0x99, 0xb6, 0xbd, 
  0xd0, 0xb5, 0xe0, 0x3c, 0x42, 0x54, 0xaf, 0xbd, 0xb8, 0x6d, 0x7d, 0xbd, 
  0x06, 0x11, 0x2e, 0xbe, 0xcc, 0x1d, 0xce, 0xbd, 0xbe, 0xbe, 0x74, 0x3e, 
  0xfd, 0x19, 0x78, 0xbe, 0xc0, 0x5b, 0x85, 0xbb, 0x30, 0x39, 0x88, 0xbe, 
  0x6f, 0x61, 0x94, 0xbe, 0x58, 0x64, 0x4e, 0x3d, 0x32, 0x63, 0x6c, 0x3e, 
  0xf4, 0xa4, 0xbf, 0x3d, 0xb6, 0x02, 0xa1, 0xbd, 0x26, 0x29, 0x6c, 0x3e, 
  0x22, 0xf4, 0x33, 0x3e, 0xa0, 0x1e, 0x30, 0x3d, 0x40, 0x09, 0x3b, 0xbd, 
  0xc8, 0x51, 0xca, 0x3d, 0x0e, 0xbe, 0x24, 0x3e, 0xbc, 0xfc, 0x04, 0x3e, 
  0x16, 0x40, 0xbe, 0xbd, 0xda, 0x92, 0x12, 0x3e, 0xa5, 0xa2, 0x97, 0x3e, 
  0x00, 0xe4, 0x2d, 0x3b, 0x02, 0xd5, 0x08, 0xbe, 0x6d, 0xe5, 0x06, 0xbe, 
  0x62, 0x10, 0x5f, 0x3e, 0xe3, 0x72, 0x43, 0xbe, 0xb0, 0x4b, 0x4e, 0xbd, 
  0x94, 0x92, 0x86, 0x3d, 0xae, 0xa9, 0x6e, 0xbe, 0x7a, 0x56, 0x84, 0xbd, 
  0x61, 0xfe, 0x8d, 0x3e, 0x98, 0x20, 0x3b, 0xbe, 0x50, 0x73, 0x68, 0xbe, 
  0xb2, 0xbe, 0x23, 0x3e, 0xe2, 0x43, 0x09, 0x3e, 0x2a, 0xbd, 0x8b, 0xbe, 
  0xe4, 0x61, 0x85, 0xbd, 0x42, 0xbe, 0x80, 0xbe, 0xc6, 0x70, 0x4c, 0x3e, 
  0x3e, 0xdb, 0x79, 0xbe, 0x23, 0xc1, 0x9c, 0x3e, 0xc0, 0xe6, 0x00, 0xbd, 
  0x93, 0xfd, 0x64, 0xbe, 0xb7, 0x14, 0x90, 0x3e, 0xe8, 0x06, 0x27, 0xbd, 
  0x88, 0x8f, 0xb9, 0x3d, 0x64, 0x6c, 0xb4, 0x3d, 0xe6, 0xf3, 0x5f, 0x3e, 
  0x86, 0xc0, 0x45, 0xbe, 0xb7, 0xcf, 0x54, 0xbe, 0x1f, 0x13, 0x7e, 0xbe, 
  0xf0, 0x38, 0x9c, 0xbd, 0xf0, 0x83, 0x77, 0xbe, 0x8e, 0xd4, 0x87, 0xbe, 
  0xf8, 0x9f, 0x28, 0x3e, 0x26, 0x44, 0xe9, 0xbd, 0xd2, 0xc8, 0x50, 0x3e, 
  0x2e, 0x5b, 0x21, 0x3e, 0x30, 0xa6, 0x28, 0x3d, 0xbc, 0x2a, 0x98, 0xbe, 
  0x54, 0x9f, 0xf2, 0x3d, 0x40, 0x67, 0xce, 0xbb, 0x86, 0x87, 0x25, 0x3e, 
  0x19, 0x39, 0x8a, 0x3e, 0xa8, 0xe7, 0xbf, 0x3d, 0x8a, 0xaa, 0x21, 0x3e, 
  0x94, 0xfd, 0xab, 0xbd, 0xf2, 0x6a, 0x62, 0xbe, 0x42, 0xd0, 0x82, 0xbe, 
  0x1b, 0x3c, 0x27, 0xbe, 0xf9, 0xaa, 0x9c, 0x3e, 0xd4, 0x52, 0x28, 0x3e, 
  0xe1, 0x6a, 0x94, 0xbe, 0x50, 0xfd, 0x81, 0x3d, 0xa0, 0xec, 0x64, 0x3c, 
  0x62, 0xc2, 0x32, 0x3e, 0x7d, 0xa8, 0x8f, 0x3e, 0xbc, 0x30, 0x8b, 0x3d, 
  0x8a, 0xa4, 0xfe, 0xbd, 0x39, 0x9c, 0x97, 0xbe, 0x64, 0x8a, 0xcb, 0xbd, 
  0x4e, 0x45, 0x5a, 0x3e, 0xac, 0x86, 0xa0, 0xbd, 0x20, 0xd6, 0x82, 0x3d, 
  0x74, 0x67, 0x48, 0xbe, 0x91, 0x2d, 0x98, 0x3e, 0xf8, 0xe1, 0x60, 0x3d, 
  0xec, 0x2d, 0x02, 0x3e, 0x14, 0x6a, 0x7c, 0xbd, 0x7e, 0x51, 0x63, 0x3e, 
  0xfc, 0xa5, 0x7f, 0xbe, 0x1f, 0x9d, 0x82, 0x3e, 0x99, 0x7d, 0x18, 0xbe, 
  0x00, 0x6d, 0x21, 0x3c, 0x16, 0xd9, 0xb1, 0xbd, 0x00, 0x00, 0x2f, 0x3c, 
  0xe6, 0x8f, 0x98, 0xbe, 0xa0, 0xca, 0xc0, 0x3d, 0x75, 0x61, 0x19, 0xbe, 
  0xfa, 0x28, 0x3b, 0x3e, 0x1a, 0x7d, 0x86, 0xbe, 0x50, 0x43, 0xae, 0xbc, 
  0x59, 0x3c, 0x30, 0xbe, 0x34, 0x04, 0x82, 0x3d, 0xdf, 0xfc, 0x92, 0x3e, 
  0xd4, 0x7c, 0xf0, 0xbd, 0x8e, 0x18, 0x48, 0x3e, 0x91, 0x28, 0x06, 0xbe, 
  0xe2, 0xa2, 0xac, 0xbd, 0x20, 0x2b, 0xe2, 0x3d, 0x00, 0xd4, 0x21, 0x3d, 
  0xe4, 0x5a, 0x85, 0x3d, 0x5e, 0x37, 0x78, 0x3e, 0x80, 0xd4, 0x26, 0x3e, 
  0xfe, 0x85, 0x5f, 0x3e, 0xaf, 0x4a, 0x49, 0xbe, 0xce, 0xe5, 0x51, 0x3e, 
  0x00, 0xfe, 0x3d, 0xbd, 0x64, 0xb5, 0xc9, 0xbd, 0xee, 0xe4, 0x3e, 0x3e, 
  0x7e, 0xca, 0xf1, 0xbd, 0xc8, 0x39, 0x15, 0x3e, 0x90, 0x06, 0xab, 0x3d, 
  0xd9, 0xc8, 0x8f, 0xbe, 0x42, 0x68, 0x53, 0x3e, 0xd8, 0x4d, 0x85, 0xbe, 
  0x18, 0x56, 0x88, 0xbe, 0x93, 0xd0, 0x31, 0xbe, 0xc8, 0x5d, 0xef, 0x3d, 
  0x90, 0xe7, 0x5b, 0xbd, 0x6b, 0xdd, 0x22, 0xbe, 0x1c, 0xd5, 0x0b, 0x3e, 
  0x7e, 0xc4, 0x7f, 0x3e, 0x7e, 0x9a, 0x16, 0xbe, 0x60, 0xe3, 0xe3, 0xbc, 
  0xbe, 0xf9, 0xf7, 0xbd, 0x40, 0xe5, 0x95, 0xbd, 0x02, 0x40, 0x30, 0x3e, 
  0x8b, 0x38, 0x86, 0xbe, 0x70, 0x4b, 0x42, 0x3e, 0xfa, 0xd2, 0xb6, 0xbd, 
  0xca, 0x80, 0x3a, 0x3e, 0x6b, 0xa1, 0x81, 0x3e, 0xc8, 0x6f, 0x6d, 0xbd, 
  0xca, 0xfc, 0x86, 0xbd, 0x7a, 0x49, 0x45, 0xbe, 0x2f, 0x95, 0x7f, 0xbe, 
  0x72, 0xf5, 0xf6, 0xbd, 0x18, 0xbb, 0x08, 0x3e, 0xc0, 0x1a, 0xa2, 0xbb, 
  0x10, 0x7e, 0xf2, 0x3c, 0xdf, 0x47, 0x8a, 0x3e, 0xf8, 0x2d, 0x9e, 0xbd, 
  0x3a, 0xc4, 0x44, 0xbe, 0x8e, 0x27, 0x48, 0xbe, 0xa8, 0x88, 0x07, 0x3d, 
  0x64, 0xc8, 0xfc, 0x3d, 0x0c, 0x76, 0x5e, 0xbe, 0x94, 0x08, 0xc1, 0xbd, 
  0xb4, 0x91, 0xfd, 0x3d, 0xce, 0xac, 0x78, 0xbe, 0x7a, 0x6c, 0xc9, 0xbd, 
  0xda, 0xa7, 0x88, 0xbe, 0x7a, 0x28, 0x5f, 0x3e, 0x09, 0xd4, 0x5f, 0xbe, 
  0xc4, 0x5c, 0x2e, 0x3e, 0xdf, 0xfb, 0x95, 0x3e, 0xce, 0xbe, 0x97, 0xbd, 
  0xc0, 0x98, 0x44, 0x3d, 0xe0, 0x54, 0x4b, 0xbc, 0xf8, 0x29, 0x78, 0x3d, 
  0x2e, 0xfe, 0x7a, 0x3e, 0xae, 0x20, 0xde, 0xbd, 0x38, 0x8c, 0x15, 0x3d, 
  0x44, 0xda, 0x7d, 0xbe, 0x44, 0x03, 0xd9, 0x3d, 0xf4, 0x6e, 0xd3, 0xbd, 
  0xcb, 0x5a, 0x73, 0xbe, 0x08, 0x5a, 0x80, 0xbd, 0xb6, 0x36, 0x91, 0xbe, 
  0xdc, 0xcc, 0x10, 0x3e, 0x25, 0x4f, 0x9a, 0x3e, 0xb8, 0xdd, 0x77, 0x3d, 
  0xa2, 0x79, 0x2b, 0xbe, 0xf6, 0x95, 0x7a, 0x3e, 0xcb, 0xa5, 0x83, 0xbe, 
  0x44, 0x92, 0x03, 0xbe, 0x5b, 0x55, 0x26, 0xbe, 0x08, 0x72, 0x4d, 0xbe, 
  0xc8, 0x84, 0xbe, 0x3d, 0x6e, 0xa1, 0x9c, 0xbe, 0xf8, 0xa1, 0xfd, 0x3d, 
  0xe8, 0x80, 0xa5, 0x3d, 0x88, 0x37, 0x42, 0x3e, 0x88, 0x32, 0x87, 0x3d, 
  0xb6, 0x95, 0x74, 0x3e, 0x6a, 0xeb, 0x60, 0x3e, 0x60, 0x44, 0x5e, 0xbc, 
  0x84, 0x77, 0x15, 0x3e, 0x08, 0x26, 0xda, 0x3d, 0x8d, 0xfb, 0x10, 0xbe, 
  0x5e, 0x24, 0x8b, 0xbe, 0x46, 0xd2, 0x90, 0xbe, 0x7c, 0x82, 0x30, 0x3e, 
  0x28, 0x98, 0x18, 0xbd, 0xd0, 0x2b, 0x5d, 0xbd, 0x90, 0x16, 0xbb, 0x3d, 
  0x04, 0x51, 0x3f, 0xbe, 0xec, 0xb8, 0x84, 0xbe, 0x08, 0x7f, 0x1e, 0xbd, 
  0xf0, 0x6d, 0x52, 0x3d, 0x3a, 0xc4, 0x31, 0x3e, 0x92, 0xc8, 0x27, 0x3e, 
  0x12, 0xc0, 0x6c, 0x3e, 0xd8, 0x28, 0x86, 0xbe, 0x4e, 0x6e, 0x4d, 0x3e, 
  0x52, 0x95, 0x90, 0xbd, 0x40, 0xb5, 0xfd, 0x3d, 0x75, 0x2c, 0x80, 0x3e, 
  0x85, 0x13, 0x44, 0xbe, 0x6c, 0x64, 0x82, 0xbd, 0x2c, 0x42, 0xc0, 0xbd, 
  0xea, 0x92, 0xa0, 0xbd, 0x92, 0xc1, 0x63, 0xbe, 0x3e, 0x07, 0x4c, 0x3e, 
  0x68, 0xf5, 0x60, 0xbd, 0x05, 0xd3, 0x98, 0x3e, 0x59, 0xaa, 0x80, 0xbe, 
  0x6a, 0xda, 0x41, 0x3e, 0x00, 0x73, 0x09, 0x3d, 0xe6, 0x63, 0x4e, 0x3e, 
  0xba, 0xf8, 0x4f, 0x3e, 0x42, 0x4f, 0x3a, 0x3e, 0x4b, 0x85, 0x88, 0x3e, 
  0x54, 0x33, 0x44, 0x3e, 0x67, 0x13, 0x8d, 0xbe, 0xe2, 0x28, 0x6b, 0x3e, 
  0xec, 0x4a, 0xdd, 0xbd, 0x50, 0x04, 0xf8, 0xbc, 0xc7, 0x69, 0x96, 0x3e, 
  0xd0, 0x69, 0x87, 0x3c, 0xb4, 0xf0, 0x20, 0x3e, 0x00, 0x8c, 0x49, 0x3b, 
  0x02, 0xfc, 0x3e, 0xbe, 0x9c, 0x0a, 0x0f, 0xbe, 0x14, 0xf8, 0x2a, 0x3e, 
  0xb1, 0xf1, 0x84, 0x3e, 0x41, 0x2e, 0x97, 0x3e, 0x3c, 0xca, 0x40, 0xbe, 
  0xee, 0x36, 0x6d, 0x3e, 0xe0, 0x62, 0xbe, 0x3d, 0x85, 0x68, 0x68, 0xbe, 
  0xf2, 0x20, 0x54, 0x3e, 0x9e, 0x9d, 0x4c, 0x3e, 0x00, 0xad, 0xaf, 0xba, 
  0xbd, 0xdb, 0x98, 0xbe, 0xb9, 0x77, 0x33, 0xbe, 0x46, 0x9f, 0x46, 0xbe, 
  0x10, 0x1c, 0xb6, 0x3d, 0x10, 0x1c, 0x2b, 0x3d, 0x16, 0x25, 0x8d, 0xbe, 
  0x4f, 0x16, 0x9a, 0x3e, 0x76, 0xa9, 0x5e, 0x3e, 0xa6, 0x65, 0xf5, 0xbd, 
  0x40, 0xc0, 0x7b, 0x3c, 0xe6, 0x18, 0x0e, 0x3e, 0xe8, 0x62, 0xfa, 0x3d, 
  0xcb, 0x82, 0x89, 0x3e, 0xa8, 0xe0, 0x38, 0x3e, 0x00, 0x8c, 0x16, 0xbc, 
  0xf0, 0x2b, 0x99, 0x3d, 0x30, 0xf7, 0xf8, 0xbd, 0x5b, 0x23, 0x00, 0xbe, 
  0xc8, 0x0b, 0x95, 0x3d, 0xca, 0x07, 0x78, 0x3e, 0xe0, 0x9a, 0x23, 0x3c, 
  0x62, 0xf6, 0x8c, 0xbe, 0xfa, 0x23, 0x3c, 0x3e, 0x32, 0xef, 0x5e, 0x3e, 
  0x04, 0x78, 0xcb, 0x3d, 0x3c, 0x4c, 0xb4, 0xbd, 0xbc, 0x38, 0xaf, 0x3d, 
  0xdf, 0x89, 0x97, 0xbe, 0xc0, 0x8d, 0xe6, 0xbb, 0x0e, 0x29, 0x89, 0xbe, 
  0xe6, 0xe0, 0x67, 0x3e, 0xe4, 0xff, 0x3e, 0x3e, 0x56, 0x24, 0xd1, 0xbd, 
  0xc2, 0x01, 0x10, 0xbe, 0x80, 0x68, 0xe0, 0x3c, 0x9e, 0x3f, 0x8b, 0xbd, 
  0xd6, 0x11, 0x4d, 0x3e, 0x48, 0x03, 0xc6, 0x3d, 0x00, 0x08, 0x83, 0x3d, 
  0x00, 0xbf, 0xbe, 0x3a, 0x48, 0x47, 0x4a, 0x3d, 0xa0, 0x53, 0x01, 0x3c, 
  0x64, 0x0b, 0x67, 0xbe, 0x54, 0x72, 0x8b, 0x3d, 0x60, 0xfc, 0x77, 0xbc, 
  0x68, 0x95, 0x0a, 0xbd, 0x88, 0xda, 0x6e, 0xbd, 0x92, 0x6b, 0x42, 0x3e, 
  0xee, 0x49, 0x61, 0xbe, 0x9c, 0x06, 0x98, 0x3d, 0x78, 0xd7, 0x98, 0x3d, 
  0xf3, 0xfe, 0x92, 0x3e, 0xf8, 0xe0, 0xd7, 0x3d, 0x8b, 0xef, 0x45, 0xbe, 
  0x40, 0x32, 0xa1, 0xbc, 0xe8, 0x22, 0x83, 0xbd, 0x31, 0xe4, 0x90, 0x3e, 
  0xfe, 0x03, 0xba, 0xbd, 0x5b, 0xd0, 0x8c, 0x3e, 0x66, 0xcc, 0x90, 0xbd, 
  0xd6, 0xa6, 0x69, 0xbe, 0x45, 0xa7, 0x6a, 0xbe, 0xc0, 0xae, 0x2f, 0x3c, 
  0xd3, 0xaf, 0x87, 0x3e, 0x40, 0x71, 0x85, 0x3b, 0xf8, 0x35, 0x4d, 0xbd, 
  0x37, 0x40, 0x8f, 0x3e, 0xec, 0x64, 0x04, 0xbe, 0xc0, 0xba, 0x9d, 0xbc, 
  0x4e, 0x5b, 0x9b, 0xbe, 0x82, 0xa0, 0x6f, 0x3e, 0x1e, 0x4f, 0x66, 0x3e, 
  0x90, 0xad, 0xef, 0x3c, 0x00, 0x31, 0x04, 0x3e, 0x2a, 0x5a, 0x96, 0xbe, 
  0x4b, 0x99, 0x87, 0x3e, 0x00, 0x9f, 0xf8, 0x3b, 0x4c, 0x82, 0xf3, 0x3d, 
  0x06, 0xba, 0x1f, 0x3e, 0x61, 0x0c, 0x6c, 0xbe, 0xc0, 0x5d, 0x51, 0x3d, 
  0xa9, 0x19, 0x21, 0xbe, 0xec, 0x09, 0x94, 0xbe, 0x00, 0x0d, 0xd9, 0xbc, 
  0x90, 0x19, 0x35, 0xbd, 0xac, 0xef, 0x1a, 0x3e, 0xbc, 0x48, 0x25, 0xbe, 
  0xf7, 0x39, 0x8a, 0x3e, 0xef, 0xc1, 0x81, 0x3e, 0xdf, 0x41, 0x63, 0xbe, 
  0xa8, 0x48, 0x22, 0x3d, 0x3c, 0xe8, 0x81, 0xbe, 0xd8, 0xce, 0xae, 0x3d, 
  0xc8, 0xd7, 0x50, 0x3d, 0x68, 0xcd, 0x77, 0xbe, 0xe2, 0x62, 0x59, 0x3e, 
  0xc0, 0x34, 0xe1, 0x3c, 0x44, 0x2b, 0x42, 0xbe, 0xe8, 0xb7, 0x19, 0xbd, 
  0xba, 0xef, 0x4a, 0xbe, 0x58, 0x2e, 0x31, 0x3d, 0x7f, 0xfd, 0x81, 0x3e, 
  0x9f, 0x8d, 0x91, 0x3e, 0x2d, 0xa4, 0x1a, 0xbe, 0xe0, 0x39, 0x22, 0xbd, 
  0x20, 0xe0, 0xbd, 0xbc, 0x78, 0xaf, 0x1c, 0xbe, 0x4b, 0x2f, 0x8b, 0xbe, 
  0x32, 0x9e, 0x02, 0x3e, 0x31, 0x77, 0x90, 0xbe, 0xe2, 0xdc, 0x0d, 0xbe, 
  0x5c, 0x46, 0x1f, 0x3e, 0xfe, 0xc6, 0x55, 0x3e, 0xd8, 0x38, 0x8f, 0xbd, 
  0x72, 0x9c, 0x50, 0x3e, 0x00, 0x86, 0xf1, 0x3c, 0xa6, 0x22, 0xdc, 0xbd, 
  0x60, 0x34, 0x00, 0x3c, 0x1e, 0xf5, 0x7d, 0xbe, 0x6c, 0xa0, 0x7f, 0xbd, 
  0xf8, 0xaa, 0x21, 0xbd, 0xdd, 0x48, 0x96, 0xbe, 0x9e, 0xf5, 0xe8, 0xbd, 
  0xdd, 0x52, 0x1a, 0xbe, 0x58, 0x6d, 0x49, 0xbd, 0x61, 0xd6, 0x11, 0xbe, 
  0xa8, 0xd5, 0x3f, 0x3d, 0x80, 0x12, 0xda, 0xbc, 0x60, 0x47, 0xc7, 0xbc, 
  0xba, 0x60, 0x13, 0xbe, 0x27, 0x86, 0x8c, 0x3e, 0xcc, 0x8f, 0x67, 0xbd, 
  0xa6, 0x7e, 0x5b, 0xbe, 0xb4, 0x5c, 0x09, 0x3e, 0x50, 0xcc, 0x78, 0x3d, 
  0x44, 0x99, 0xf4, 0x3d, 0x10, 0x1e, 0x2d, 0x3e, 0x50, 0xde, 0x11, 0x3d, 
  0x75, 0x50, 0x91, 0x3e, 0x60, 0xfd, 0x07, 0x3d, 0x78, 0x43, 0x95, 0x3d, 
  0x01, 0xbd, 0x84, 0x3e, 0xf7, 0x78, 0x96, 0x3e, 0x88, 0xef, 0xe8, 0xbd, 
  0x08, 0xea, 0xaf, 0x3d, 0xda, 0xd1, 0x27, 0x3e, 0xaf, 0x54, 0x01, 0xbe, 
  0x6e, 0x88, 0xf1, 0xbd, 0x42, 0x83, 0x93, 0xbe, 0x9c, 0xde, 0xb2, 0x3d, 
  0x90, 0xa2, 0x93, 0x3c, 0x24, 0x80, 0x87, 0xbd, 0x80, 0xbc, 0x29, 0xbd, 
  0x70, 0xeb, 0x29, 0xbe, 0x88, 0x71, 0x01, 0x3d, 0xe5, 0x26, 0x90, 0xbe, 
  0x16, 0xbd, 0x8f, 0xbe, 0x80, 0x09, 0x3f, 0x3b, 0x4c, 0x47, 0x7f, 0xbe, 
  0x58, 0x55, 0x15, 0x3e, 0xe0, 0xda, 0x2e, 0x3c, 0x08, 0xd0, 0x71, 0x3d, 
  0xfa, 0xbb, 0x1f, 0x3e, 0x80, 0xba, 0x8c, 0x3c, 0xf0, 0x88, 0x66, 0x3d, 
  0x7e, 0x0d, 0x90, 0xbd, 0x2d, 0xd0, 0x93, 0x3e, 0x80, 0x3f, 0x1f, 0x3c, 
  0xe0, 0xf3, 0x86, 0x3d, 0x1e, 0x50, 0x1d, 0x3e, 0x0c, 0x9c, 0xd8, 0x3d, 
  0xc8, 0x2e, 0xcd, 0x3d, 0xf5, 0xac, 0x89, 0x3e, 0x8f, 0x59, 0x91, 0xbe, 
  0x50, 0x19, 0xcd, 0x3d, 0x42, 0x48, 0x1f, 0x3e, 0x30, 0x84, 0xe6, 0xbc, 
  0x9d, 0x95, 0x9b, 0xbe, 0xc0, 0x54, 0x31, 0xbc, 0xf8, 0xcb, 0xff, 0xbd, 
  0x90, 0xf6, 0x7e, 0x3d, 0x67, 0x0c, 0x92, 0x3e, 0xe2, 0x1e, 0x4a, 0x3e, 
  0x78, 0x39, 0x1a, 0x3e, 0x00, 0xe5, 0xf3, 0x3b, 0x5c, 0xa7, 0xa1, 0x3d, 
  0xbc, 0xc4, 0xbe, 0x3d, 0xf2, 0xaa, 0x59, 0xbe, 0x14, 0x74, 0x23, 0xbe, 
  0x67, 0x04, 0x74, 0xbe, 0x8d, 0x64, 0x83, 0x3e, 0xea, 0x84, 0x6a, 0x3e, 
  0x2f, 0x50, 0x12, 0xbe, 0x40, 0xf1, 0x93, 0x3c, 0x52, 0x83, 0x74, 0x3e, 
  0x98, 0xda, 0x41, 0xbd, 0x86, 0xed, 0x40, 0xbe, 0xe4, 0x96, 0x70, 0xbe, 
  0x6f, 0xae, 0x88, 0x3e, 0xb0, 0x3a, 0xb2, 0x3d, 0x8b, 0x88, 0x7c, 0xbe, 
  0x30, 0xbc, 0x23, 0x3e, 0xe6, 0xe4, 0x0b, 0x3e, 0xf6, 0x3f, 0x62, 0x3e, 
  0x96, 0xa7, 0x0b, 0x3e, 0x2a, 0x8c, 0xa6, 0xbd, 0x52, 0x5b, 0x70, 0x3e, 
  0xe0, 0xe2, 0x2c, 0x3e, 0xf0, 0x53, 0xc5, 0x3d, 0x70, 0x0d, 0x47, 0xbd, 
  0x78, 0x42, 0x3f, 0x3e, 0xd7, 0xbc, 0x82, 0x3e, 0x9e, 0xa4, 0x76, 0x3e, 
  0x40, 0xc9, 0xb6, 0x3d, 0xc0, 0x47, 0x95, 0x3b, 0x52, 0x39, 0xa0, 0xbd, 
  0x80, 0x08, 0xdb, 0xbc, 0x8e, 0x21, 0x11, 0xbe, 0x6b, 0x46, 0x1f, 0xbe, 
  0x00, 0xe0, 0xbd, 0xbc, 0xe4, 0xde, 0xa0, 0xbd, 0xba, 0x43, 0x52, 0x3e, 
  0xf0, 0xc9, 0x48, 0x3d, 0x1d, 0xcb, 0x94, 0x3e, 0xc0, 0xb9, 0x80, 0x3c, 
  0x72, 0xd1, 0x04, 0xbe, 0xea, 0xda, 0x2c, 0xbe, 0xff, 0x29, 0x8b, 0x3e, 
  0x91, 0xbb, 0x11, 0xbe, 0x7f, 0xb5, 0x22, 0xbe, 0xf8, 0xa4, 0x37, 0xbd, 
  0x94, 0x92, 0x26, 0x3e, 0xfa, 0x9d, 0x65, 0x3e, 0x64, 0x2f, 0xb6, 0x3d, 
  0x50, 0xc5, 0x6c, 0x3d, 0x5f, 0xd4, 0x9a, 0xbe, 0xc4, 0x89, 0x44, 0xbe, 
  0xfc, 0xba, 0x35, 0x3e, 0xef, 0xb1, 0x44, 0xbe, 0x39, 0xd1, 0x95, 0xbe, 
  0xe4, 0xec, 0x94, 0xbd, 0xf0, 0xbc, 0xca, 0xbd, 0xb4, 0x7e, 0x84, 0x3d, 
  0xa3, 0xf3, 0x88, 0x3e, 0x1c, 0x26, 0x3b, 0xbe, 0xe4, 0x9b, 0xea, 0x3d, 
  0x60, 0xe6, 0x82, 0xbc, 0x4e, 0xc1, 0x3f, 0xbe, 0xed, 0x91, 0x92, 0x3e, 
  0x18, 0x82, 0x83, 0x3d, 0x27, 0x01, 0x20, 0xbe, 0x2e, 0x1a, 0x94, 0xbe, 
  0x01, 0xe5, 0x68, 0xbe, 0xa4, 0x5c, 0x4a, 0xbe, 0x0b, 0xd2, 0x40, 0xbe, 
  0x45, 0x0f, 0x8e, 0x3e, 0x08, 0xc8, 0x8c, 0xbe, 0xa4, 0xcd, 0x3e, 0xbe, 
  0x33, 0xca, 0x16, 0xbe, 0xf0, 0xe7, 0xd8, 0x3d, 0x75, 0x5f, 0x89, 0x3e, 
  0xa8, 0x56, 0xd8, 0x3d, 0x81, 0xd3, 0x37, 0xbe, 0x25, 0x39, 0x91, 0x3e, 
  0x62, 0xdf, 0x50, 0x3e, 0xa2, 0xa8, 0x97, 0xbe, 0xae, 0x59, 0x64, 0x3e, 
  0xb6, 0xfa, 0x03, 0xbe, 0x00, 0x8a, 0x75, 0xba, 0x26, 0x78, 0x11, 0x3e, 
  0x28, 0x7e, 0x65, 0x3d, 0xc8, 0xa4, 0xc6, 0x3d, 0x6a, 0x2b, 0x5e, 0xbe, 
  0xd0, 0x9a, 0x4d, 0xbe, 0x9c, 0xad, 0x8a, 0x3d, 0x26, 0xc0, 0x4d, 0x3e, 
  0x10, 0x08, 0xc9, 0x3c, 0x3a, 0xd6, 0x5c, 0xbe, 0xc0, 0x32, 0x96, 0x3b, 
  0x08, 0x68, 0x35, 0xbe, 0x4b, 0x00, 0x54, 0xbe, 0x6e, 0xac, 0x15, 0x3e, 
  0x33, 0x41, 0x2b, 0xbe, 0xd3, 0x8b, 0x94, 0xbe, 0x7e, 0x09, 0xad, 0xbd, 
  0x50, 0xda, 0x1a, 0x3e, 0xfc, 0x7e, 0xf6, 0x3d, 0xe4, 0x81, 0x41, 0xbe, 
  0xea, 0x34, 0x5d, 0xbe, 0xcc, 0x2c, 0xa7, 0xbd, 0xf0, 0x86, 0xeb, 0xbc, 
  0x85, 0x22, 0x6e, 0xbe, 0xda, 0x3f, 0x79, 0x3e, 0x32, 0x24, 0x09, 0x3e, 
  0x52, 0x10, 0x7e, 0x3e, 0x61, 0x81, 0x8e, 0x3e, 0x60, 0x0b, 0x01, 0x3c, 
  0x86, 0x1c, 0x5e, 0x3e, 0x60, 0x00, 0xcf, 0x3d, 0xf8, 0x55, 0x56, 0xbe, 
  0x26, 0x3d, 0x1e, 0x3e, 0xaa, 0x71, 0x28, 0x3e, 0xd6, 0x7f, 0x4c, 0xbe, 
  0xc0, 0xc1, 0x65, 0x3d, 0xb9, 0xbd, 0x9b, 0x3e, 0x76, 0x72, 0x5c, 0x3e, 
  0x9d, 0x75, 0x9a, 0x3e, 0x40, 0x4c, 0x18, 0x3c, 0x00, 0xea, 0x84, 0x3c, 
  0xf4, 0x1e, 0x98, 0x3d, 0x0a, 0x47, 0x86, 0xbe, 0x55, 0xe1, 0x93, 0x3e, 
  0xcc, 0x25, 0x72, 0xbe, 0xf4, 0xd9, 0xd9, 0x3d, 0x80, 0xfd, 0xe8, 0xbd, 
  0x60, 0x83, 0x6b, 0xbc, 0x18, 0xa5, 0xdd, 0x3d, 0x10, 0x8e, 0xae, 0xbc, 
  0x58, 0xcc, 0x54, 0x3d, 0x40, 0xfb, 0x60, 0xbd, 0x3e, 0xd2, 0x90, 0xbe, 
  0xa4, 0xdf, 0xbe, 0x3d, 0x8c, 0x02, 0xcd, 0x3d, 0x24, 0x9d, 0xa0, 0x3d, 
  0x9e, 0x52, 0x53, 0x3e, 0x20, 0xce, 0x99, 0xbe, 0x9c, 0x0f, 0xa8, 0x3d, 
  0xa4, 0x4a, 0x22, 0xbe, 0xf8, 0xb8, 0xc3, 0xbd, 0x9d, 0x6a, 0x88, 0x3e, 
  0x76, 0xfd, 0xc2, 0xbd, 0x1e, 0xa7, 0x87, 0xbe, 0x18, 0xbf, 0x6a, 0x3d, 
  0x3a, 0x87, 0x0f, 0x3e, 0x4e, 0xc6, 0xb6, 0xbd, 0x80, 0xf7, 0x04, 0xbd, 
  0x60, 0x92, 0x75, 0x3d, 0x62, 0x1e, 0x72, 0x3e, 0xe0, 0xe0, 0x98, 0xbd, 
  0x56, 0x28, 0x9c, 0xbe, 0xc0, 0xde, 0xf3, 0x3c, 0x68, 0x5b, 0x04, 0x3e, 
  0x23, 0x3f, 0x98, 0x3e, 0xd2, 0x24, 0x7a, 0xbe, 0xd3, 0x6e, 0x84, 0xbe, 
  0x00, 0xf4, 0x9c, 0x39, 0xcb, 0x8b, 0x27, 0xbe, 0xea, 0x57, 0x92, 0xbd, 
  0x62, 0x11, 0x0f, 0x3e, 0x94, 0xec, 0xff, 0x3d, 0x08, 0xf7, 0x53, 0xbe, 
  0x5b, 0x66, 0x86, 0x3e, 0x51, 0x14, 0x81, 0xbe, 0x39, 0xb2, 0x05, 0xbe, 
  0xc8, 0xb4, 0xd9, 0x3d, 0x2b, 0x61, 0x45, 0xbe, 0xa0, 0x73, 0xfa, 0x3d, 
  0xfa, 0x69, 0x89, 0xbe, 0xae, 0x8a, 0x1f, 0xbe, 0x00, 0x00, 0x06, 0x00, 
  0x08, 0x00, 0x04, 0x00, 0x06, 0x00, 0x00, 0x00, 0x04, 0x00, 0x00, 0x00, 
  0x80, 0x03, 0x00, 0x00, 0x00, 0x50, 0x77, 0xbe, 0xa6, 0x5e, 0xb9, 0xbe, 
  0xa0, 0x7d, 0x2a, 0x3c, 0xc4, 0x7c, 0x84, 0x3d, 0xef, 0xfc, 0x85, 0x3e, 
  0x70, 0x22, 0x2d, 0x3d, 0xb3, 0x1b, 0x99, 0x3e, 0x8c, 0xa6, 0x3f, 0xbe, 
  0xc8, 0x1e, 0x25, 0x3d, 0xe8, 0xa9, 0x56, 0x3d, 0x09, 0xad, 0x80, 0x3e, 
  0xe6, 0x47, 0x57, 0x3e, 0xe5, 0x37, 0xbc, 0xbe, 0xa3, 0x3d, 0xc4, 0x3e, 
  0x60, 0x99, 0xb3, 0x3d, 0xf7, 0x8f, 0xc8, 0xbe, 0xbe, 0x2b, 0xb6, 0xbe, 
  0xf4, 0xda, 0x0e, 0xbe, 0x81, 0xba, 0x84, 0x3e, 0x81, 0x03, 0xa0, 0x3e, 
  0x52, 0x95, 0x4b, 0x3e, 0x57, 0xdb, 0x97, 0x3e, 0xf7, 0x26, 0x8b, 0x3e, 
  0x48, 0x0d, 0x38, 0x3d, 0x7b, 0x46, 0xa9, 0x3e, 0x10, 0xd1, 0x98, 0x3c, 
  0xc9, 0xbc, 0xa1, 0xbe, 0x7b, 0xb5, 0xab, 0x3e, 0x60, 0xd4, 0x3a, 0xbc, 
  0x71, 0x6b, 0x57, 0xbe, 0x79, 0xd9, 0x88, 0x3e, 0x9c, 0xe1, 0xd0, 0x3d, 
  0x53, 0x73, 0xbb, 0xbe, 0xd9, 0x6f, 0x43, 0xbe, 0x7a, 0xb2, 0x56, 0x3e, 
  0x94, 0x53, 0xb8, 0xbe, 0x44, 0x57, 0x86, 0xbd, 0x14, 0x85, 0x8e, 0xbe, 
  0xba, 0x72, 0x9a, 0xbe, 0x28, 0xd4, 0x97, 0xbd, 0x91, 0x6c, 0xb3, 0x3e, 
  0x02, 0x8e, 0x06, 0x3e, 0x7d, 0x6b, 0x8d, 0x3e, 0x83, 0x75, 0xaf, 0x3e, 
  0xd8, 0xd7, 0x72, 0x3d, 0x3d, 0xa3, 0x7e, 0xbe, 0x52, 0x4e, 0x37, 0x3e, 
  0xa8, 0x66, 0x89, 0xbd, 0x88, 0x76, 0x6c, 0xbe, 0x93, 0xcb, 0xb0, 0x3e, 
  0x2a, 0xce, 0x2e, 0x3e, 0x1a, 0x0b, 0x79, 0xbe, 0xad, 0x88, 0x12, 0xbe, 
  0xc4, 0x5e, 0xee, 0x3d, 0x66, 0x71, 0x09, 0x3e, 0x24, 0x3a, 0xc5, 0xbd, 
  0xe0, 0xb7, 0x91, 0xbe, 0x83, 0x6b, 0x13, 0xbe, 0x38, 0xe5, 0x28, 0x3d, 
  0x00, 0x7e, 0x61, 0x3c, 0x44, 0x45, 0xeb, 0x3d, 0x4a, 0x35, 0x62, 0x3e, 
  0x7c, 0xc6, 0xb5, 0x3d, 0xb8, 0x31, 0xc0, 0x3d, 0x79, 0xf8, 0x6a, 0xbe, 
  0x75, 0x4b, 0x9d, 0x3e, 0x40, 0xb5, 0xbd, 0x3c, 0x7d, 0x7c, 0x96, 0x3e, 
  0x10, 0xea, 0xcd, 0xbd, 0xff, 0x86, 0x8b, 0x3e, 0x97, 0x18, 0x8c, 0xbe, 
  0xd5, 0xf5, 0xbe, 0xbe, 0xc4, 0x4c, 0x9a, 0xbe, 0x60, 0x20, 0x2d, 0xbd, 
  0xd5, 0xdc, 0xa9, 0x3e, 0xc2, 0xf8, 0xaa, 0xbe, 0x20, 0x36, 0x6d, 0xbc, 
  0xe1, 0x4f, 0x5f, 0xbe, 0x08, 0x98, 0x37, 0x3d, 0x4b, 0x66, 0xa2, 0xbe, 
  0xb8, 0xb5, 0x44, 0x3d, 0x00, 0xf8, 0x08, 0x3b, 0xd4, 0xbd, 0xf6, 0x3d, 
  0x56, 0xd4, 0x06, 0x3e, 0x7c, 0xde, 0xaf, 0xbd, 0x9e, 0x38, 0x7e, 0x3e, 
  0x6b, 0xd3, 0xb5, 0x3e, 0xca, 0x45, 0x49, 0x3e, 0x8a, 0x99, 0xc1, 0xbe, 
  0x80, 0x2d, 0x07, 0xbe, 0x2a, 0xa2, 0xab, 0xbe, 0x80, 0xf3, 0xf1, 0xbd, 
  0xb5, 0x07, 0x89, 0x3e, 0xfb, 0xdf, 0x6a, 0xbe, 0x1d, 0x7f, 0x8c, 0x3e, 
  0x50, 0x0a, 0xfe, 0xbd, 0x16, 0x43, 0x3b, 0x3e, 0xbc, 0x04, 0x03, 0xbe, 
  0x0c, 0x66, 0x8a, 0x3d, 0x96, 0x5c, 0x19, 0x3e, 0x8c, 0xf8, 0xb1, 0xbe, 
  0xf8, 0x28, 0xa0, 0xbd, 0x94, 0x38, 0xcf, 0x3d, 0x98, 0xdb, 0x09, 0xbd, 
  0x32, 0x39, 0x75, 0x3e, 0xd0, 0x6a, 0xa3, 0xbd, 0x70, 0xcd, 0x3a, 0xbd, 
  0xd6, 0xb2, 0x82, 0xbe, 0x3a, 0x04, 0x89, 0xbe, 0xca, 0x80, 0x09, 0x3e, 
  0x94, 0x37, 0x84, 0xbd, 0x50, 0x78, 0x99, 0x3c, 0x4f, 0xe6, 0x9b, 0x3e, 
  0x7f, 0x2b, 0x42, 0xbe, 0xae, 0x0e, 0x01, 0xbe, 0xde, 0x04, 0xb0, 0xbe, 
  0x9f, 0x25, 0x91, 0xbe, 0x09, 0xef, 0x14, 0xbe, 0x22, 0xc5, 0x73, 0xbe, 
  0xf0, 0xbe, 0xe9, 0x3c, 0x88, 0x91, 0x92, 0x3d, 0xa1, 0xf2, 0x81, 0x3e, 
  0xde, 0xd1, 0x95, 0xbe, 0x9f, 0x01, 0x85, 0x3e, 0x3c, 0xf9, 0x1e, 0xbe, 
  0x46, 0xa7, 0x6e, 0xbe, 0x26, 0x14, 0xa8, 0xbe, 0x86, 0x5c, 0x2a, 0x3e, 
  0x00, 0x18, 0x10, 0xbe, 0xd4, 0xe5, 0xc1, 0xbe, 0x4f, 0x73, 0x4d, 0xbe, 
  0xab, 0xff, 0xbd, 0xbe, 0xc4, 0x61, 0x9d, 0xbe, 0x5a, 0x33, 0x73, 0x3e, 
  0xc0, 0x8e, 0x99, 0x3d, 0xf0, 0xfb, 0x09, 0x3d, 0x60, 0xbc, 0x92, 0xbd, 
  0x5e, 0xcb, 0x02, 0x3e, 0x80, 0x32, 0x95, 0xbd, 0xc8, 0x44, 0xca, 0xbd, 
  0xed, 0x15, 0xc7, 0x3e, 0x60, 0x4a, 0xcb, 0xbc, 0x52, 0xd3, 0x0d, 0x3e, 
  0xba, 0x0e, 0x64, 0x3e, 0x1e, 0x88, 0x05, 0x3e, 0x00, 0x39, 0xcf, 0x3a, 
  0x05, 0x1e, 0xa4, 0xbe, 0xaa, 0x04, 0x91, 0xbe, 0x20, 0xbf, 0x0d, 0xbe, 
  0xba, 0x1d, 0x0f, 0xbe, 0x43, 0x28, 0x81, 0x3e, 0xad, 0x63, 0xc1, 0x3e, 
  0x08, 0x81, 0x3e, 0xbe, 0xe2, 0x87, 0x6f, 0x3e, 0xf3, 0xdc, 0xb9, 0x3e, 
  0x54, 0xec, 0xbd, 0xbe, 0x82, 0xd8, 0xbd, 0xbe, 0xe1, 0x19, 0xc6, 0xbe, 
  0x31, 0x0b, 0xb0, 0x3e, 0x6a, 0x43, 0x41, 0x3e, 0x70, 0x73, 0x26, 0xbd, 
  0xbc, 0x61, 0xbc, 0x3d, 0x00, 0x6a, 0x54, 0x3d, 0x10, 0x06, 0xf1, 0x3c, 
  0x77, 0xb8, 0x4d, 0xbe, 0xe8, 0x9d, 0xec, 0xbd, 0x92, 0xcb, 0x75, 0x3e, 
  0xe3, 0xca, 0xc6, 0xbe, 0xe2, 0x49, 0x65, 0x3e, 0x7c, 0xae, 0xbb, 0xbd, 
  0x93, 0xd2, 0x85, 0x3e, 0x48, 0x8d, 0xa8, 0xbd, 0x97, 0x93, 0x9d, 0x3e, 
  0x4f, 0x80, 0x87, 0x3e, 0x73, 0x92, 0x40, 0xbe, 0x45, 0x0b, 0x9b, 0xbe, 
  0x1b, 0x50, 0xbc, 0x3e, 0xa0, 0x6c, 0x10, 0xbc, 0xd4, 0x67, 0x88, 0xbe, 
  0xbf, 0x65, 0x21, 0xbe, 0x3f, 0xc2, 0x9f, 0x3e, 0x30, 0x62, 0x6f, 0xbd, 
  0x12, 0xdc, 0xc6, 0xbe, 0x71, 0x3c, 0x87, 0x3e, 0x70, 0xb1, 0x27, 0xbd, 
  0x80, 0xc8, 0x46, 0xbd, 0xb0, 0x00, 0xe7, 0x3c, 0x1d, 0xad, 0x8a, 0xbe, 
  0x30, 0x40, 0x25, 0xbe, 0x98, 0x58, 0xb9, 0xbe, 0xb3, 0x4c, 0xa7, 0x3e, 
  0xf5, 0x3c, 0x48, 0xbe, 0x14, 0x1b, 0x04, 0xbe, 0x3d, 0xac, 0x8b, 0x3e, 
  0x08, 0x95, 0x8e, 0x3d, 0xb8, 0x5c, 0x4c, 0x3d, 0xe8, 0xce, 0x16, 0xbe, 
  0xf2, 0xff, 0x57, 0x3e, 0x56, 0xf8, 0x1b, 0x3e, 0xd4, 0x83, 0xaf, 0xbd, 
  0xad, 0xa5, 0xa2, 0x3e, 0x00, 0x86, 0x0f, 0x3c, 0x0e, 0x09, 0x7c, 0xbe, 
  0xbd, 0xa4, 0xbe, 0xbe, 0x4a, 0x63, 0x03, 0xbe, 0x46, 0x8d, 0x19, 0xbe, 
  0x0b, 0x5a, 0x9a, 0xbe, 0x60, 0xf7, 0xb4, 0xbe, 0xaa, 0xd2, 0x50, 0x3e, 
  0x50, 0xb3, 0x56, 0x3d, 0x60, 0x67, 0x86, 0xbe, 0xfe, 0xda, 0x38, 0x3e, 
  0x40, 0x8f, 0x0b, 0xbd, 0x96, 0xb8, 0x0f, 0xbe, 0x26, 0xd4, 0x06, 0x3e, 
  0x90, 0xbc, 0xc7, 0x3c, 0xd1, 0x97, 0x90, 0x3e, 0xcd, 0x70, 0x34, 0xbe, 
  0xee, 0x64, 0xa7, 0xbe, 0x0a, 0xf7, 0xbf, 0xbe, 0xe2, 0xdd, 0x63, 0x3e, 
  0xe8, 0x57, 0x0d, 0x3d, 0x5c, 0x73, 0xc3, 0xbd, 0x1a, 0x45, 0x66, 0x3e, 
  0x60, 0xfb, 0xff, 0xff, 0x64, 0xfb, 0xff, 0xff, 0x0f, 0x00, 0x00, 0x00, 
  0x4d, 0x4c, 0x49, 0x52, 0x20, 0x43, 0x6f, 0x6e, 0x76, 0x65, 0x72, 0x74, 
  0x65, 0x64, 0x2e, 0x00, 0x01, 0x00, 0x00, 0x00, 0x14, 0x00, 0x00, 0x00, 
  0x00, 0x00, 0x0e, 0x00, 0x18, 0x00, 0x14, 0x00, 0x10, 0x00, 0x0c, 0x00, 
  0x08, 0x00, 0x04, 0x00, 0x0e, 0x00, 0x00, 0x00, 0x14, 0x00, 0x00, 0x00, 
  0x1c, 0x00, 0x00, 0x00, 0x08, 0x01, 0x00, 0x00, 0x0c, 0x01, 0x00, 0x00, 
  0x10, 0x01, 0x00, 0x00, 0x04, 0x00, 0x00, 0x00, 0x6d, 0x61, 0x69, 0x6e, 
  0x00, 0x00, 0x00, 0x00, 0x04, 0x00, 0x00, 0x00, 0xb0, 0x00, 0x00, 0x00, 
  0x68, 0x00, 0x00, 0x00, 0x34, 0x00, 0x00, 0x00, 0x10, 0x00, 0x00, 0x00, 
  0x00, 0x00, 0x0a, 0x00, 0x10, 0x00, 0x0c, 0x00, 0x08, 0x00, 0x04, 0x00, 
  0x0a, 0x00, 0x00, 0x00, 0x0c, 0x00, 0x00, 0x00, 0x10, 0x00, 0x00, 0x00, 
  0x01, 0x00, 0x00, 0x00, 0x01, 0x00, 0x00, 0x00, 0x07, 0x00, 0x00, 0x00, 
  0x01, 0x00, 0x00, 0x00, 0x06, 0x00, 0x00, 0x00, 0x9a, 0xff, 0xff, 0xff, 
  0x10, 0x00, 0x00, 0x00, 0x00, 0x00, 0x00, 0x08, 0x0c, 0x00, 0x00, 0x00, 
  0x10, 0x00, 0x00, 0x00, 0x0c, 0xfc, 0xff, 0xff, 0x01, 0x00, 0x00, 0x00, 
  0x06, 0x00, 0x00, 0x00, 0x03, 0x00, 0x00, 0x00, 0x05, 0x00, 0x00, 0x00, 
  0x03, 0x00, 0x00, 0x00, 0xff, 0xff, 0xff, 0xff, 0xca, 0xff, 0xff, 0xff, 
  0x10, 0x00, 0x00, 0x00, 0x00, 0x00, 0x00, 0x08, 0x10, 0x00, 0x00, 0x00, 
  0x14, 0x00, 0x00, 0x00, 0xba, 0xff, 0xff, 0xff, 0x00, 0x00, 0x00, 0x01, 
  0x01, 0x00, 0x00, 0x00, 0x05, 0x00, 0x00, 0x00, 0x03, 0x00, 0x00, 0x00, 
  0x04, 0x00, 0x00, 0x00, 0x02, 0x00, 0x00, 0x00, 0xff, 0xff, 0xff, 0xff, 
  0x00, 0x00, 0x0e, 0x00, 0x16, 0x00, 0x00, 0x00, 0x10, 0x00, 0x0c, 0x00, 
  0x0b, 0x00, 0x04, 0x00, 0x0e, 0x00, 0x00, 0x00, 0x18, 0x00, 0x00, 0x00, 
  0x00, 0x00, 0x00, 0x08, 0x18, 0x00, 0x00, 0x00, 0x1c, 0x00, 0x00, 0x00, 
  0x00, 0x00, 0x06, 0x00, 0x08, 0x00, 0x07, 0x00, 0x06, 0x00, 0x00, 0x00, 
  0x00, 0x00, 0x00, 0x01, 0x01, 0x00, 0x00, 0x00, 0x04, 0x00, 0x00, 0x00, 
  0x03, 0x00, 0x00, 0x00, 0x00, 0x00, 0x00, 0x00, 0x01, 0x00, 0x00, 0x00, 
  0xff, 0xff, 0xff, 0xff, 0x01, 0x00, 0x00, 0x00, 0x07, 0x00, 0x00, 0x00, 
  0x01, 0x00, 0x00, 0x00, 0x00, 0x00, 0x00, 0x00, 0x08, 0x00, 0x00, 0x00, 
  0x1c, 0x03, 0x00, 0x00, 0xb4, 0x02, 0x00, 0x00, 0x50, 0x02, 0x00, 0x00, 
  0x04, 0x02, 0x00, 0x00, 0x70, 0x01, 0x00, 0x00, 0xdc, 0x00, 0x00, 0x00, 
  0x60, 0x00, 0x00, 0x00, 0x04, 0x00, 0x00, 0x00, 0x1a, 0xfd, 0xff, 0xff, 
  0x00, 0x00, 0x00, 0x01, 0x14, 0x00, 0x00, 0x00, 0x1c, 0x00, 0x00, 0x00, 
  0x1c, 0x00, 0x00, 0x00, 0x08, 0x00, 0x00, 0x00, 0x34, 0x00, 0x00, 0x00, 
  0x02, 0x00, 0x00, 0x00, 0xff, 0xff, 0xff, 0xff, 0x08, 0x00, 0x00, 0x00, 
  0x04, 0xfd, 0xff, 0xff, 0x19, 0x00, 0x00, 0x00, 0x53, 0x74, 0x61, 0x74, 
  0x65, 0x66, 0x75, 0x6c, 0x50, 0x61, 0x72, 0x74, 0x69, 0x74, 0x69, 0x6f, 
  0x6e, 0x65, 0x64, 0x43, 0x61, 0x6c, 0x6c, 0x3a, 0x30, 0x00, 0x00, 0x00, 
  0x02, 0x00, 0x00, 0x00, 0x01, 0x00, 0x00, 0x00, 0x08, 0x00, 0x00, 0x00, 
  0x72, 0xfd, 0xff, 0xff, 0x00, 0x00, 0x00, 0x01, 0x14, 0x00, 0x00, 0x00, 
  0x1c, 0x00, 0x00, 0x00, 0x1c, 0x00, 0x00, 0x00, 0x07, 0x00, 0x00, 0x00, 
  0x54, 0x00, 0x00, 0x00, 0x02, 0x00, 0x00, 0x00, 0xff, 0xff, 0xff, 0xff, 
  0x08, 0x00, 0x00, 0x00, 0x5c, 0xfd, 0xff, 0xff, 0x38, 0x00, 0x00, 0x00, 
  0x65, 0x73, 0x70, 0x33, 0x32, 0x5f, 0x61, 0x63, 0x74, 0x6f, 0x72, 0x2f, 
  0x64, 0x65, 0x6e, 0x73, 0x65, 0x5f, 0x36, 0x35, 0x2f, 0x4d, 0x61, 0x74, 
  0x4d, 0x75, 0x6c, 0x3b, 0x65, 0x73, 0x70, 0x33, 0x32, 0x5f, 0x61, 0x63, 
  0x74, 0x6f, 0x72, 0x2f, 0x64, 0x65, 0x6e, 0x73, 0x65, 0x5f, 0x36, 0x35, 
  0x2f, 0x42, 0x69, 0x61, 0x73, 0x41, 0x64, 0x64, 0x00, 0x00, 0x00, 0x00, 
  0x02, 0x00, 0x00, 0x00, 0x01, 0x00, 0x00, 0x00, 0x08, 0x00, 0x00, 0x00, 
  0xea, 0xfd, 0xff, 0xff, 0x00, 0x00, 0x00, 0x01, 0x14, 0x00, 0x00, 0x00, 
  0x1c, 0x00, 0x00, 0x00, 0x1c, 0x00, 0x00, 0x00, 0x06, 0x00, 0x00, 0x00, 
  0x6c, 0x00, 0x00, 0x00, 0x02, 0x00, 0x00, 0x00, 0xff, 0xff, 0xff, 0xff, 
  0x20, 0x00, 0x00, 0x00, 0xd4, 0xfd, 0xff, 0xff, 0x52, 0x00, 0x00, 0x00, 
  0x65, 0x73, 0x70, 0x33, 0x32, 0x5f, 0x61, 0x63, 0x74, 0x6f, 0x72, 0x2f, 
  0x64, 0x65, 0x6e, 0x73, 0x65, 0x5f, 0x36, 0x34, 0x2f, 0x4d, 0x61, 0x74, 
  0x4d, 0x75, 0x6c, 0x3b, 0x65, 0x73, 0x70, 0x33, 0x32, 0x5f, 0x61, 0x63, 
  0x74, 0x6f, 0x72, 0x2f, 0x64, 0x65, 0x6e, 0x73, 0x65, 0x5f, 0x36, 0x34, 
  0x2f, 0x52, 0x65, 0x6c, 0x75, 0x3b, 0x65, 0x73, 0x70, 0x33, 0x32, 0x5f, 
  0x61, 0x63, 0x74, 0x6f, 0x72, 0x2f, 0x64, 0x65, 0x6e, 0x73, 0x65, 0x5f, 
  0x36, 0x34, 0x2f, 0x42, 0x69, 0x61, 0x73, 0x41, 0x64, 0x64, 0x00, 0x00, 
  0x02, 0x00, 0x00, 0x00, 0x01, 0x00, 0x00, 0x00, 0x20, 0x00, 0x00, 0x00, 
  0x7a, 0xfe, 0xff, 0xff, 0x00, 0x00, 0x00, 0x01, 0x14, 0x00, 0x00, 0x00, 
  0x1c, 0x00, 0x00, 0x00, 0x1c, 0x00, 0x00, 0x00, 0x05, 0x00, 0x00, 0x00, 
  0x6c, 0x00, 0x00, 0x00, 0x02, 0x00, 0x00, 0x00, 0xff, 0xff, 0xff, 0xff, 
  0x20, 0x00, 0x00, 0x00, 0x64, 0xfe, 0xff, 0xff, 0x52, 0x00, 0x00, 0x00, 
  0x65, 0x73, 0x70, 0x33, 0x32, 0x5f, 0x61, 0x63, 0x74, 0x6f, 0x72, 0x2f, 
  0x64, 0x65, 0x6e, 0x73, 0x65, 0x5f, 0x36, 0x33, 0x2f, 0x4d, 0x61, 0x74, 
  0x4d, 0x75, 0x6c, 0x3b, 0x65, 0x73, 0x70, 0x33, 0x32, 0x5f, 0x61, 0x63, 
  0x74, 0x6f, 0x72, 0x2f, 0x64, 0x65, 0x6e, 0x73, 0x65, 0x5f, 0x36, 0x33, 
  0x2f, 0x52, 0x65, 0x6c, 0x75, 0x3b, 0x65, 0x73, 0x70, 0x33, 0x32, 0x5f, 
  0x61, 0x63, 0x74, 0x6f, 0x72, 0x2f, 0x64, 0x65, 0x6e, 0x73, 0x65, 0x5f, 
  0x36, 0x33, 0x2f, 0x42, 0x69, 0x61, 0x73, 0x41, 0x64, 0x64, 0x00, 0x00, 
  0x02, 0x00, 0x00, 0x00, 0x01, 0x00, 0x00, 0x00, 0x20, 0x00, 0x00, 0x00, 
  0x6e, 0xff, 0xff, 0xff, 0x00, 0x00, 0x00, 0x01, 0x10, 0x00, 0x00, 0x00, 
  0x10, 0x00, 0x00, 0x00, 0x04, 0x00, 0x00, 0x00, 0x28, 0x00, 0x00, 0x00, 
  0xe4, 0xfe, 0xff, 0xff, 0x1b, 0x00, 0x00, 0x00, 0x65, 0x73, 0x70, 0x33, 
  0x32, 0x5f, 0x61, 0x63, 0x74, 0x6f, 0x72, 0x2f, 0x64, 0x65, 0x6e, 0x73, 
  0x65, 0x5f, 0x36, 0x35, 0x2f, 0x4d, 0x61, 0x74, 0x4d, 0x75, 0x6c, 0x00, 
  0x02, 0x00, 0x00, 0x00, 0x08, 0x00, 0x00, 0x00, 0x20, 0x00, 0x00, 0x00, 
  0xb6, 0xff, 0xff, 0xff, 0x00, 0x00, 0x00, 0x01, 0x10, 0x00, 0x00, 0x00, 
  0x10, 0x00, 0x00, 0x00, 0x03, 0x00, 0x00, 0x00, 0x28, 0x00, 0x00, 0x00, 
  0x2c, 0xff, 0xff, 0xff, 0x1b, 0x00, 0x00, 0x00, 0x65, 0x73, 0x70, 0x33, 
  0x32, 0x5f, 0x61, 0x63, 0x74, 0x6f, 0x72, 0x2f, 0x64, 0x65, 0x6e, 0x73, 
  0x65, 0x5f, 0x36, 0x34, 0x2f, 0x4d, 0x61, 0x74, 0x4d, 0x75, 0x6c, 0x00, 
  0x02, 0x00, 0x00, 0x00, 0x20, 0x00, 0x00, 0x00, 0x20, 0x00, 0x00, 0x00, 
  0x00, 0x00, 0x16, 0x00, 0x18, 0x00, 0x14, 0x00, 0x00, 0x00, 0x10, 0x00, 
  0x0c, 0x00, 0x08, 0x00, 0x00, 0x00, 0x00, 0x00, 0x00, 0x00, 0x07, 0x00, 
  0x16, 0x00, 0x00, 0x00, 0x00, 0x00, 0x00, 0x01, 0x10, 0x00, 0x00, 0x00, 
  0x10, 0x00, 0x00, 0x00, 0x02, 0x00, 0x00, 0x00, 0x2c, 0x00, 0x00, 0x00, 
  0x8c, 0xff, 0xff, 0xff, 0x1c, 0x00, 0x00, 0x00, 0x65, 0x73, 0x70, 0x33, 
  0x32, 0x5f, 0x61, 0x63, 0x74, 0x6f, 0x72, 0x2f, 0x64, 0x65, 0x6e, 0x73, 
  0x65, 0x5f, 0x36, 0x33, 0x2f, 0x4d, 0x61, 0x74, 0x4d, 0x75, 0x6c, 0x31, 
  0x00, 0x00, 0x00, 0x00, 0x02, 0x00, 0x00, 0x00, 0x20, 0x00, 0x00, 0x00, 
  0x07, 0x00, 0x00, 0x00, 0x00, 0x00, 0x16, 0x00, 0x1c, 0x00, 0x18, 0x00, 
  0x00, 0x00, 0x14, 0x00, 0x10, 0x00, 0x0c, 0x00, 0x00, 0x00, 0x00, 0x00, 
  0x08, 0x00, 0x07, 0x00, 0x16, 0x00, 0x00, 0x00, 0x00, 0x00, 0x00, 0x01, 
  0x14, 0x00, 0x00, 0x00, 0x20, 0x00, 0x00, 0x00, 0x20, 0x00, 0x00, 0x00, 
  0x01, 0x00, 0x00, 0x00, 0x40, 0x00, 0x00, 0x00, 0x02, 0x00, 0x00, 0x00, 
  0xff, 0xff, 0xff, 0xff, 0x07, 0x00, 0x00, 0x00, 0x04, 0x00, 0x04, 0x00, 
  0x04, 0x00, 0x00, 0x00, 0x20, 0x00, 0x00, 0x00, 0x73, 0x65, 0x72, 0x76, 
  0x69, 0x6e, 0x67, 0x5f, 0x64, 0x65, 0x66, 0x61, 0x75, 0x6c, 0x74, 0x5f, 
  0x64, 0x65, 0x6e, 0x73, 0x65, 0x5f, 0x36, 0x33, 0x5f, 0x69, 0x6e, 0x70, 
  0x75, 0x74, 0x3a, 0x30, 0x00, 0x00, 0x00, 0x00, 0x02, 0x00, 0x00, 0x00, 
  0x01, 0x00, 0x00, 0x00, 0x07, 0x00, 0x00, 0x00, 0x02, 0x00, 0x00, 0x00, 
  0x20, 0x00, 0x00, 0x00, 0x04, 0x00, 0x00, 0x00, 0xf4, 0xff, 0xff, 0xff, 
  0x1c, 0x00, 0x00, 0x00, 0x00, 0x00, 0x00, 0x1c, 0x0c, 0x00, 0x0c, 0x00, 
  0x0b, 0x00, 0x00, 0x00, 0x00, 0x00, 0x04, 0x00, 0x0c, 0x00, 0x00, 0x00, 
  0x09, 0x00, 0x00, 0x00, 0x00, 0x00, 0x00, 0x09, 
};

const unsigned int actor_model_len = 7808;
