#include "actor_task0.h"

const uint8_t actor_model[] = {

  0x1c, 0x00, 0x00, 0x00, 0x54, 0x46, 0x4c, 0x33, 0x14, 0x00, 0x20, 0x00, 
  0x1c, 0x00, 0x18, 0x00, 0x14, 0x00, 0x10, 0x00, 0x0c, 0x00, 0x00, 0x00, 
  0x08, 0x00, 0x04, 0x00, 0x14, 0x00, 0x00, 0x00, 0x1c, 0x00, 0x00, 0x00, 
  0x8c, 0x00, 0x00, 0x00, 0xe4, 0x00, 0x00, 0x00, 0x50, 0x16, 0x00, 0x00, 
  0x60, 0x16, 0x00, 0x00, 0x1c, 0x1b, 0x00, 0x00, 0x03, 0x00, 0x00, 0x00, 
  0x01, 0x00, 0x00, 0x00, 0x04, 0x00, 0x00, 0x00, 0x62, 0xe9, 0xff, 0xff, 
  0x0c, 0x00, 0x00, 0x00, 0x1c, 0x00, 0x00, 0x00, 0x3c, 0x00, 0x00, 0x00, 
  0x0f, 0x00, 0x00, 0x00, 0x73, 0x65, 0x72, 0x76, 0x69, 0x6e, 0x67, 0x5f, 
  0x64, 0x65, 0x66, 0x61, 0x75, 0x6c, 0x74, 0x00, 0x01, 0x00, 0x00, 0x00, 
  0x04, 0x00, 0x00, 0x00, 0x90, 0xff, 0xff, 0xff, 0x07, 0x00, 0x00, 0x00, 
  0x04, 0x00, 0x00, 0x00, 0x08, 0x00, 0x00, 0x00, 0x64, 0x65, 0x6e, 0x73, 
  0x65, 0x5f, 0x36, 0x35, 0x00, 0x00, 0x00, 0x00, 0x01, 0x00, 0x00, 0x00, 
  0x04, 0x00, 0x00, 0x00, 0xb2, 0xec, 0xff, 0xff, 0x04, 0x00, 0x00, 0x00, 
  0x0e, 0x00, 0x00, 0x00, 0x64, 0x65, 0x6e, 0x73, 0x65, 0x5f, 0x36, 0x33, 
  0x5f, 0x69, 0x6e, 0x70, 0x75, 0x74, 0x00, 0x00, 0x02, 0x00, 0x00, 0x00, 
  0x34, 0x00, 0x00, 0x00, 0x04, 0x00, 0x00, 0x00, 0xdc, 0xff, 0xff, 0xff, 
  0x0a, 0x00, 0x00, 0x00, 0x04, 0x00, 0x00, 0x00, 0x13, 0x00, 0x00, 0x00, 
  0x43, 0x4f, 0x4e, 0x56, 0x45, 0x52, 0x53, 0x49, 0x4f, 0x4e, 0x5f, 0x4d, 
  0x45, 0x54, 0x41, 0x44, 0x41, 0x54, 0x41, 0x00, 0x08, 0x00, 0x0c, 0x00, 
  0x08, 0x00, 0x04, 0x00, 0x08, 0x00, 0x00, 0x00, 0x09, 0x00, 0x00, 0x00, 
  0x04, 0x00, 0x00, 0x00, 0x13, 0x00, 0x00, 0x00, 0x6d, 0x69, 0x6e, 0x5f, 
  0x72, 0x75, 0x6e, 0x74, 0x69, 0x6d, 0x65, 0x5f, 0x76, 0x65, 0x72, 0x73, 
  0x69, 0x6f, 0x6e, 0x00, 0x0b, 0x00, 0x00, 0x00, 0x68, 0x15, 0x00, 0x00, 
  0x60, 0x15, 0x00, 0x00, 0xd0, 0x12, 0x00, 0x00, 0xb8, 0x02, 0x00, 0x00, 
  0xa8, 0x00, 0x00, 0x00, 0xa0, 0x00, 0x00, 0x00, 0x98, 0x00, 0x00, 0x00, 
  0x90, 0x00, 0x00, 0x00, 0x88, 0x00, 0x00, 0x00, 0x68, 0x00, 0x00, 0x00, 
  0x04, 0x00, 0x00, 0x00, 0x5a, 0xed, 0xff, 0xff, 0x04, 0x00, 0x00, 0x00, 
  0x54, 0x00, 0x00, 0x00, 0x0c, 0x00, 0x00, 0x00, 0x08, 0x00, 0x0e, 0x00, 
  0x08, 0x00, 0x04, 0x00, 0x08, 0x00, 0x00, 0x00, 0x10, 0x00, 0x00, 0x00, 
  0x24, 0x00, 0x00, 0x00, 0x00, 0x00, 0x06, 0x00, 0x08, 0x00, 0x04, 0x00, 
  0x06, 0x00, 0x00, 0x00, 0x04, 0x00, 0x00, 0x00, 0x00, 0x00, 0x00, 0x00, 
  0x00, 0x00, 0x0a, 0x00, 0x10, 0x00, 0x0c, 0x00, 0x08, 0x00, 0x04, 0x00, 
  0x0a, 0x00, 0x00, 0x00, 0x02, 0x00, 0x00, 0x00, 0x02, 0x00, 0x00, 0x00, 
  0x04, 0x00, 0x00, 0x00, 0x06, 0x00, 0x00, 0x00, 0x32, 0x2e, 0x31, 0x33, 
  0x2e, 0x30, 0x00, 0x00, 0xba, 0xed, 0xff, 0xff, 0x04, 0x00, 0x00, 0x00, 
  0x10, 0x00, 0x00, 0x00, 0x31, 0x2e, 0x31, 0x34, 0x2e, 0x30, 0x00, 0x00, 
  0x00, 0x00, 0x00, 0x00, 0x00, 0x00, 0x00, 0x00, 0xa4, 0xe6, 0xff, 0xff, 
  0xa8, 0xe6, 0xff, 0xff, 0xac, 0xe6, 0xff, 0xff, 0xb0, 0xe6, 0xff, 0xff, 
  0xe6, 0xed, 0xff, 0xff, 0x04, 0x00, 0x00, 0x00, 0x00, 0x02, 0x00, 0x00, 
  0xd2, 0x25, 0xb0, 0x3e, 0x94, 0x49, 0xab, 0xbe, 0x0e, 0x6c, 0x93, 0xbe, 
  0x80, 0x73, 0x64, 0xbd, 0xbe, 0x32, 0xac, 0x3e, 0xec, 0x8a, 0x26, 0x3e, 
  0xe8, 0x09, 0x10, 0xbd, 0x80, 0x9d, 0xdb, 0xbc, 0x04, 0xe1, 0xb4, 0xbe, 
  0x81, 0x87, 0xc3, 0xbe, 0x90, 0xd3, 0xe0, 0x3d, 0x8e, 0x18, 0xc0, 0x3e, 
  0x00, 0xdc, 0x22, 0x3c, 0xa8, 0x98, 0xfd, 0x3d, 0xd3, 0x86, 0xc0, 0xbe, 
  0x36, 0x6c, 0xb7, 0x3e, 0xb0, 0x2f, 0x0f, 0xbd, 0xe2, 0xab, 0x9c, 0xbe, 
  0xe0, 0xc0, 0x98, 0xbc, 0xa8, 0xcd, 0x5c, 0xbd, 0xf4, 0x2b, 0x7a, 0x3e, 
  0xd2, 0x71, 0x14, 0xbe, 0xa2, 0x18, 0x89, 0xbe, 0xd5, 0x55, 0x93, 0xbe, 
  0xcc, 0xfa, 0x9e, 0xbe, 0x40, 0x7d, 0x59, 0x3c, 0x7e, 0xcc, 0xcf, 0x3e, 
  0x50, 0x33, 0x11, 0xbd, 0x9d, 0x8d, 0xc3, 0xbe, 0x7c, 0x75, 0x04, 0xbe, 
  0x80, 0x96, 0xd1, 0xbb, 0xc0, 0xdc, 0xf2, 0x3d, 0xcc, 0x03, 0xb5, 0x3e, 
  0x82, 0xb6, 0xbd, 0xbe, 0x92, 0xa4, 0xc1, 0xbe, 0x80, 0x3f, 0xd8, 0xbc, 
  0x08, 0x30, 0x45, 0xbe, 0x82, 0xa1, 0x8f, 0xbe, 0xb2, 0xb0, 0x24, 0xbe, 
  0x20, 0xb0, 0xb6, 0x3e, 0x2c, 0x0b, 0xb0, 0x3e, 0x44, 0xde, 0xbb, 0x3e, 
  0x18, 0x4e, 0x05, 0x3d, 0x68, 0x1b, 0xd8, 0x3d, 0xf0, 0xff, 0x39, 0x3d, 
  0x9e, 0xca, 0xa9, 0xbe, 0x80, 0x2c, 0x41, 0x3e, 0xf9, 0xb5, 0x5c, 0xbe, 
  0xbc, 0x88, 0xc6, 0x3e, 0x36, 0x91, 0xcd, 0xbe, 0x4c, 0x65, 0x2d, 0xbe, 
  0x56, 0x33, 0x52, 0xbe, 0x76, 0x82, 0xaa, 0x3e, 0xfb, 0x20, 0x28, 0xbe, 
  0x37, 0xf6, 0x95, 0xbe, 0xc0, 0x32, 0xd2, 0xbd, 0x50, 0x2a, 0x99, 0xbe, 
  0xf0, 0x85, 0x8f, 0xbc, 0x20, 0x15, 0x79, 0x3e, 0xe7, 0x59, 0x2a, 0xbe, 
  0xd7, 0xc3, 0x9d, 0xbe, 0xac, 0x8a, 0x01, 0xbe, 0xd8, 0x9b, 0xe5, 0xbd, 
  0x04, 0x28, 0x87, 0xbd, 0xe4, 0x7a, 0x85, 0xbe, 0xe0, 0x6f, 0x6f, 0x3e, 
  0x84, 0x08, 0x8c, 0x3e, 0xc0, 0xf1, 0x4c, 0xbe, 0xc5, 0x52, 0x25, 0xbe, 
  0x60, 0xeb, 0x9c, 0xbd, 0x90, 0xfd, 0x5d, 0x3e, 0x3c, 0x28, 0xed, 0xbd, 
  0x20, 0xd5, 0x97, 0x3c, 0x7c, 0x78, 0x25, 0x3e, 0x00, 0xc2, 0x6a, 0x3e, 
  0x08, 0xad, 0x7e, 0x3e, 0x0e, 0xc2, 0xaf, 0x3e, 0x60, 0xcf, 0x77, 0x3c, 
  0xd8, 0x85, 0x38, 0x3e, 0x96, 0x64, 0xa7, 0x3e, 0xf5, 0x66, 0x88, 0xbe, 
  0x10, 0x68, 0xb8, 0xbe, 0x00, 0xef, 0xe3, 0x3b, 0xd0, 0xeb, 0x59, 0x3e, 
  0x6c, 0xd2, 0xa7, 0x3e, 0x80, 0x2b, 0xce, 0x3d, 0x1e, 0x92, 0xbf, 0xbe, 
  0x44, 0x21, 0xb9, 0x3e, 0xa8, 0x01, 0xcd, 0x3e, 0x0c, 0x79, 0xb4, 0xbd, 
  0xec, 0x6f, 0x85, 0xbe, 0x68, 0xdf, 0x82, 0x3e, 0x9e, 0x64, 0x86, 0xbe, 
  0x06, 0x4c, 0x8a, 0x3e, 0x1c, 0xd0, 0xd1, 0xbd, 0x15, 0x5c, 0xc5, 0xbe, 
  0x88, 0xe2, 0x70, 0x3d, 0x68, 0xfc, 0x99, 0x3d, 0x40, 0x61, 0x60, 0xbd, 
  0x58, 0x6e, 0x3b, 0x3d, 0x34, 0x93, 0x90, 0x3e, 0xa0, 0x5e, 0xf3, 0xbd, 
  0x00, 0x84, 0xee, 0xb9, 0x6a, 0xdc, 0xc5, 0xbe, 0x0a, 0xd1, 0x16, 0xbe, 
  0x2e, 0x82, 0x92, 0xbe, 0xc1, 0xf4, 0x3c, 0xbe, 0x70, 0x52, 0x37, 0xbe, 
  0xf8, 0x6b, 0xd9, 0xbd, 0x0f, 0xaf, 0x4a, 0xbe, 0x64, 0x6e, 0xa7, 0xbd, 
  0x00, 0xa1, 0xf7, 0x3c, 0x0e, 0x0c, 0x0d, 0xbe, 0x0c, 0x15, 0x71, 0x3e, 
  0x00, 0x06, 0x95, 0x3e, 0xe0, 0xde, 0x03, 0xbc, 0xe0, 0x29, 0xdf, 0x3d, 
  0xf0, 0x66, 0x8a, 0xbe, 0x2c, 0x08, 0x59, 0xbe, 0xfa, 0x28, 0x97, 0x3e, 
  0x57, 0xfe, 0xb6, 0xbe, 0x30, 0xb2, 0x21, 0xbe, 0xeb, 0x8d, 0xc9, 0xbe, 
  0x50, 0x10, 0x7f, 0x3e, 0x54, 0xca, 0x0e, 0x3e, 0x79, 0x48, 0x34, 0xbe, 
  0xf6, 0x39, 0xa3, 0xbe, 0x1a, 0xc4, 0x16, 0xbe, 0xf2, 0xef, 0xff, 0xff, 
  0x04, 0x00, 0x00, 0x00, 0x00, 0x10, 0x00, 0x00, 0xe9, 0x0b, 0x88, 0x3e, 
  0x05, 0xcf, 0x27, 0xbe, 0x40, 0x58, 0x46, 0x3d, 0x86, 0xcc, 0x7b, 0xbe, 
  0xda, 0x98, 0x50, 0x3e, 0x28, 0xaa, 0x36, 0x3e, 0x90, 0x64, 0x38, 0xbd, 
  0x40, 0x60, 0xce, 0xbc, 0xd0, 0x3a, 0x8d, 0xbd, 0xc0, 0x0e, 0xd5, 0xbd, 
  0x35, 0xa9, 0x99, 0xbe, 0x03, 0x09, 0x97, 0x3e, 0x6c, 0xe7, 0x31, 0x3e, 
  0xe4, 0x9a, 0x44, 0xbe, 0xb0, 0x2b, 0xcd, 0x3d, 0x98, 0x31, 0x15, 0xbe, 
  0xfc, 0x52, 0x58, 0xbe, 0xa2, 0xd3, 0x2b, 0x3e, 0x9e, 0xb4, 0xe3, 0xbd, 
  0x80, 0x22, 0x9b, 0x3c, 0xc7, 0x99, 0x95, 0x3e, 0x02, 0xf7, 0x2e, 0x3e, 
  0x1d, 0x13, 0x1d, 0xbe, 0x1e, 0x61, 0x92, 0xbe, 0xa9, 0xa3, 0x9b, 0x3e, 
  0xa8, 0x73, 0x0d, 0xbd, 0x14, 0x7d, 0xc4, 0x3d, 0x97, 0xfe, 0x34, 0xbe, 
  0x10, 0x00, 0xf1, 0xbc, 0x6e, 0x0b, 0x2f, 0x3e, 0xb8, 0xa9, 0x6b, 0x3d, 
  0xbd, 0xdb, 0x86, 0x3e, 0x32, 0x6d, 0x07, 0x3e, 0x60, 0x72, 0xf3, 0xbc, 
  0x72, 0x0a, 0xe2, 0xbd, 0x06, 0xf9, 0x3a, 0x3e, 0x00, 0x70, 0xd5, 0xbc, 
  0xa3, 0x32, 0x96, 0xbe, 0xd0, 0xe3, 0x3a, 0xbd, 0xda, 0x3e, 0x5c, 0x3e, 
  0x70, 0xfb, 0x59, 0xbe, 0x3a, 0x04, 0x5e, 0x3e, 0x66, 0xf3, 0x65, 0x3e, 
  0x50, 0x95, 0x8b, 0x3c, 0xc6, 0x58, 0x8d, 0xbe, 0xac, 0x62, 0xdf, 0xbd, 
  0xb0, 0x1f, 0xad, 0x3d, 0xcc, 0x5a, 0xb6, 0x3d, 0x18, 0x7e, 0x14, 0xbe, 
  0x92, 0xdf, 0x73, 0x3e, 0x1b, 0x3c, 0x57, 0xbe, 0x78, 0xe2, 0xb2, 0x3d, 
  0x72, 0xc0, 0x3d, 0xbe, 0xa6, 0xd2, 0xe2, 0xbd, 0x3c, 0x1c, 0x13, 0x3e, 
  0x60, 0x5d, 0xa8, 0x3d, 0x84, 0x41, 0x30, 0x3e, 0xaa, 0xa7, 0x6d, 0x3e, 
  0x3d, 0x19, 0x27, 0xbe, 0x3e, 0x01, 0xec, 0xbd, 0xa2, 0x89, 0x6d, 0x3e, 
  0x40, 0xf6, 0xf6, 0x3d, 0x14, 0x15, 0x45, 0x3e, 0x70, 0x66, 0xdd, 0xbd, 
  0x30, 0xe6, 0x27, 0xbd, 0xa0, 0x28, 0x03, 0x3d, 0xec, 0x75, 0x81, 0xbe, 
  0x0c, 0x2e, 0x37, 0x3e, 0xba, 0x82, 0x8a, 0xbe, 0x70, 0x74, 0x60, 0xbd, 
  0xd5, 0xcc, 0x91, 0x3e, 0x1c, 0x56, 0x1f, 0x3e, 0x20, 0xd9, 0x3f, 0x3d, 
  0x42, 0xbf, 0x63, 0x3e, 0x58, 0xb4, 0x1c, 0x3e, 0x32, 0x36, 0x5f, 0xbe, 
  0x96, 0x8b, 0xc8, 0xbd, 0x48, 0x54, 0xfe, 0xbd, 0x1e, 0xf4, 0x77, 0x3e, 
  0xc0, 0xd1, 0xf4, 0x3d, 0xa8, 0xf9, 0x48, 0xbe, 0x18, 0x81, 0x26, 0xbd, 
  0x92, 0xa1, 0xf8, 0xbd, 0x3c, 0xfa, 0x99, 0xbe, 0xd3, 0xb2, 0x9c, 0xbe, 
  0x66, 0xde, 0x34, 0xbe, 0x80, 0x08, 0x4b, 0xbd, 0x36, 0x3a, 0x4c, 0x3e, 
  0x84, 0xbe, 0x2c, 0xbe, 0x42, 0x37, 0x11, 0x3e, 0xa4, 0x1f, 0x22, 0x3e, 
  0xb0, 0x6d, 0x25, 0xbe, 0x98, 0x18, 0xd6, 0x3d, 0x00, 0x52, 0x3b, 0xbc, 
  0x68, 0x8c, 0x75, 0x3d, 0xd0, 0x1a, 0x4e, 0xbe, 0x42, 0x7b, 0xba, 0xbd, 
  0x9c, 0xdf, 0x4f, 0xbe, 0x9b, 0x94, 0x91, 0x3e, 0xb0, 0x53, 0xd4, 0x3c, 
  0x18, 0xfd, 0xf2, 0x3d, 0xca, 0xea, 0xe9, 0xbd, 0x5f, 0x17, 0x37, 0xbe, 
  0x0a, 0x0c, 0x7f, 0x3e, 0x0e, 0xf1, 0x7a, 0x3e, 0x00, 0xe8, 0x40, 0x39, 
  0xdf, 0x47, 0x86, 0xbe, 0xa2, 0xe9, 0x64, 0xbe, 0xa0, 0x3a, 0x59, 0xbd, 
  0x38, 0x6c, 0xca, 0x3d, 0x8c, 0x8e, 0x9f, 0xbd, 0x4e, 0x1d, 0x3b, 0x3e, 
  0x00, 0xb4, 0x2e, 0xbc, 0x80, 0xec, 0xe6, 0xbb, 0x49, 0x01, 0x97, 0xbe, 
  0x48, 0x8d, 0xec, 0xbd, 0x42, 0xcb, 0x0f, 0x3e, 0x13, 0x54, 0x86, 0x3e, 
  0xf9, 0x98, 0x32, 0xbe, 0x4f, 0x50, 0x02, 0xbe, 0xd0, 0xa8, 0x2f, 0x3d, 
  0x92, 0x98, 0x66, 0x3e, 0xac, 0xa8, 0x12, 0xbe, 0x44, 0x6a, 0xfc, 0xbd, 
  0x58, 0x93, 0xcb, 0x3d, 0xf5, 0x4b, 0x63, 0xbe, 0x98, 0x7a, 0x83, 0xbd, 
  0xa0, 0xc0, 0x1f, 0x3c, 0xd8, 0xc0, 0xed, 0xbd, 0xa6, 0x0a, 0xa2, 0xbd, 
  0xf4, 0x05, 0x1a, 0xbe, 0x1c, 0x4d, 0xd2, 0xbd, 0x40, 0x12, 0x75, 0x3d, 
  0xf0, 0x1a, 0xd7, 0x3d, 0x00, 0x54, 0xa9, 0xbb, 0xb8, 0xe8, 0x53, 0xbe, 
  0x98, 0xa9, 0x3b, 0xbe, 0x4d, 0xe1, 0x8f, 0x3e, 0x48, 0xa6, 0x42, 0x3d, 
  0x99, 0x86, 0x92, 0xbe, 0x7c, 0xc7, 0xa2, 0xbd, 0x06, 0x11, 0x6f, 0x3e, 
  0xf4, 0x49, 0x9e, 0x3d, 0x60, 0x8a, 0x0c, 0xbc, 0x18, 0x87, 0x3b, 0x3d, 
  0x0f, 0x03, 0x0c, 0xbe, 0x28, 0x0d, 0x4b, 0xbd, 0xf0, 0x64, 0xc6, 0x3c, 
  0x32, 0x74, 0x5f, 0x3e, 0x6e, 0xaa, 0x10, 0xbe, 0xc1, 0x50, 0x1f, 0xbe, 
  0x56, 0x88, 0x41, 0xbe, 0x5e, 0xe0, 0x91, 0xbe, 0xf0, 0x26, 0x56, 0x3d, 
  0x78, 0xb1, 0x21, 0xbe, 0x4c, 0x08, 0x41, 0x3e, 0xde, 0xee, 0x33, 0x3e, 
  0x2c, 0x58, 0x85, 0x3d, 0x00, 0x71, 0x76, 0x3b, 0xfa, 0x44, 0x05, 0x3e, 
  0xd8, 0xeb, 0xdf, 0x3d, 0x4b, 0x03, 0x76, 0xbe, 0x04, 0xf8, 0xf2, 0x3d, 
  0x4a, 0x8a, 0x89, 0xbe, 0xd6, 0x55, 0xa0, 0xbd, 0xe6, 0xd5, 0x43, 0xbe, 
  0xc7, 0xbb, 0x8d, 0x3e, 0x6f, 0xba, 0x37, 0xbe, 0xaa, 0x91, 0x71, 0x3e, 
  0xd1, 0x84, 0x92, 0x3e, 0xc8, 0x46, 0xbe, 0x3d, 0x82, 0x69, 0x3b, 0xbe, 
  0xc0, 0x29, 0x60, 0xbc, 0x69, 0xe9, 0x9b, 0x3e, 0xf0, 0x5d, 0x55, 0xbe, 
  0xfe, 0x4b, 0x78, 0xbe, 0x07, 0x1e, 0x86, 0x3e, 0x70, 0x7b, 0x8c, 0xbc, 
  0x1c, 0x3b, 0x08, 0x3e, 0x86, 0x79, 0x09, 0x3e, 0xe7, 0xfe, 0x84, 0x3e, 
  0x1a, 0x86, 0x0d, 0x3e, 0x50, 0x48, 0x83, 0xbe, 0x60, 0xb2, 0x3a, 0x3d, 
  0x66, 0x9a, 0x50, 0x3e, 0x58, 0x39, 0x30, 0x3e, 0x97, 0x5a, 0x21, 0xbe, 
  0x96, 0xaf, 0x8f, 0xbe, 0xb5, 0xe4, 0x9a, 0x3e, 0x58, 0xdb, 0xf6, 0xbd, 
  0x2c, 0x0e, 0x97, 0x3d, 0xb6, 0x17, 0x6d, 0x3e, 0xd0, 0x92, 0x2b, 0xbd, 
  0x08, 0xd7, 0x52, 0x3d, 0x44, 0x7c, 0x4f, 0xbe, 0xa6, 0x82, 0x65, 0x3e, 
  0x2c, 0x02, 0xd6, 0x3d, 0x10, 0x6a, 0xb5, 0xbd, 0x40, 0x69, 0x25, 0xbe, 
  0x3e, 0x41, 0x2f, 0x3e, 0x58, 0x7d, 0x75, 0x3d, 0xa0, 0xf0, 0xcf, 0xbc, 
  0xb8, 0xba, 0x22, 0x3e, 0x28, 0x41, 0xf0, 0xbd, 0xba, 0x0f, 0x6a, 0xbe, 
  0x4a, 0x53, 0x7e, 0xbe, 0xc9, 0x32, 0x85, 0x3e, 0x40, 0xfd, 0x36, 0xbe, 
  0x3f, 0x74, 0x97, 0x3e, 0x85, 0xd2, 0x8d, 0x3e, 0xac, 0x07, 0x9f, 0x3d, 
  0x38, 0x06, 0x8d, 0xbe, 0xba, 0x56, 0x60, 0x3e, 0x18, 0x5c, 0xc9, 0x3d, 
  0xd4, 0x1f, 0x81, 0xbd, 0x70, 0x04, 0xc3, 0x3c, 0x92, 0xed, 0x92, 0xbe, 
  0x70, 0x3a, 0x6d, 0x3d, 0x86, 0x65, 0x33, 0x3e, 0xfa, 0x56, 0x18, 0xbe, 
  0xfe, 0x3f, 0x3e, 0x3e, 0xc0, 0x6a, 0x91, 0x3b, 0xba, 0xc9, 0x22, 0x3e, 
  0x10, 0xb6, 0x34, 0x3d, 0x75, 0x90, 0x85, 0xbe, 0x23, 0x56, 0x1e, 0xbe, 
  0x30, 0x59, 0x1a, 0xbd, 0xef, 0x62, 0x92, 0x3e, 0x94, 0xb9, 0x91, 0xbd, 
  0xc2, 0xe3, 0x23, 0x3e, 0x3f, 0x16, 0x81, 0x3e, 0x7a, 0x3f, 0x0a, 0x3e, 
  0xcb, 0x8f, 0x29, 0xbe, 0x56, 0x1f, 0x90, 0xbe, 0x5b, 0x5c, 0x87, 0x3e, 
  0x90, 0x2d, 0xaa, 0x3c, 0xe3, 0x5a, 0x82, 0x3e, 0x10, 0x4f, 0xf7, 0x3c, 
  0xa0, 0x08, 0x13, 0xbd, 0x44, 0x18, 0x55, 0xbe, 0x80, 0xe9, 0x4c, 0x3d, 
  0x5b, 0x57, 0x21, 0xbe, 0xae, 0xc8, 0x21, 0x3e, 0x2f, 0x75, 0x9a, 0x3e, 
  0x01, 0x5d, 0x9b, 0x3e, 0x05, 0xa1, 0x9a, 0x3e, 0x3c, 0x68, 0x8c, 0xbe, 
  0x99, 0x06, 0x89, 0xbe, 0x69, 0x07, 0x9c, 0x3e, 0x4e, 0x4c, 0x0b, 0xbe, 
  0xe4, 0x61, 0x82, 0x3d, 0xa6, 0xfe, 0x5b, 0x3e, 0x44, 0xf3, 0xee, 0xbd, 
  0x80, 0xe3, 0x38, 0x3b, 0x50, 0xc4, 0xcb, 0x3c, 0xd0, 0x20, 0xb2, 0x3d, 
  0x5a, 0x02, 0xff, 0xbd, 0x95, 0x65, 0x9a, 0xbe, 0x26, 0x65, 0x66, 0x3e, 
  0x88, 0xa8, 0x6f, 0xbd, 0x0e, 0xb9, 0x72, 0x3e, 0xf0, 0xef, 0x2f, 0x3e, 
  0x26, 0x66, 0x08, 0x3e, 0xe0, 0xed, 0xbf, 0x3c, 0x46, 0x06, 0x68, 0xbe, 
  0x10, 0x93, 0xb6, 0xbd, 0xe2, 0x6c, 0x71, 0x3e, 0x92, 0x90, 0x7f, 0xbe, 
  0x2d, 0x54, 0x82, 0xbe, 0xc8, 0x99, 0x10, 0x3e, 0x04, 0x16, 0x8e, 0xbe, 
  0x08, 0x79, 0x2d, 0x3d, 0xf0, 0x50, 0x0f, 0xbe, 0xa0, 0xb8, 0xb8, 0xbc, 
  0x46, 0x06, 0x86, 0xbd, 0xc6, 0x4e, 0xbd, 0xbd, 0x66, 0xc3, 0x1d, 0xbe, 
  0x10, 0x0c, 0x1e, 0xbd, 0x5e, 0xec, 0x98, 0xbe, 0xfc, 0xf1, 0x1e, 0x3e, 
  0x52, 0x84, 0x4c, 0x3e, 0xa4, 0x3b, 0x71, 0xbe, 0x21, 0x00, 0x8e, 0x3e, 
  0x54, 0x02, 0x5c, 0xbe, 0xdf, 0x41, 0x7e, 0xbe, 0xde, 0x4f, 0x17, 0x3e, 
  0x22, 0x56, 0x7e, 0x3e, 0x48, 0xbe, 0x0b, 0xbe, 0xbc, 0x2f, 0xd8, 0x3d, 
  0x2c, 0x70, 0xa8, 0xbd, 0x32, 0xd0, 0x4e, 0x3e, 0xe0, 0x50, 0x1b, 0xbd, 
  0xd8, 0x48, 0x10, 0x3d, 0xce, 0x3d, 0x1b, 0x3e, 0x7c, 0x42, 0x1a, 0xbe, 
  0x70, 0x66, 0xbd, 0xbc, 0x58, 0x51, 0x08, 0x3e, 0xb8, 0xbd, 0xb4, 0x3d, 
  0x67, 0x20, 0x09, 0xbe, 0x30, 0xe0, 0x0b, 0x3d, 0xd8, 0x73, 0xf5, 0xbd, 
  0xc0, 0x3b, 0xcc, 0x3d, 0x30, 0xfd, 0xd3, 0x3c, 0xdc, 0xa8, 0x9d, 0xbd, 
  0x10, 0xac, 0x2d, 0x3d, 0xdf, 0x6a, 0x15, 0xbe, 0x2e, 0x66, 0x4a, 0x3e, 
  0x72, 0x84, 0x72, 0xbe, 0xec, 0xf3, 0xfb, 0x3d, 0xcc, 0x17, 0x82, 0x3d, 
  0x70, 0xb0, 0x76, 0x3d, 0x38, 0x66, 0x5a, 0xbe, 0x00, 0x64, 0x0e, 0x3b, 
  0x60, 0xb1, 0xdf, 0x3c, 0x84, 0xc8, 0xfe, 0xbd, 0xa2, 0xde, 0xd3, 0xbd, 
  0xec, 0xe7, 0xbf, 0xbd, 0x00, 0x8c, 0x15, 0x3c, 0x15, 0xd6, 0x46, 0xbe, 
  0xa0, 0x5e, 0xcd, 0x3c, 0x86, 0x0c, 0x43, 0x3e, 0xa1, 0x01, 0x89, 0x3e, 
  0x02, 0xc3, 0x4a, 0x3e, 0x78, 0x12, 0xa0, 0x3d, 0x2a, 0x5f, 0x36, 0x3e, 
  0x0e, 0x41, 0x13, 0xbe, 0xb0, 0x48, 0x8b, 0x3d, 0x96, 0x9e, 0x42, 0xbe, 
  0xf5, 0x9d, 0x89, 0x3e, 0x41, 0x6a, 0x85, 0x3e, 0x1e, 0xba, 0x82, 0xbe, 
  0x86, 0x39, 0xa9, 0xbd, 0x5e, 0xdb, 0x9c, 0xbd, 0xb4, 0x31, 0x07, 0xbe, 
  0xbd, 0xa4, 0x00, 0xbe, 0xea, 0x86, 0x62, 0x3e, 0x81, 0x0f, 0x85, 0xbe, 
  0x78, 0x0b, 0x0d, 0xbd, 0xe0, 0x73, 0x29, 0x3c, 0x78, 0xbc, 0xe8, 0xbd, 
  0x36, 0xba, 0x3f, 0x3e, 0x68, 0x1b, 0x76, 0x3d, 0xa1, 0x5c, 0x9c, 0x3e, 
  0xe0, 0x9f, 0x3d, 0x3e, 0x41, 0x82, 0x8a, 0x3e, 0xee, 0x0e, 0x83, 0xbe, 
  0xdc, 0x99, 0x7c, 0xbe, 0x45, 0xe3, 0x2d, 0xbe, 0xe8, 0x18, 0x5a, 0x3d, 
  0xa6, 0x9b, 0x7d, 0x3e, 0x35, 0x7f, 0x9a, 0x3e, 0x8f, 0x7c, 0x86, 0x3e, 
  0x3a, 0x4f, 0x33, 0x3e, 0x7e, 0x21, 0x35, 0xbe, 0xbf, 0x81, 0x91, 0x3e, 
  0xfa, 0x99, 0x29, 0x3e, 0xd6, 0xce, 0x5a, 0x3e, 0x36, 0x37, 0x4c, 0xbe, 
  0xa2, 0xe7, 0x97, 0xbe, 0x63, 0x70, 0x88, 0x3e, 0x9e, 0x83, 0x10, 0x3e, 
  0xc2, 0x38, 0x27, 0x3e, 0xa4, 0x20, 0x8e, 0x3d, 0x9c, 0x63, 0x70, 0xbd, 
  0x42, 0x51, 0x1c, 0xbe, 0x00, 0x20, 0x1c, 0xbc, 0x10, 0x6a, 0xf4, 0x3c, 
  0x94, 0x20, 0xe8, 0x3d, 0x88, 0x3e, 0x4b, 0xbd, 0x94, 0xbd, 0xdc, 0xbd, 
  0x84, 0xf7, 0xe3, 0xbd, 0x7c, 0x54, 0x4b, 0xbe, 0x54, 0x52, 0x42, 0xbe, 
  0xa2, 0x7f, 0x68, 0x3e, 0x03, 0x2c, 0x9c, 0x3e, 0x66, 0xd1, 0x64, 0x3e, 
  0x1a, 0x98, 0x33, 0x3e, 0x82, 0xb8, 0x5e, 0x3e, 0x1f, 0x05, 0x99, 0xbe, 
  0x9a, 0x6c, 0x31, 0xbe, 0x00, 0x94, 0xa8, 0x3c, 0xc8, 0xb5, 0x46, 0x3d, 
  0xcc, 0x4d, 0x88, 0xbe, 0x28, 0x69, 0x27, 0x3e, 0x28, 0x7a, 0x4e, 0xbd, 
  0xb0, 0x77, 0x54, 0xbd, 0x5e, 0x81, 0xb5, 0xbd, 0x68, 0x61, 0x23, 0xbd, 
  0x70, 0x43, 0xd5, 0xbc, 0xa4, 0x85, 0xf1, 0x3d, 0xd6, 0xf0, 0xb7, 0xbd, 
  0x30, 0x1a, 0x42, 0xbd, 0x06, 0x09, 0x55, 0x3e, 0xb8, 0xd6, 0x8c, 0xbe, 
  0x5a, 0x09, 0x60, 0xbe, 0xb0, 0xe4, 0x9f, 0x3c, 0xda, 0xe5, 0x98, 0xbe, 
  0xb3, 0x1d, 0x8c, 0xbe, 0xfa, 0xe2, 0x6a, 0xbe, 0xce, 0x74, 0xbc, 0xbd, 
  0xa0, 0x75, 0x74, 0x3d, 0xe8, 0x60, 0x99, 0x3d, 0xd0, 0xad, 0x0d, 0xbd, 
  0x31, 0x2d, 0x97, 0xbe, 0x29, 0x06, 0x55, 0xbe, 0x93, 0x8f, 0x02, 0xbe, 
  0x28, 0x6b, 0x6e, 0xbd, 0xba, 0x89, 0x8c, 0xbd, 0x1f, 0xed, 0x92, 0xbe, 
  0x50, 0xcb, 0x2f, 0x3e, 0x80, 0xae, 0x2e, 0xbd, 0xb2, 0x78, 0x94, 0xbd, 
  0x78, 0xf6, 0xe2, 0x3d, 0x18, 0xf4, 0x1b, 0x3d, 0x7a, 0x28, 0x90, 0xbd, 
  0x00, 0xc2, 0x79, 0xbb, 0x9a, 0x21, 0x57, 0x3e, 0xa4, 0xb6, 0x44, 0xbe, 
  0xa0, 0xf5, 0xfc, 0xbd, 0x92, 0x64, 0x8d, 0xbd, 0xfc, 0xfb, 0x1d, 0xbe, 
  0xb3, 0xde, 0x0b, 0xbe, 0xa6, 0xf8, 0x7e, 0xbe, 0x86, 0xb7, 0x65, 0x3e, 
  0xe0, 0x2e, 0xea, 0x3d, 0x74, 0xe0, 0x3e, 0x3e, 0xe9, 0x5d, 0x93, 0x3e, 
  0x6c, 0x00, 0x5f, 0xbe, 0x18, 0x14, 0x41, 0x3d, 0xd8, 0xbe, 0x5a, 0x3d, 
  0x40, 0x10, 0x01, 0x3d, 0xaa, 0x58, 0x6f, 0x3e, 0xa0, 0xa9, 0xc4, 0x3d, 
  0x68, 0x6f, 0x34, 0xbe, 0x6f, 0x64, 0x83, 0x3e, 0x11, 0xca, 0x2f, 0xbe, 
  0xca, 0xd3, 0x6c, 0x3e, 0xc2, 0x9e, 0x7f, 0x3e, 0x90, 0x41, 0x19, 0x3d, 
  0xde, 0x5b, 0x54, 0x3e, 0x61, 0xfa, 0x0a, 0xbe, 0xdf, 0x86, 0x1f, 0xbe, 
  0xa0, 0x9d, 0x3a, 0x3d, 0x54, 0xe1, 0x88, 0xbe, 0xc0, 0x44, 0x9d, 0xbc, 
  0xda, 0xe6, 0x50, 0xbe, 0xa8, 0xe4, 0x13, 0xbe, 0x4e, 0xbc, 0x5d, 0x3e, 
  0x61, 0xe6, 0x00, 0xbe, 0x30, 0x6d, 0x85, 0xbc, 0xa4, 0x90, 0xc5, 0x3d, 
  0xa0, 0x07, 0x6e, 0x3c, 0x9c, 0x58, 0x87, 0x3d, 0xc0, 0x74, 0x22, 0xbd, 
  0x80, 0x21, 0x31, 0x3d, 0xa8, 0xac, 0x51, 0xbd, 0x3f, 0x4d, 0x45, 0xbe, 
  0x71, 0x1c, 0x8a, 0x3e, 0x6e, 0xba, 0xc8, 0xbd, 0xc6, 0x95, 0xcd, 0xbd, 
  0xc8, 0x4b, 0x4b, 0x3d, 0x0d, 0xa4, 0x9b, 0xbe, 0x00, 0x4e, 0x60, 0x3b, 
  0x7e, 0x1c, 0x74, 0x3e, 0x5c, 0xe0, 0x2d, 0x3e, 0x6d, 0x7b, 0x93, 0x3e, 
  0x76, 0xe9, 0x79, 0xbe, 0x31, 0x2e, 0x8d, 0x3e, 0x6e, 0x4e, 0x51, 0x3e, 
  0xf4, 0xea, 0x9a, 0xbe, 0xe8, 0xb9, 0x4f, 0xbe, 0xad, 0x08, 0x56, 0xbe, 
  0xb8, 0xf5, 0xfa, 0xbd, 0x17, 0x7d, 0x99, 0xbe, 0xc4, 0x92, 0xd9, 0x3d, 
  0xf6, 0x02, 0x55, 0x3e, 0xf0, 0xa7, 0x18, 0x3d, 0x40, 0x0f, 0x99, 0xbb, 
  0x87, 0x12, 0x63, 0xbe, 0x58, 0x8f, 0xfb, 0xbd, 0x45, 0x2a, 0x8c, 0xbe, 
  0x06, 0x6e, 0x65, 0x3e, 0x7f, 0x94, 0x53, 0xbe, 0xa0, 0xd9, 0x64, 0x3c, 
  0xc4, 0xc9, 0xf9, 0xbd, 0x74, 0x87, 0x16, 0x3e, 0xfc, 0xbe, 0x44, 0x3e, 
  0x70, 0xe1, 0x9a, 0x3c, 0x75, 0xd1, 0x07, 0xbe, 0x10, 0xb0, 0x83, 0x3d, 
  0x00, 0x27, 0x00, 0x3d, 0x70, 0xef, 0xde, 0xbc, 0x20, 0x2e, 0xfd, 0xbc, 
  0xbb, 0xfe, 0x99, 0xbe, 0x70, 0xdb, 0xe9, 0x3d, 0xf6, 0xd6, 0x6b, 0x3e, 
  0xc8, 0x1d, 0x07, 0xbd, 0xa8, 0x37, 0x32, 0xbd, 0x70, 0xae, 0x49, 0x3d, 
  0xa8, 0x26, 0xa6, 0x3d, 0x80, 0xe4, 0x4c, 0x3c, 0x95, 0xed, 0x94, 0x3e, 
  0xe0, 0xfa, 0x38, 0x3e, 0x80, 0x78, 0x72, 0xbe, 0x68, 0x5d, 0x21, 0x3d, 
  0x0f, 0x7a, 0x83, 0x3e, 0xcf, 0x60, 0x92, 0x3e, 0x94, 0x29, 0x8f, 0x3d, 
  0xe4, 0x57, 0x9b, 0xbd, 0xd0, 0xfb, 0x87, 0x3d, 0x05, 0x22, 0x8a, 0x3e, 
  0x7a, 0x3b, 0x12, 0xbe, 0x88, 0x5e, 0xc4, 0x3d, 0x99, 0x01, 0x2c, 0xbe, 
  0xc2, 0xf5, 0x89, 0xbe, 0xa9, 0x67, 0x23, 0xbe, 0xe4, 0x9a, 0x31, 0x3e, 
  0x17, 0xf7, 0x53, 0xbe, 0xce, 0x75, 0x90, 0xbe, 0xa4, 0x5e, 0x28, 0x3e, 
  0x3a, 0x6f, 0x83, 0xbe, 0xd4, 0x6d, 0x9f, 0x3d, 0xb0, 0x30, 0xff, 0x3c, 
  0xc0, 0x3e, 0xa3, 0x3c, 0xaa, 0x08, 0x58, 0x3e, 0x50, 0x4d, 0x4a, 0xbe, 
  0x1e, 0xc0, 0xaf, 0xbd, 0xa6, 0x8a, 0x03, 0xbe, 0x9a, 0x78, 0x37, 0x3e, 
  0x22, 0xb3, 0x79, 0xbe, 0x0e, 0xb9, 0x2f, 0x3e, 0xfe, 0x0c, 0x94, 0xbd, 
  0x78, 0x3c, 0x0a, 0x3d, 0x50, 0xcf, 0x2a, 0x3d, 0xe4, 0x13, 0x9c, 0xbd, 
  0x30, 0xed, 0x87, 0xbd, 0xec, 0xeb, 0xd4, 0x3d, 0xc8, 0x30, 0x2f, 0x3d, 
  0x14, 0xd8, 0x28, 0x3e, 0xa2, 0x30, 0x26, 0xbe, 0x8e, 0xba, 0x80, 0xbd, 
  0xa5, 0xcd, 0x82, 0xbe, 0x4c, 0xab, 0x1e, 0x3e, 0xe0, 0x3d, 0x4d, 0xbd, 
  0xe0, 0x3a, 0xb6, 0x3d, 0xc6, 0x3e, 0x87, 0xbd, 0x66, 0x93, 0x7b, 0x3e, 
  0x38, 0xe1, 0x4f, 0xbd, 0x88, 0x87, 0x3e, 0x3d, 0x92, 0x81, 0x3c, 0xbe, 
  0xf2, 0xb2, 0x6c, 0xbe, 0x80, 0x5c, 0x3a, 0x3b, 0x0d, 0xca, 0x05, 0xbe, 
  0xe0, 0xff, 0xfd, 0x3c, 0xf0, 0x08, 0xd9, 0xbd, 0x61, 0x4f, 0x8b, 0x3e, 
  0x0f, 0xb5, 0x6d, 0xbe, 0x1b, 0x2a, 0x22, 0xbe, 0x78, 0xed, 0xbe, 0x3d, 
  0x24, 0x49, 0xc0, 0xbd, 0x00, 0xa3, 0xf2, 0x3d, 0xd4, 0x47, 0xda, 0xbd, 
  0xf6, 0xa3, 0x3c, 0x3e, 0x36, 0x37, 0x7a, 0x3e, 0x0e, 0xbd, 0xfc, 0xbd, 
  0xad, 0x20, 0x80, 0x3e, 0x70, 0xf1, 0xfd, 0x3c, 0x2b, 0xe0, 0x46, 0xbe, 
  0xa6, 0xd6, 0x74, 0x3e, 0x9e, 0xd9, 0xa5, 0xbd, 0xfc, 0xe1, 0xd1, 0xbd, 
  0xe4, 0xb0, 0xa1, 0x3d, 0x08, 0x28, 0xc7, 0x3d, 0x4c, 0x53, 0xaa, 0x3d, 
  0x9a, 0xca, 0x48, 0x3e, 0x10, 0x27, 0x57, 0xbd, 0x1f, 0x51, 0x8c, 0x3e, 
  0x7c, 0xaf, 0x96, 0xbe, 0x00, 0x9b, 0x45, 0xbe, 0x65, 0x50, 0x7a, 0xbe, 
  0x9e, 0x7d, 0x81, 0xbe, 0x08, 0x0e, 0x05, 0x3e, 0x56, 0x63, 0x57, 0xbe, 
  0x18, 0x65, 0x1b, 0xbe, 0xb3, 0x3c, 0x87, 0x3e, 0xe2, 0x98, 0x01, 0x3e, 
  0x98, 0xad, 0xb7, 0xbd, 0x98, 0xff, 0x63, 0xbe, 0xf8, 0xd1, 0x07, 0x3d, 
  0xf8, 0x33, 0xe2, 0xbd, 0x92, 0x80, 0x15, 0xbe, 0x70, 0xbb, 0xb7, 0x3c, 
  0x88, 0xcb, 0x2a, 0x3d, 0x1c, 0x06, 0x71, 0xbd, 0x54, 0x6e, 0x63, 0xbe, 
  0xa4, 0xdd, 0xbc, 0xbd, 0x36, 0x6d, 0x8e, 0xbe, 0xb8, 0x08, 0x38, 0x3d, 
  0x94, 0xef, 0xc2, 0x3d, 0xf6, 0xa7, 0x3e, 0x3e, 0x37, 0x73, 0x81, 0xbe, 
  0x60, 0xb0, 0xf4, 0x3d, 0xd8, 0xe0, 0x5c, 0xbe, 0x40, 0x12, 0xb2, 0xbb, 
  0x86, 0x0a, 0x52, 0x3e, 0x16, 0x9b, 0x7a, 0xbe, 0xe4, 0x74, 0xbc, 0x3d, 
  0x66, 0x28, 0x82, 0xbe, 0x88, 0x6d, 0x5e, 0xbe, 0x1e, 0x91, 0x1c, 0x3e, 
  0x5b, 0x01, 0x81, 0x3e, 0xa0, 0xa7, 0xf1, 0xbd, 0x14, 0x89, 0xf8, 0x3d, 
  0x8c, 0xf5, 0x26, 0x3e, 0x2a, 0xf9, 0x3d, 0x3e, 0x0c, 0xad, 0x38, 0x3e, 
  0xc8, 0x21, 0x26, 0x3e, 0xaf, 0x33, 0x38, 0xbe, 0x1a, 0x5b, 0x77, 0xbe, 
  0x58, 0x18, 0x40, 0x3e, 0x52, 0x29, 0xce, 0xbd, 0x08, 0x5b, 0x84, 0x3d, 
  0x50, 0xae, 0x07, 0xbd, 0x30, 0x2f, 0x82, 0x3d, 0x20, 0xe7, 0xd4, 0x3c, 
  0x30, 0x77, 0x60, 0x3d, 0x5c, 0xd7, 0xf9, 0xbd, 0xa8, 0xd6, 0x47, 0xbd, 
  0x7d, 0x06, 0x99, 0x3e, 0x80, 0x12, 0x7d, 0x3b, 0xed, 0xc8, 0x0f, 0xbe, 
  0x80, 0x60, 0xac, 0xbc, 0xe5, 0x8a, 0x98, 0xbe, 0x57, 0x21, 0x01, 0xbe, 
  0xd8, 0x40, 0x07, 0x3e, 0x2e, 0x8d, 0xbb, 0xbd, 0x9a, 0xbd, 0x59, 0x3e, 
  0xa8, 0x86, 0x7b, 0x3d, 0xd4, 0x54, 0x66, 0xbe, 0xd0, 0xee, 0x3b, 0xbd, 
  0xb4, 0x33, 0x6c, 0xbe, 0x00, 0x30, 0x23, 0xb9, 0x9f, 0x51, 0x85, 0xbe, 
  0x5c, 0x69, 0xc4, 0x3d, 0x96, 0xc1, 0x60, 0x3e, 0xc2, 0xe6, 0xc5, 0xbd, 
  0x84, 0x26, 0xd4, 0x3d, 0x79, 0x1e, 0x92, 0x3e, 0x48, 0x6c, 0xbd, 0xbd, 
  0xf7, 0x1d, 0x85, 0x3e, 0x44, 0x30, 0x85, 0xbe, 0x78, 0x17, 0x03, 0x3e, 
  0xe4, 0x40, 0xb2, 0x3d, 0x09, 0x13, 0x96, 0x3e, 0x8a, 0xe1, 0x83, 0xbe, 
  0x9e, 0x9c, 0x0b, 0x3e, 0x41, 0xbb, 0x85, 0x3e, 0x84, 0x10, 0x3c, 0x3e, 
  0xde, 0x62, 0x76, 0x3e, 0xe0, 0xc9, 0xdd, 0xbd, 0xc2, 0x29, 0x29, 0x3e, 
  0x3c, 0x23, 0x37, 0x3e, 0x26, 0x0d, 0x6c, 0x3e, 0x67, 0x26, 0x23, 0xbe, 
  0x28, 0xf5, 0xab, 0xbd, 0x3b, 0xa3, 0x82, 0xbe, 0xdc, 0x8d, 0xae, 0x3d, 
  0x9f, 0x36, 0x86, 0xbe, 0x28, 0x21, 0x19, 0xbe, 0x3c, 0xbc, 0xd8, 0xbd, 
  0xbe, 0x8e, 0x90, 0xbd, 0x72, 0x34, 0x82, 0xbe, 0x15, 0x16, 0x8a, 0xbe, 
  0x53, 0x0a, 0x8d, 0x3e, 0x04, 0xe7, 0x90, 0xbe, 0x00, 0xa0, 0x0f, 0x3b, 
  0x00, 0xbd, 0x56, 0xbe, 0x70, 0x14, 0x85, 0xbc, 0xb0, 0x68, 0x28, 0x3e, 
  0x10, 0x57, 0xf4, 0x3c, 0xe8, 0x14, 0x11, 0xbe, 0x6e, 0xc0, 0x15, 0x3e, 
  0x40, 0x7b, 0x92, 0x3b, 0xc0, 0xbd, 0x2f, 0x3c, 0xf8, 0x22, 0x43, 0x3d, 
  0x53, 0xaa, 0x89, 0x3e, 0xcf, 0x97, 0x8d, 0x3e, 0xb7, 0x69, 0x87, 0xbe, 
  0x18, 0x81, 0x2f, 0x3d, 0xa8, 0x3f, 0x8c, 0xbe, 0x05, 0x12, 0x80, 0xbe, 
  0x03, 0x0f, 0x0f, 0xbe, 0x8b, 0xb5, 0x9b, 0xbe, 0x3f, 0x58, 0x20, 0xbe, 
  0x9d, 0x30, 0x8b, 0x3e, 0x40, 0x72, 0x18, 0x3e, 0xb0, 0x02, 0xf1, 0x3c, 
  0xc8, 0xdd, 0xdd, 0x3d, 0x94, 0xd2, 0xc0, 0xbd, 0xce, 0x46, 0x5b, 0x3e, 
  0xb0, 0x43, 0xde, 0xbc, 0x10, 0xf0, 0xd5, 0x3d, 0x28, 0xb9, 0x0d, 0xbd, 
  0x7a, 0x1b, 0x4d, 0xbe, 0x04, 0xae, 0x54, 0xbe, 0xc8, 0xc8, 0x32, 0x3d, 
  0x90, 0x21, 0xac, 0x3c, 0xe4, 0xe3, 0x06, 0x3e, 0x8b, 0xc9, 0x87, 0x3e, 
  0xf8, 0x29, 0x94, 0xbd, 0x9c, 0x72, 0xe4, 0x3d, 0xf0, 0x9a, 0x25, 0xbd, 
  0x60, 0xff, 0xdd, 0x3d, 0xf2, 0x1c, 0xb6, 0xbd, 0x79, 0xcd, 0x01, 0xbe, 
  0xfc, 0xcc, 0x82, 0xbd, 0xa0, 0x21, 0x2d, 0x3e, 0x1c, 0xde, 0xe4, 0x3d, 
  0xe0, 0x00, 0x8f, 0xbc, 0x86, 0xac, 0x0f, 0x3e, 0x40, 0x85, 0x6b, 0xbc, 
  0x00, 0x78, 0x8a, 0x39, 0x6a, 0x65, 0x4c, 0x3e, 0x08, 0x02, 0x31, 0x3e, 
  0xd5, 0x1a, 0x05, 0xbe, 0x98, 0xff, 0x01, 0x3e, 0x1c, 0x5c, 0xce, 0xbd, 
  0xee, 0x2e, 0xa2, 0xbd, 0xa0, 0x7d, 0x00, 0xbe, 0x18, 0x5c, 0x2f, 0x3d, 
  0x57, 0xf9, 0x88, 0x3e, 0x14, 0x93, 0x0a, 0x3e, 0x90, 0xd1, 0x61, 0xbd, 
  0x52, 0x1a, 0x45, 0x3e, 0x9e, 0xd0, 0x60, 0x3e, 0x97, 0x43, 0x81, 0x3e, 
  0xf8, 0xb8, 0x80, 0xbe, 0xba, 0x94, 0xc4, 0xbd, 0x86, 0x22, 0xd7, 0xbd, 
  0x4c, 0xa3, 0xe1, 0xbd, 0x60, 0x94, 0xbc, 0x3c, 0xc8, 0x73, 0xfe, 0xbd, 
  0xb0, 0x4f, 0xfa, 0xbd, 0x1a, 0x8a, 0x4b, 0xbe, 0x6b, 0xa3, 0x2a, 0xbe, 
  0xb2, 0xd2, 0x46, 0x3e, 0xb0, 0x2e, 0x56, 0xbd, 0x46, 0xe4, 0x6a, 0x3e, 
  0x10, 0xa3, 0x88, 0x3d, 0x08, 0x02, 0x11, 0xbd, 0x70, 0x2c, 0x37, 0x3e, 
  0x68, 0xf1, 0xf4, 0x3d, 0xf2, 0xca, 0x97, 0xbe, 0x8a, 0xa8, 0x96, 0xbe, 
  0x74, 0x94, 0x26, 0x3e, 0x62, 0x0f, 0xee, 0xbd, 0xfe, 0xd0, 0x94, 0xbd, 
  0x96, 0x0f, 0xe0, 0xbd, 0x99, 0xf6, 0x01, 0xbe, 0xd8, 0x9d, 0x1e, 0xbe, 
  0x68, 0xfb, 0x28, 0x3e, 0xfa, 0x4d, 0x80, 0xbd, 0x4e, 0xc8, 0x33, 0xbe, 
  0xcb, 0x99, 0x17, 0xbe, 0x73, 0xad, 0x8d, 0x3e, 0xf6, 0x08, 0x76, 0x3e, 
  0x86, 0x3f, 0x30, 0x3e, 0x63, 0x65, 0x93, 0xbe, 0x08, 0x81, 0xef, 0x3d, 
  0x20, 0x31, 0xfc, 0x3d, 0x30, 0x21, 0x2d, 0x3e, 0x90, 0x36, 0xba, 0x3c, 
  0x81, 0x73, 0x7f, 0xbe, 0x49, 0x79, 0x8c, 0xbe, 0x3c, 0xa2, 0x06, 0x3e, 
  0xc0, 0x82, 0x39, 0x3e, 0xa8, 0xcb, 0xa6, 0xbd, 0xb0, 0x6a, 0xf0, 0xbd, 
  0x76, 0x7d, 0x5d, 0xbe, 0x08, 0xd6, 0x0f, 0xbe, 0xd8, 0x54, 0x1e, 0xbd, 
  0xd2, 0x47, 0x4d, 0x3e, 0x7d, 0xde, 0x80, 0x3e, 0x9e, 0x4b, 0x3b, 0xbe, 
  0xf9, 0xc7, 0x38, 0xbe, 0xd2, 0x58, 0x7b, 0x3e, 0x60, 0xc8, 0x1d, 0xbe, 
  0xf6, 0x88, 0x44, 0x3e, 0x08, 0xfc, 0x92, 0x3d, 0x9b, 0x41, 0x99, 0x3e, 
  0xf8, 0x88, 0x43, 0xbe, 0x68, 0x78, 0xbc, 0x3d, 0xed, 0xf4, 0x87, 0xbe, 
  0x16, 0x85, 0x0b, 0x3e, 0xd4, 0x4b, 0x8c, 0xbe, 0xf6, 0xc3, 0x33, 0x3e, 
  0x27, 0xfd, 0x99, 0xbe, 0x18, 0x89, 0xf6, 0x3d, 0x14, 0x94, 0x42, 0xbe, 
  0xc8, 0xb9, 0xdb, 0x3d, 0x70, 0x75, 0x1f, 0x3d, 0x6c, 0x3a, 0x9b, 0xbd, 
  0xd2, 0xb6, 0x26, 0xbe, 0x80, 0xcd, 0x60, 0x3b, 0xe4, 0xfb, 0xc5, 0xbd, 
  0x12, 0x92, 0x57, 0x3e, 0x93, 0xd8, 0x86, 0x3e, 0xfa, 0xbc, 0x98, 0xbd, 
  0x36, 0x97, 0x36, 0xbe, 0x72, 0xca, 0x4f, 0x3e, 0xfe, 0x03, 0x54, 0x3e, 
  0x00, 0x2c, 0x0b, 0xbe, 0x8c, 0x62, 0x02, 0xbe, 0xec, 0x91, 0xf1, 0x3d, 
  0xce, 0xb5, 0xaa, 0xbd, 0x1f, 0xbc, 0x24, 0xbe, 0xf8, 0xa6, 0x2a, 0x3d, 
  0x1d, 0x96, 0x6b, 0xbe, 0xf8, 0x4f, 0x13, 0xbd, 0xb0, 0x8b, 0x63, 0x3d, 
  0xd5, 0xe6, 0x88, 0xbe, 0x07, 0x26, 0x9b, 0x3e, 0x82, 0x50, 0x53, 0x3e, 
  0x8f, 0xb0, 0x99, 0xbe, 0x10, 0xc4, 0xf4, 0x3d, 0x7c, 0xc7, 0xeb, 0x3d, 
  0x58, 0x4e, 0x5d, 0xbe, 0x98, 0x70, 0x25, 0x3d, 0x44, 0x22, 0x88, 0x3d, 
  0x1d, 0xde, 0x85, 0x3e, 0x0a, 0xe5, 0x0f, 0x3e, 0x10, 0xcb, 0xfc, 0x3d, 
  0xac, 0x70, 0xd7, 0xbd, 0x64, 0xfc, 0x72, 0xbe, 0x00, 0xfb, 0xf5, 0xba, 
  0xba, 0x3b, 0x99, 0xbe, 0xca, 0xd8, 0x93, 0xbd, 0x77, 0x1b, 0x9c, 0x3e, 
  0x62, 0xe9, 0x57, 0x3e, 0x14, 0xa8, 0xbe, 0x3d, 0x2c, 0xc3, 0xa7, 0x3d, 
  0xe8, 0x6c, 0x4c, 0xbd, 0x65, 0x4d, 0x99, 0x3e, 0xf0, 0x9b, 0x9f, 0x3c, 
  0x52, 0x9f, 0x0b, 0x3e, 0x14, 0xde, 0x8b, 0xbe, 0x3a, 0xe1, 0x1e, 0x3e, 
  0x2f, 0x75, 0x28, 0xbe, 0xef, 0x1b, 0x83, 0xbe, 0x30, 0x12, 0xe4, 0xbc, 
  0xd4, 0x8d, 0x73, 0xbe, 0xae, 0x0d, 0x68, 0x3e, 0x96, 0x42, 0x50, 0x3e, 
  0x36, 0x31, 0x3f, 0xbe, 0x5c, 0xe6, 0xbf, 0x3d, 0x0a, 0x87, 0x7e, 0x3e, 
  0xb6, 0x79, 0xfe, 0xbd, 0x00, 0xa8, 0x8c, 0xba, 0xfa, 0xb2, 0x52, 0x3e, 
  0x07, 0x06, 0x87, 0x3e, 0xdc, 0xe3, 0xd5, 0xbd, 0xd8, 0x8f, 0xec, 0xbd, 
  0xf0, 0x8c, 0xa3, 0xbd, 0xc0, 0xbc, 0x74, 0xbd, 0xfe, 0x7e, 0x81, 0xbe, 
  0x5e, 0x7d, 0x6b, 0x3e, 0x3c, 0x93, 0xcf, 0x3d, 0xb8, 0x34, 0x6a, 0xbe, 
  0xd0, 0x3b, 0x1d, 0x3e, 0xa0, 0x1f, 0xf0, 0x3d, 0x66, 0x21, 0x05, 0x3e, 
  0x96, 0x71, 0x95, 0xbd, 0xfc, 0x86, 0x49, 0xbe, 0x69, 0xe5, 0x91, 0xbe, 
  0xce, 0x3e, 0x4d, 0x3e, 0x6e, 0x03, 0x35, 0x3e, 0x4d, 0xd4, 0x10, 0xbe, 
  0x8a, 0xe8, 0xde, 0xbd, 0xb8, 0xa1, 0x51, 0xbd, 0xf8, 0x19, 0x3d, 0xbd, 
  0x4b, 0xd6, 0x98, 0x3e, 0x20, 0x85, 0x52, 0xbc, 0x9a, 0x0a, 0xa5, 0xbd, 
  0xb4, 0x93, 0xb1, 0x3d, 0x50, 0x75, 0xfd, 0x3c, 0xb3, 0xfc, 0x27, 0xbe, 
  0xfa, 0x2f, 0x99, 0xbe, 0xf0, 0xad, 0x05, 0x3e, 0x90, 0x7a, 0x04, 0x3e, 
  0xd0, 0x43, 0xb9, 0xbc, 0x24, 0x2b, 0xc5, 0xbd, 0x82, 0xc9, 0x76, 0x3e, 
  0x1e, 0x14, 0x3f, 0x3e, 0xc4, 0x47, 0xa2, 0x3d, 0xc0, 0xe3, 0x5a, 0x3d, 
  0x3c, 0x8d, 0x88, 0xbe, 0x08, 0xfd, 0x2a, 0x3e, 0x52, 0x69, 0x73, 0xbe, 
  0x08, 0x21, 0x72, 0x3d, 0x20, 0x4c, 0x1e, 0xbd, 0x63, 0x3d, 0x8b, 0xbe, 
  0xf0, 0x3e, 0x9b, 0xbd, 0x30, 0xd9, 0x3f, 0x3e, 0xdf, 0x77, 0x40, 0xbe, 
  0xf7, 0x20, 0x96, 0x3e, 0x13, 0x8f, 0x8d, 0x3e, 0xf0, 0x28, 0x8a, 0xbe, 
  0xa0, 0x10, 0xb4, 0x3c, 0x54, 0xe6, 0xd4, 0x3d, 0x20, 0xd5, 0x34, 0xbd, 
  0x40, 0xe9, 0x40, 0x3d, 0x9c, 0xe9, 0x8d, 0xbd, 0x00, 0x30, 0x06, 0x39, 
  0x96, 0x08, 0x9b, 0xbd, 0x96, 0x80, 0x2c, 0x3e, 0x30, 0xaf, 0x15, 0xbe, 
  0xa6, 0x20, 0x3e, 0x3e, 0xc2, 0x70, 0x73, 0x3e, 0x71, 0x97, 0x4b, 0xbe, 
  0xe0, 0xe2, 0x75, 0xbe, 0x6a, 0x39, 0x1a, 0x3e, 0x28, 0x02, 0x3a, 0xbe, 
  0x08, 0x8e, 0x6d, 0x3d, 0xd0, 0xfb, 0x00, 0xbd, 0xd2, 0xe9, 0x56, 0x3e, 
  0xc4, 0x83, 0xb4, 0x3d, 0xb6, 0xdc, 0x2a, 0xbe, 0xf2, 0xf9, 0x82, 0xbe, 
  0x24, 0xff, 0xb2, 0x3d, 0x68, 0xad, 0x6d, 0x3d, 0x14, 0xbc, 0x82, 0xbe, 
  0x48, 0x84, 0xec, 0x3d, 0x00, 0xeb, 0xd0, 0xbd, 0xd0, 0xa2, 0x71, 0x3d, 
  0xd1, 0x8b, 0x05, 0xbe, 0xe0, 0x30, 0x8a, 0x3d, 0x2f, 0x55, 0x9b, 0x3e, 
  0xb0, 0xef, 0x62, 0xbd, 0x9c, 0x4e, 0x83, 0x3d, 0xd2, 0x85, 0x47, 0x3e, 
  0xe8, 0x2e, 0x26, 0x3d, 0xd6, 0x2d, 0x85, 0xbd, 0x28, 0x50, 0x5b, 0xbd, 
  0xe4, 0x76, 0xbe, 0xbd, 0x18, 0xb0, 0x06, 0x3d, 0x32, 0x94, 0xdb, 0xbd, 
  0xc0, 0xf8, 0x5c, 0xbd, 0x1e, 0xb8, 0x60, 0x3e, 0xe3, 0x0f, 0x8c, 0x3e, 
  0x98, 0x24, 0x35, 0xbd, 0x3c, 0x4c, 0x08, 0xbe, 0xaa, 0x85, 0x23, 0x3e, 
  0x93, 0x06, 0x19, 0xbe, 0xa1, 0x19, 0x95, 0x3e, 0x86, 0xb4, 0x75, 0x3e, 
  0x46, 0xb0, 0x69, 0xbe, 0xa0, 0x6a, 0x58, 0xbd, 0x00, 0x05, 0x70, 0xbd, 
  0xc8, 0xca, 0x45, 0xbd, 0x3b, 0x6f, 0x6f, 0xbe, 0xe7, 0xe5, 0x98, 0x3e, 
  0xd4, 0x3e, 0x14, 0xbe, 0xc0, 0x04, 0x86, 0xbc, 0x00, 0xf2, 0x8a, 0xbd, 
  0x32, 0x16, 0xa1, 0xbd, 0x8c, 0xab, 0xbd, 0x3d, 0x4f, 0x8c, 0x87, 0x3e, 
  0x30, 0x74, 0x92, 0xbc, 0xa8, 0xc6, 0x55, 0xbe, 0xc8, 0x6a, 0x5f, 0xbe, 
  0xd0, 0xc1, 0x81, 0xbc, 0x08, 0x06, 0x74, 0xbd, 0x64, 0xb3, 0xc4, 0xbd, 
  0x30, 0x63, 0xf0, 0x3d, 0xd5, 0xda, 0x80, 0x3e, 0xb0, 0x6c, 0x96, 0xbe, 
  0xec, 0x93, 0xa9, 0x3d, 0xea, 0x90, 0x60, 0x3e, 0xb0, 0xed, 0x4d, 0x3d, 
  0x98, 0x78, 0x23, 0x3e, 0x80, 0xeb, 0x0d, 0xbc, 0xc0, 0x0e, 0x3a, 0x3e, 
  0x26, 0xa6, 0x0d, 0x3e, 0xe8, 0x3a, 0x19, 0x3d, 0x0c, 0xcb, 0x0b, 0x3e, 
  0x3c, 0x3a, 0x85, 0xbd, 0x10, 0x1d, 0xbf, 0x3c, 0x2e, 0x26, 0xdd, 0xbd, 
  0xf4, 0x50, 0xd7, 0x3d, 0x49, 0x41, 0x13, 0xbe, 0x40, 0x24, 0x12, 0xbc, 
  0x02, 0xdf, 0x60, 0xbe, 0x2b, 0xcd, 0x83, 0xbe, 0x00, 0x22, 0xd1, 0x3a, 
  0xda, 0x94, 0xb5, 0xbd, 0x0e, 0x03, 0x84, 0xbe, 0x60, 0xfc, 0x42, 0xbc, 
  0x6a, 0xea, 0x30, 0x3e, 0x65, 0x49, 0x9b, 0x3e, 0x7e, 0x3a, 0x3d, 0x3e, 
  0x44, 0x3c, 0xb0, 0x3d, 0x6c, 0x63, 0x95, 0xbd, 0xcc, 0x99, 0x7d, 0xbe, 
  0x4c, 0xe2, 0x43, 0x3e, 0x00, 0xa7, 0x98, 0x3a, 0x00, 0x0b, 0x2d, 0xbc, 
  0xf8, 0x2a, 0x34, 0xbd, 0x42, 0x9a, 0x47, 0x3e, 0xba, 0x40, 0x41, 0x3e, 
  0xc4, 0x13, 0xe0, 0x3d, 0x02, 0x42, 0x3f, 0x3e, 0x40, 0xef, 0x13, 0xbd, 
  0x80, 0xe5, 0xf9, 0xbc, 0xec, 0xb6, 0x34, 0x3e, 0x1c, 0xa9, 0x14, 0x3e, 
  0xe2, 0x23, 0x6e, 0x3e, 0x38, 0xc9, 0xdc, 0x3d, 0xd2, 0x11, 0x61, 0x3e, 
  0x98, 0x7e, 0x36, 0xbd, 0x00, 0xe8, 0x15, 0x3b, 0x05, 0x16, 0x93, 0x3e, 
  0x62, 0xce, 0x66, 0x3e, 0xd5, 0x66, 0x83, 0x3e, 0x58, 0xa6, 0x17, 0x3d, 
  0x00, 0x00, 0x06, 0x00, 0x08, 0x00, 0x04, 0x00, 0x06, 0x00, 0x00, 0x00, 
  0x04, 0x00, 0x00, 0x00, 0x80, 0x02, 0x00, 0x00, 0xdb, 0x62, 0x33, 0xbe, 
  0x2c, 0xaa, 0xaa, 0xbe, 0x18, 0xc9, 0x0e, 0xbd, 0x79, 0xfb, 0xcc, 0xbe, 
  0xc7, 0xc4, 0x7d, 0xbe, 0xc0, 0x85, 0x1f, 0x3d, 0x68, 0x88, 0x72, 0x3d, 
  0xf2, 0x4b, 0x95, 0x3e, 0xa8, 0x38, 0x5f, 0xbd, 0x74, 0xc3, 0x9d, 0x3e, 
  0x4a, 0x7c, 0x86, 0x3e, 0x30, 0xcd, 0x4b, 0xbd, 0x60, 0x7e, 0x2c, 0x3d, 
  0x80, 0xe7, 0x19, 0xbb, 0xa0, 0xbe, 0xee, 0x3d, 0x34, 0xd2, 0x05, 0xbe, 
  0x20, 0x30, 0x01, 0x3d, 0x2c, 0x89, 0x5a, 0x3e, 0xa0, 0xeb, 0x35, 0xbd, 
  0xb5, 0x75, 0x99, 0xbe, 0x90, 0x9b, 0x55, 0x3e, 0xb8, 0x65, 0xb1, 0xbd, 
  0x61, 0xdc, 0xb8, 0xbe, 0x30, 0x9b, 0x60, 0x3e, 0xf0, 0xa0, 0xa2, 0x3d, 
  0xa4, 0x66, 0x06, 0x3e, 0x6f, 0x49, 0xb8, 0xbe, 0x00, 0xd8, 0xcc, 0x3a, 
  0xe0, 0x90, 0x62, 0x3d, 0xa0, 0x7f, 0x7c, 0xbe, 0xe6, 0x0e, 0x97, 0x3e, 
  0xe8, 0x9c, 0x9a, 0x3d, 0x74, 0xa8, 0xcd, 0xbe, 0x64, 0x7b, 0x7e, 0x3e, 
  0xa5, 0xfc, 0xc7, 0xbe, 0xe4, 0xbf, 0xd7, 0xbd, 0x5c, 0xe4, 0x0a, 0xbe, 
  0x68, 0xa1, 0xe9, 0x3d, 0x41, 0x7a, 0x75, 0xbe, 0xa0, 0x77, 0x34, 0x3e, 
  0xf0, 0x70, 0x84, 0x3e, 0x84, 0x6a, 0x79, 0x3e, 0x48, 0xf8, 0xef, 0x3d, 
  0x54, 0x30, 0x60, 0x3e, 0x68, 0x03, 0xcd, 0xbd, 0x4a, 0x88, 0x48, 0xbe, 
  0xa4, 0x59, 0x4f, 0xbe, 0x10, 0x5d, 0x57, 0x3e, 0x90, 0x66, 0xb6, 0x3e, 
  0xd4, 0xdb, 0x92, 0xbe, 0xd4, 0x94, 0x8b, 0x3e, 0x18, 0xef, 0xa7, 0x3e, 
  0xd2, 0xbe, 0xa7, 0xbe, 0x9c, 0xbe, 0xa2, 0xbe, 0xba, 0x10, 0xc7, 0xbe, 
  0x90, 0x22, 0x1d, 0xbd, 0x2c, 0xe7, 0x7e, 0x3e, 0x20, 0xf8, 0x8d, 0xbc, 
  0xc8, 0x02, 0x96, 0x3d, 0xf8, 0x37, 0xb2, 0xbe, 0x89, 0xf7, 0x30, 0xbe, 
  0xe1, 0xd9, 0x9f, 0xbe, 0x57, 0x27, 0x64, 0xbe, 0xe0, 0x42, 0x55, 0x3d, 
  0x64, 0xb4, 0xc1, 0xbd, 0xd9, 0x15, 0x64, 0xbe, 0xd9, 0x0f, 0x3b, 0xbe, 
  0xf0, 0x84, 0x93, 0x3e, 0x20, 0x77, 0xb0, 0xbd, 0x20, 0x92, 0xf0, 0xbc, 
  0x98, 0x35, 0x8e, 0xbe, 0xf8, 0xd3, 0xda, 0xbd, 0xe9, 0x9b, 0x35, 0xbe, 
  0x30, 0x24, 0x49, 0x3e, 0x1a, 0x57, 0xc4, 0x3e, 0xf4, 0x67, 0x2c, 0x3e, 
  0x75, 0x97, 0xaf, 0xbe, 0x60, 0xb0, 0xba, 0x3e, 0x6c, 0x15, 0xc0, 0x3e, 
  0xf3, 0x5b, 0x99, 0xbe, 0xb4, 0xbb, 0x49, 0x3e, 0xce, 0x0e, 0xaa, 0xbe, 
  0xba, 0x08, 0x27, 0xbe, 0xe8, 0x8e, 0x8d, 0x3d, 0x60, 0xe4, 0x5c, 0x3e, 
  0x7c, 0x37, 0x02, 0xbe, 0xd4, 0xee, 0x94, 0x3d, 0x4a, 0xbe, 0xa7, 0x3e, 
  0x10, 0x2b, 0x1b, 0xbe, 0x46, 0xd7, 0x80, 0x3e, 0x1c, 0xc9, 0x63, 0x3e, 
  0x0c, 0xb2, 0xee, 0xbd, 0xff, 0x9a, 0x9d, 0xbe, 0xc0, 0x41, 0x6f, 0x3c, 
  0xd0, 0xf0, 0x4a, 0xbe, 0x0a, 0xbe, 0xa8, 0x3e, 0x90, 0xe9, 0x09, 0x3d, 
  0xa4, 0x14, 0x52, 0x3e, 0xd4, 0x3c, 0x9b, 0xbd, 0x91, 0xec, 0x9d, 0xbe, 
  0x3c, 0x87, 0x01, 0x3e, 0xf8, 0x46, 0xf6, 0x3d, 0x90, 0x78, 0xc0, 0x3c, 
  0x40, 0x70, 0xa1, 0xbc, 0x40, 0x3b, 0xc3, 0x3e, 0x6d, 0xdd, 0xa0, 0xbe, 
  0x70, 0xa5, 0xf5, 0xbd, 0xd0, 0x6c, 0x50, 0x3e, 0xc0, 0x86, 0x66, 0x3d, 
  0x10, 0x9c, 0xac, 0x3e, 0x64, 0x9c, 0x9e, 0x3e, 0xa6, 0x5c, 0x50, 0xbe, 
  0x28, 0x48, 0x50, 0xbd, 0xd5, 0xf1, 0xcb, 0xbe, 0x34, 0x78, 0x76, 0x3e, 
  0x82, 0x8d, 0x9a, 0x3e, 0x52, 0x29, 0xae, 0x3e, 0x48, 0xb8, 0x76, 0xbe, 
  0xa6, 0x3b, 0x8a, 0xbe, 0x43, 0xb8, 0x50, 0xbe, 0x68, 0xaa, 0x86, 0x3d, 
  0x38, 0xca, 0xf7, 0xbd, 0x20, 0xdf, 0x60, 0xbc, 0x88, 0x36, 0x93, 0xbd, 
  0x60, 0x2d, 0x85, 0x3e, 0xf8, 0x47, 0x58, 0xbd, 0xda, 0x47, 0xa2, 0x3e, 
  0x66, 0x9f, 0x91, 0x3e, 0x7c, 0x88, 0x8f, 0x3d, 0xa0, 0x08, 0xb3, 0xbe, 
  0x8d, 0xd4, 0x36, 0xbe, 0xc0, 0x18, 0x8d, 0xbe, 0x6c, 0xda, 0x2f, 0x3e, 
  0xaa, 0x9a, 0xc6, 0xbe, 0x5e, 0x6d, 0x8c, 0x3e, 0x28, 0x66, 0x28, 0x3d, 
  0xe8, 0xf5, 0xec, 0x3d, 0x4e, 0x2a, 0x8d, 0x3e, 0x34, 0x38, 0x74, 0x3e, 
  0x80, 0x81, 0x78, 0xbb, 0x78, 0xd2, 0x9a, 0x3d, 0x4e, 0x23, 0xb7, 0xbe, 
  0xb4, 0x1c, 0x96, 0x3e, 0x1c, 0x3e, 0x70, 0x3e, 0x7e, 0xcf, 0xbc, 0x3e, 
  0xc4, 0x9d, 0x2c, 0x3e, 0x0c, 0xa3, 0xa9, 0x3e, 0xde, 0x4c, 0xb6, 0x3e, 
  0x00, 0xec, 0x0d, 0x3a, 0x7a, 0x44, 0x9c, 0x3e, 0x48, 0xb0, 0x52, 0x3d, 
  0x40, 0xe8, 0x89, 0xbb, 0xad, 0x2f, 0xa0, 0xbe, 0x93, 0x98, 0xba, 0xbe, 
  0xd0, 0x7f, 0x85, 0xbc, 0x06, 0x77, 0xb6, 0x3e, 0x30, 0x88, 0x4c, 0x3e, 
  0x40, 0xb7, 0x3d, 0x3e, 0x46, 0xb9, 0xa8, 0x3e, 0x40, 0xaf, 0x90, 0x3d, 
  0x60, 0xfb, 0xff, 0xff, 0x64, 0xfb, 0xff, 0xff, 0x0f, 0x00, 0x00, 0x00, 
  0x4d, 0x4c, 0x49, 0x52, 0x20, 0x43, 0x6f, 0x6e, 0x76, 0x65, 0x72, 0x74, 
  0x65, 0x64, 0x2e, 0x00, 0x01, 0x00, 0x00, 0x00, 0x14, 0x00, 0x00, 0x00, 
  0x00, 0x00, 0x0e, 0x00, 0x18, 0x00, 0x14, 0x00, 0x10, 0x00, 0x0c, 0x00, 
  0x08, 0x00, 0x04, 0x00, 0x0e, 0x00, 0x00, 0x00, 0x14, 0x00, 0x00, 0x00, 
  0x1c, 0x00, 0x00, 0x00, 0x08, 0x01, 0x00, 0x00, 0x0c, 0x01, 0x00, 0x00, 
  0x10, 0x01, 0x00, 0x00, 0x04, 0x00, 0x00, 0x00, 0x6d, 0x61, 0x69, 0x6e, 
  0x00, 0x00, 0x00, 0x00, 0x04, 0x00, 0x00, 0x00, 0xb0, 0x00, 0x00, 0x00, 
  0x68, 0x00, 0x00, 0x00, 0x34, 0x00, 0x00, 0x00, 0x10, 0x00, 0x00, 0x00, 
  0x00, 0x00, 0x0a, 0x00, 0x10, 0x00, 0x0c, 0x00, 0x08, 0x00, 0x04, 0x00, 
  0x0a, 0x00, 0x00, 0x00, 0x0c, 0x00, 0x00, 0x00, 0x10, 0x00, 0x00, 0x00, 
  0x01, 0x00, 0x00, 0x00, 0x01, 0x00, 0x00, 0x00, 0x07, 0x00, 0x00, 0x00, 
  0x01, 0x00, 0x00, 0x00, 0x06, 0x00, 0x00, 0x00, 0x9a, 0xff, 0xff, 0xff, 
  0x10, 0x00, 0x00, 0x00, 0x00, 0x00, 0x00, 0x08, 0x0c, 0x00, 0x00, 0x00, 
  0x10, 0x00, 0x00, 0x00, 0x0c, 0xfc, 0xff, 0xff, 0x01, 0x00, 0x00, 0x00, 
  0x06, 0x00, 0x00, 0x00, 0x03, 0x00, 0x00, 0x00, 0x05, 0x00, 0x00, 0x00, 
  0x03, 0x00, 0x00, 0x00, 0xff, 0xff, 0xff, 0xff, 0xca, 0xff, 0xff, 0xff, 
  0x10, 0x00, 0x00, 0x00, 0x00, 0x00, 0x00, 0x08, 0x10, 0x00, 0x00, 0x00, 
  0x14, 0x00, 0x00, 0x00, 0xba, 0xff, 0xff, 0xff, 0x00, 0x00, 0x00, 0x01, 
  0x01, 0x00, 0x00, 0x00, 0x05, 0x00, 0x00, 0x00, 0x03, 0x00, 0x00, 0x00, 
  0x04, 0x00, 0x00, 0x00, 0x02, 0x00, 0x00, 0x00, 0xff, 0xff, 0xff, 0xff, 
  0x00, 0x00, 0x0e, 0x00, 0x16, 0x00, 0x00, 0x00, 0x10, 0x00, 0x0c, 0x00, 
  0x0b, 0x00, 0x04, 0x00, 0x0e, 0x00, 0x00, 0x00, 0x18, 0x00, 0x00, 0x00, 
  0x00, 0x00, 0x00, 0x08, 0x18, 0x00, 0x00, 0x00, 0x1c, 0x00, 0x00, 0x00, 
  0x00, 0x00, 0x06, 0x00, 0x08, 0x00, 0x07, 0x00, 0x06, 0x00, 0x00, 0x00, 
  0x00, 0x00, 0x00, 0x01, 0x01, 0x00, 0x00, 0x00, 0x04, 0x00, 0x00, 0x00, 
  0x03, 0x00, 0x00, 0x00, 0x00, 0x00, 0x00, 0x00, 0x01, 0x00, 0x00, 0x00, 
  0xff, 0xff, 0xff, 0xff, 0x01, 0x00, 0x00, 0x00, 0x07, 0x00, 0x00, 0x00, 
  0x01, 0x00, 0x00, 0x00, 0x00, 0x00, 0x00, 0x00, 0x08, 0x00, 0x00, 0x00, 
  0x1c, 0x03, 0x00, 0x00, 0xb4, 0x02, 0x00, 0x00, 0x50, 0x02, 0x00, 0x00, 
  0x04, 0x02, 0x00, 0x00, 0x70, 0x01, 0x00, 0x00, 0xdc, 0x00, 0x00, 0x00, 
  0x60, 0x00, 0x00, 0x00, 0x04, 0x00, 0x00, 0x00, 0x1a, 0xfd, 0xff, 0xff, 
  0x00, 0x00, 0x00, 0x01, 0x14, 0x00, 0x00, 0x00, 0x1c, 0x00, 0x00, 0x00, 
  0x1c, 0x00, 0x00, 0x00, 0x08, 0x00, 0x00, 0x00, 0x34, 0x00, 0x00, 0x00, 
  0x02, 0x00, 0x00, 0x00, 0xff, 0xff, 0xff, 0xff, 0x04, 0x00, 0x00, 0x00, 
  0x04, 0xfd, 0xff, 0xff, 0x19, 0x00, 0x00, 0x00, 0x53, 0x74, 0x61, 0x74, 
  0x65, 0x66, 0x75, 0x6c, 0x50, 0x61, 0x72, 0x74, 0x69, 0x74, 0x69, 0x6f, 
  0x6e, 0x65, 0x64, 0x43, 0x61, 0x6c, 0x6c, 0x3a, 0x30, 0x00, 0x00, 0x00, 
  0x02, 0x00, 0x00, 0x00, 0x01, 0x00, 0x00, 0x00, 0x04, 0x00, 0x00, 0x00, 
  0x72, 0xfd, 0xff, 0xff, 0x00, 0x00, 0x00, 0x01, 0x14, 0x00, 0x00, 0x00, 
  0x1c, 0x00, 0x00, 0x00, 0x1c, 0x00, 0x00, 0x00, 0x07, 0x00, 0x00, 0x00, 
  0x54, 0x00, 0x00, 0x00, 0x02, 0x00, 0x00, 0x00, 0xff, 0xff, 0xff, 0xff, 
  0x04, 0x00, 0x00, 0x00, 0x5c, 0xfd, 0xff, 0xff, 0x38, 0x00, 0x00, 0x00, 
  0x65, 0x73, 0x70, 0x33, 0x32, 0x5f, 0x61, 0x63, 0x74, 0x6f, 0x72, 0x2f, 
  0x64, 0x65, 0x6e, 0x73, 0x65, 0x5f, 0x36, 0x35, 0x2f, 0x4d, 0x61, 0x74, 
  0x4d, 0x75, 0x6c, 0x3b, 0x65, 0x73, 0x70, 0x33, 0x32, 0x5f, 0x61, 0x63, 
  0x74, 0x6f, 0x72, 0x2f, 0x64, 0x65, 0x6e, 0x73, 0x65, 0x5f, 0x36, 0x35, 
  0x2f, 0x42, 0x69, 0x61, 0x73, 0x41, 0x64, 0x64, 0x00, 0x00, 0x00, 0x00, 
  0x02, 0x00, 0x00, 0x00, 0x01, 0x00, 0x00, 0x00, 0x04, 0x00, 0x00, 0x00, 
  0xea, 0xfd, 0xff, 0xff, 0x00, 0x00, 0x00, 0x01, 0x14, 0x00, 0x00, 0x00, 
  0x1c, 0x00, 0x00, 0x00, 0x1c, 0x00, 0x00, 0x00, 0x06, 0x00, 0x00, 0x00, 
  0x6c, 0x00, 0x00, 0x00, 0x02, 0x00, 0x00, 0x00, 0xff, 0xff, 0xff, 0xff, 
  0x20, 0x00, 0x00, 0x00, 0xd4, 0xfd, 0xff, 0xff, 0x52, 0x00, 0x00, 0x00, 
  0x65, 0x73, 0x70, 0x33, 0x32, 0x5f, 0x61, 0x63, 0x74, 0x6f, 0x72, 0x2f, 
  0x64, 0x65, 0x6e, 0x73, 0x65, 0x5f, 0x36, 0x34, 0x2f, 0x4d, 0x61, 0x74, 
  0x4d, 0x75, 0x6c, 0x3b, 0x65, 0x73, 0x70, 0x33, 0x32, 0x5f, 0x61, 0x63, 
  0x74, 0x6f, 0x72, 0x2f, 0x64, 0x65, 0x6e, 0x73, 0x65, 0x5f, 0x36, 0x34, 
  0x2f, 0x52, 0x65, 0x6c, 0x75, 0x3b, 0x65, 0x73, 0x70, 0x33, 0x32, 0x5f, 
  0x61, 0x63, 0x74, 0x6f, 0x72, 0x2f, 0x64, 0x65, 0x6e, 0x73, 0x65, 0x5f, 
  0x36, 0x34, 0x2f, 0x42, 0x69, 0x61, 0x73, 0x41, 0x64, 0x64, 0x00, 0x00, 
  0x02, 0x00, 0x00, 0x00, 0x01, 0x00, 0x00, 0x00, 0x20, 0x00, 0x00, 0x00, 
  0x7a, 0xfe, 0xff, 0xff, 0x00, 0x00, 0x00, 0x01, 0x14, 0x00, 0x00, 0x00, 
  0x1c, 0x00, 0x00, 0x00, 0x1c, 0x00, 0x00, 0x00, 0x05, 0x00, 0x00, 0x00, 
  0x6c, 0x00, 0x00, 0x00, 0x02, 0x00, 0x00, 0x00, 0xff, 0xff, 0xff, 0xff, 
  0x20, 0x00, 0x00, 0x00, 0x64, 0xfe, 0xff, 0xff, 0x52, 0x00, 0x00, 0x00, 
  0x65, 0x73, 0x70, 0x33, 0x32, 0x5f, 0x61, 0x63, 0x74, 0x6f, 0x72, 0x2f, 
  0x64, 0x65, 0x6e, 0x73, 0x65, 0x5f, 0x36, 0x33, 0x2f, 0x4d, 0x61, 0x74, 
  0x4d, 0x75, 0x6c, 0x3b, 0x65, 0x73, 0x70, 0x33, 0x32, 0x5f, 0x61, 0x63, 
  0x74, 0x6f, 0x72, 0x2f, 0x64, 0x65, 0x6e, 0x73, 0x65, 0x5f, 0x36, 0x33, 
  0x2f, 0x52, 0x65, 0x6c, 0x75, 0x3b, 0x65, 0x73, 0x70, 0x33, 0x32, 0x5f, 
  0x61, 0x63, 0x74, 0x6f, 0x72, 0x2f, 0x64, 0x65, 0x6e, 0x73, 0x65, 0x5f, 
  0x36, 0x33, 0x2f, 0x42, 0x69, 0x61, 0x73, 0x41, 0x64, 0x64, 0x00, 0x00, 
  0x02, 0x00, 0x00, 0x00, 0x01, 0x00, 0x00, 0x00, 0x20, 0x00, 0x00, 0x00, 
  0x6e, 0xff, 0xff, 0xff, 0x00, 0x00, 0x00, 0x01, 0x10, 0x00, 0x00, 0x00, 
  0x10, 0x00, 0x00, 0x00, 0x04, 0x00, 0x00, 0x00, 0x28, 0x00, 0x00, 0x00, 
  0xe4, 0xfe, 0xff, 0xff, 0x1b, 0x00, 0x00, 0x00, 0x65, 0x73, 0x70, 0x33, 
  0x32, 0x5f, 0x61, 0x63, 0x74, 0x6f, 0x72, 0x2f, 0x64, 0x65, 0x6e, 0x73, 
  0x65, 0x5f, 0x36, 0x35, 0x2f, 0x4d, 0x61, 0x74, 0x4d, 0x75, 0x6c, 0x00, 
  0x02, 0x00, 0x00, 0x00, 0x04, 0x00, 0x00, 0x00, 0x20, 0x00, 0x00, 0x00, 
  0xb6, 0xff, 0xff, 0xff, 0x00, 0x00, 0x00, 0x01, 0x10, 0x00, 0x00, 0x00, 
  0x10, 0x00, 0x00, 0x00, 0x03, 0x00, 0x00, 0x00, 0x28, 0x00, 0x00, 0x00, 
  0x2c, 0xff, 0xff, 0xff, 0x1b, 0x00, 0x00, 0x00, 0x65, 0x73, 0x70, 0x33, 
  0x32, 0x5f, 0x61, 0x63, 0x74, 0x6f, 0x72, 0x2f, 0x64, 0x65, 0x6e, 0x73, 
  0x65, 0x5f, 0x36, 0x34, 0x2f, 0x4d, 0x61, 0x74, 0x4d, 0x75, 0x6c, 0x00, 
  0x02, 0x00, 0x00, 0x00, 0x20, 0x00, 0x00, 0x00, 0x20, 0x00, 0x00, 0x00, 
  0x00, 0x00, 0x16, 0x00, 0x18, 0x00, 0x14, 0x00, 0x00, 0x00, 0x10, 0x00, 
  0x0c, 0x00, 0x08, 0x00, 0x00, 0x00, 0x00, 0x00, 0x00, 0x00, 0x07, 0x00, 
  0x16, 0x00, 0x00, 0x00, 0x00, 0x00, 0x00, 0x01, 0x10, 0x00, 0x00, 0x00, 
  0x10, 0x00, 0x00, 0x00, 0x02, 0x00, 0x00, 0x00, 0x2c, 0x00, 0x00, 0x00, 
  0x8c, 0xff, 0xff, 0xff, 0x1c, 0x00, 0x00, 0x00, 0x65, 0x73, 0x70, 0x33, 
  0x32, 0x5f, 0x61, 0x63, 0x74, 0x6f, 0x72, 0x2f, 0x64, 0x65, 0x6e, 0x73, 
  0x65, 0x5f, 0x36, 0x33, 0x2f, 0x4d, 0x61, 0x74, 0x4d, 0x75, 0x6c, 0x31, 
  0x00, 0x00, 0x00, 0x00, 0x02, 0x00, 0x00, 0x00, 0x20, 0x00, 0x00, 0x00, 
  0x05, 0x00, 0x00, 0x00, 0x00, 0x00, 0x16, 0x00, 0x1c, 0x00, 0x18, 0x00, 
  0x00, 0x00, 0x14, 0x00, 0x10, 0x00, 0x0c, 0x00, 0x00, 0x00, 0x00, 0x00, 
  0x08, 0x00, 0x07, 0x00, 0x16, 0x00, 0x00, 0x00, 0x00, 0x00, 0x00, 0x01, 
  0x14, 0x00, 0x00, 0x00, 0x20, 0x00, 0x00, 0x00, 0x20, 0x00, 0x00, 0x00, 
  0x01, 0x00, 0x00, 0x00, 0x40, 0x00, 0x00, 0x00, 0x02, 0x00, 0x00, 0x00, 
  0xff, 0xff, 0xff, 0xff, 0x05, 0x00, 0x00, 0x00, 0x04, 0x00, 0x04, 0x00, 
  0x04, 0x00, 0x00, 0x00, 0x20, 0x00, 0x00, 0x00, 0x73, 0x65, 0x72, 0x76, 
  0x69, 0x6e, 0x67, 0x5f, 0x64, 0x65, 0x66, 0x61, 0x75, 0x6c, 0x74, 0x5f, 
  0x64, 0x65, 0x6e, 0x73, 0x65, 0x5f, 0x36, 0x33, 0x5f, 0x69, 0x6e, 0x70, 
  0x75, 0x74, 0x3a, 0x30, 0x00, 0x00, 0x00, 0x00, 0x02, 0x00, 0x00, 0x00, 
  0x01, 0x00, 0x00, 0x00, 0x05, 0x00, 0x00, 0x00, 0x02, 0x00, 0x00, 0x00, 
  0x20, 0x00, 0x00, 0x00, 0x04, 0x00, 0x00, 0x00, 0xf4, 0xff, 0xff, 0xff, 
  0x1c, 0x00, 0x00, 0x00, 0x00, 0x00, 0x00, 0x1c, 0x0c, 0x00, 0x0c, 0x00, 
  0x0b, 0x00, 0x00, 0x00, 0x00, 0x00, 0x04, 0x00, 0x0c, 0x00, 0x00, 0x00, 
  0x09, 0x00, 0x00, 0x00, 0x00, 0x00, 0x00, 0x09, 
};

const unsigned int actor_model_len = 7040;
