#include "actor_task0.h"

const uint8_t actor_model[] = {

  0x1c, 0x00, 0x00, 0x00, 0x54, 0x46, 0x4c, 0x33, 0x14, 0x00, 0x20, 0x00, 
  0x1c, 0x00, 0x18, 0x00, 0x14, 0x00, 0x10, 0x00, 0x0c, 0x00, 0x00, 0x00, 
  0x08, 0x00, 0x04, 0x00, 0x14, 0x00, 0x00, 0x00, 0x1c, 0x00, 0x00, 0x00, 
  0x8c, 0x00, 0x00, 0x00, 0xe4, 0x00, 0x00, 0x00, 0x50, 0x16, 0x00, 0x00, 
  0x60, 0x16, 0x00, 0x00, 0x1c, 0x1b, 0x00, 0x00, 0x03, 0x00, 0x00, 0x00, 
  0x01, 0x00, 0x00, 0x00, 0x04, 0x00, 0x00, 0x00, 0x62, 0xe9, 0xff, 0xff, 
  0x0c, 0x00, 0x00, 0x00, 0x1c, 0x00, 0x00, 0x00, 0x3c, 0x00, 0x00, 0x00, 
  0x0f, 0x00, 0x00, 0x00, 0x73, 0x65, 0x72, 0x76, 0x69, 0x6e, 0x67, 0x5f, 
  0x64, 0x65, 0x66, 0x61, 0x75, 0x6c, 0x74, 0x00, 0x01, 0x00, 0x00, 0x00, 
  0x04, 0x00, 0x00, 0x00, 0x90, 0xff, 0xff, 0xff, 0x07, 0x00, 0x00, 0x00, 
  0x04, 0x00, 0x00, 0x00, 0x08, 0x00, 0x00, 0x00, 0x64, 0x65, 0x6e, 0x73, 
  0x65, 0x5f, 0x36, 0x35, 0x00, 0x00, 0x00, 0x00, 0x01, 0x00, 0x00, 0x00, 
  0x04, 0x00, 0x00, 0x00, 0xb2, 0xec, 0xff, 0xff, 0x04, 0x00, 0x00, 0x00, 
  0x0e, 0x00, 0x00, 0x00, 0x64, 0x65, 0x6e, 0x73, 0x65, 0x5f, 0x36, 0x33, 
  0x5f, 0x69, 0x6e, 0x70, 0x75, 0x74, 0x00, 0x00, 0x02, 0x00, 0x00, 0x00, 
  0x34, 0x00, 0x00, 0x00, 0x04, 0x00, 0x00, 0x00, 0xdc, 0xff, 0xff, 0xff, 
  0x0a, 0x00, 0x00, 0x00, 0x04, 0x00, 0x00, 0x00, 0x13, 0x00, 0x00, 0x00, 
  0x43, 0x4f, 0x4e, 0x56, 0x45, 0x52, 0x53, 0x49, 0x4f, 0x4e, 0x5f, 0x4d, 
  0x45, 0x54, 0x41, 0x44, 0x41, 0x54, 0x41, 0x00, 0x08, 0x00, 0x0c, 0x00, 
  0x08, 0x00, 0x04, 0x00, 0x08, 0x00, 0x00, 0x00, 0x09, 0x00, 0x00, 0x00, 
  0x04, 0x00, 0x00, 0x00, 0x13, 0x00, 0x00, 0x00, 0x6d, 0x69, 0x6e, 0x5f, 
  0x72, 0x75, 0x6e, 0x74, 0x69, 0x6d, 0x65, 0x5f, 0x76, 0x65, 0x72, 0x73, 
  0x69, 0x6f, 0x6e, 0x00, 0x0b, 0x00, 0x00, 0x00, 0x68, 0x15, 0x00, 0x00, 
  0x60, 0x15, 0x00, 0x00, 0xd0, 0x12, 0x00, 0x00, 0xb8, 0x02, 0x00, 0x00, 
  0xa8, 0x00, 0x00, 0x00, 0xa0, 0x00, 0x00, 0x00, 0x98, 0x00, 0x00, 0x00, 
  0x90, 0x00, 0x00, 0x00, 0x88, 0x00, 0x00, 0x00, 0x68, 0x00, 0x00, 0x00, 
  0x04, 0x00, 0x00, 0x00, 0x5a, 0xed, 0xff, 0xff, 0x04, 0x00, 0x00, 0x00, 
  0x54, 0x00, 0x00, 0x00, 0x0c, 0x00, 0x00, 0x00, 0x08, 0x00, 0x0e, 0x00, 
  0x08, 0x00, 0x04, 0x00, 0x08, 0x00, 0x00, 0x00, 0x10, 0x00, 0x00, 0x00, 
  0x24, 0x00, 0x00, 0x00, 0x00, 0x00, 0x06, 0x00, 0x08, 0x00, 0x04, 0x00, 
  0x06, 0x00, 0x00, 0x00, 0x04, 0x00, 0x00, 0x00, 0x00, 0x00, 0x00, 0x00, 
  0x00, 0x00, 0x0a, 0x00, 0x10, 0x00, 0x0c, 0x00, 0x08, 0x00, 0x04, 0x00, 
  0x0a, 0x00, 0x00, 0x00, 0x02, 0x00, 0x00, 0x00, 0x02, 0x00, 0x00, 0x00, 
  0x04, 0x00, 0x00, 0x00, 0x06, 0x00, 0x00, 0x00, 0x32, 0x2e, 0x31, 0x33, 
  0x2e, 0x30, 0x00, 0x00, 0xba, 0xed, 0xff, 0xff, 0x04, 0x00, 0x00, 0x00, 
  0x10, 0x00, 0x00, 0x00, 0x31, 0x2e, 0x31, 0x34, 0x2e, 0x30, 0x00, 0x00, 
  0x00, 0x00, 0x00, 0x00, 0x00, 0x00, 0x00, 0x00, 0xa4, 0xe6, 0xff, 0xff, 
  0xa8, 0xe6, 0xff, 0xff, 0xac, 0xe6, 0xff, 0xff, 0xb0, 0xe6, 0xff, 0xff, 
  0xe6, 0xed, 0xff, 0xff, 0x04, 0x00, 0x00, 0x00, 0x00, 0x02, 0x00, 0x00, 
  0x70, 0x48, 0x8b, 0xbc, 0x10, 0xae, 0xb8, 0x3e, 0x21, 0x5f, 0x6b, 0xbe, 
  0xec, 0x60, 0x3a, 0xbe, 0x3c, 0x67, 0x50, 0x3e, 0x80, 0x5e, 0xc5, 0xbb, 
  0x48, 0xb7, 0x60, 0xbd, 0xc0, 0xbc, 0x04, 0x3d, 0x29, 0x61, 0xae, 0xbe, 
  0xa7, 0x71, 0x6b, 0xbe, 0x3a, 0xa5, 0x7a, 0xbe, 0xa6, 0xe5, 0x9d, 0x3e, 
  0x50, 0x8a, 0x25, 0x3d, 0x5c, 0xa7, 0x46, 0x3e, 0x20, 0x3b, 0x4f, 0x3e, 
  0xd8, 0x23, 0x81, 0xbe, 0x4a, 0xc8, 0xc3, 0xbe, 0x6a, 0xb5, 0x6e, 0xbe, 
  0x54, 0x19, 0x16, 0x3e, 0xe8, 0x00, 0x74, 0x3e, 0xbc, 0x35, 0x8e, 0xbe, 
  0x40, 0x96, 0x8c, 0xbb, 0xc0, 0xea, 0x03, 0xbc, 0xf8, 0x98, 0xdb, 0xbd, 
  0x84, 0xbf, 0xc1, 0xbd, 0x26, 0x63, 0xb8, 0xbe, 0x68, 0x62, 0x32, 0x3e, 
  0x35, 0xfa, 0x8d, 0xbe, 0xa0, 0x5f, 0xc0, 0xbc, 0x50, 0x92, 0x7a, 0xbd, 
  0x84, 0x44, 0x35, 0x3e, 0xc0, 0x80, 0x22, 0x3e, 0x76, 0x5a, 0x90, 0x3e, 
  0x00, 0xc4, 0x7c, 0x3e, 0x25, 0xc2, 0xc5, 0xbe, 0xf6, 0xc0, 0x56, 0xbe, 
  0x08, 0x0e, 0x37, 0x3e, 0xca, 0x8b, 0xcd, 0x3e, 0xdb, 0x8c, 0x33, 0xbe, 
  0xea, 0xfa, 0x82, 0x3e, 0xf8, 0xb5, 0xd0, 0xbe, 0xb4, 0x69, 0xc4, 0xbd, 
  0xf2, 0x22, 0xc4, 0x3e, 0x36, 0x64, 0xa0, 0x3e, 0x78, 0xdd, 0x12, 0x3e, 
  0x48, 0x20, 0x08, 0x3e, 0xf8, 0xb4, 0x3b, 0xbd, 0x8a, 0x45, 0x85, 0xbe, 
  0x84, 0x12, 0x1c, 0x3e, 0x16, 0x30, 0xc7, 0x3e, 0x08, 0xc0, 0x44, 0xbd, 
  0x19, 0xf9, 0x28, 0xbe, 0x10, 0x41, 0xf0, 0x3c, 0x00, 0x95, 0xab, 0x3b, 
  0x35, 0x04, 0x53, 0xbe, 0xfe, 0x51, 0xcd, 0x3e, 0x70, 0xe8, 0x79, 0x3e, 
  0x74, 0x69, 0xef, 0xbd, 0xe6, 0x61, 0xc1, 0x3e, 0x4e, 0x67, 0xb1, 0x3e, 
  0x32, 0x25, 0x8b, 0xbe, 0x48, 0x37, 0xb6, 0xbe, 0xb0, 0x34, 0x9b, 0xbe, 
  0x10, 0xcc, 0xc5, 0x3c, 0x4a, 0x9f, 0x87, 0x3e, 0xf8, 0x39, 0xd7, 0x3d, 
  0xa0, 0x88, 0xba, 0xbc, 0x20, 0x59, 0x36, 0x3e, 0x80, 0xca, 0x0e, 0x3c, 
  0x3c, 0xc5, 0x9b, 0x3e, 0x9e, 0xff, 0x51, 0xbe, 0xc4, 0xbc, 0x2d, 0x3e, 
  0xe4, 0xbd, 0x58, 0x3e, 0xda, 0xb7, 0x93, 0x3e, 0x77, 0x1a, 0x6c, 0xbe, 
  0x76, 0xf1, 0x3d, 0xbe, 0x50, 0xbf, 0x57, 0xbd, 0x18, 0x96, 0xfe, 0x3d, 
  0xa4, 0xbb, 0x7f, 0x3e, 0x08, 0xf4, 0xe0, 0x3d, 0xc0, 0x35, 0x5d, 0x3d, 
  0xa3, 0x79, 0x62, 0xbe, 0xb1, 0x09, 0x41, 0xbe, 0x90, 0xc2, 0xd1, 0xbc, 
  0x40, 0x0b, 0x37, 0x3d, 0x08, 0x7d, 0xb0, 0x3e, 0x92, 0xb9, 0xb9, 0x3e, 
  0x0d, 0xa0, 0x79, 0xbe, 0x51, 0x0b, 0xa9, 0xbe, 0x28, 0xb2, 0x82, 0xbe, 
  0x50, 0xfc, 0xec, 0x3d, 0x80, 0x98, 0x34, 0xbd, 0xc0, 0x98, 0x0d, 0x3e, 
  0xbe, 0xca, 0x99, 0x3e, 0x60, 0xa3, 0xd6, 0xbc, 0x15, 0x3b, 0x44, 0xbe, 
  0x8a, 0x30, 0x05, 0xbe, 0xdc, 0x3d, 0x9b, 0x3e, 0xe8, 0x42, 0xc7, 0x3e, 
  0x72, 0x1a, 0x9b, 0xbe, 0x60, 0x54, 0x32, 0x3c, 0xc6, 0xb4, 0x8b, 0x3e, 
  0x50, 0x2e, 0x84, 0x3e, 0x40, 0xc7, 0xcb, 0xbd, 0x20, 0x59, 0x66, 0x3e, 
  0x18, 0x19, 0xb8, 0x3e, 0x70, 0xf4, 0x9a, 0x3c, 0x94, 0xe7, 0x2b, 0x3e, 
  0xa8, 0xb9, 0x2d, 0x3e, 0x20, 0xee, 0x4b, 0x3e, 0xb0, 0xce, 0x83, 0xbd, 
  0xa0, 0x2d, 0x08, 0x3e, 0x6e, 0xb2, 0xb7, 0xbe, 0x18, 0xf8, 0x79, 0x3d, 
  0x84, 0xc9, 0x3b, 0x3e, 0xc0, 0xb4, 0x0d, 0x3d, 0xf0, 0xa1, 0x3b, 0x3e, 
  0x94, 0xe0, 0xf0, 0xbd, 0x64, 0x53, 0xc4, 0xbd, 0xb8, 0xe2, 0xa4, 0xbe, 
  0x40, 0xa1, 0xa6, 0x3c, 0x45, 0x9e, 0xae, 0xbe, 0x88, 0x8d, 0x1f, 0x3e, 
  0xe6, 0x7b, 0x9d, 0x3e, 0xca, 0x63, 0x13, 0xbe, 0x28, 0x84, 0x16, 0x3e, 
  0xf0, 0x25, 0x3d, 0x3d, 0xd2, 0xa0, 0xc5, 0xbe, 0xf2, 0xef, 0xff, 0xff, 
  0x04, 0x00, 0x00, 0x00, 0x00, 0x10, 0x00, 0x00, 0x4e, 0xc5, 0x83, 0xbd, 
  0x09, 0x78, 0x0f, 0xbe, 0x60, 0x09, 0x87, 0x3c, 0xb5, 0x53, 0x98, 0x3e, 
  0x9e, 0xd0, 0x58, 0xbe, 0xa0, 0xf9, 0x6b, 0x3d, 0x95, 0xad, 0x17, 0xbe, 
  0xf1, 0xd3, 0x01, 0xbe, 0x9c, 0x28, 0x98, 0xbe, 0xb4, 0xf9, 0x00, 0x3e, 
  0x40, 0x0b, 0x8b, 0xbc, 0x7a, 0x28, 0x78, 0x3e, 0x40, 0x54, 0xc2, 0x3c, 
  0xbc, 0x93, 0xad, 0x3d, 0x40, 0xc8, 0x4d, 0xbd, 0xc8, 0xd2, 0x1e, 0x3d, 
  0x4a, 0x2f, 0x33, 0xbe, 0xd6, 0x73, 0x93, 0xbe, 0x10, 0x86, 0x0f, 0x3e, 
  0x0c, 0x35, 0x0a, 0x3e, 0xde, 0x32, 0x81, 0xbe, 0x68, 0x89, 0x54, 0xbe, 
  0xca, 0xab, 0x93, 0xbe, 0xa6, 0x17, 0x86, 0xbe, 0x54, 0x4f, 0x09, 0xbe, 
  0x56, 0xb9, 0x16, 0x3e, 0x5d, 0x08, 0x84, 0x3e, 0x80, 0x31, 0x2b, 0xbd, 
  0x80, 0x87, 0x14, 0x3b, 0xa0, 0x6a, 0x9b, 0xbe, 0x60, 0xd5, 0x0f, 0x3c, 
  0x50, 0x2e, 0xca, 0xbc, 0x0a, 0x57, 0x7e, 0x3e, 0x9a, 0xe8, 0x48, 0x3e, 
  0x50, 0x07, 0xc1, 0x3d, 0x17, 0xef, 0x83, 0x3e, 0x7a, 0xf8, 0x7f, 0x3e, 
  0x53, 0x90, 0x96, 0x3e, 0xf0, 0xfd, 0xf5, 0x3c, 0x24, 0xcb, 0x33, 0x3e, 
  0xc8, 0x3e, 0xa2, 0x3d, 0xf7, 0xe4, 0x95, 0x3e, 0x60, 0xe2, 0x11, 0xbe, 
  0x90, 0x7c, 0x68, 0x3d, 0x44, 0x32, 0x9c, 0xbe, 0x64, 0xac, 0x69, 0xbe, 
  0x5c, 0x47, 0xc2, 0xbd, 0x00, 0xc1, 0x13, 0xbb, 0xc0, 0x6c, 0xec, 0x3d, 
  0xc0, 0x51, 0xb3, 0xbc, 0x6b, 0x5f, 0x90, 0x3e, 0x5c, 0x11, 0x07, 0x3e, 
  0xf2, 0x72, 0x36, 0x3e, 0x62, 0x3e, 0x47, 0x3e, 0x40, 0xf7, 0xc7, 0xbc, 
  0x00, 0xb7, 0x68, 0xbc, 0x4a, 0xd8, 0xe7, 0xbd, 0xc0, 0x21, 0xd8, 0xbb, 
  0x5b, 0xfc, 0x97, 0xbe, 0xa0, 0x8e, 0x62, 0xbd, 0xa9, 0x66, 0x98, 0xbe, 
  0x49, 0x4d, 0x8e, 0x3e, 0x07, 0x03, 0x20, 0xbe, 0xdc, 0xd0, 0x8e, 0xbd, 
  0xd8, 0x2a, 0xdd, 0xbd, 0x1e, 0xfc, 0x38, 0x3e, 0x81, 0xd1, 0x23, 0xbe, 
  0x1a, 0xf8, 0x6c, 0xbe, 0xd5, 0x3e, 0x8b, 0x3e, 0x50, 0x98, 0x6c, 0xbd, 
  0x88, 0x86, 0x33, 0x3e, 0xd8, 0x57, 0x3e, 0x3d, 0x48, 0x8e, 0xed, 0x3d, 
  0x4a, 0xeb, 0x99, 0xbe, 0xe4, 0x23, 0x91, 0x3d, 0x12, 0x60, 0x85, 0xbe, 
  0x69, 0x47, 0x49, 0xbe, 0xf0, 0x9e, 0x6d, 0xbd, 0xee, 0xa2, 0x93, 0xbe, 
  0x9d, 0x16, 0x89, 0x3e, 0x45, 0xc4, 0x18, 0xbe, 0xc0, 0xf8, 0xd0, 0x3b, 
  0x80, 0xf3, 0xe5, 0xbc, 0xad, 0xdf, 0x26, 0xbe, 0x28, 0x8c, 0x12, 0xbe, 
  0xf1, 0x34, 0x13, 0xbe, 0x2d, 0xfa, 0x14, 0xbe, 0xd0, 0x1c, 0x47, 0x3d, 
  0x59, 0xb2, 0x80, 0xbe, 0x03, 0xdc, 0x0e, 0xbe, 0x18, 0x8c, 0x75, 0x3d, 
  0x18, 0xb2, 0xae, 0xbd, 0xa0, 0xdd, 0x07, 0x3e, 0xa9, 0xf4, 0x29, 0xbe, 
  0x2c, 0xc6, 0xd2, 0x3d, 0xc0, 0xd7, 0xbb, 0xbc, 0xbf, 0x96, 0x84, 0x3e, 
  0xd6, 0xdb, 0x47, 0xbe, 0xd6, 0x86, 0x3e, 0xbe, 0xbb, 0x9e, 0x84, 0x3e, 
  0x40, 0x45, 0x20, 0x3c, 0x40, 0x51, 0xf5, 0x3c, 0x89, 0xbb, 0x98, 0x3e, 
  0xe7, 0x8c, 0x5b, 0xbe, 0x80, 0x1b, 0x9f, 0xbc, 0xf8, 0xd8, 0x10, 0x3e, 
  0x63, 0xd4, 0x96, 0x3e, 0x26, 0x54, 0x4e, 0xbe, 0xe8, 0x8f, 0x9a, 0x3d, 
  0x81, 0xa0, 0x89, 0x3e, 0x4f, 0x79, 0x86, 0x3e, 0x1e, 0xae, 0x28, 0x3e, 
  0xa8, 0xdd, 0x7a, 0x3d, 0xb2, 0xe3, 0x7c, 0x3e, 0x60, 0x94, 0x2a, 0x3e, 
  0x10, 0xae, 0x4b, 0xbe, 0x95, 0x4a, 0x9b, 0x3e, 0x16, 0xb4, 0x69, 0x3e, 
  0x1c, 0x78, 0x56, 0xbe, 0x93, 0x5c, 0x93, 0xbe, 0x72, 0xa2, 0x4d, 0xbe, 
  0x98, 0xec, 0x22, 0xbe, 0x9c, 0x0f, 0x99, 0xbe, 0x60, 0xd7, 0x92, 0xbc, 
  0xd8, 0x14, 0x90, 0x3d, 0x18, 0xf6, 0x21, 0xbe, 0xd4, 0x4a, 0x07, 0xbe, 
  0xf0, 0xb6, 0x87, 0x3c, 0x05, 0xe4, 0x8c, 0xbe, 0x3b, 0x68, 0x62, 0xbe, 
  0xfc, 0x1c, 0x5a, 0xbe, 0x2c, 0x98, 0x8a, 0xbd, 0xc6, 0x4b, 0x02, 0xbe, 
  0x56, 0x29, 0x7c, 0x3e, 0x27, 0x4f, 0x9c, 0xbe, 0xf0, 0xe3, 0x69, 0x3d, 
  0xe0, 0x6f, 0x27, 0xbc, 0x0a, 0xa5, 0x49, 0x3e, 0xa0, 0x44, 0x4b, 0xbc, 
  0x08, 0xde, 0x24, 0xbe, 0x90, 0x49, 0xf0, 0xbc, 0x11, 0x58, 0x12, 0xbe, 
  0x62, 0x9b, 0x04, 0xbe, 0x88, 0x5e, 0xa1, 0x3d, 0xb4, 0xe3, 0x9b, 0x3d, 
  0x37, 0x9a, 0x30, 0xbe, 0x40, 0x66, 0xac, 0x3b, 0xb4, 0x0d, 0xcc, 0x3d, 
  0x5b, 0x3b, 0x96, 0x3e, 0xc6, 0x42, 0x76, 0x3e, 0x30, 0x8c, 0x4f, 0x3d, 
  0x9c, 0x7b, 0xfc, 0x3d, 0x1f, 0x15, 0x87, 0xbe, 0x7c, 0xbb, 0x9a, 0xbe, 
  0x92, 0xc6, 0x64, 0x3e, 0x50, 0xa9, 0xbc, 0x3d, 0xfa, 0x90, 0x8d, 0xbe, 
  0xfa, 0xe8, 0x87, 0xbd, 0xfa, 0x92, 0x4e, 0x3e, 0x9e, 0x58, 0xd5, 0xbd, 
  0xd7, 0xd3, 0x90, 0x3e, 0x6a, 0x4d, 0x7d, 0x3e, 0x8a, 0xbf, 0x6b, 0x3e, 
  0x54, 0xae, 0xcf, 0xbd, 0xcd, 0x73, 0x8c, 0x3e, 0x02, 0xa2, 0x1d, 0x3e, 
  0xac, 0x1e, 0x04, 0x3e, 0x0a, 0x35, 0x9b, 0xbe, 0x69, 0x81, 0x8d, 0x3e, 
  0x62, 0x55, 0x34, 0x3e, 0x45, 0x53, 0x89, 0xbe, 0xb4, 0x4d, 0x7e, 0xbd, 
  0x52, 0xd3, 0x34, 0x3e, 0x24, 0x07, 0x46, 0x3e, 0xd0, 0x5f, 0x06, 0x3e, 
  0xca, 0x8c, 0x98, 0xbe, 0xd2, 0x2e, 0x1d, 0xbe, 0xf5, 0x95, 0x48, 0xbe, 
  0x69, 0x62, 0x90, 0xbe, 0x8c, 0xfd, 0xcb, 0x3d, 0xf0, 0x9c, 0xf8, 0x3d, 
  0x2e, 0x50, 0x6c, 0x3e, 0x98, 0x1c, 0x0e, 0x3d, 0x44, 0xb4, 0x7e, 0xbd, 
  0x1c, 0x58, 0xa6, 0xbd, 0x12, 0x05, 0x08, 0x3e, 0x8c, 0xc3, 0xb2, 0xbd, 
  0x53, 0xa7, 0x99, 0x3e, 0x88, 0x65, 0x4f, 0xbd, 0x4a, 0x10, 0x4a, 0x3e, 
  0x42, 0xd1, 0x50, 0x3e, 0x30, 0x6b, 0x09, 0x3e, 0x80, 0xc6, 0xe0, 0xbc, 
  0x2c, 0x74, 0xef, 0x3d, 0xa6, 0xf3, 0x9a, 0xbd, 0x12, 0xdc, 0x3c, 0xbe, 
  0x48, 0x6e, 0x31, 0x3d, 0x6e, 0x14, 0x43, 0x3e, 0xe5, 0x1b, 0x97, 0xbe, 
  0xf0, 0x1f, 0xa0, 0x3d, 0x30, 0x57, 0x0c, 0x3e, 0x2e, 0xd2, 0xc2, 0xbd, 
  0xc0, 0x8e, 0x22, 0xbd, 0xd0, 0x8a, 0x91, 0x3d, 0x9d, 0x33, 0x18, 0xbe, 
  0x8d, 0xff, 0x12, 0xbe, 0xac, 0xf8, 0x97, 0x3d, 0x03, 0x6e, 0x66, 0xbe, 
  0x96, 0x1e, 0x07, 0x3e, 0xfc, 0xa1, 0xdc, 0x3d, 0x80, 0xd7, 0x59, 0xbc, 
  0x38, 0xbf, 0x9c, 0xbe, 0xf0, 0xb6, 0xcb, 0xbd, 0xb5, 0x63, 0x22, 0xbe, 
  0x1c, 0xc0, 0xdc, 0x3d, 0xe2, 0xe5, 0xb2, 0xbd, 0x42, 0x25, 0x7a, 0x3e, 
  0x0a, 0x19, 0x5e, 0xbe, 0x94, 0xa2, 0xda, 0xbd, 0x40, 0x27, 0xbd, 0xbb, 
  0x36, 0x2e, 0x25, 0xbe, 0x57, 0x05, 0x90, 0xbe, 0xf0, 0x0e, 0xa2, 0x3d, 
  0xe0, 0xc7, 0x7c, 0x3c, 0x8c, 0x52, 0x5e, 0xbe, 0x2a, 0xe4, 0x1f, 0x3e, 
  0x60, 0x50, 0x7c, 0xbc, 0x12, 0x7e, 0x6c, 0x3e, 0x8a, 0xc7, 0x69, 0x3e, 
  0x8c, 0xf6, 0x3b, 0x3e, 0x79, 0x6b, 0x99, 0xbe, 0xec, 0x5f, 0x11, 0x3e, 
  0xba, 0xbf, 0xc2, 0xbd, 0x17, 0xe3, 0x68, 0xbe, 0xdb, 0x06, 0x9a, 0x3e, 
  0x9c, 0x5b, 0x80, 0xbe, 0x8c, 0x05, 0x04, 0x3e, 0xc0, 0x17, 0x3d, 0xbc, 
  0x6b, 0x23, 0x88, 0x3e, 0x74, 0xfc, 0x98, 0xbe, 0xe0, 0x82, 0xd8, 0x3c, 
  0xf0, 0xd4, 0xe1, 0xbd, 0x03, 0x2d, 0x63, 0xbe, 0x86, 0xe5, 0x27, 0x3e, 
  0x65, 0x22, 0x8a, 0xbe, 0xfe, 0x77, 0x4a, 0x3e, 0xad, 0xd4, 0x43, 0xbe, 
  0x5e, 0xf4, 0x7e, 0x3e, 0x81, 0x2e, 0x87, 0x3e, 0x42, 0x06, 0x46, 0xbe, 
  0xf2, 0x02, 0x2b, 0xbe, 0x05, 0x1e, 0x82, 0x3e, 0x70, 0xd1, 0x4d, 0x3d, 
  0xdb, 0x5a, 0x34, 0xbe, 0xd6, 0x1f, 0x4f, 0x3e, 0xb9, 0xae, 0x86, 0x3e, 
  0x98, 0x5b, 0xad, 0x3d, 0x82, 0xf5, 0x2d, 0x3e, 0xd0, 0x0e, 0x94, 0xbc, 
  0x94, 0xa1, 0x39, 0xbe, 0xe0, 0x78, 0x84, 0x3d, 0xb4, 0xba, 0xae, 0x3d, 
  0x08, 0x4e, 0xe6, 0xbd, 0x5c, 0xb4, 0xc6, 0x3d, 0x00, 0x8d, 0xe2, 0xbc, 
  0xfe, 0x26, 0x67, 0x3e, 0x18, 0x43, 0x5f, 0xbe, 0x00, 0x4a, 0x49, 0x3d, 
  0x60, 0x2c, 0x2e, 0xbc, 0xe8, 0xa8, 0x36, 0x3d, 0xfa, 0xb9, 0x89, 0xbe, 
  0xbe, 0x64, 0x49, 0x3e, 0x80, 0xb4, 0xae, 0xbb, 0x52, 0xb9, 0x56, 0x3e, 
  0x50, 0x0a, 0xaa, 0xbc, 0x51, 0x83, 0x93, 0x3e, 0x73, 0x3a, 0x8a, 0x3e, 
  0x7a, 0x40, 0x47, 0x3e, 0x4a, 0xc8, 0x0b, 0xbe, 0x81, 0xaf, 0x1a, 0xbe, 
  0xc0, 0x8c, 0xc0, 0x3c, 0x1a, 0x70, 0x31, 0x3e, 0x18, 0xf4, 0x38, 0x3d, 
  0xb0, 0xb0, 0x3e, 0xbe, 0x3f, 0x5b, 0x9a, 0xbe, 0x80, 0x4f, 0xeb, 0x3d, 
  0xf7, 0x9c, 0x6d, 0xbe, 0x15, 0xb9, 0x84, 0x3e, 0x68, 0x69, 0xc8, 0xbd, 
  0xca, 0x8e, 0x94, 0xbe, 0xd8, 0x5b, 0xf5, 0x3d, 0xca, 0xd3, 0xd2, 0xbd, 
  0x80, 0x23, 0x9f, 0x3d, 0xf0, 0x2b, 0xd0, 0x3d, 0xfe, 0xad, 0x7c, 0xbe, 
  0x22, 0x5f, 0x89, 0xbd, 0x18, 0xaf, 0xbf, 0x3d, 0xb4, 0x61, 0xa5, 0x3d, 
  0xce, 0x61, 0x8c, 0xbd, 0x3f, 0xf2, 0x84, 0x3e, 0x83, 0xb1, 0x8f, 0xbe, 
  0xa4, 0x31, 0x8e, 0xbd, 0xea, 0x2d, 0x6b, 0x3e, 0xe9, 0x72, 0x38, 0xbe, 
  0xff, 0x17, 0x91, 0xbe, 0xa5, 0x53, 0x90, 0x3e, 0xf0, 0x10, 0xd9, 0x3d, 
  0x50, 0xb9, 0x33, 0xbd, 0x7f, 0xfd, 0x79, 0xbe, 0x22, 0xd3, 0x61, 0x3e, 
  0xba, 0x9b, 0x2e, 0x3e, 0x26, 0x15, 0x20, 0x3e, 0x5e, 0x15, 0xe0, 0xbd, 
  0x64, 0x31, 0xce, 0x3d, 0xe0, 0x3e, 0xe6, 0x3d, 0x90, 0xfa, 0x44, 0xbd, 
  0xe0, 0x18, 0x2d, 0xbd, 0xec, 0xe1, 0x62, 0xbe, 0xd0, 0xeb, 0x64, 0xbe, 
  0xdc, 0x2e, 0x3a, 0xbe, 0x68, 0xa1, 0x69, 0xbe, 0xb6, 0xf2, 0x4f, 0x3e, 
  0xef, 0xc1, 0x90, 0x3e, 0x66, 0xee, 0x36, 0xbe, 0xd8, 0xee, 0xf4, 0x3d, 
  0xa0, 0x55, 0x2a, 0x3e, 0x8e, 0x1e, 0x86, 0xbe, 0xaa, 0x15, 0x65, 0xbe, 
  0xf8, 0xc7, 0x28, 0xbe, 0x07, 0x9e, 0x89, 0xbe, 0xc1, 0x2a, 0x88, 0x3e, 
  0xaf, 0xa7, 0x8d, 0x3e, 0x7e, 0x5f, 0x4a, 0x3e, 0x8a, 0x77, 0x43, 0xbe, 
  0x1e, 0x82, 0x0d, 0xbe, 0x68, 0xa8, 0x22, 0x3e, 0x00, 0xfd, 0x45, 0x3e, 
  0xf0, 0x58, 0x05, 0x3d, 0x98, 0x27, 0x16, 0x3e, 0x18, 0x5b, 0xae, 0x3d, 
  0x19, 0xb4, 0x61, 0xbe, 0xb0, 0x23, 0xe9, 0x3c, 0xbc, 0xab, 0xa2, 0x3d, 
  0x1e, 0x22, 0x42, 0x3e, 0x4e, 0xf2, 0x06, 0xbe, 0x38, 0x25, 0xa7, 0x3d, 
  0x90, 0xf2, 0x2d, 0x3d, 0x5a, 0xb6, 0x7f, 0x3e, 0x0e, 0xe5, 0x73, 0xbe, 
  0x8a, 0xf7, 0x13, 0x3e, 0x06, 0x33, 0x0b, 0xbe, 0x58, 0x92, 0x37, 0xbe, 
  0x2d, 0xee, 0x97, 0x3e, 0x7e, 0xb8, 0xe0, 0xbd, 0x4e, 0xcb, 0x74, 0x3e, 
  0xcb, 0x33, 0x99, 0x3e, 0xe3, 0x77, 0x88, 0xbe, 0xa8, 0x73, 0x12, 0xbd, 
  0x10, 0xbb, 0x82, 0xbe, 0xd0, 0x85, 0x95, 0xbe, 0xaa, 0xa3, 0xb9, 0xbd, 
  0xb6, 0xd1, 0x15, 0xbe, 0x90, 0x23, 0x95, 0x3c, 0x43, 0x16, 0x92, 0x3e, 
  0xfd, 0x15, 0x94, 0x3e, 0x3a, 0xe0, 0x58, 0x3e, 0x80, 0xc5, 0x84, 0xbd, 
  0xf0, 0x09, 0xe1, 0x3d, 0xc9, 0xb0, 0x18, 0xbe, 0xb0, 0x5e, 0xec, 0x3c, 
  0x4e, 0x59, 0x15, 0x3e, 0x88, 0x53, 0x0e, 0xbe, 0x71, 0x6c, 0x8b, 0x3e, 
  0x98, 0x56, 0xb7, 0x3d, 0x1e, 0x4e, 0x2b, 0x3e, 0x67, 0x10, 0x78, 0xbe, 
  0x39, 0xd0, 0x89, 0xbe, 0x30, 0x30, 0xd9, 0xbc, 0xc0, 0x02, 0x2d, 0x3d, 
  0x40, 0xc2, 0x1f, 0x3e, 0xc0, 0xdd, 0xdf, 0x3d, 0x0a, 0x50, 0x0b, 0x3e, 
  0x98, 0x24, 0xc8, 0xbd, 0x00, 0x41, 0x84, 0xbe, 0x40, 0x09, 0xfe, 0xbb, 
  0x35, 0xbd, 0x94, 0x3e, 0x48, 0x90, 0xe2, 0x3d, 0x88, 0x0a, 0x93, 0x3d, 
  0x78, 0x31, 0x11, 0x3d, 0x8b, 0x99, 0x2a, 0xbe, 0x5a, 0x0c, 0x2a, 0x3e, 
  0x27, 0x4e, 0x85, 0x3e, 0xf6, 0x75, 0x40, 0x3e, 0xda, 0x35, 0x0c, 0x3e, 
  0x68, 0xdf, 0xcc, 0xbd, 0x02, 0x23, 0x5a, 0xbe, 0x84, 0x3e, 0xba, 0xbd, 
  0xc9, 0x71, 0x25, 0xbe, 0xe0, 0xdb, 0xda, 0x3d, 0x56, 0x11, 0x21, 0x3e, 
  0x00, 0xfd, 0xed, 0x3b, 0x00, 0x1b, 0xc2, 0x3b, 0xa1, 0x71, 0x8a, 0x3e, 
  0x96, 0x12, 0x61, 0x3e, 0x58, 0xc1, 0x23, 0x3d, 0x23, 0x26, 0x92, 0x3e, 
  0x80, 0xb4, 0x31, 0x3e, 0x96, 0xfd, 0x4e, 0xbe, 0x92, 0x3e, 0x77, 0xbe, 
  0xd2, 0x69, 0x34, 0xbe, 0x3e, 0x19, 0x57, 0xbe, 0x4c, 0x56, 0x6a, 0xbd, 
  0x58, 0x3a, 0xa6, 0x3d, 0xbb, 0x14, 0x52, 0xbe, 0xaa, 0xd2, 0x69, 0xbe, 
  0xde, 0x8e, 0x4f, 0xbe, 0x80, 0x06, 0x18, 0xbd, 0x1b, 0xf3, 0x9a, 0xbe, 
  0xa4, 0x52, 0x93, 0xbd, 0x88, 0x19, 0x26, 0x3d, 0x3b, 0x7f, 0x84, 0x3e, 
  0xa2, 0xf1, 0x32, 0x3e, 0x80, 0x10, 0x20, 0x3e, 0x08, 0xa5, 0x19, 0x3e, 
  0x20, 0xa5, 0xfb, 0x3c, 0x6c, 0x2b, 0x0c, 0x3e, 0x30, 0x1f, 0x04, 0xbe, 
  0xab, 0xc3, 0x97, 0x3e, 0x48, 0x01, 0x31, 0x3e, 0x9c, 0xe7, 0x08, 0x3e, 
  0x53, 0x3a, 0x83, 0x3e, 0x7e, 0x69, 0x19, 0xbe, 0x24, 0x5b, 0x4f, 0xbe, 
  0x90, 0x94, 0xcc, 0x3c, 0xf3, 0x74, 0x0b, 0xbe, 0xe0, 0x87, 0xe0, 0x3c, 
  0x2b, 0x66, 0x57, 0xbe, 0xe9, 0xd3, 0x85, 0x3e, 0xe0, 0x18, 0x40, 0xbd, 
  0x23, 0x33, 0x89, 0x3e, 0x3a, 0xa4, 0x6e, 0xbe, 0x35, 0xc8, 0x91, 0xbe, 
  0x16, 0x11, 0xa3, 0xbd, 0x96, 0x61, 0x6d, 0xbe, 0xca, 0x7e, 0x26, 0x3e, 
  0xa6, 0xcc, 0x05, 0x3e, 0xd8, 0xc1, 0x27, 0xbd, 0xba, 0xfd, 0x43, 0x3e, 
  0x78, 0x5d, 0x86, 0xbe, 0x14, 0x26, 0x3a, 0x3e, 0x4e, 0xd9, 0x3d, 0xbe, 
  0x41, 0xc4, 0x26, 0xbe, 0x9d, 0x9b, 0x98, 0x3e, 0xf5, 0xe8, 0x8c, 0x3e, 
  0xa3, 0x84, 0x81, 0x3e, 0xfa, 0x0a, 0x6a, 0x3e, 0xf7, 0xbb, 0x88, 0xbe, 
  0xb0, 0x3f, 0x81, 0x3c, 0x78, 0x3c, 0x9a, 0x3d, 0xb4, 0xcc, 0x88, 0xbd, 
  0x5e, 0x9b, 0x5e, 0x3e, 0xdb, 0x5f, 0x96, 0x3e, 0x5a, 0xe8, 0x3c, 0x3e, 
  0xa9, 0xb8, 0x17, 0xbe, 0x8f, 0x9f, 0x8b, 0xbe, 0x3c, 0xa1, 0xd2, 0x3d, 
  0x2c, 0x4e, 0x68, 0xbd, 0x28, 0x32, 0xf8, 0xbd, 0x49, 0xa1, 0x85, 0x3e, 
  0xc8, 0x21, 0x8b, 0xbe, 0x60, 0x23, 0xcd, 0xbd, 0xb2, 0x76, 0x28, 0x3e, 
  0x08, 0xb2, 0x18, 0xbd, 0xbc, 0xeb, 0x3f, 0x3e, 0x38, 0xf4, 0xa8, 0x3d, 
  0xb0, 0x8b, 0x5b, 0xbd, 0x00, 0x59, 0xad, 0x3a, 0xa2, 0x8b, 0x59, 0x3e, 
  0x20, 0xf9, 0xf2, 0x3c, 0xba, 0xea, 0x4d, 0xbe, 0xc6, 0x13, 0x86, 0xbe, 
  0x10, 0x5f, 0xf9, 0x3c, 0xa0, 0x24, 0xea, 0xbd, 0x74, 0xda, 0x0d, 0x3e, 
  0xa5, 0x5c, 0x01, 0xbe, 0xd2, 0x0f, 0xff, 0xbd, 0xc2, 0x9b, 0x05, 0x3e, 
  0xc0, 0x55, 0x2b, 0xbc, 0xf0, 0x29, 0xf5, 0x3d, 0x61, 0xde, 0x9b, 0x3e, 
  0xfe, 0xac, 0xf6, 0xbd, 0x30, 0xbd, 0x2c, 0xbd, 0x28, 0x0d, 0xaf, 0x3d, 
  0x56, 0xf2, 0x5c, 0x3e, 0xec, 0x6c, 0x08, 0xbe, 0x6a, 0x5d, 0x26, 0xbe, 
  0x30, 0x54, 0xb9, 0xbc, 0x23, 0x9d, 0x89, 0xbe, 0x22, 0xe1, 0x4a, 0x3e, 
  0x78, 0x14, 0xbf, 0x3d, 0xd8, 0x6b, 0x60, 0xbe, 0x9e, 0xd3, 0x6e, 0x3e, 
  0x9e, 0x83, 0x62, 0x3e, 0x08, 0xd5, 0xe6, 0x3d, 0x30, 0x89, 0x87, 0x3c, 
  0x95, 0x63, 0x95, 0x3e, 0xb9, 0x7f, 0x83, 0x3e, 0x86, 0x4d, 0x10, 0x3e, 
  0xd0, 0xde, 0x7c, 0xbd, 0x4d, 0x99, 0x90, 0x3e, 0x62, 0x25, 0x3f, 0xbe, 
  0x65, 0x56, 0x04, 0xbe, 0x0c, 0x7e, 0xa2, 0x3d, 0x40, 0x4d, 0xbe, 0xbd, 
  0x4e, 0x07, 0x17, 0x3e, 0xe0, 0xb5, 0xc8, 0x3d, 0x78, 0xad, 0x1d, 0x3e, 
  0x18, 0xf1, 0x77, 0x3d, 0xc5, 0xff, 0x90, 0x3e, 0x08, 0x8c, 0xe9, 0x3d, 
  0x4c, 0xd8, 0xb6, 0xbd, 0xe0, 0x8e, 0x45, 0x3c, 0xe8, 0xf7, 0x61, 0xbd, 
  0xda, 0xa4, 0x7c, 0x3e, 0x00, 0x4e, 0x73, 0x3a, 0x7c, 0xbd, 0x82, 0xbd, 
  0x5e, 0xdc, 0x8d, 0xbe, 0x48, 0x12, 0x41, 0x3e, 0x10, 0x7a, 0xe1, 0xbc, 
  0x20, 0x4d, 0xef, 0x3d, 0xa6, 0x63, 0x6b, 0xbe, 0x90, 0xaa, 0xd1, 0xbd, 
  0x9b, 0x59, 0x58, 0xbe, 0xe0, 0xd8, 0x7d, 0x3d, 0x68, 0x3a, 0x4a, 0xbe, 
  0x70, 0x8c, 0xaa, 0xbd, 0xdc, 0xc8, 0x1c, 0x3e, 0x44, 0xb7, 0x25, 0x3e, 
  0x68, 0xa0, 0x4c, 0xbd, 0x00, 0x85, 0x8e, 0x3c, 0xd0, 0xd2, 0x50, 0xbd, 
  0x68, 0x52, 0x2d, 0x3e, 0x20, 0x4c, 0xbd, 0x3c, 0xa0, 0x05, 0x83, 0xbc, 
  0x88, 0x11, 0x9b, 0xbe, 0x15, 0x0f, 0x90, 0x3e, 0xdc, 0x80, 0xc7, 0x3d, 
  0x01, 0x74, 0x53, 0xbe, 0x24, 0xfd, 0xfa, 0x3d, 0xd2, 0x60, 0xc7, 0xbd, 
  0x2d, 0x3a, 0x9b, 0x3e, 0xd0, 0x47, 0x2e, 0x3e, 0xdc, 0x11, 0x89, 0x3d, 
  0x00, 0xc0, 0x89, 0x39, 0x36, 0xa1, 0x6a, 0x3e, 0xd8, 0x73, 0x34, 0xbd, 
  0x69, 0x9a, 0x0a, 0xbe, 0x00, 0xd4, 0xfc, 0xbb, 0xa8, 0x0a, 0xbe, 0xbd, 
  0x7c, 0xed, 0x83, 0x3d, 0x9e, 0x20, 0x79, 0x3e, 0x58, 0xe3, 0x96, 0xbe, 
  0x30, 0x0c, 0xb2, 0x3d, 0x00, 0x27, 0x15, 0xbc, 0xfa, 0x99, 0x52, 0xbe, 
  0x02, 0x21, 0x0a, 0x3e, 0x46, 0x21, 0x6a, 0xbe, 0x90, 0xc0, 0xc9, 0xbd, 
  0xd0, 0x15, 0x21, 0xbe, 0x27, 0x7e, 0x65, 0xbe, 0x86, 0x10, 0x24, 0x3e, 
  0x98, 0xc5, 0x3f, 0x3d, 0xce, 0x8d, 0x14, 0x3e, 0x12, 0x17, 0x77, 0x3e, 
  0x3c, 0x84, 0x70, 0xbe, 0xec, 0x49, 0x3a, 0x3e, 0x6f, 0xcc, 0x0a, 0xbe, 
  0x0c, 0x21, 0xd1, 0x3d, 0xa2, 0x4b, 0x83, 0xbd, 0x33, 0x36, 0x37, 0xbe, 
  0x2a, 0xda, 0x03, 0x3e, 0x2b, 0x8f, 0x09, 0xbe, 0x96, 0x8a, 0x9d, 0xbd, 
  0x9e, 0x74, 0x86, 0xbd, 0xda, 0x67, 0x51, 0x3e, 0x5f, 0x77, 0x36, 0xbe, 
  0xe2, 0xb5, 0x28, 0x3e, 0x87, 0xe5, 0x4a, 0xbe, 0x30, 0x8c, 0x26, 0x3d, 
  0x30, 0xfb, 0xb4, 0x3c, 0x14, 0x3f, 0x83, 0xbd, 0xf0, 0x21, 0xd9, 0x3c, 
  0x28, 0x13, 0x16, 0xbe, 0x70, 0xb3, 0xc7, 0xbc, 0xa4, 0x58, 0xbd, 0x3d, 
  0xc6, 0xc8, 0xf1, 0xbd, 0x86, 0x1f, 0x9c, 0xbd, 0x89, 0x8e, 0x8b, 0xbe, 
  0x81, 0x7b, 0x97, 0x3e, 0x21, 0xba, 0x91, 0x3e, 0x32, 0xff, 0x5e, 0x3e, 
  0x51, 0x72, 0x88, 0x3e, 0x90, 0xde, 0x54, 0xbd, 0x12, 0xac, 0x1f, 0x3e, 
  0x2a, 0xfa, 0x49, 0x3e, 0x00, 0x1a, 0x5f, 0xbd, 0x82, 0x2f, 0x99, 0xbe, 
  0x4d, 0x7b, 0x89, 0x3e, 0x46, 0x1b, 0x3b, 0x3e, 0xea, 0xe5, 0x9e, 0xbd, 
  0x00, 0xd9, 0x70, 0xbc, 0xd2, 0x54, 0xbd, 0xbd, 0xc2, 0x5d, 0xde, 0xbd, 
  0xc8, 0x7a, 0xb4, 0x3d, 0x9e, 0xec, 0x8f, 0xbd, 0xa6, 0xcd, 0x20, 0xbe, 
  0xc9, 0xf9, 0x87, 0xbe, 0x34, 0xee, 0x11, 0x3e, 0x42, 0x68, 0x74, 0x3e, 
  0x3b, 0x39, 0x87, 0x3e, 0x1e, 0x9c, 0x6e, 0x3e, 0x6f, 0x7f, 0x9c, 0x3e, 
  0x56, 0xb5, 0x57, 0xbe, 0x02, 0x2e, 0xb5, 0xbd, 0x1d, 0xff, 0x9a, 0x3e, 
  0x74, 0x81, 0xc2, 0x3d, 0xf0, 0x92, 0x54, 0x3d, 0xb6, 0xd2, 0xbe, 0xbd, 
  0x40, 0x0c, 0xc0, 0x3d, 0xf8, 0xfd, 0x9d, 0x3d, 0xc3, 0xa6, 0x0b, 0xbe, 
  0xe8, 0xe7, 0x59, 0xbd, 0x68, 0x1a, 0x50, 0xbd, 0x2e, 0x79, 0x47, 0x3e, 
  0xce, 0xa4, 0x72, 0x3e, 0x30, 0xcb, 0xdc, 0xbc, 0xb3, 0x11, 0x6c, 0xbe, 
  0xf0, 0xbb, 0xb6, 0x3d, 0xe8, 0xd8, 0x43, 0xbe, 0x82, 0x2b, 0x94, 0xbe, 
  0x5a, 0x41, 0x5f, 0xbe, 0xc8, 0x9a, 0x50, 0xbd, 0x90, 0xf4, 0x33, 0x3d, 
  0xb1, 0x1e, 0x9c, 0x3e, 0x9a, 0x1a, 0xb5, 0xbd, 0xd9, 0x14, 0x8a, 0xbe, 
  0x1a, 0x36, 0x40, 0x3e, 0x38, 0x53, 0x5d, 0xbd, 0x4e, 0xa5, 0x9c, 0xbe, 
  0xfa, 0x33, 0x92, 0xbd, 0xf8, 0xba, 0x13, 0x3d, 0xa0, 0xf7, 0x18, 0x3d, 
  0x9b, 0xf7, 0x81, 0x3e, 0x46, 0xcd, 0x5a, 0x3e, 0x34, 0xcf, 0xbf, 0x3d, 
  0x00, 0x3b, 0x92, 0x3b, 0x00, 0x2d, 0xf4, 0x3a, 0x64, 0x53, 0xc3, 0xbd, 
  0x10, 0x93, 0x95, 0x3c, 0x82, 0xd5, 0x46, 0x3e, 0xb0, 0x3f, 0x1a, 0x3d, 
  0x32, 0x82, 0x8e, 0xbe, 0x30, 0x92, 0xf5, 0x3c, 0xc0, 0x29, 0x3e, 0x3c, 
  0x38, 0xb1, 0x0a, 0x3e, 0xe6, 0x29, 0x5d, 0x3e, 0x52, 0x2a, 0x0b, 0x3e, 
  0x0c, 0xf2, 0x8f, 0x3d, 0x02, 0xe6, 0x6b, 0x3e, 0xc0, 0x60, 0x5e, 0x3d, 
  0x58, 0xc8, 0x81, 0xbe, 0xa0, 0x9b, 0xec, 0x3c, 0x5c, 0xae, 0xd9, 0x3d, 
  0x41, 0x01, 0x95, 0xbe, 0xf0, 0xce, 0xa9, 0x3d, 0x82, 0xb0, 0x11, 0xbe, 
  0xb2, 0x95, 0xaa, 0xbd, 0xe2, 0x5c, 0x9c, 0xbe, 0xe0, 0x78, 0xfc, 0xbc, 
  0x40, 0xf6, 0xb1, 0x3d, 0x68, 0xe7, 0x1f, 0xbd, 0xd0, 0xfb, 0x3b, 0x3d, 
  0xfe, 0xfe, 0x12, 0x3e, 0xca, 0x68, 0x25, 0x3e, 0x60, 0xde, 0x3b, 0x3e, 
  0xb8, 0xc0, 0x8c, 0x3d, 0x96, 0x6c, 0x6d, 0x3e, 0x9b, 0xf6, 0x77, 0xbe, 
  0x20, 0x5c, 0x14, 0x3e, 0xe0, 0xf7, 0x1c, 0x3c, 0x00, 0x80, 0x21, 0x3e, 
  0x06, 0xc1, 0x71, 0xbe, 0xd4, 0x8c, 0xb3, 0x3d, 0x85, 0x20, 0x84, 0x3e, 
  0x3c, 0xf5, 0x6e, 0xbe, 0xa4, 0x3d, 0x61, 0xbe, 0x86, 0xbd, 0x73, 0x3e, 
  0xca, 0xa4, 0x6b, 0xbe, 0xde, 0x43, 0x4e, 0x3e, 0x68, 0xc5, 0x19, 0x3e, 
  0x30, 0xec, 0x41, 0xbd, 0x85, 0xcc, 0x8a, 0x3e, 0x40, 0x18, 0x60, 0x3c, 
  0xd6, 0x9e, 0x6b, 0x3e, 0xab, 0xa0, 0x3a, 0xbe, 0x68, 0xd0, 0xeb, 0xbd, 
  0xad, 0x6f, 0x84, 0xbe, 0x0a, 0x36, 0x7b, 0x3e, 0x9f, 0x2b, 0x2c, 0xbe, 
  0xd0, 0x04, 0x2a, 0x3e, 0xc4, 0xb1, 0xbe, 0x3d, 0x6d, 0x1f, 0x07, 0xbe, 
  0x26, 0x3f, 0x67, 0x3e, 0x47, 0xf0, 0x25, 0xbe, 0xb7, 0xda, 0x1a, 0xbe, 
  0x56, 0xb1, 0x68, 0x3e, 0xce, 0x5d, 0xdb, 0xbd, 0x4a, 0xc7, 0x69, 0x3e, 
  0xfe, 0xfc, 0x7d, 0x3e, 0xb2, 0x77, 0x61, 0x3e, 0xb0, 0x9e, 0x26, 0x3e, 
  0x3e, 0x55, 0x50, 0x3e, 0x86, 0x64, 0x14, 0x3e, 0x50, 0x53, 0xad, 0xbc, 
  0x66, 0x1d, 0x33, 0x3e, 0xa3, 0x0b, 0x92, 0xbe, 0x76, 0xb8, 0x39, 0xbe, 
  0x37, 0x5c, 0x8a, 0xbe, 0xc2, 0x3e, 0x8f, 0xbe, 0x88, 0x0d, 0xb7, 0xbd, 
  0x30, 0x77, 0x0c, 0xbd, 0xca, 0x18, 0x13, 0x3e, 0x07, 0x47, 0x93, 0x3e, 
  0x34, 0x44, 0x33, 0x3e, 0xf4, 0xa4, 0xcb, 0x3d, 0xff, 0xe8, 0x2a, 0xbe, 
  0x98, 0xad, 0x58, 0xbe, 0x5a, 0x6c, 0x4d, 0x3e, 0xe2, 0x6d, 0x8f, 0xbe, 
  0x58, 0x7d, 0x08, 0x3e, 0xa4, 0x46, 0xa4, 0x3d, 0x40, 0x58, 0xc1, 0x3b, 
  0x7c, 0x62, 0x93, 0x3d, 0x63, 0x07, 0x90, 0xbe, 0x98, 0x35, 0x24, 0x3d, 
  0x45, 0x9b, 0x02, 0xbe, 0x58, 0xf6, 0x8b, 0xbe, 0xd0, 0x61, 0x08, 0xbd, 
  0x00, 0x5d, 0x28, 0x3d, 0x20, 0x9b, 0x7a, 0x3d, 0x22, 0xea, 0x68, 0x3e, 
  0x93, 0x4b, 0x84, 0x3e, 0xfa, 0x1a, 0x74, 0x3e, 0x50, 0xb5, 0x96, 0x3c, 
  0x27, 0xb4, 0x72, 0xbe, 0x07, 0x71, 0x86, 0x3e, 0xa0, 0xcc, 0x48, 0x3c, 
  0xe2, 0xa1, 0xb7, 0xbd, 0x38, 0x43, 0x48, 0x3d, 0x51, 0xf4, 0x8d, 0xbe, 
  0x7f, 0x64, 0x75, 0xbe, 0xa8, 0x55, 0xdb, 0xbd, 0x64, 0x5b, 0x7b, 0xbe, 
  0x4c, 0x64, 0x65, 0xbe, 0x70, 0x34, 0xd0, 0xbd, 0x40, 0x75, 0x5b, 0xbc, 
  0x31, 0x13, 0x88, 0x3e, 0x72, 0x3a, 0x9a, 0xbd, 0x90, 0x93, 0x20, 0xbd, 
  0xd0, 0xe5, 0xcd, 0xbc, 0x70, 0xb4, 0x1f, 0x3e, 0x62, 0x27, 0x44, 0xbe, 
  0xc0, 0xb9, 0xbb, 0xbc, 0xec, 0xd8, 0x0b, 0xbe, 0x46, 0xdd, 0x27, 0x3e, 
  0x3a, 0x8f, 0xf3, 0xbd, 0xfc, 0x0d, 0xa6, 0x3d, 0xc2, 0x3d, 0x4c, 0xbe, 
  0x56, 0xbc, 0x82, 0xbd, 0xd2, 0xc4, 0xa3, 0xbd, 0x00, 0xec, 0x88, 0xbe, 
  0xd4, 0x11, 0x45, 0x3e, 0x00, 0x8f, 0x97, 0xbd, 0x5f, 0xfd, 0x1a, 0xbe, 
  0x30, 0x15, 0xc1, 0xbc, 0x30, 0x74, 0x51, 0x3d, 0x24, 0x3b, 0x6f, 0xbd, 
  0x40, 0xd6, 0x35, 0x3d, 0x56, 0x3a, 0x3f, 0xbe, 0x26, 0xa5, 0xa5, 0xbd, 
  0x5d, 0x0d, 0x87, 0x3e, 0xca, 0xd9, 0x55, 0xbe, 0x77, 0x56, 0x99, 0x3e, 
  0xe4, 0xa1, 0xc3, 0x3d, 0xa8, 0x96, 0x14, 0xbd, 0xf6, 0x09, 0x54, 0x3e, 
  0x28, 0x31, 0x73, 0xbd, 0x70, 0x1c, 0x75, 0x3d, 0x95, 0x18, 0x85, 0x3e, 
  0x24, 0xc9, 0x40, 0x3e, 0xa2, 0x5e, 0x4c, 0xbe, 0x04, 0x2e, 0x93, 0xbe, 
  0x36, 0x27, 0x4f, 0x3e, 0x00, 0x9d, 0x2e, 0x3c, 0x6e, 0x13, 0x50, 0x3e, 
  0x86, 0x3d, 0x8c, 0xbd, 0x44, 0x2a, 0xe4, 0xbd, 0x40, 0x86, 0x40, 0x3d, 
  0xbe, 0xdb, 0x8d, 0xbe, 0x2f, 0x15, 0x92, 0xbe, 0x62, 0xe8, 0x3b, 0xbe, 
  0xc6, 0x20, 0xb2, 0xbd, 0xc4, 0x71, 0xf0, 0x3d, 0x7f, 0xc0, 0x31, 0xbe, 
  0xa0, 0xc0, 0x47, 0x3d, 0x48, 0xad, 0xd1, 0xbd, 0x36, 0xf6, 0x76, 0xbe, 
  0x20, 0xae, 0x5f, 0xbe, 0x4b, 0xa2, 0x85, 0x3e, 0x8d, 0x79, 0x1d, 0xbe, 
  0xb9, 0xd5, 0x8d, 0x3e, 0xf6, 0xd8, 0x6d, 0xbe, 0x16, 0x90, 0x6d, 0xbe, 
  0x96, 0x9b, 0x9e, 0xbd, 0xc0, 0x39, 0x5b, 0x3c, 0x44, 0xc2, 0x89, 0xbd, 
  0x7c, 0x76, 0x45, 0xbe, 0x00, 0x2f, 0x86, 0x3d, 0x9a, 0x4a, 0xfe, 0xbd, 
  0x7e, 0x28, 0xf6, 0xbd, 0x7b, 0xcc, 0x69, 0xbe, 0x56, 0x3d, 0x1a, 0xbe, 
  0x50, 0xb1, 0x15, 0xbe, 0x60, 0x38, 0x42, 0x3c, 0x20, 0xaa, 0xb6, 0xbc, 
  0x60, 0x88, 0x29, 0xbd, 0x00, 0xd4, 0xf5, 0xbc, 0xd1, 0x76, 0x85, 0x3e, 
  0x50, 0x09, 0x41, 0xbd, 0x28, 0x8c, 0x56, 0xbd, 0x64, 0x27, 0x87, 0xbd, 
  0x20, 0xf4, 0xdf, 0xbc, 0x3f, 0xcb, 0x8a, 0x3e, 0xe0, 0x41, 0x03, 0xbd, 
  0xbf, 0xd1, 0x13, 0xbe, 0x01, 0xe6, 0x97, 0x3e, 0x48, 0x50, 0x36, 0xbd, 
  0x30, 0x86, 0xb6, 0xbc, 0x0e, 0x81, 0x57, 0x3e, 0xd0, 0x25, 0x2d, 0x3e, 
  0x87, 0x98, 0x56, 0xbe, 0xaa, 0x39, 0x5e, 0x3e, 0x86, 0x99, 0x19, 0x3e, 
  0xf4, 0x7e, 0x57, 0xbe, 0x79, 0x8e, 0x94, 0xbe, 0x6e, 0xca, 0x78, 0x3e, 
  0x6f, 0xf5, 0x83, 0x3e, 0x32, 0x8a, 0x4c, 0x3e, 0x36, 0x29, 0x5e, 0x3e, 
  0xe2, 0x6c, 0x36, 0x3e, 0xc3, 0xeb, 0x27, 0xbe, 0x0f, 0x34, 0x8e, 0xbe, 
  0x62, 0xae, 0x2a, 0x3e, 0x00, 0x43, 0x2f, 0x3c, 0x10, 0x15, 0x3a, 0x3e, 
  0xec, 0xd6, 0x6e, 0xbe, 0x9c, 0x54, 0x05, 0xbe, 0xd2, 0x7c, 0x9b, 0xbe, 
  0xe0, 0x84, 0x13, 0x3e, 0x10, 0x1c, 0xd7, 0x3c, 0xf0, 0xe4, 0xb7, 0xbd, 
  0x0a, 0x03, 0xa3, 0xbd, 0xc2, 0x90, 0x69, 0x3e, 0x40, 0xbb, 0x14, 0xbd, 
  0x1d, 0xdc, 0x8c, 0x3e, 0xb0, 0x1b, 0xad, 0xbc, 0xda, 0xb4, 0x00, 0xbe, 
  0x70, 0xcd, 0xb3, 0x3c, 0xb0, 0xf1, 0xfb, 0xbc, 0x1d, 0xa5, 0x9a, 0x3e, 
  0x7d, 0xd5, 0x5d, 0xbe, 0x68, 0xd6, 0xa1, 0xbd, 0x90, 0xff, 0xe8, 0xbd, 
  0xfc, 0x03, 0xc8, 0x3d, 0x30, 0x97, 0xc5, 0xbd, 0x4a, 0x8c, 0x9f, 0xbd, 
  0x7c, 0xb0, 0xfa, 0xbd, 0xc5, 0x2c, 0x58, 0xbe, 0xb9, 0xde, 0x8b, 0x3e, 
  0x60, 0xb7, 0x25, 0x3c, 0x9f, 0x85, 0x0f, 0xbe, 0x8e, 0x18, 0x71, 0x3e, 
  0x14, 0x2b, 0x0e, 0x3e, 0x4a, 0x52, 0xe7, 0xbd, 0x1c, 0x9c, 0x41, 0x3e, 
  0xde, 0x70, 0x4d, 0x3e, 0x90, 0x32, 0x3e, 0x3d, 0x87, 0x25, 0x96, 0xbe, 
  0xce, 0x4d, 0xbc, 0xbd, 0x80, 0xe2, 0x95, 0x3d, 0x78, 0xb1, 0x65, 0x3d, 
  0xfe, 0x2f, 0x7c, 0x3e, 0xe9, 0x92, 0x27, 0xbe, 0xd4, 0xec, 0xc7, 0xbd, 
  0x00, 0x76, 0xc5, 0x3d, 0x0e, 0x0c, 0xcf, 0xbd, 0xd0, 0x14, 0xef, 0xbc, 
  0x8f, 0xc2, 0x99, 0x3e, 0x02, 0x5a, 0xda, 0xbd, 0x8e, 0xe5, 0x3f, 0xbe, 
  0x46, 0xa0, 0x4a, 0xbe, 0x74, 0x40, 0x12, 0x3e, 0x23, 0xb2, 0x87, 0x3e, 
  0xa0, 0xc9, 0xed, 0x3c, 0x86, 0x56, 0xfc, 0xbd, 0x1c, 0x42, 0x88, 0x3d, 
  0x8b, 0xe1, 0x88, 0x3e, 0xab, 0xc4, 0x76, 0xbe, 0x84, 0xb1, 0x24, 0x3e, 
  0xb7, 0xce, 0x86, 0x3e, 0xec, 0x6a, 0x87, 0xbe, 0x6c, 0xd2, 0x68, 0xbe, 
  0x68, 0xbc, 0x04, 0xbd, 0x3e, 0xa5, 0x59, 0xbe, 0x0a, 0x39, 0x5e, 0x3e, 
  0xb2, 0xc4, 0x3b, 0xbe, 0xca, 0x63, 0x0f, 0x3e, 0x8c, 0x8c, 0x09, 0x3e, 
  0xe4, 0xc1, 0xf2, 0xbd, 0x5e, 0x62, 0x48, 0x3e, 0xe2, 0xb8, 0x94, 0xbd, 
  0xf7, 0x63, 0x8b, 0x3e, 0x1a, 0x5e, 0x3f, 0xbe, 0xd0, 0x41, 0x41, 0xbd, 
  0x0e, 0xbe, 0x24, 0x3e, 0x64, 0xb6, 0xb7, 0x3d, 0x30, 0xf9, 0x5f, 0x3d, 
  0x42, 0xb3, 0x85, 0xbe, 0x3c, 0x3d, 0xf2, 0xbd, 0x00, 0x63, 0x8a, 0xbc, 
  0xe6, 0x0c, 0x0c, 0x3e, 0x40, 0x7c, 0xdb, 0xbb, 0x34, 0xdb, 0x66, 0xbe, 
  0xb5, 0xfb, 0x1e, 0xbe, 0xac, 0xf8, 0x71, 0xbe, 0x11, 0x6e, 0x2c, 0xbe, 
  0x7e, 0x4a, 0xd1, 0xbd, 0x00, 0xc1, 0x99, 0x3c, 0x00, 0xf7, 0xec, 0x3c, 
  0x02, 0x9b, 0xb1, 0xbd, 0x0e, 0x9e, 0x6e, 0x3e, 0xae, 0x5d, 0x20, 0x3e, 
  0xba, 0x58, 0x8f, 0xbd, 0x60, 0x6d, 0x25, 0x3d, 0xb5, 0xb7, 0x83, 0x3e, 
  0x8a, 0xf3, 0x8f, 0xbd, 0x99, 0x4d, 0x85, 0x3e, 0xc0, 0xd5, 0x0e, 0xbd, 
  0x3e, 0xcd, 0x82, 0xbe, 0xf4, 0x2c, 0xf4, 0x3d, 0x6e, 0xa1, 0xc3, 0xbd, 
  0x80, 0xaf, 0x4e, 0x3b, 0xa6, 0x5a, 0x06, 0x3e, 0x79, 0xca, 0x28, 0xbe, 
  0x7c, 0xa5, 0x85, 0x3d, 0xa0, 0x77, 0x5a, 0xbc, 0x36, 0x7a, 0x33, 0xbe, 
  0x78, 0xab, 0x63, 0xbd, 0xf0, 0x38, 0xd2, 0xbd, 0x5b, 0x0e, 0x84, 0x3e, 
  0x74, 0xf9, 0xe1, 0x3d, 0x87, 0x9f, 0x81, 0x3e, 0x06, 0x16, 0xba, 0xbd, 
  0x98, 0x82, 0x5b, 0x3d, 0x3b, 0x4e, 0x94, 0xbe, 0x6a, 0xea, 0xda, 0xbd, 
  0xb8, 0xbb, 0x42, 0xbd, 0x36, 0x87, 0x55, 0x3e, 0x0b, 0xac, 0x87, 0xbe, 
  0xd8, 0xbf, 0x06, 0xbd, 0x98, 0x86, 0x42, 0x3d, 0x2e, 0x4b, 0x71, 0x3e, 
  0x34, 0x16, 0xb1, 0xbd, 0x8b, 0x8a, 0x84, 0xbe, 0x46, 0x7f, 0xe4, 0xbd, 
  0x20, 0x2c, 0x96, 0x3d, 0x52, 0x5f, 0x29, 0xbe, 0xce, 0x6d, 0x23, 0x3e, 
  0xd4, 0x5a, 0x20, 0xbe, 0xd8, 0x78, 0xcd, 0x3d, 0x46, 0x0d, 0x4f, 0xbe, 
  0x83, 0x4e, 0x98, 0xbe, 0xfe, 0x00, 0x55, 0xbe, 0x8c, 0x3c, 0x72, 0xbe, 
  0x20, 0xa2, 0x3b, 0xbd, 0x51, 0x85, 0x19, 0xbe, 0x88, 0x01, 0x1d, 0xbd, 
  0xbb, 0x9b, 0x8e, 0xbe, 0xda, 0xf6, 0x68, 0x3e, 0xee, 0xd8, 0xbc, 0xbd, 
  0x5a, 0x5b, 0x30, 0xbe, 0x66, 0x37, 0x7f, 0x3e, 0x76, 0xe1, 0x36, 0x3e, 
  0x7c, 0xee, 0x81, 0xbe, 0xb2, 0xf7, 0xfd, 0xbd, 0x3c, 0x0a, 0x55, 0xbe, 
  0x98, 0xf4, 0xbb, 0xbd, 0xb2, 0x5e, 0x58, 0xbe, 0xd2, 0x4a, 0x38, 0x3e, 
  0x4d, 0xc8, 0x3c, 0xbe, 0x0b, 0x0b, 0x99, 0xbe, 0x42, 0x66, 0x82, 0xbd, 
  0x6c, 0x51, 0x10, 0x3e, 0xde, 0x35, 0x59, 0xbe, 0xb6, 0x28, 0x5f, 0x3e, 
  0xd6, 0x1a, 0x7e, 0x3e, 0xe5, 0xd0, 0x96, 0x3e, 0xb0, 0x07, 0xd8, 0xbc, 
  0x74, 0x94, 0x8a, 0x3d, 0x24, 0x43, 0x26, 0x3e, 0xc2, 0xd6, 0x76, 0x3e, 
  0x00, 0x5b, 0x56, 0x3c, 0x1c, 0x66, 0x08, 0xbe, 0xb8, 0x09, 0x02, 0xbd, 
  0x00, 0x00, 0x06, 0x00, 0x08, 0x00, 0x04, 0x00, 0x06, 0x00, 0x00, 0x00, 
  0x04, 0x00, 0x00, 0x00, 0x80, 0x02, 0x00, 0x00, 0xc0, 0xb3, 0xfe, 0xbd, 
  0x39, 0x82, 0x5a, 0xbe, 0xe4, 0xd2, 0xa6, 0xbe, 0x04, 0xd8, 0x25, 0x3e, 
  0x04, 0xe7, 0x9a, 0xbe, 0xed, 0x87, 0x41, 0xbe, 0x0d, 0xd0, 0x7b, 0xbe, 
  0xd8, 0x08, 0x7d, 0xbe, 0x92, 0xf8, 0x06, 0xbe, 0x17, 0x73, 0x98, 0xbe, 
  0x08, 0x3d, 0x6a, 0xbe, 0xc2, 0x56, 0xc6, 0xbe, 0x62, 0x9b, 0xcd, 0x3e, 
  0x30, 0x1d, 0xb4, 0xbe, 0x10, 0xc8, 0xd0, 0x3d, 0x5e, 0x9b, 0xae, 0x3e, 
  0xce, 0x7a, 0xaa, 0xbe, 0xfa, 0x4a, 0x64, 0xbe, 0x58, 0xb0, 0x3d, 0x3e, 
  0x16, 0x85, 0x9f, 0xbe, 0xd4, 0x98, 0x0e, 0xbe, 0xf0, 0x2f, 0x78, 0x3e, 
  0x67, 0x67, 0x6b, 0xbe, 0xd0, 0xa7, 0x98, 0xbd, 0x32, 0xd9, 0xc7, 0xbe, 
  0x6c, 0x62, 0x0a, 0xbe, 0x80, 0x3a, 0xba, 0xbd, 0x0c, 0x55, 0xc3, 0xbe, 
  0x68, 0xea, 0x64, 0x3d, 0x51, 0x40, 0x73, 0xbe, 0x76, 0xe0, 0x95, 0xbe, 
  0x14, 0xba, 0xaf, 0x3e, 0x92, 0x9b, 0xa3, 0x3e, 0x9c, 0xcc, 0xa1, 0x3d, 
  0x18, 0xa7, 0x4c, 0x3e, 0xd0, 0x07, 0x27, 0x3d, 0xe8, 0x09, 0x55, 0xbd, 
  0x66, 0x8c, 0x94, 0x3e, 0xd0, 0xce, 0xbd, 0x3c, 0xe0, 0x10, 0x17, 0xbd, 
  0xf2, 0x1c, 0x64, 0xbe, 0xac, 0xa1, 0x3d, 0x3e, 0x64, 0xfb, 0xdb, 0xbd, 
  0x18, 0x40, 0x6f, 0x3d, 0x73, 0xa6, 0x82, 0xbe, 0x25, 0x6b, 0x58, 0xbe, 
  0xb6, 0x02, 0x47, 0xbe, 0xde, 0x64, 0xa4, 0x3e, 0x80, 0x68, 0x44, 0x3b, 
  0x7c, 0xf4, 0x8b, 0xbe, 0xa0, 0x4d, 0x49, 0x3d, 0x78, 0x12, 0x45, 0x3e, 
  0x78, 0x81, 0xf2, 0x3d, 0x46, 0xff, 0xae, 0x3e, 0x0e, 0xf1, 0xa5, 0x3e, 
  0x76, 0xa9, 0xc8, 0x3e, 0x88, 0xdb, 0x8a, 0xbe, 0xe0, 0xfa, 0x1f, 0x3e, 
  0xec, 0xb8, 0x28, 0x3e, 0xdc, 0x77, 0x9d, 0xbe, 0x18, 0xc3, 0x90, 0x3d, 
  0x98, 0xca, 0x7d, 0x3d, 0xa0, 0x1c, 0x65, 0x3d, 0x4c, 0xef, 0x7c, 0x3e, 
  0x72, 0xa0, 0x8e, 0xbe, 0x2a, 0x32, 0xbc, 0x3e, 0xf8, 0x87, 0x87, 0xbe, 
  0x86, 0x7b, 0x76, 0xbe, 0x20, 0xff, 0x02, 0xbd, 0xf8, 0x23, 0xce, 0xbe, 
  0x30, 0x6e, 0xfb, 0x3d, 0xfc, 0xc8, 0xc2, 0x3e, 0x3e, 0xad, 0x85, 0xbe, 
  0x1c, 0x21, 0xd9, 0xbd, 0xee, 0x2d, 0x6c, 0xbe, 0x62, 0xe9, 0x92, 0x3e, 
  0x04, 0x0d, 0x26, 0x3e, 0x40, 0x73, 0x4a, 0xbe, 0xcc, 0xc0, 0xc5, 0x3e, 
  0xd8, 0x98, 0x0a, 0x3d, 0x1a, 0x62, 0x1b, 0xbe, 0x9e, 0xd1, 0x55, 0xbe, 
  0x9f, 0xbd, 0xc1, 0xbe, 0x54, 0xe5, 0x58, 0x3e, 0x30, 0x2c, 0x23, 0x3e, 
  0xcc, 0x72, 0xb6, 0x3e, 0xec, 0xc7, 0xa2, 0xbe, 0x3e, 0xb5, 0xb8, 0xbe, 
  0x38, 0xc9, 0x87, 0x3e, 0xa0, 0x1e, 0x15, 0x3e, 0x68, 0xde, 0x1b, 0x3e, 
  0xe4, 0xd3, 0xab, 0xbd, 0x1d, 0x36, 0x5e, 0xbe, 0x18, 0x63, 0xc2, 0x3e, 
  0xac, 0x1d, 0xab, 0xbd, 0x98, 0xee, 0x85, 0xbe, 0x74, 0x05, 0x7f, 0x3e, 
  0xcb, 0xb4, 0x7f, 0xbe, 0xa5, 0x50, 0xb3, 0xbe, 0x2b, 0x25, 0xa7, 0xbe, 
  0xb0, 0xc0, 0x3c, 0x3e, 0x3c, 0x41, 0x8d, 0x3d, 0x07, 0xa8, 0xb8, 0xbe, 
  0x52, 0x13, 0xcd, 0x3e, 0x34, 0x17, 0x84, 0x3e, 0xc4, 0x85, 0x82, 0x3e, 
  0xbd, 0x89, 0xb1, 0xbe, 0x4c, 0x56, 0x93, 0xbe, 0x80, 0xad, 0x6d, 0x3b, 
  0x97, 0x7b, 0x51, 0xbe, 0x00, 0xcb, 0x66, 0x3d, 0x40, 0xef, 0x96, 0xbc, 
  0xbc, 0xb5, 0x0d, 0xbe, 0x00, 0x10, 0x4b, 0x39, 0x35, 0x8b, 0x50, 0xbe, 
  0xd8, 0x98, 0x4a, 0x3e, 0x9a, 0x6e, 0x7d, 0xbe, 0xd1, 0x4a, 0xc0, 0xbe, 
  0x02, 0x8b, 0xbe, 0xbe, 0x24, 0x2c, 0x2b, 0x3e, 0x95, 0x66, 0x94, 0xbe, 
  0x8c, 0x0b, 0xd8, 0xbd, 0x33, 0x76, 0x95, 0xbe, 0xa0, 0xc2, 0x45, 0x3e, 
  0xb2, 0xb6, 0x82, 0xbe, 0xa4, 0x7d, 0x6a, 0xbe, 0xf6, 0xe2, 0x15, 0xbe, 
  0xc4, 0xde, 0x8d, 0x3e, 0xe7, 0x11, 0x2e, 0xbe, 0x44, 0x68, 0x66, 0x3e, 
  0xa8, 0x33, 0x8a, 0xbe, 0x02, 0xc3, 0xbc, 0x3e, 0xc2, 0xb3, 0xa2, 0x3e, 
  0xba, 0x23, 0x80, 0x3e, 0x38, 0x8c, 0xc4, 0xbd, 0x4a, 0x1a, 0xbd, 0x3e, 
  0x8d, 0xf1, 0x86, 0xbe, 0xa0, 0x86, 0x84, 0x3e, 0x34, 0xd4, 0xac, 0x3e, 
  0x48, 0xfa, 0x98, 0xbe, 0x0c, 0x25, 0x9b, 0x3e, 0x84, 0xb9, 0xa3, 0xbd, 
  0x94, 0x86, 0xa0, 0x3d, 0x20, 0x23, 0xc8, 0xbe, 0x21, 0x93, 0xa9, 0xbe, 
  0xa4, 0x12, 0x5f, 0x3e, 0x44, 0x88, 0x3c, 0xbe, 0x88, 0x91, 0x78, 0x3d, 
  0xf8, 0x45, 0x09, 0x3d, 0x70, 0x9a, 0xeb, 0x3c, 0x40, 0x3d, 0xad, 0x3e, 
  0x34, 0x23, 0x19, 0xbe, 0x6d, 0xb9, 0x6b, 0xbe, 0x28, 0xed, 0x49, 0x3e, 
  0x78, 0x19, 0xba, 0x3d, 0x28, 0x61, 0xaa, 0x3d, 0x2c, 0x23, 0x51, 0x3e, 
  0x80, 0x39, 0x8a, 0x3c, 0x70, 0xa6, 0xb3, 0xbc, 0xf0, 0x68, 0xf5, 0xbd, 
  0x60, 0xfb, 0xff, 0xff, 0x64, 0xfb, 0xff, 0xff, 0x0f, 0x00, 0x00, 0x00, 
  0x4d, 0x4c, 0x49, 0x52, 0x20, 0x43, 0x6f, 0x6e, 0x76, 0x65, 0x72, 0x74, 
  0x65, 0x64, 0x2e, 0x00, 0x01, 0x00, 0x00, 0x00, 0x14, 0x00, 0x00, 0x00, 
  0x00, 0x00, 0x0e, 0x00, 0x18, 0x00, 0x14, 0x00, 0x10, 0x00, 0x0c, 0x00, 
  0x08, 0x00, 0x04, 0x00, 0x0e, 0x00, 0x00, 0x00, 0x14, 0x00, 0x00, 0x00, 
  0x1c, 0x00, 0x00, 0x00, 0x08, 0x01, 0x00, 0x00, 0x0c, 0x01, 0x00, 0x00, 
  0x10, 0x01, 0x00, 0x00, 0x04, 0x00, 0x00, 0x00, 0x6d, 0x61, 0x69, 0x6e, 
  0x00, 0x00, 0x00, 0x00, 0x04, 0x00, 0x00, 0x00, 0xb0, 0x00, 0x00, 0x00, 
  0x68, 0x00, 0x00, 0x00, 0x34, 0x00, 0x00, 0x00, 0x10, 0x00, 0x00, 0x00, 
  0x00, 0x00, 0x0a, 0x00, 0x10, 0x00, 0x0c, 0x00, 0x08, 0x00, 0x04, 0x00, 
  0x0a, 0x00, 0x00, 0x00, 0x0c, 0x00, 0x00, 0x00, 0x10, 0x00, 0x00, 0x00, 
  0x01, 0x00, 0x00, 0x00, 0x01, 0x00, 0x00, 0x00, 0x07, 0x00, 0x00, 0x00, 
  0x01, 0x00, 0x00, 0x00, 0x06, 0x00, 0x00, 0x00, 0x9a, 0xff, 0xff, 0xff, 
  0x10, 0x00, 0x00, 0x00, 0x00, 0x00, 0x00, 0x08, 0x0c, 0x00, 0x00, 0x00, 
  0x10, 0x00, 0x00, 0x00, 0x0c, 0xfc, 0xff, 0xff, 0x01, 0x00, 0x00, 0x00, 
  0x06, 0x00, 0x00, 0x00, 0x03, 0x00, 0x00, 0x00, 0x05, 0x00, 0x00, 0x00, 
  0x03, 0x00, 0x00, 0x00, 0xff, 0xff, 0xff, 0xff, 0xca, 0xff, 0xff, 0xff, 
  0x10, 0x00, 0x00, 0x00, 0x00, 0x00, 0x00, 0x08, 0x10, 0x00, 0x00, 0x00, 
  0x14, 0x00, 0x00, 0x00, 0xba, 0xff, 0xff, 0xff, 0x00, 0x00, 0x00, 0x01, 
  0x01, 0x00, 0x00, 0x00, 0x05, 0x00, 0x00, 0x00, 0x03, 0x00, 0x00, 0x00, 
  0x04, 0x00, 0x00, 0x00, 0x02, 0x00, 0x00, 0x00, 0xff, 0xff, 0xff, 0xff, 
  0x00, 0x00, 0x0e, 0x00, 0x16, 0x00, 0x00, 0x00, 0x10, 0x00, 0x0c, 0x00, 
  0x0b, 0x00, 0x04, 0x00, 0x0e, 0x00, 0x00, 0x00, 0x18, 0x00, 0x00, 0x00, 
  0x00, 0x00, 0x00, 0x08, 0x18, 0x00, 0x00, 0x00, 0x1c, 0x00, 0x00, 0x00, 
  0x00, 0x00, 0x06, 0x00, 0x08, 0x00, 0x07, 0x00, 0x06, 0x00, 0x00, 0x00, 
  0x00, 0x00, 0x00, 0x01, 0x01, 0x00, 0x00, 0x00, 0x04, 0x00, 0x00, 0x00, 
  0x03, 0x00, 0x00, 0x00, 0x00, 0x00, 0x00, 0x00, 0x01, 0x00, 0x00, 0x00, 
  0xff, 0xff, 0xff, 0xff, 0x01, 0x00, 0x00, 0x00, 0x07, 0x00, 0x00, 0x00, 
  0x01, 0x00, 0x00, 0x00, 0x00, 0x00, 0x00, 0x00, 0x08, 0x00, 0x00, 0x00, 
  0x1c, 0x03, 0x00, 0x00, 0xb4, 0x02, 0x00, 0x00, 0x50, 0x02, 0x00, 0x00, 
  0x04, 0x02, 0x00, 0x00, 0x70, 0x01, 0x00, 0x00, 0xdc, 0x00, 0x00, 0x00, 
  0x60, 0x00, 0x00, 0x00, 0x04, 0x00, 0x00, 0x00, 0x1a, 0xfd, 0xff, 0xff, 
  0x00, 0x00, 0x00, 0x01, 0x14, 0x00, 0x00, 0x00, 0x1c, 0x00, 0x00, 0x00, 
  0x1c, 0x00, 0x00, 0x00, 0x08, 0x00, 0x00, 0x00, 0x34, 0x00, 0x00, 0x00, 
  0x02, 0x00, 0x00, 0x00, 0xff, 0xff, 0xff, 0xff, 0x04, 0x00, 0x00, 0x00, 
  0x04, 0xfd, 0xff, 0xff, 0x19, 0x00, 0x00, 0x00, 0x53, 0x74, 0x61, 0x74, 
  0x65, 0x66, 0x75, 0x6c, 0x50, 0x61, 0x72, 0x74, 0x69, 0x74, 0x69, 0x6f, 
  0x6e, 0x65, 0x64, 0x43, 0x61, 0x6c, 0x6c, 0x3a, 0x30, 0x00, 0x00, 0x00, 
  0x02, 0x00, 0x00, 0x00, 0x01, 0x00, 0x00, 0x00, 0x04, 0x00, 0x00, 0x00, 
  0x72, 0xfd, 0xff, 0xff, 0x00, 0x00, 0x00, 0x01, 0x14, 0x00, 0x00, 0x00, 
  0x1c, 0x00, 0x00, 0x00, 0x1c, 0x00, 0x00, 0x00, 0x07, 0x00, 0x00, 0x00, 
  0x54, 0x00, 0x00, 0x00, 0x02, 0x00, 0x00, 0x00, 0xff, 0xff, 0xff, 0xff, 
  0x04, 0x00, 0x00, 0x00, 0x5c, 0xfd, 0xff, 0xff, 0x38, 0x00, 0x00, 0x00, 
  0x65, 0x73, 0x70, 0x33, 0x32, 0x5f, 0x61, 0x63, 0x74, 0x6f, 0x72, 0x2f, 
  0x64, 0x65, 0x6e, 0x73, 0x65, 0x5f, 0x36, 0x35, 0x2f, 0x4d, 0x61, 0x74, 
  0x4d, 0x75, 0x6c, 0x3b, 0x65, 0x73, 0x70, 0x33, 0x32, 0x5f, 0x61, 0x63, 
  0x74, 0x6f, 0x72, 0x2f, 0x64, 0x65, 0x6e, 0x73, 0x65, 0x5f, 0x36, 0x35, 
  0x2f, 0x42, 0x69, 0x61, 0x73, 0x41, 0x64, 0x64, 0x00, 0x00, 0x00, 0x00, 
  0x02, 0x00, 0x00, 0x00, 0x01, 0x00, 0x00, 0x00, 0x04, 0x00, 0x00, 0x00, 
  0xea, 0xfd, 0xff, 0xff, 0x00, 0x00, 0x00, 0x01, 0x14, 0x00, 0x00, 0x00, 
  0x1c, 0x00, 0x00, 0x00, 0x1c, 0x00, 0x00, 0x00, 0x06, 0x00, 0x00, 0x00, 
  0x6c, 0x00, 0x00, 0x00, 0x02, 0x00, 0x00, 0x00, 0xff, 0xff, 0xff, 0xff, 
  0x20, 0x00, 0x00, 0x00, 0xd4, 0xfd, 0xff, 0xff, 0x52, 0x00, 0x00, 0x00, 
  0x65, 0x73, 0x70, 0x33, 0x32, 0x5f, 0x61, 0x63, 0x74, 0x6f, 0x72, 0x2f, 
  0x64, 0x65, 0x6e, 0x73, 0x65, 0x5f, 0x36, 0x34, 0x2f, 0x4d, 0x61, 0x74, 
  0x4d, 0x75, 0x6c, 0x3b, 0x65, 0x73, 0x70, 0x33, 0x32, 0x5f, 0x61, 0x63, 
  0x74, 0x6f, 0x72, 0x2f, 0x64, 0x65, 0x6e, 0x73, 0x65, 0x5f, 0x36, 0x34, 
  0x2f, 0x52, 0x65, 0x6c, 0x75, 0x3b, 0x65, 0x73, 0x70, 0x33, 0x32, 0x5f, 
  0x61, 0x63, 0x74, 0x6f, 0x72, 0x2f, 0x64, 0x65, 0x6e, 0x73, 0x65, 0x5f, 
  0x36, 0x34, 0x2f, 0x42, 0x69, 0x61, 0x73, 0x41, 0x64, 0x64, 0x00, 0x00, 
  0x02, 0x00, 0x00, 0x00, 0x01, 0x00, 0x00, 0x00, 0x20, 0x00, 0x00, 0x00, 
  0x7a, 0xfe, 0xff, 0xff, 0x00, 0x00, 0x00, 0x01, 0x14, 0x00, 0x00, 0x00, 
  0x1c, 0x00, 0x00, 0x00, 0x1c, 0x00, 0x00, 0x00, 0x05, 0x00, 0x00, 0x00, 
  0x6c, 0x00, 0x00, 0x00, 0x02, 0x00, 0x00, 0x00, 0xff, 0xff, 0xff, 0xff, 
  0x20, 0x00, 0x00, 0x00, 0x64, 0xfe, 0xff, 0xff, 0x52, 0x00, 0x00, 0x00, 
  0x65, 0x73, 0x70, 0x33, 0x32, 0x5f, 0x61, 0x63, 0x74, 0x6f, 0x72, 0x2f, 
  0x64, 0x65, 0x6e, 0x73, 0x65, 0x5f, 0x36, 0x33, 0x2f, 0x4d, 0x61, 0x74, 
  0x4d, 0x75, 0x6c, 0x3b, 0x65, 0x73, 0x70, 0x33, 0x32, 0x5f, 0x61, 0x63, 
  0x74, 0x6f, 0x72, 0x2f, 0x64, 0x65, 0x6e, 0x73, 0x65, 0x5f, 0x36, 0x33, 
  0x2f, 0x52, 0x65, 0x6c, 0x75, 0x3b, 0x65, 0x73, 0x70, 0x33, 0x32, 0x5f, 
  0x61, 0x63, 0x74, 0x6f, 0x72, 0x2f, 0x64, 0x65, 0x6e, 0x73, 0x65, 0x5f, 
  0x36, 0x33, 0x2f, 0x42, 0x69, 0x61, 0x73, 0x41, 0x64, 0x64, 0x00, 0x00, 
  0x02, 0x00, 0x00, 0x00, 0x01, 0x00, 0x00, 0x00, 0x20, 0x00, 0x00, 0x00, 
  0x6e, 0xff, 0xff, 0xff, 0x00, 0x00, 0x00, 0x01, 0x10, 0x00, 0x00, 0x00, 
  0x10, 0x00, 0x00, 0x00, 0x04, 0x00, 0x00, 0x00, 0x28, 0x00, 0x00, 0x00, 
  0xe4, 0xfe, 0xff, 0xff, 0x1b, 0x00, 0x00, 0x00, 0x65, 0x73, 0x70, 0x33, 
  0x32, 0x5f, 0x61, 0x63, 0x74, 0x6f, 0x72, 0x2f, 0x64, 0x65, 0x6e, 0x73, 
  0x65, 0x5f, 0x36, 0x35, 0x2f, 0x4d, 0x61, 0x74, 0x4d, 0x75, 0x6c, 0x00, 
  0x02, 0x00, 0x00, 0x00, 0x04, 0x00, 0x00, 0x00, 0x20, 0x00, 0x00, 0x00, 
  0xb6, 0xff, 0xff, 0xff, 0x00, 0x00, 0x00, 0x01, 0x10, 0x00, 0x00, 0x00, 
  0x10, 0x00, 0x00, 0x00, 0x03, 0x00, 0x00, 0x00, 0x28, 0x00, 0x00, 0x00, 
  0x2c, 0xff, 0xff, 0xff, 0x1b, 0x00, 0x00, 0x00, 0x65, 0x73, 0x70, 0x33, 
  0x32, 0x5f, 0x61, 0x63, 0x74, 0x6f, 0x72, 0x2f, 0x64, 0x65, 0x6e, 0x73, 
  0x65, 0x5f, 0x36, 0x34, 0x2f, 0x4d, 0x61, 0x74, 0x4d, 0x75, 0x6c, 0x00, 
  0x02, 0x00, 0x00, 0x00, 0x20, 0x00, 0x00, 0x00, 0x20, 0x00, 0x00, 0x00, 
  0x00, 0x00, 0x16, 0x00, 0x18, 0x00, 0x14, 0x00, 0x00, 0x00, 0x10, 0x00, 
  0x0c, 0x00, 0x08, 0x00, 0x00, 0x00, 0x00, 0x00, 0x00, 0x00, 0x07, 0x00, 
  0x16, 0x00, 0x00, 0x00, 0x00, 0x00, 0x00, 0x01, 0x10, 0x00, 0x00, 0x00, 
  0x10, 0x00, 0x00, 0x00, 0x02, 0x00, 0x00, 0x00, 0x2c, 0x00, 0x00, 0x00, 
  0x8c, 0xff, 0xff, 0xff, 0x1c, 0x00, 0x00, 0x00, 0x65, 0x73, 0x70, 0x33, 
  0x32, 0x5f, 0x61, 0x63, 0x74, 0x6f, 0x72, 0x2f, 0x64, 0x65, 0x6e, 0x73, 
  0x65, 0x5f, 0x36, 0x33, 0x2f, 0x4d, 0x61, 0x74, 0x4d, 0x75, 0x6c, 0x31, 
  0x00, 0x00, 0x00, 0x00, 0x02, 0x00, 0x00, 0x00, 0x20, 0x00, 0x00, 0x00, 
  0x05, 0x00, 0x00, 0x00, 0x00, 0x00, 0x16, 0x00, 0x1c, 0x00, 0x18, 0x00, 
  0x00, 0x00, 0x14, 0x00, 0x10, 0x00, 0x0c, 0x00, 0x00, 0x00, 0x00, 0x00, 
  0x08, 0x00, 0x07, 0x00, 0x16, 0x00, 0x00, 0x00, 0x00, 0x00, 0x00, 0x01, 
  0x14, 0x00, 0x00, 0x00, 0x20, 0x00, 0x00, 0x00, 0x20, 0x00, 0x00, 0x00, 
  0x01, 0x00, 0x00, 0x00, 0x40, 0x00, 0x00, 0x00, 0x02, 0x00, 0x00, 0x00, 
  0xff, 0xff, 0xff, 0xff, 0x05, 0x00, 0x00, 0x00, 0x04, 0x00, 0x04, 0x00, 
  0x04, 0x00, 0x00, 0x00, 0x20, 0x00, 0x00, 0x00, 0x73, 0x65, 0x72, 0x76, 
  0x69, 0x6e, 0x67, 0x5f, 0x64, 0x65, 0x66, 0x61, 0x75, 0x6c, 0x74, 0x5f, 
  0x64, 0x65, 0x6e, 0x73, 0x65, 0x5f, 0x36, 0x33, 0x5f, 0x69, 0x6e, 0x70, 
  0x75, 0x74, 0x3a, 0x30, 0x00, 0x00, 0x00, 0x00, 0x02, 0x00, 0x00, 0x00, 
  0x01, 0x00, 0x00, 0x00, 0x05, 0x00, 0x00, 0x00, 0x02, 0x00, 0x00, 0x00, 
  0x20, 0x00, 0x00, 0x00, 0x04, 0x00, 0x00, 0x00, 0xf4, 0xff, 0xff, 0xff, 
  0x1c, 0x00, 0x00, 0x00, 0x00, 0x00, 0x00, 0x1c, 0x0c, 0x00, 0x0c, 0x00, 
  0x0b, 0x00, 0x00, 0x00, 0x00, 0x00, 0x04, 0x00, 0x0c, 0x00, 0x00, 0x00, 
  0x09, 0x00, 0x00, 0x00, 0x00, 0x00, 0x00, 0x09, 
};

const unsigned int actor_model_len = 7040;
