#include "actor_task0.h"

const uint8_t actor_model[] = {

  0x1c, 0x00, 0x00, 0x00, 0x54, 0x46, 0x4c, 0x33, 0x14, 0x00, 0x20, 0x00, 
  0x1c, 0x00, 0x18, 0x00, 0x14, 0x00, 0x10, 0x00, 0x0c, 0x00, 0x00, 0x00, 
  0x08, 0x00, 0x04, 0x00, 0x14, 0x00, 0x00, 0x00, 0x1c, 0x00, 0x00, 0x00, 
  0x8c, 0x00, 0x00, 0x00, 0xe4, 0x00, 0x00, 0x00, 0x50, 0x16, 0x00, 0x00, 
  0x60, 0x16, 0x00, 0x00, 0x1c, 0x1b, 0x00, 0x00, 0x03, 0x00, 0x00, 0x00, 
  0x01, 0x00, 0x00, 0x00, 0x04, 0x00, 0x00, 0x00, 0x62, 0xe9, 0xff, 0xff, 
  0x0c, 0x00, 0x00, 0x00, 0x1c, 0x00, 0x00, 0x00, 0x3c, 0x00, 0x00, 0x00, 
  0x0f, 0x00, 0x00, 0x00, 0x73, 0x65, 0x72, 0x76, 0x69, 0x6e, 0x67, 0x5f, 
  0x64, 0x65, 0x66, 0x61, 0x75, 0x6c, 0x74, 0x00, 0x01, 0x00, 0x00, 0x00, 
  0x04, 0x00, 0x00, 0x00, 0x90, 0xff, 0xff, 0xff, 0x07, 0x00, 0x00, 0x00, 
  0x04, 0x00, 0x00, 0x00, 0x08, 0x00, 0x00, 0x00, 0x64, 0x65, 0x6e, 0x73, 
  0x65, 0x5f, 0x36, 0x35, 0x00, 0x00, 0x00, 0x00, 0x01, 0x00, 0x00, 0x00, 
  0x04, 0x00, 0x00, 0x00, 0xb2, 0xec, 0xff, 0xff, 0x04, 0x00, 0x00, 0x00, 
  0x0e, 0x00, 0x00, 0x00, 0x64, 0x65, 0x6e, 0x73, 0x65, 0x5f, 0x36, 0x33, 
  0x5f, 0x69, 0x6e, 0x70, 0x75, 0x74, 0x00, 0x00, 0x02, 0x00, 0x00, 0x00, 
  0x34, 0x00, 0x00, 0x00, 0x04, 0x00, 0x00, 0x00, 0xdc, 0xff, 0xff, 0xff, 
  0x0a, 0x00, 0x00, 0x00, 0x04, 0x00, 0x00, 0x00, 0x13, 0x00, 0x00, 0x00, 
  0x43, 0x4f, 0x4e, 0x56, 0x45, 0x52, 0x53, 0x49, 0x4f, 0x4e, 0x5f, 0x4d, 
  0x45, 0x54, 0x41, 0x44, 0x41, 0x54, 0x41, 0x00, 0x08, 0x00, 0x0c, 0x00, 
  0x08, 0x00, 0x04, 0x00, 0x08, 0x00, 0x00, 0x00, 0x09, 0x00, 0x00, 0x00, 
  0x04, 0x00, 0x00, 0x00, 0x13, 0x00, 0x00, 0x00, 0x6d, 0x69, 0x6e, 0x5f, 
  0x72, 0x75, 0x6e, 0x74, 0x69, 0x6d, 0x65, 0x5f, 0x76, 0x65, 0x72, 0x73, 
  0x69, 0x6f, 0x6e, 0x00, 0x0b, 0x00, 0x00, 0x00, 0x68, 0x15, 0x00, 0x00, 
  0x60, 0x15, 0x00, 0x00, 0xd0, 0x12, 0x00, 0x00, 0xb8, 0x02, 0x00, 0x00, 
  0xa8, 0x00, 0x00, 0x00, 0xa0, 0x00, 0x00, 0x00, 0x98, 0x00, 0x00, 0x00, 
  0x90, 0x00, 0x00, 0x00, 0x88, 0x00, 0x00, 0x00, 0x68, 0x00, 0x00, 0x00, 
  0x04, 0x00, 0x00, 0x00, 0x5a, 0xed, 0xff, 0xff, 0x04, 0x00, 0x00, 0x00, 
  0x54, 0x00, 0x00, 0x00, 0x0c, 0x00, 0x00, 0x00, 0x08, 0x00, 0x0e, 0x00, 
  0x08, 0x00, 0x04, 0x00, 0x08, 0x00, 0x00, 0x00, 0x10, 0x00, 0x00, 0x00, 
  0x24, 0x00, 0x00, 0x00, 0x00, 0x00, 0x06, 0x00, 0x08, 0x00, 0x04, 0x00, 
  0x06, 0x00, 0x00, 0x00, 0x04, 0x00, 0x00, 0x00, 0x00, 0x00, 0x00, 0x00, 
  0x00, 0x00, 0x0a, 0x00, 0x10, 0x00, 0x0c, 0x00, 0x08, 0x00, 0x04, 0x00, 
  0x0a, 0x00, 0x00, 0x00, 0x02, 0x00, 0x00, 0x00, 0x02, 0x00, 0x00, 0x00, 
  0x04, 0x00, 0x00, 0x00, 0x06, 0x00, 0x00, 0x00, 0x32, 0x2e, 0x31, 0x33, 
  0x2e, 0x30, 0x00, 0x00, 0xba, 0xed, 0xff, 0xff, 0x04, 0x00, 0x00, 0x00, 
  0x10, 0x00, 0x00, 0x00, 0x31, 0x2e, 0x31, 0x34, 0x2e, 0x30, 0x00, 0x00, 
  0x00, 0x00, 0x00, 0x00, 0x00, 0x00, 0x00, 0x00, 0xa4, 0xe6, 0xff, 0xff, 
  0xa8, 0xe6, 0xff, 0xff, 0xac, 0xe6, 0xff, 0xff, 0xb0, 0xe6, 0xff, 0xff, 
  0xe6, 0xed, 0xff, 0xff, 0x04, 0x00, 0x00, 0x00, 0x00, 0x02, 0x00, 0x00, 
  0xf8, 0x9d, 0x74, 0x3e, 0xf4, 0xd2, 0x98, 0xbd, 0xf4, 0x37, 0xa0, 0xbe, 
  0x50, 0x93, 0xc4, 0xbc, 0xf0, 0xa8, 0xf6, 0x3d, 0xc8, 0x14, 0xa7, 0xbd, 
  0xba, 0xe2, 0xa2, 0xbe, 0xe8, 0x14, 0x6a, 0x3e, 0x54, 0x71, 0xb6, 0xbe, 
  0x40, 0x92, 0x02, 0xbd, 0x04, 0xba, 0x2b, 0x3e, 0xba, 0x19, 0x8c, 0x3e, 
  0xbc, 0x73, 0xa0, 0x3e, 0xfc, 0x5b, 0x9a, 0x3d, 0xbc, 0x66, 0xc6, 0xbd, 
  0x30, 0xb9, 0xc9, 0x3e, 0xe3, 0xb9, 0x7d, 0xbe, 0x34, 0xfb, 0xa3, 0x3d, 
  0x78, 0x80, 0x75, 0x3e, 0x20, 0xe8, 0x7f, 0x3d, 0x44, 0x06, 0x3c, 0x3e, 
  0x3c, 0xc7, 0x72, 0x3e, 0x40, 0xd1, 0xde, 0x3b, 0x08, 0xa7, 0xd6, 0x3d, 
  0xb0, 0x9f, 0xa0, 0xbe, 0x64, 0xea, 0x64, 0x3e, 0xdc, 0xb5, 0x06, 0xbe, 
  0x04, 0xf8, 0xab, 0x3e, 0x00, 0x38, 0x64, 0x39, 0xd4, 0x8c, 0xae, 0x3e, 
  0x68, 0x2e, 0x29, 0x3e, 0x7c, 0x25, 0xc2, 0x3e, 0x42, 0x24, 0xb6, 0xbe, 
  0x40, 0xb2, 0xef, 0x3b, 0xe6, 0xf9, 0x25, 0xbe, 0xc8, 0x73, 0x82, 0x3d, 
  0x18, 0x45, 0xf0, 0xbd, 0x24, 0x64, 0xef, 0xbd, 0x34, 0x62, 0x30, 0xbe, 
  0x7a, 0xe8, 0x6b, 0xbe, 0x9c, 0x5b, 0xaa, 0x3e, 0x87, 0x06, 0x4b, 0xbe, 
  0x06, 0x9e, 0x82, 0x3e, 0x1f, 0xc3, 0xa3, 0xbe, 0xc4, 0x1d, 0x21, 0x3e, 
  0xfb, 0x30, 0x71, 0xbe, 0x30, 0xae, 0xd8, 0x3d, 0x38, 0xa3, 0xcf, 0x3d, 
  0xba, 0x4e, 0x9b, 0xbe, 0x02, 0xbf, 0xb6, 0x3e, 0x90, 0x13, 0x61, 0xbd, 
  0xbe, 0xe1, 0x9d, 0x3e, 0x98, 0xd8, 0x49, 0x3d, 0x28, 0xfd, 0x1c, 0x3e, 
  0x50, 0x02, 0xf9, 0xbc, 0x58, 0x6a, 0x0a, 0x3e, 0xce, 0x0f, 0xa4, 0x3e, 
  0xb0, 0xb0, 0xcf, 0x3e, 0xc8, 0x7b, 0x23, 0x3e, 0x14, 0x02, 0xce, 0xbd, 
  0x14, 0x3a, 0xc7, 0xbe, 0xdc, 0x9c, 0xc2, 0x3e, 0x90, 0x0a, 0xf2, 0x3d, 
  0xfd, 0x20, 0xae, 0xbe, 0xe1, 0x1b, 0x67, 0xbe, 0x97, 0x6a, 0xc4, 0xbe, 
  0x7d, 0x57, 0xbd, 0xbe, 0xec, 0xc0, 0xdb, 0xbd, 0x17, 0xef, 0x73, 0xbe, 
  0x16, 0x92, 0x8a, 0xbe, 0x98, 0x1b, 0x97, 0xbe, 0xf6, 0xd1, 0xcf, 0x3e, 
  0x23, 0xdc, 0xa4, 0xbe, 0x08, 0xde, 0xba, 0x3d, 0x40, 0x4b, 0xc3, 0x3e, 
  0x13, 0x46, 0x45, 0xbe, 0x90, 0x44, 0xee, 0xbc, 0xf0, 0x74, 0x00, 0x3e, 
  0xaa, 0x20, 0x9d, 0x3e, 0xf8, 0x63, 0xde, 0xbd, 0x8c, 0xc0, 0xca, 0x3e, 
  0x24, 0x95, 0x9f, 0x3e, 0xae, 0x76, 0xc6, 0xbe, 0x0d, 0xbe, 0xa0, 0xbe, 
  0x11, 0x64, 0xc2, 0xbe, 0x92, 0xf6, 0xb1, 0xbe, 0x66, 0x0e, 0xab, 0xbe, 
  0x60, 0xba, 0x3f, 0xbd, 0x6c, 0xb0, 0x74, 0x3e, 0x70, 0xd8, 0x72, 0x3e, 
  0x76, 0x37, 0xad, 0x3e, 0xa2, 0xe5, 0x42, 0xbe, 0xac, 0x99, 0x0d, 0xbe, 
  0xf7, 0x30, 0x7f, 0xbe, 0x78, 0xa3, 0x9e, 0xbe, 0x5c, 0x44, 0x98, 0xbd, 
  0xb1, 0xc8, 0xa9, 0xbe, 0x9e, 0x1e, 0x5c, 0xbe, 0x54, 0x54, 0x85, 0xbe, 
  0x40, 0x62, 0xe5, 0x3c, 0x20, 0xeb, 0xb5, 0x3c, 0xd8, 0x77, 0xa6, 0x3e, 
  0x98, 0x94, 0x5c, 0x3e, 0xec, 0x5c, 0x1c, 0xbe, 0xf0, 0x6c, 0x1f, 0x3e, 
  0xcc, 0x3e, 0x12, 0xbe, 0x50, 0x5e, 0x6e, 0x3d, 0x30, 0x83, 0xd0, 0xbd, 
  0xa8, 0xbd, 0x6c, 0x3e, 0x76, 0x78, 0x89, 0x3e, 0x98, 0xd0, 0xbe, 0x3e, 
  0xec, 0xdb, 0x91, 0x3d, 0x56, 0x88, 0x99, 0x3e, 0x94, 0x69, 0x1f, 0x3e, 
  0xc4, 0x02, 0x90, 0x3d, 0x42, 0x73, 0xc7, 0x3e, 0x58, 0x69, 0x9f, 0x3e, 
  0x84, 0x3a, 0xb8, 0x3e, 0xf8, 0x95, 0x33, 0xbd, 0x44, 0x96, 0x58, 0x3e, 
  0xb0, 0x40, 0xed, 0x3d, 0xe9, 0xe8, 0x95, 0xbe, 0x3f, 0xa0, 0x93, 0xbe, 
  0x32, 0x68, 0xc2, 0x3e, 0xce, 0xab, 0x82, 0x3e, 0xe8, 0xf4, 0x1a, 0x3e, 
  0xd0, 0xb2, 0x9d, 0xbd, 0xe4, 0x22, 0xbe, 0xbd, 0xf2, 0xef, 0xff, 0xff, 
  0x04, 0x00, 0x00, 0x00, 0x00, 0x10, 0x00, 0x00, 0x00, 0x30, 0xa6, 0x3b, 
  0xe4, 0x60, 0xa8, 0x3d, 0x50, 0x16, 0x8b, 0xbe, 0xd0, 0xd0, 0x9a, 0xbe, 
  0x09, 0x92, 0x31, 0xbe, 0x7f, 0xd7, 0x97, 0x3e, 0xe0, 0xe9, 0x93, 0x3c, 
  0x05, 0xd9, 0x00, 0xbe, 0x17, 0x6c, 0x09, 0xbe, 0x00, 0x66, 0x60, 0x3c, 
  0x8c, 0x1f, 0x3d, 0xbe, 0x80, 0x7e, 0x8d, 0xbe, 0x13, 0xea, 0x1b, 0xbe, 
  0xbe, 0xb1, 0x10, 0x3e, 0x20, 0x1e, 0x7f, 0xbc, 0x5b, 0xa3, 0x52, 0xbe, 
  0x50, 0xca, 0xf2, 0xbd, 0x46, 0xc3, 0x7e, 0xbe, 0x6b, 0x4a, 0x9c, 0xbe, 
  0x95, 0x1d, 0x27, 0xbe, 0x35, 0x05, 0x81, 0xbe, 0x9a, 0xcb, 0xde, 0xbd, 
  0x6a, 0x63, 0x57, 0xbe, 0xf3, 0x1a, 0x82, 0xbe, 0x98, 0xaa, 0x95, 0xbe, 
  0xbc, 0x3e, 0x69, 0xbe, 0x87, 0xf2, 0x11, 0xbe, 0xfe, 0x06, 0x24, 0x3e, 
  0x42, 0x7e, 0x5f, 0x3e, 0x31, 0x75, 0x3e, 0xbe, 0xc0, 0x02, 0xc0, 0x3d, 
  0x0c, 0xe8, 0x8e, 0xbd, 0x8c, 0x6c, 0x1e, 0x3e, 0xa7, 0x85, 0x8e, 0x3e, 
  0xe0, 0xf5, 0x41, 0xbe, 0x70, 0xfd, 0x49, 0xbe, 0xd0, 0x20, 0xac, 0xbc, 
  0xeb, 0xde, 0x9a, 0x3e, 0xb0, 0x19, 0xa2, 0xbd, 0xf5, 0xb7, 0x8e, 0x3e, 
  0x8e, 0x6c, 0x1d, 0x3e, 0x20, 0xc5, 0x5b, 0x3c, 0x3e, 0x9b, 0x33, 0x3e, 
  0x60, 0xf4, 0x8f, 0xbe, 0xbd, 0x79, 0x80, 0x3e, 0x0a, 0x1e, 0x70, 0x3e, 
  0x91, 0x8f, 0x93, 0x3e, 0x44, 0xfd, 0xa3, 0x3d, 0xd4, 0x69, 0x83, 0xbd, 
  0x52, 0x99, 0x12, 0x3e, 0x40, 0xf0, 0xb1, 0x3c, 0x80, 0x18, 0xdb, 0x3b, 
  0xc4, 0x3a, 0xcd, 0xbd, 0x01, 0xc5, 0x32, 0xbe, 0xc2, 0xec, 0x7f, 0x3e, 
  0x80, 0x19, 0x3d, 0xbe, 0x89, 0xb0, 0x93, 0xbe, 0x53, 0xf8, 0x89, 0x3e, 
  0x18, 0x82, 0x83, 0x3d, 0x0c, 0xf1, 0x33, 0x3e, 0x2a, 0x31, 0x58, 0x3e, 
  0x33, 0xcd, 0x8a, 0xbe, 0x90, 0xa4, 0x8c, 0x3c, 0x63, 0xe0, 0x93, 0x3e, 
  0x2b, 0x60, 0x22, 0xbe, 0x50, 0xa9, 0x0f, 0x3e, 0x78, 0x79, 0x20, 0x3d, 
  0x0e, 0xb7, 0x68, 0x3e, 0x92, 0x79, 0x3e, 0xbe, 0xa8, 0x41, 0x74, 0xbe, 
  0xfc, 0x29, 0x3a, 0x3e, 0xc4, 0x74, 0x17, 0xbe, 0x18, 0x54, 0x7f, 0xbd, 
  0xd8, 0xb1, 0xe2, 0x3d, 0x2a, 0x97, 0x53, 0x3e, 0x42, 0x79, 0x0b, 0x3e, 
  0xcc, 0x2f, 0x9a, 0xbe, 0x50, 0xcf, 0x3c, 0xbd, 0xb2, 0x92, 0x7f, 0xbe, 
  0x00, 0xbe, 0xbd, 0x3d, 0x74, 0xd8, 0x40, 0x3e, 0x74, 0x6a, 0x98, 0x3d, 
  0x04, 0xaf, 0x04, 0x3e, 0x40, 0xee, 0x34, 0xbd, 0x2c, 0x3d, 0x4b, 0xbe, 
  0x00, 0xc6, 0xbe, 0xbb, 0x0c, 0x29, 0xf0, 0xbd, 0x88, 0xae, 0xae, 0x3d, 
  0x02, 0x22, 0x16, 0xbe, 0x97, 0xad, 0x91, 0x3e, 0x78, 0xb8, 0xf1, 0xbd, 
  0x6b, 0x51, 0x80, 0xbe, 0x82, 0x57, 0x3e, 0xbe, 0xd5, 0xf0, 0x6c, 0xbe, 
  0x40, 0x72, 0x4f, 0x3d, 0x80, 0x89, 0x6b, 0xbe, 0x78, 0x74, 0x29, 0x3e, 
  0x70, 0x54, 0x01, 0xbd, 0x98, 0x5f, 0xab, 0x3d, 0xd6, 0x04, 0x83, 0xbe, 
  0xc4, 0x5d, 0xcf, 0xbd, 0xd4, 0x91, 0x69, 0xbe, 0x59, 0xc0, 0x20, 0xbe, 
  0x0a, 0x37, 0xf2, 0xbd, 0x4a, 0x6a, 0x09, 0xbe, 0x38, 0xf0, 0xc5, 0x3d, 
  0x26, 0x5b, 0x91, 0xbe, 0x82, 0x8a, 0x25, 0xbe, 0xde, 0x2b, 0x48, 0x3e, 
  0xa0, 0x0b, 0xe8, 0xbc, 0xfc, 0x93, 0x94, 0xbd, 0x80, 0xd4, 0x96, 0xbb, 
  0x2a, 0xb4, 0x08, 0x3e, 0x2d, 0xb9, 0x83, 0x3e, 0x57, 0x6b, 0x7c, 0xbe, 
  0x0a, 0x77, 0x90, 0xbe, 0x65, 0xe1, 0x94, 0x3e, 0x88, 0x78, 0x8b, 0xbe, 
  0x7e, 0x9e, 0xe3, 0xbd, 0xa6, 0xa6, 0x0d, 0x3e, 0xa0, 0xfa, 0x2a, 0xbd, 
  0x36, 0x5e, 0xab, 0xbd, 0x07, 0x63, 0x99, 0x3e, 0x60, 0x69, 0x35, 0x3c, 
  0x4d, 0x27, 0x04, 0xbe, 0xc8, 0xa7, 0x64, 0xbe, 0xdc, 0x38, 0xde, 0x3d, 
  0xe0, 0xe5, 0x8b, 0x3d, 0x08, 0xbe, 0xdf, 0x3d, 0x9d, 0x07, 0x08, 0xbe, 
  0x3c, 0x41, 0x8c, 0xbd, 0xfc, 0x4b, 0x0f, 0x3e, 0x34, 0xaa, 0x39, 0x3e, 
  0xa3, 0xc7, 0x86, 0xbe, 0x96, 0xdb, 0x45, 0xbe, 0xec, 0x82, 0xea, 0x3d, 
  0x78, 0xfc, 0x1f, 0xbd, 0x70, 0x5c, 0x2e, 0x3e, 0xea, 0xde, 0x04, 0x3e, 
  0x28, 0x81, 0x48, 0xbe, 0xc0, 0xb9, 0xf9, 0xbb, 0xeb, 0x05, 0x69, 0xbe, 
  0xb0, 0x9b, 0xe2, 0xbd, 0xb8, 0x17, 0x5b, 0xbd, 0x3c, 0xc4, 0x8c, 0xbe, 
  0x78, 0xf9, 0x1c, 0x3e, 0x60, 0xdd, 0x23, 0xbc, 0xe8, 0x88, 0xb9, 0xbd, 
  0x00, 0x16, 0x32, 0xbb, 0x8c, 0x52, 0x24, 0x3e, 0x98, 0x0f, 0x85, 0x3d, 
  0x26, 0x23, 0x4b, 0xbe, 0xec, 0xbe, 0x88, 0x3d, 0x88, 0x9c, 0x12, 0x3d, 
  0x0a, 0xe8, 0x7a, 0x3e, 0x10, 0xae, 0x48, 0x3d, 0x6e, 0x46, 0x86, 0xbe, 
  0xdb, 0x4c, 0x98, 0x3e, 0x31, 0x79, 0x94, 0xbe, 0xd2, 0x4b, 0x70, 0x3e, 
  0x80, 0x6d, 0xa7, 0xbc, 0xb0, 0x6e, 0x35, 0xbd, 0x60, 0x31, 0x36, 0x3c, 
  0xe0, 0x93, 0x64, 0x3c, 0x64, 0x2b, 0xe1, 0x3d, 0x38, 0x14, 0x60, 0x3d, 
  0xf4, 0x8d, 0x36, 0x3e, 0x28, 0x16, 0xf6, 0x3d, 0x12, 0xef, 0x57, 0xbe, 
  0x3a, 0xe9, 0x13, 0x3e, 0x40, 0x98, 0xb8, 0xbd, 0x66, 0x4a, 0x83, 0xbe, 
  0x18, 0x01, 0xac, 0x3d, 0xc8, 0xc1, 0x54, 0x3d, 0x38, 0xa6, 0xea, 0x3d, 
  0x00, 0x80, 0xfd, 0xbc, 0x9e, 0x3c, 0x5e, 0xbe, 0x0c, 0x1f, 0x9e, 0x3d, 
  0x76, 0x0b, 0x53, 0x3e, 0xec, 0x83, 0x8d, 0x3d, 0xd4, 0x88, 0x6a, 0xbd, 
  0xfc, 0x6b, 0x77, 0xbd, 0x96, 0x65, 0x94, 0xbe, 0x62, 0x12, 0x13, 0xbe, 
  0x20, 0x70, 0x6d, 0x3c, 0x7e, 0x5c, 0xd2, 0xbd, 0x5e, 0xa0, 0xdf, 0xbd, 
  0x3c, 0x3c, 0x83, 0xbe, 0x14, 0x02, 0x17, 0x3e, 0x70, 0x16, 0x6e, 0x3d, 
  0xa6, 0xf3, 0x31, 0x3e, 0x17, 0xc8, 0x91, 0x3e, 0x60, 0x55, 0xe2, 0x3d, 
  0x7f, 0x1a, 0x97, 0x3e, 0xd6, 0xec, 0x7f, 0x3e, 0x30, 0x4f, 0x41, 0x3d, 
  0x92, 0x51, 0x45, 0xbe, 0xf0, 0x69, 0xae, 0x3c, 0x7a, 0x1c, 0x6f, 0x3e, 
  0xb8, 0x15, 0x8f, 0xbe, 0xb0, 0x7f, 0xba, 0x3d, 0xdc, 0xa4, 0xe8, 0x3d, 
  0xaf, 0xa2, 0x84, 0x3e, 0x49, 0x62, 0x96, 0x3e, 0xa0, 0xe0, 0x3f, 0x3d, 
  0x44, 0x6c, 0x28, 0xbe, 0x0a, 0x0b, 0xc2, 0xbd, 0x12, 0x40, 0x52, 0x3e, 
  0xd0, 0x19, 0x24, 0x3d, 0x15, 0xad, 0x85, 0x3e, 0x88, 0x65, 0x30, 0xbe, 
  0xa0, 0x7a, 0xb7, 0x3c, 0xbf, 0x77, 0x94, 0x3e, 0xb0, 0x23, 0x2a, 0xbd, 
  0xe5, 0x6d, 0x47, 0xbe, 0x98, 0x01, 0x36, 0x3d, 0xfd, 0xa2, 0x8e, 0x3e, 
  0x23, 0xcb, 0x2d, 0xbe, 0x40, 0x2a, 0x0a, 0x3d, 0x10, 0x2e, 0x29, 0x3e, 
  0x8d, 0xd2, 0x8e, 0xbe, 0xa6, 0x0f, 0x3e, 0x3e, 0xd4, 0x4d, 0x69, 0xbd, 
  0x1d, 0x7d, 0x90, 0x3e, 0x24, 0xa8, 0x22, 0x3e, 0x96, 0x26, 0x22, 0x3e, 
  0x5e, 0x97, 0x82, 0xbd, 0x2c, 0xa8, 0x78, 0xbe, 0x88, 0x1c, 0x98, 0x3d, 
  0x09, 0x73, 0x07, 0xbe, 0x4c, 0xf2, 0x45, 0xbe, 0x65, 0x77, 0x98, 0xbe, 
  0x66, 0x36, 0xae, 0xbd, 0x64, 0x18, 0x82, 0xbe, 0xaa, 0x79, 0x51, 0xbe, 
  0x5d, 0xb7, 0x9c, 0x3e, 0x2a, 0x42, 0xf5, 0xbd, 0xc4, 0x0f, 0xe7, 0x3d, 
  0xb0, 0x85, 0x8a, 0xbe, 0xfc, 0xbb, 0x91, 0xbd, 0x5a, 0x97, 0xa3, 0xbd, 
  0xe0, 0x2a, 0x15, 0x3e, 0x80, 0xf1, 0xdb, 0xbc, 0x14, 0x70, 0x81, 0xbe, 
  0x43, 0x4c, 0x80, 0xbe, 0xc6, 0xdb, 0x4c, 0x3e, 0x3b, 0x10, 0x91, 0x3e, 
  0xec, 0xb1, 0xb3, 0x3d, 0xc6, 0x2d, 0x53, 0xbe, 0x4a, 0xcb, 0x01, 0x3e, 
  0x00, 0xee, 0xdb, 0xbc, 0x33, 0x2e, 0x81, 0x3e, 0x00, 0x20, 0x88, 0x3c, 
  0xf3, 0x19, 0x2d, 0xbe, 0xe8, 0x51, 0xb1, 0x3d, 0x26, 0x19, 0x9e, 0xbd, 
  0xdc, 0x0f, 0xd5, 0xbd, 0x90, 0x2f, 0xca, 0xbc, 0x00, 0x17, 0x88, 0xba, 
  0xa8, 0xa0, 0x95, 0x3d, 0x43, 0xb4, 0x84, 0xbe, 0x03, 0xa3, 0x8a, 0xbe, 
  0xfe, 0x30, 0x61, 0x3e, 0xd8, 0x4a, 0x0a, 0xbd, 0x98, 0x81, 0x63, 0xbd, 
  0x95, 0x86, 0x9c, 0x3e, 0xde, 0xb0, 0x73, 0x3e, 0x04, 0xb2, 0x8f, 0xbe, 
  0x54, 0x95, 0x26, 0x3e, 0x50, 0x22, 0xd3, 0x3c, 0xce, 0x47, 0x74, 0x3e, 
  0x1e, 0x09, 0x52, 0x3e, 0x9a, 0x13, 0x69, 0xbe, 0xe1, 0xa7, 0x00, 0xbe, 
  0xbc, 0x7a, 0x66, 0xbe, 0xf0, 0xd9, 0xc8, 0x3d, 0x46, 0xcb, 0x6d, 0x3e, 
  0x44, 0xb3, 0x97, 0xbe, 0x01, 0x81, 0x8c, 0x3e, 0xf0, 0x4a, 0x76, 0xbe, 
  0x12, 0x0f, 0x4b, 0x3e, 0xe8, 0x92, 0x06, 0x3e, 0xb8, 0xf1, 0x1b, 0x3d, 
  0xc1, 0x88, 0x8b, 0x3e, 0xba, 0x97, 0x43, 0xbe, 0xc0, 0x60, 0x64, 0x3c, 
  0xbe, 0x36, 0x6c, 0x3e, 0x6e, 0x4e, 0x7d, 0x3e, 0xde, 0xdc, 0x71, 0x3e, 
  0x82, 0x49, 0x4a, 0xbe, 0xb2, 0x64, 0x0e, 0x3e, 0x02, 0x1a, 0x18, 0xbe, 
  0xb6, 0xc6, 0x60, 0x3e, 0xd4, 0x90, 0x48, 0xbe, 0x4b, 0x2e, 0x81, 0x3e, 
  0x82, 0xb7, 0x78, 0x3e, 0x14, 0x2d, 0xcf, 0x3d, 0x1c, 0x02, 0xcc, 0x3d, 
  0x80, 0x8f, 0x5e, 0x3c, 0xec, 0xa0, 0x61, 0xbe, 0x18, 0x5e, 0x92, 0xbe, 
  0xec, 0x9e, 0x93, 0xbd, 0x3d, 0x9d, 0x30, 0xbe, 0x2c, 0x06, 0xcd, 0x3d, 
  0x56, 0x31, 0x6c, 0x3e, 0x68, 0x4c, 0x98, 0xbe, 0xc0, 0xf6, 0x5b, 0xbe, 
  0x10, 0x98, 0xf6, 0x3d, 0x1c, 0x7d, 0x96, 0x3d, 0xe7, 0x10, 0x05, 0xbe, 
  0x4e, 0xeb, 0x78, 0x3e, 0x76, 0x70, 0x79, 0xbe, 0xa0, 0x1a, 0x4c, 0x3c, 
  0x4f, 0x33, 0x8c, 0x3e, 0xe0, 0xe7, 0x08, 0xbc, 0xe0, 0x4a, 0x26, 0x3c, 
  0x90, 0xb8, 0x99, 0xbc, 0x31, 0xba, 0x02, 0xbe, 0xf0, 0x1c, 0x9b, 0xbe, 
  0x20, 0x67, 0xe5, 0x3d, 0xe8, 0x18, 0xed, 0xbd, 0xe4, 0x12, 0x9c, 0x3d, 
  0x76, 0x09, 0xc5, 0xbd, 0x04, 0x59, 0x02, 0x3e, 0x78, 0x0e, 0xa5, 0xbd, 
  0x23, 0xdd, 0x80, 0x3e, 0x14, 0x0e, 0x04, 0x3e, 0x80, 0x30, 0xee, 0xbc, 
  0x20, 0xe4, 0x59, 0xbc, 0x50, 0xfe, 0x33, 0x3e, 0x98, 0xf1, 0x02, 0x3e, 
  0x88, 0x99, 0x69, 0xbd, 0xaf, 0xa9, 0x8b, 0x3e, 0x72, 0x2e, 0x40, 0xbe, 
  0x5a, 0x10, 0x6f, 0x3e, 0x64, 0x18, 0x30, 0x3e, 0x80, 0x7c, 0xa9, 0x3d, 
  0x52, 0xe0, 0x29, 0x3e, 0x58, 0x87, 0x0f, 0x3d, 0x60, 0x29, 0x36, 0xbd, 
  0xcc, 0x18, 0x57, 0xbe, 0x80, 0x37, 0x78, 0x3b, 0xce, 0x46, 0x8d, 0xbe, 
  0x92, 0xc4, 0xa1, 0xbd, 0x20, 0x83, 0x01, 0xbc, 0xe5, 0xcd, 0x63, 0xbe, 
  0xa6, 0x05, 0x2f, 0x3e, 0x82, 0x3a, 0xbf, 0xbd, 0xce, 0x45, 0x78, 0x3e, 
  0xbb, 0x55, 0x91, 0xbe, 0x60, 0x10, 0x7e, 0x3c, 0xd4, 0x01, 0x2c, 0xbe, 
  0x40, 0x23, 0x74, 0xbe, 0xcc, 0x3a, 0x9b, 0x3d, 0x6c, 0x89, 0x20, 0x3e, 
  0x55, 0x09, 0x91, 0x3e, 0x00, 0x0d, 0x2a, 0x3c, 0x65, 0x8f, 0x86, 0x3e, 
  0x1b, 0xfb, 0x19, 0xbe, 0x30, 0xb5, 0x03, 0x3e, 0x78, 0x6a, 0x15, 0xbd, 
  0x20, 0x46, 0xc1, 0x3d, 0x46, 0x48, 0x75, 0x3e, 0xce, 0xf7, 0x6e, 0x3e, 
  0x86, 0xe1, 0x0e, 0x3e, 0x7c, 0x5b, 0x4d, 0xbe, 0x41, 0x20, 0x95, 0x3e, 
  0xb2, 0x4f, 0x6b, 0x3e, 0xba, 0x46, 0x74, 0xbe, 0x9c, 0xd5, 0x07, 0xbe, 
  0xe3, 0x4a, 0x1e, 0xbe, 0xa8, 0x68, 0xfb, 0x3d, 0xc8, 0xdc, 0x57, 0xbd, 
  0x22, 0xa0, 0x62, 0x3e, 0xfc, 0x0d, 0xa7, 0x3d, 0x1c, 0x73, 0x98, 0xbd, 
  0x88, 0x25, 0x7e, 0xbe, 0x20, 0x3e, 0x43, 0xbc, 0xac, 0x6e, 0x69, 0xbd, 
  0x6c, 0xc1, 0x95, 0x3d, 0x6c, 0xde, 0x9b, 0x3d, 0x0a, 0xeb, 0x55, 0x3e, 
  0xc0, 0x94, 0x14, 0xbd, 0x40, 0x75, 0x33, 0x3d, 0xb0, 0x05, 0x20, 0xbe, 
  0x30, 0x05, 0x0b, 0xbd, 0x35, 0x14, 0x95, 0x3e, 0x2e, 0xef, 0x54, 0x3e, 
  0x00, 0x03, 0x24, 0x3d, 0x06, 0x8e, 0x49, 0xbe, 0x48, 0x9b, 0x6d, 0xbe, 
  0xba, 0xd8, 0xd2, 0xbd, 0x19, 0xa9, 0x8c, 0xbe, 0x1a, 0x7c, 0xe1, 0xbd, 
  0x9b, 0x36, 0x81, 0x3e, 0xa7, 0x17, 0x98, 0x3e, 0x7e, 0x79, 0x6e, 0x3e, 
  0x40, 0x1b, 0x94, 0xbe, 0xb7, 0xf5, 0x5d, 0xbe, 0x8e, 0xeb, 0x96, 0xbe, 
  0x5a, 0xcb, 0x4a, 0x3e, 0x40, 0x97, 0x3e, 0x3d, 0x80, 0x6d, 0x5b, 0x3c, 
  0x88, 0xcc, 0x32, 0xbd, 0x00, 0x0d, 0xbc, 0xbb, 0xd0, 0x85, 0xa8, 0x3c, 
  0x8b, 0xde, 0x87, 0x3e, 0xbc, 0x32, 0xf8, 0xbd, 0x6c, 0x84, 0xcc, 0x3d, 
  0x82, 0xff, 0x4b, 0x3e, 0xaa, 0x87, 0x52, 0xbe, 0xaa, 0xe5, 0x18, 0x3e, 
  0x16, 0x2d, 0x7a, 0x3e, 0x1a, 0x70, 0x55, 0xbe, 0x08, 0xa8, 0x30, 0x3e, 
  0x9b, 0xc0, 0x95, 0x3e, 0xcc, 0x44, 0x5b, 0xbe, 0x58, 0x5d, 0x47, 0xbd, 
  0x2e, 0x0e, 0x81, 0xbd, 0x0c, 0xba, 0xb5, 0xbd, 0xc8, 0x20, 0xcd, 0x3d, 
  0xac, 0x31, 0xc3, 0x3d, 0x40, 0x18, 0x1f, 0x3c, 0xd1, 0x48, 0x5f, 0xbe, 
  0xa2, 0xa9, 0x87, 0xbd, 0x39, 0xa6, 0x97, 0xbe, 0x4e, 0x95, 0xc4, 0xbd, 
  0xf2, 0xbd, 0x23, 0xbe, 0x00, 0x9c, 0x22, 0xbd, 0x7e, 0xa3, 0x8f, 0xbe, 
  0x4a, 0xe2, 0xba, 0xbd, 0x84, 0x13, 0x4d, 0xbe, 0x02, 0x54, 0x23, 0xbe, 
  0x50, 0x32, 0x2c, 0x3d, 0xf2, 0x82, 0xc9, 0xbd, 0xe2, 0x6a, 0x7b, 0x3e, 
  0xa5, 0xca, 0x91, 0x3e, 0xf0, 0x71, 0xa9, 0x3d, 0xdb, 0x58, 0x81, 0x3e, 
  0xe8, 0x2c, 0x5a, 0xbe, 0xf7, 0x37, 0x2a, 0xbe, 0xc0, 0x35, 0xe0, 0x3d, 
  0x73, 0xac, 0x96, 0x3e, 0x90, 0x60, 0x24, 0xbd, 0xb4, 0x5e, 0xd9, 0x3d, 
  0x9c, 0x88, 0x96, 0xbe, 0xa2, 0xe4, 0x92, 0xbe, 0x31, 0x34, 0x81, 0x3e, 
  0x2c, 0xc0, 0xeb, 0x3d, 0x58, 0xba, 0x16, 0xbd, 0xf8, 0xc2, 0x37, 0xbe, 
  0x40, 0x6f, 0x8d, 0x3b, 0x5a, 0x0e, 0x8b, 0xbe, 0x7c, 0x15, 0x1f, 0x3e, 
  0xd8, 0xf3, 0xa2, 0x3d, 0x2a, 0xfc, 0x92, 0xbe, 0x94, 0xd5, 0xa2, 0x3d, 
  0xe0, 0x70, 0xe3, 0x3d, 0x30, 0xaf, 0x16, 0x3d, 0xef, 0x50, 0x05, 0xbe, 
  0xf2, 0xd0, 0x06, 0x3e, 0xb8, 0x4a, 0x60, 0xbd, 0x9d, 0x17, 0x96, 0x3e, 
  0x40, 0xbd, 0x17, 0xbd, 0x40, 0x57, 0xe5, 0x3b, 0x78, 0xe9, 0xc0, 0x3d, 
  0x8b, 0x38, 0x1d, 0xbe, 0xf1, 0xe0, 0x90, 0xbe, 0x06, 0x3d, 0xd9, 0xbd, 
  0x6b, 0x44, 0x80, 0x3e, 0x12, 0x53, 0x8c, 0xbd, 0x67, 0x94, 0x95, 0x3e, 
  0x2e, 0xcf, 0x5e, 0x3e, 0x2a, 0xdf, 0x62, 0xbe, 0x8e, 0x70, 0x73, 0x3e, 
  0x60, 0xe2, 0x17, 0x3d, 0x02, 0xef, 0x82, 0xbd, 0x4a, 0xc9, 0x15, 0x3e, 
  0x00, 0x82, 0xec, 0x3b, 0x02, 0xe6, 0x82, 0xbe, 0x99, 0x48, 0x9a, 0x3e, 
  0x82, 0x07, 0x7d, 0x3e, 0x80, 0x09, 0x05, 0x3b, 0x00, 0xb2, 0x17, 0xbb, 
  0xcd, 0xbf, 0x81, 0x3e, 0xa1, 0x47, 0x44, 0xbe, 0x06, 0x62, 0x1c, 0xbe, 
  0x18, 0x58, 0x61, 0xbd, 0x2b, 0xfa, 0x84, 0x3e, 0x3e, 0xd4, 0x8f, 0xbe, 
  0xf0, 0xb7, 0xb6, 0x3c, 0x35, 0x84, 0x80, 0xbe, 0x47, 0xdc, 0x51, 0xbe, 
  0x70, 0x4e, 0x19, 0x3e, 0xb0, 0xfa, 0xcf, 0xbd, 0x3c, 0x99, 0xc6, 0x3d, 
  0xe0, 0x47, 0xfb, 0x3c, 0x03, 0x3a, 0x8c, 0x3e, 0xf9, 0x27, 0x99, 0x3e, 
  0x9b, 0xc8, 0x97, 0x3e, 0x37, 0x38, 0x9c, 0x3e, 0x64, 0x32, 0xc3, 0x3d, 
  0x9d, 0x8e, 0x91, 0x3e, 0xba, 0x0c, 0xdd, 0xbd, 0x4a, 0xfe, 0xb1, 0xbd, 
  0xde, 0xc4, 0x75, 0x3e, 0x3d, 0xcc, 0x96, 0xbe, 0x00, 0x51, 0xd3, 0xbc, 
  0x84, 0x3d, 0xc5, 0xbd, 0x20, 0x0f, 0x2e, 0x3d, 0x5a, 0x30, 0x00, 0x3e, 
  0xea, 0xbe, 0xe7, 0xbd, 0xf2, 0x83, 0x69, 0x3e, 0x3f, 0xa9, 0x97, 0xbe, 
  0x80, 0x83, 0x30, 0xbd, 0xc0, 0x94, 0x81, 0x3b, 0x54, 0x94, 0x40, 0xbe, 
  0x36, 0x25, 0x73, 0xbe, 0xe6, 0x87, 0xa8, 0xbd, 0x30, 0xdc, 0x5f, 0xbd, 
  0x4e, 0x71, 0x19, 0x3e, 0xc4, 0x56, 0x2d, 0x3e, 0x14, 0x8c, 0xf6, 0xbd, 
  0x42, 0x57, 0xe2, 0xbd, 0xb8, 0x7b, 0x7e, 0x3d, 0xb2, 0xf4, 0xe4, 0xbd, 
  0xcd, 0x36, 0x81, 0xbe, 0xbd, 0xd9, 0x2d, 0xbe, 0x80, 0xee, 0xd4, 0x3c, 
  0x16, 0xc5, 0x27, 0x3e, 0xb4, 0xbc, 0x97, 0x3d, 0x0a, 0x8b, 0x26, 0x3e, 
  0xe0, 0x9e, 0x64, 0x3c, 0x8f, 0x44, 0x2a, 0xbe, 0x6e, 0x5d, 0x46, 0x3e, 
  0xfa, 0xda, 0x48, 0x3e, 0xf8, 0x17, 0x7b, 0x3d, 0x19, 0x60, 0x64, 0xbe, 
  0x15, 0x45, 0x8e, 0x3e, 0xf8, 0xfa, 0x5c, 0x3d, 0x12, 0x46, 0x4c, 0x3e, 
  0x38, 0x67, 0x29, 0x3d, 0x71, 0xec, 0x93, 0xbe, 0x84, 0xd0, 0xd7, 0x3d, 
  0x5a, 0x8d, 0xf3, 0xbd, 0xe0, 0x2f, 0x1f, 0x3e, 0x90, 0xbf, 0x95, 0x3c, 
  0xce, 0x69, 0x27, 0x3e, 0x52, 0x0f, 0x51, 0x3e, 0x1e, 0xb0, 0x63, 0xbe, 
  0x40, 0xe3, 0xd7, 0x3b, 0xc8, 0xbc, 0x11, 0x3d, 0x76, 0x15, 0x41, 0x3e, 
  0x60, 0x81, 0xd9, 0x3d, 0xe4, 0x5a, 0x36, 0x3e, 0xa0, 0x5f, 0x6c, 0xbc, 
  0xc0, 0xeb, 0x07, 0xbe, 0xda, 0xf7, 0x82, 0xbd, 0xee, 0x13, 0x5a, 0xbe, 
  0x76, 0xf5, 0x4a, 0x3e, 0x21, 0xcd, 0x9a, 0xbe, 0x50, 0xc4, 0x29, 0x3d, 
  0xde, 0x11, 0x34, 0xbe, 0x8a, 0xa2, 0x4b, 0x3e, 0x60, 0x11, 0xaf, 0xbc, 
  0xdc, 0x07, 0x8c, 0xbd, 0xb0, 0x66, 0xd4, 0x3d, 0x86, 0x4a, 0x88, 0xbe, 
  0x33, 0x67, 0x0a, 0xbe, 0xde, 0xc2, 0x79, 0x3e, 0x03, 0xb1, 0x0e, 0xbe, 
  0xc3, 0x38, 0x97, 0xbe, 0x8a, 0x4c, 0x04, 0xbe, 0x54, 0xf0, 0x5c, 0xbe, 
  0x30, 0x4f, 0x1b, 0x3d, 0x52, 0xff, 0x52, 0x3e, 0x80, 0x92, 0xce, 0x3c, 
  0xae, 0xe9, 0xf8, 0xbd, 0xa2, 0xa6, 0x6e, 0x3e, 0x17, 0x71, 0x94, 0x3e, 
  0x10, 0x32, 0xa5, 0x3d, 0x02, 0x56, 0x41, 0x3e, 0xcc, 0xea, 0x00, 0x3e, 
  0x1e, 0x16, 0x23, 0x3e, 0xc3, 0xd5, 0x85, 0xbe, 0xce, 0x05, 0x9c, 0xbd, 
  0x18, 0x07, 0x00, 0xbe, 0x9e, 0x9c, 0x84, 0xbe, 0x7e, 0xe4, 0x96, 0xbd, 
  0x10, 0x20, 0xe9, 0x3d, 0xec, 0xb1, 0x2a, 0x3e, 0xe0, 0x22, 0xd5, 0xbc, 
  0x10, 0x6a, 0x26, 0xbd, 0xd1, 0xe2, 0x8f, 0x3e, 0xd8, 0x12, 0x25, 0xbd, 
  0x80, 0xc7, 0x52, 0xbd, 0x4f, 0xb1, 0x0f, 0xbe, 0xa5, 0x64, 0x87, 0xbe, 
  0x00, 0xad, 0xb3, 0x3a, 0x1a, 0x29, 0x4f, 0xbe, 0xe8, 0x33, 0x5b, 0x3d, 
  0x68, 0xa4, 0xec, 0x3d, 0x26, 0x41, 0x7e, 0x3e, 0x10, 0xfa, 0x24, 0x3e, 
  0x2b, 0x38, 0x80, 0x3e, 0x50, 0x00, 0x2f, 0xbd, 0xc2, 0xce, 0x05, 0x3e, 
  0x93, 0x82, 0x8d, 0x3e, 0x28, 0x67, 0xeb, 0xbd, 0x96, 0x3f, 0x6a, 0xbe, 
  0x5e, 0x27, 0xd2, 0xbd, 0xc0, 0x93, 0x9c, 0x3c, 0x9b, 0x33, 0x36, 0xbe, 
  0x4f, 0xbb, 0x57, 0xbe, 0x28, 0x31, 0xec, 0x3d, 0x0c, 0x9c, 0x41, 0x3e, 
  0xa2, 0x0d, 0x3b, 0x3e, 0xf0, 0x4f, 0xd7, 0x3c, 0x42, 0x6f, 0x7e, 0x3e, 
  0x1c, 0x44, 0x98, 0xbd, 0xc8, 0xbd, 0x29, 0x3d, 0x7d, 0xd7, 0x13, 0xbe, 
  0x30, 0x98, 0x50, 0x3d, 0x6e, 0xd9, 0xd7, 0xbd, 0x78, 0x10, 0x5d, 0xbd, 
  0xea, 0x59, 0x45, 0x3e, 0xd8, 0xab, 0x88, 0xbe, 0xc0, 0xd0, 0x1a, 0x3d, 
  0xaf, 0x94, 0x8f, 0x3e, 0x8e, 0x77, 0x6b, 0xbe, 0x80, 0xdb, 0x04, 0xbc, 
  0x78, 0x22, 0xb7, 0x3d, 0xf2, 0x15, 0xba, 0xbd, 0x78, 0x09, 0xf4, 0x3d, 
  0x61, 0x1a, 0x96, 0x3e, 0x8b, 0xb7, 0x94, 0x3e, 0xac, 0xd5, 0xa1, 0x3d, 
  0x34, 0x55, 0xa6, 0xbd, 0xd5, 0xc9, 0x0c, 0xbe, 0x92, 0x67, 0x48, 0xbe, 
  0x61, 0x12, 0x22, 0xbe, 0x50, 0xe5, 0x2b, 0x3d, 0xc4, 0xa1, 0xfc, 0xbd, 
  0xf0, 0x6b, 0xb5, 0x3d, 0xa7, 0xda, 0x6e, 0xbe, 0x68, 0xc8, 0xfa, 0x3d, 
  0x10, 0x84, 0x27, 0xbd, 0x12, 0xdc, 0x4e, 0x3e, 0x64, 0x10, 0x2e, 0x3e, 
  0xaa, 0x51, 0x66, 0x3e, 0x5c, 0x6e, 0xa7, 0x3d, 0xef, 0x85, 0x89, 0xbe, 
  0xc0, 0x48, 0x83, 0xbb, 0xb8, 0xc0, 0xc9, 0x3d, 0x90, 0x5a, 0xa9, 0xbc, 
  0xe7, 0x52, 0x81, 0x3e, 0xda, 0xe5, 0xaf, 0xbd, 0x00, 0x1f, 0x57, 0xbc, 
  0x6c, 0x0b, 0x81, 0x3d, 0x2e, 0x84, 0x50, 0x3e, 0x90, 0xe9, 0xa9, 0x3c, 
  0xca, 0xf4, 0x47, 0xbe, 0xfe, 0x81, 0x1d, 0x3e, 0xff, 0xd1, 0x90, 0xbe, 
  0x42, 0x63, 0x76, 0x3e, 0xca, 0x0e, 0x70, 0xbe, 0x2a, 0xe3, 0x15, 0x3e, 
  0xeb, 0x64, 0x15, 0xbe, 0x74, 0x03, 0x2e, 0x3e, 0x65, 0xb7, 0x8d, 0x3e, 
  0xf9, 0x4f, 0x8d, 0x3e, 0xe7, 0xe6, 0x8e, 0x3e, 0xb0, 0xc6, 0x97, 0xbe, 
  0xa8, 0x29, 0x1c, 0xbd, 0xb8, 0xd4, 0x82, 0xbd, 0xf0, 0xc0, 0x18, 0x3e, 
  0x70, 0x29, 0x99, 0x3c, 0xb8, 0x9f, 0x5c, 0xbd, 0x6b, 0xa7, 0x90, 0x3e, 
  0x88, 0x8f, 0x66, 0x3d, 0x68, 0x01, 0x16, 0xbd, 0x94, 0x70, 0x1b, 0x3e, 
  0xb6, 0x11, 0x32, 0x3e, 0x0e, 0xa1, 0x61, 0xbe, 0x00, 0xa2, 0x77, 0x3b, 
  0xe0, 0xb0, 0xd1, 0x3d, 0x81, 0xd2, 0x97, 0xbe, 0x36, 0xd5, 0x11, 0x3e, 
  0x7e, 0x35, 0x72, 0x3e, 0xf2, 0xce, 0x4c, 0xbe, 0xa7, 0x2f, 0x90, 0x3e, 
  0xa0, 0x3c, 0x48, 0xbe, 0x61, 0x90, 0x99, 0xbe, 0x20, 0xe6, 0x80, 0x3c, 
  0x82, 0xb0, 0x64, 0x3e, 0xd7, 0x09, 0x82, 0xbe, 0xe0, 0x5f, 0xe7, 0x3d, 
  0x00, 0x02, 0x95, 0xbe, 0x16, 0xd4, 0x78, 0x3e, 0x1d, 0x15, 0x39, 0xbe, 
  0x56, 0xb8, 0x52, 0x3e, 0xf4, 0x8c, 0x4d, 0xbe, 0xfa, 0x42, 0x23, 0x3e, 
  0xfb, 0xa6, 0x02, 0xbe, 0xab, 0x1a, 0x13, 0xbe, 0x24, 0xe6, 0x22, 0x3e, 
  0xf6, 0xc9, 0x4f, 0x3e, 0xcc, 0x07, 0x6f, 0xbe, 0x3c, 0x0e, 0x71, 0xbd, 
  0xa8, 0x24, 0x82, 0x3d, 0x3a, 0xe3, 0x29, 0xbe, 0xaa, 0xa0, 0x53, 0x3e, 
  0x5c, 0x4c, 0x81, 0xbe, 0x28, 0x56, 0x44, 0x3e, 0x90, 0x51, 0xa3, 0xbc, 
  0xf0, 0xc6, 0x96, 0xbc, 0x58, 0xf2, 0x27, 0xbe, 0xc3, 0x8e, 0x2d, 0xbe, 
  0xe8, 0x27, 0x26, 0xbe, 0x60, 0x9b, 0xc2, 0x3d, 0x32, 0xed, 0x61, 0x3e, 
  0x74, 0x34, 0x16, 0xbe, 0xc0, 0xaa, 0x7b, 0x3c, 0x7c, 0xc3, 0x07, 0x3e, 
  0xe6, 0x52, 0x29, 0x3e, 0xba, 0xf3, 0x4a, 0x3e, 0x06, 0xf5, 0xe6, 0xbd, 
  0xd8, 0x85, 0x36, 0x3d, 0x42, 0x22, 0x4c, 0xbe, 0x29, 0xa6, 0x55, 0xbe, 
  0x70, 0x46, 0xc7, 0x3c, 0xb6, 0x34, 0x93, 0xbd, 0x00, 0x6b, 0x1c, 0xbb, 
  0x6e, 0xb7, 0x05, 0x3e, 0x50, 0x50, 0x53, 0xbe, 0x1d, 0xb0, 0x87, 0x3e, 
  0x3e, 0x3b, 0x32, 0x3e, 0x00, 0xc0, 0xf3, 0x38, 0xf0, 0x3c, 0xc5, 0x3d, 
  0xf3, 0x2e, 0x9c, 0x3e, 0xf9, 0x10, 0x90, 0x3e, 0x60, 0x4b, 0xf0, 0xbd, 
  0x47, 0xfc, 0x29, 0xbe, 0x5a, 0xf5, 0xa3, 0xbd, 0x39, 0x5d, 0x8d, 0x3e, 
  0x5e, 0x2e, 0x46, 0x3e, 0xed, 0xda, 0x87, 0x3e, 0x1e, 0xcd, 0x47, 0x3e, 
  0xc7, 0x73, 0x91, 0xbe, 0x6a, 0x3c, 0x4c, 0x3e, 0xfb, 0xbd, 0x19, 0xbe, 
  0x4e, 0xde, 0x80, 0xbe, 0x1e, 0x90, 0x5b, 0xbe, 0x10, 0xa1, 0x8f, 0xbe, 
  0x50, 0x55, 0xc7, 0x3c, 0x7c, 0x18, 0x28, 0x3e, 0x32, 0x00, 0x60, 0x3e, 
  0x9d, 0x5e, 0x9c, 0x3e, 0x92, 0x8a, 0xc2, 0xbd, 0x7a, 0xc5, 0x8c, 0xbe, 
  0x28, 0x69, 0x3e, 0x3d, 0xef, 0x37, 0x89, 0x3e, 0xb0, 0x2a, 0x7a, 0x3d, 
  0x0e, 0x6a, 0x10, 0xbe, 0x6e, 0x8c, 0x63, 0xbe, 0xa4, 0x1b, 0xe7, 0x3d, 
  0xd1, 0x89, 0x99, 0xbe, 0x80, 0xd2, 0x96, 0x3d, 0xf6, 0x46, 0x03, 0xbe, 
  0x74, 0x2b, 0x93, 0x3d, 0xb0, 0xbc, 0x1c, 0x3e, 0x12, 0x17, 0x41, 0x3e, 
  0xc8, 0x29, 0xdd, 0x3d, 0x80, 0x52, 0x12, 0xbc, 0x18, 0x4f, 0x80, 0xbe, 
  0xce, 0x43, 0x35, 0xbe, 0x00, 0xf6, 0xd6, 0xba, 0x3d, 0xa5, 0x4b, 0xbe, 
  0x40, 0x7f, 0x0b, 0x3d, 0x6c, 0x89, 0x44, 0xbe, 0x47, 0x0f, 0x6b, 0xbe, 
  0x94, 0xed, 0xba, 0xbd, 0x20, 0x9d, 0x00, 0x3c, 0x40, 0xf4, 0x70, 0xbc, 
  0xb2, 0x1a, 0x95, 0xbe, 0xd8, 0xf7, 0x0f, 0x3e, 0x44, 0x66, 0x21, 0x3e, 
  0xc7, 0xb1, 0x86, 0x3e, 0x30, 0x5b, 0x44, 0x3e, 0x18, 0xe7, 0xdf, 0x3d, 
  0x78, 0xad, 0x65, 0x3d, 0x68, 0x7b, 0x2c, 0x3e, 0xef, 0xf0, 0x37, 0xbe, 
  0x5b, 0xa2, 0x9b, 0x3e, 0x08, 0xa6, 0xf2, 0x3d, 0x62, 0x45, 0x66, 0x3e, 
  0xc0, 0xd7, 0x5b, 0xbc, 0x79, 0x1f, 0x90, 0x3e, 0xe2, 0x63, 0x43, 0x3e, 
  0x63, 0x47, 0x84, 0x3e, 0x20, 0x16, 0x73, 0xbd, 0xec, 0xf8, 0x2e, 0x3e, 
  0x50, 0x8c, 0x95, 0x3c, 0xb6, 0x2a, 0x4f, 0x3e, 0x60, 0xaa, 0x98, 0x3d, 
  0x9e, 0xba, 0x6c, 0x3e, 0x3e, 0x11, 0x95, 0xbe, 0x1e, 0xf8, 0x17, 0xbe, 
  0xee, 0xe2, 0x6b, 0x3e, 0xe8, 0x25, 0x2c, 0x3d, 0xd0, 0x31, 0xaf, 0xbd, 
  0x10, 0xa7, 0xbb, 0x3c, 0x32, 0xed, 0x57, 0xbe, 0xf2, 0x87, 0x51, 0xbe, 
  0x8e, 0x21, 0x41, 0xbe, 0x1e, 0xb8, 0x63, 0x3e, 0xa5, 0x89, 0x4d, 0xbe, 
  0xfa, 0xea, 0x12, 0x3e, 0xa6, 0x76, 0xe7, 0xbd, 0xc6, 0x17, 0xb1, 0xbd, 
  0x3e, 0x8a, 0x8e, 0xbd, 0x36, 0xed, 0xb8, 0xbd, 0x3a, 0xa4, 0x7c, 0x3e, 
  0xb6, 0x41, 0x84, 0xbe, 0x0a, 0x73, 0xf5, 0xbd, 0xf2, 0x24, 0x36, 0x3e, 
  0x06, 0x48, 0x6c, 0x3e, 0x00, 0x86, 0x2a, 0x3a, 0x2e, 0xa6, 0x8e, 0xbe, 
  0xe2, 0xd8, 0x66, 0x3e, 0x36, 0x2f, 0x7a, 0x3e, 0x07, 0xb6, 0x94, 0x3e, 
  0xac, 0xa4, 0x01, 0x3e, 0xc4, 0xb4, 0x72, 0xbe, 0xf0, 0xb3, 0xc2, 0x3d, 
  0x3c, 0x15, 0xea, 0xbd, 0x1a, 0xd4, 0x8f, 0xbe, 0xe7, 0x58, 0x98, 0x3e, 
  0xda, 0x62, 0x60, 0xbe, 0x55, 0x43, 0x91, 0xbe, 0x95, 0xc7, 0x80, 0x3e, 
  0x70, 0x45, 0x8b, 0x3d, 0xd4, 0x23, 0x22, 0x3e, 0xd2, 0x96, 0x5e, 0x3e, 
  0x17, 0x74, 0x6d, 0xbe, 0x58, 0x7e, 0x5c, 0x3d, 0x80, 0xe6, 0xa5, 0xbc, 
  0x40, 0x78, 0xea, 0x3b, 0x78, 0x88, 0x7c, 0xbe, 0xb4, 0xbe, 0x0b, 0xbe, 
  0xa3, 0xcf, 0x4c, 0xbe, 0xd0, 0x2a, 0xf6, 0xbc, 0xa7, 0x34, 0x6d, 0xbe, 
  0x66, 0xb9, 0x7e, 0xbe, 0x88, 0x66, 0x26, 0xbd, 0xb2, 0x56, 0x09, 0x3e, 
  0xcc, 0x98, 0x1b, 0x3e, 0x4b, 0xfb, 0x0f, 0xbe, 0x90, 0x38, 0xdc, 0x3c, 
  0x32, 0xd0, 0x61, 0x3e, 0x7c, 0x50, 0xcb, 0xbd, 0x4a, 0xd5, 0x13, 0xbe, 
  0xb0, 0x9b, 0x95, 0xbd, 0x8b, 0xdc, 0x9b, 0x3e, 0x2c, 0x92, 0x09, 0x3e, 
  0xbe, 0xbd, 0x74, 0x3e, 0xea, 0x1f, 0x13, 0x3e, 0x09, 0xa1, 0x5d, 0xbe, 
  0x83, 0x42, 0x92, 0x3e, 0x38, 0x68, 0x14, 0x3e, 0x7c, 0xb3, 0x98, 0xbd, 
  0x18, 0x35, 0x8b, 0x3d, 0xdf, 0x18, 0x17, 0xbe, 0xde, 0xb4, 0xa8, 0xbd, 
  0x9b, 0x13, 0x8c, 0x3e, 0xb7, 0x2e, 0x33, 0xbe, 0xf7, 0xa2, 0x08, 0xbe, 
  0x6c, 0x0f, 0x92, 0x3d, 0x5d, 0x94, 0x8e, 0xbe, 0x1e, 0x59, 0x49, 0x3e, 
  0x00, 0x11, 0xc2, 0xbc, 0xff, 0xc7, 0x8e, 0xbe, 0xd8, 0xfe, 0x70, 0xbd, 
  0xd8, 0x9a, 0x3b, 0xbe, 0xd5, 0xfc, 0x96, 0x3e, 0x5d, 0x35, 0x2c, 0xbe, 
  0xf0, 0xbb, 0xca, 0x3d, 0x80, 0x5f, 0xd4, 0xbc, 0x2e, 0x7f, 0x6a, 0x3e, 
  0xd6, 0xc3, 0x91, 0xbd, 0x74, 0x2d, 0x35, 0xbe, 0xa0, 0xfe, 0xad, 0x3c, 
  0x83, 0x4e, 0x82, 0xbe, 0x10, 0xb1, 0xa0, 0xbc, 0x27, 0x24, 0x1e, 0xbe, 
  0x73, 0x11, 0x86, 0x3e, 0x12, 0x70, 0x22, 0xbe, 0xfc, 0x0b, 0x26, 0x3e, 
  0xa8, 0x78, 0x1f, 0x3d, 0xc9, 0x5f, 0x07, 0xbe, 0x7d, 0xf9, 0x1e, 0xbe, 
  0xa9, 0x26, 0x09, 0xbe, 0x45, 0x6e, 0x33, 0xbe, 0xb0, 0xbc, 0xe3, 0xbd, 
  0xc0, 0x51, 0xc4, 0xbd, 0x74, 0xec, 0x2f, 0xbe, 0x94, 0xf9, 0x8a, 0x3d, 
  0x5c, 0xed, 0x1c, 0x3e, 0xb4, 0xeb, 0x9b, 0xbd, 0x92, 0x2e, 0x02, 0xbe, 
  0x01, 0x60, 0x88, 0xbe, 0x8e, 0x09, 0x5e, 0x3e, 0x7f, 0x78, 0x92, 0x3e, 
  0x48, 0xaa, 0x67, 0xbd, 0xf6, 0x4c, 0x34, 0x3e, 0x75, 0xe7, 0x92, 0xbe, 
  0x3c, 0xfc, 0xe8, 0xbd, 0x20, 0x23, 0x8d, 0xbd, 0x1f, 0x36, 0x99, 0x3e, 
  0xf2, 0xd4, 0xc3, 0xbd, 0x64, 0x87, 0x98, 0x3d, 0x0e, 0x67, 0x53, 0x3e, 
  0x64, 0x84, 0x65, 0xbe, 0x40, 0x69, 0x05, 0x3d, 0x18, 0xce, 0x17, 0x3e, 
  0x30, 0x63, 0x40, 0x3e, 0xfc, 0xe6, 0x07, 0xbe, 0x71, 0x4f, 0x87, 0x3e, 
  0x40, 0xa9, 0xd4, 0xbd, 0x1b, 0xe2, 0x8d, 0xbe, 0x94, 0xb3, 0x0e, 0x3e, 
  0x40, 0xd8, 0x55, 0x3c, 0xe8, 0xac, 0x69, 0x3d, 0x0d, 0x14, 0x8e, 0x3e, 
  0xe8, 0x59, 0x35, 0xbe, 0x60, 0xdb, 0xc4, 0x3d, 0x78, 0x9f, 0x70, 0x3d, 
  0x86, 0xca, 0xec, 0xbd, 0x5a, 0xa0, 0x01, 0x3e, 0xd3, 0xe5, 0x62, 0xbe, 
  0x00, 0x03, 0x24, 0xbd, 0xb8, 0x28, 0x0c, 0xbe, 0x9f, 0x8d, 0x84, 0x3e, 
  0xde, 0xe4, 0x5b, 0x3e, 0x34, 0x48, 0xaf, 0x3d, 0x54, 0x1d, 0x95, 0xbe, 
  0x7b, 0x8c, 0x89, 0x3e, 0x3a, 0xa0, 0x66, 0x3e, 0x31, 0xb8, 0x82, 0x3e, 
  0x56, 0xc6, 0x4e, 0xbe, 0xe0, 0xf4, 0x2d, 0x3e, 0xc4, 0xed, 0xba, 0x3d, 
  0xc2, 0x60, 0x96, 0xbe, 0xc8, 0x70, 0x5d, 0x3d, 0x52, 0x27, 0x1f, 0x3e, 
  0x08, 0x10, 0x0e, 0xbd, 0x9c, 0xc6, 0xd5, 0x3d, 0x0d, 0x6a, 0x1f, 0xbe, 
  0xb0, 0x48, 0xd8, 0xbd, 0xe1, 0xc3, 0x68, 0xbe, 0x18, 0x70, 0x01, 0xbd, 
  0x62, 0xa0, 0x10, 0xbe, 0x3b, 0x88, 0x8f, 0x3e, 0x35, 0x65, 0x88, 0x3e, 
  0x6a, 0x93, 0x47, 0x3e, 0x60, 0xcd, 0x53, 0x3d, 0x80, 0x1f, 0x5d, 0xbb, 
  0x41, 0xf2, 0x89, 0x3e, 0x31, 0xf9, 0x99, 0xbe, 0xe0, 0x93, 0x9c, 0x3d, 
  0xf0, 0x19, 0x56, 0xbd, 0x70, 0xc0, 0x25, 0xbd, 0x14, 0xb8, 0x98, 0xbe, 
  0xd5, 0x2a, 0x09, 0xbe, 0x04, 0x30, 0xb7, 0xbd, 0x8a, 0xc8, 0x2a, 0x3e, 
  0x7e, 0x49, 0x69, 0x3e, 0x74, 0xa8, 0x8b, 0x3d, 0xa8, 0x70, 0xc6, 0xbd, 
  0x10, 0x23, 0x2f, 0x3e, 0xfe, 0xb3, 0x56, 0x3e, 0xc2, 0x62, 0x3a, 0x3e, 
  0x30, 0xf0, 0xa3, 0xbc, 0x6e, 0x4d, 0x82, 0xbe, 0x80, 0xda, 0x21, 0xbb, 
  0x7e, 0x8c, 0x7c, 0x3e, 0xcb, 0xe8, 0x38, 0xbe, 0x10, 0xfe, 0xe1, 0xbc, 
  0x16, 0xd7, 0x8d, 0xbd, 0xe8, 0x39, 0x16, 0xbd, 0x60, 0xb3, 0x69, 0xbe, 
  0x8c, 0x14, 0x9b, 0xbe, 0xf8, 0xa1, 0x61, 0x3d, 0xe0, 0xf9, 0xe9, 0x3d, 
  0x08, 0xb3, 0x53, 0xbd, 0x36, 0x7d, 0x53, 0x3e, 0x28, 0x84, 0x03, 0x3d, 
  0x26, 0x34, 0xb7, 0xbd, 0x88, 0x9b, 0x91, 0x3d, 0x82, 0xa1, 0x74, 0x3e, 
  0x20, 0x03, 0x61, 0x3d, 0xea, 0x40, 0x33, 0x3e, 0xf6, 0xea, 0x57, 0x3e, 
  0x00, 0xcf, 0x35, 0xbb, 0x50, 0xac, 0x07, 0x3e, 0xac, 0x47, 0x84, 0xbe, 
  0x33, 0x31, 0x3e, 0xbe, 0x22, 0x48, 0x5d, 0x3e, 0x5e, 0xb1, 0x50, 0x3e, 
  0x8a, 0xf5, 0x06, 0xbe, 0xd9, 0x0e, 0x57, 0xbe, 0xea, 0x06, 0x56, 0x3e, 
  0x37, 0xf5, 0x70, 0xbe, 0x4a, 0x3d, 0x6c, 0xbe, 0x22, 0x0b, 0x1f, 0xbe, 
  0x5f, 0xfb, 0x97, 0xbe, 0x20, 0xf7, 0xbf, 0x3d, 0x4e, 0x15, 0x35, 0xbe, 
  0x0c, 0x03, 0x1a, 0x3e, 0x33, 0x8c, 0x9b, 0xbe, 0xb0, 0x2d, 0xdb, 0x3c, 
  0xfe, 0x3a, 0x77, 0xbe, 0xb4, 0x9d, 0x2d, 0x3e, 0x90, 0x05, 0x1e, 0xbd, 
  0x00, 0x00, 0x06, 0x00, 0x08, 0x00, 0x04, 0x00, 0x06, 0x00, 0x00, 0x00, 
  0x04, 0x00, 0x00, 0x00, 0x80, 0x02, 0x00, 0x00, 0x58, 0x2e, 0x35, 0x3d, 
  0x42, 0xcf, 0x85, 0x3e, 0x00, 0xf3, 0x1b, 0x3b, 0x69, 0x77, 0x77, 0xbe, 
  0xbf, 0xb0, 0x59, 0xbe, 0xf6, 0x54, 0xc5, 0xbe, 0x34, 0x2e, 0x85, 0x3d, 
  0x68, 0x18, 0x05, 0x3d, 0x12, 0x1a, 0xae, 0x3e, 0x94, 0x8c, 0xc8, 0x3e, 
  0xf6, 0xd8, 0x8f, 0xbe, 0x0a, 0xf8, 0xb6, 0x3e, 0x80, 0x6f, 0x52, 0x3c, 
  0x90, 0xba, 0xca, 0xbe, 0x34, 0x2a, 0x25, 0xbe, 0xc0, 0x98, 0x5d, 0xbd, 
  0x78, 0x43, 0xb3, 0x3e, 0x7e, 0x9c, 0xae, 0xbe, 0x7c, 0xe9, 0xc8, 0xbd, 
  0x7c, 0xfc, 0x9d, 0x3e, 0x04, 0x8d, 0xaf, 0x3e, 0x58, 0x1e, 0xb7, 0x3e, 
  0x84, 0xdb, 0x83, 0x3e, 0xf4, 0x82, 0xf0, 0xbd, 0xfa, 0x1c, 0x87, 0xbe, 
  0x12, 0x47, 0x13, 0xbe, 0xa1, 0x20, 0x90, 0xbe, 0x00, 0x8a, 0x43, 0x3c, 
  0xa4, 0x6f, 0x89, 0x3e, 0xda, 0x7f, 0x7a, 0xbe, 0xe4, 0xd2, 0x12, 0x3e, 
  0x90, 0x28, 0xdd, 0xbd, 0x24, 0x91, 0x81, 0x3e, 0x84, 0x62, 0xb6, 0xbd, 
  0x26, 0xee, 0x12, 0xbe, 0xac, 0x5f, 0x71, 0x3e, 0x24, 0x3c, 0xd9, 0xbd, 
  0xa2, 0x20, 0xc5, 0x3e, 0x58, 0xc1, 0x80, 0x3e, 0x6c, 0xc1, 0x7b, 0x3e, 
  0x55, 0x87, 0x54, 0xbe, 0xfc, 0x16, 0x98, 0x3d, 0xc4, 0xc2, 0x9e, 0xbd, 
  0x5e, 0x3c, 0x02, 0xbe, 0x3c, 0x84, 0x99, 0xbd, 0x64, 0xc9, 0x0d, 0x3e, 
  0x04, 0xd2, 0x83, 0xbe, 0x54, 0xa5, 0x07, 0xbe, 0xeb, 0xd6, 0xbd, 0xbe, 
  0x5b, 0x7f, 0xcb, 0xbe, 0xd4, 0x01, 0x7e, 0x3e, 0x6c, 0x21, 0xbd, 0xbd, 
  0x40, 0x76, 0x82, 0xbe, 0x00, 0xb8, 0xb3, 0xbd, 0xe0, 0x3d, 0x65, 0x3e, 
  0x40, 0xf9, 0x32, 0x3c, 0x28, 0x8d, 0xcc, 0x3e, 0x4c, 0x92, 0x13, 0xbe, 
  0x42, 0x3c, 0xac, 0xbe, 0x20, 0x44, 0xe7, 0x3d, 0xba, 0x1f, 0xb6, 0x3e, 
  0xce, 0xed, 0x4b, 0xbe, 0xe0, 0x2a, 0xb0, 0x3c, 0xb0, 0x6a, 0x17, 0xbd, 
  0x28, 0x50, 0x4b, 0x3d, 0xb4, 0x03, 0x98, 0xbd, 0x24, 0x00, 0x95, 0x3d, 
  0xb4, 0xeb, 0x7a, 0x3e, 0xc4, 0x24, 0x51, 0x3e, 0xf8, 0x8d, 0xec, 0xbd, 
  0xd0, 0xe0, 0xb1, 0x3c, 0x80, 0xf3, 0x91, 0xbb, 0x58, 0xa3, 0x16, 0xbd, 
  0x20, 0x6c, 0x09, 0xbc, 0xd2, 0x79, 0xae, 0xbe, 0x6c, 0x19, 0x1b, 0x3e, 
  0xc2, 0xaa, 0xc3, 0x3e, 0x08, 0xf8, 0x0f, 0xbd, 0x34, 0x54, 0xf9, 0xbd, 
  0xf4, 0x1a, 0x95, 0x3e, 0xa8, 0xe1, 0x19, 0xbe, 0x68, 0x2e, 0x99, 0x3e, 
  0xc8, 0x8e, 0x7c, 0x3d, 0x38, 0x21, 0x01, 0xbd, 0x34, 0x51, 0xf7, 0xbd, 
  0x6c, 0x0b, 0xb9, 0xbd, 0x24, 0x6e, 0xc4, 0x3e, 0x0c, 0x8b, 0x27, 0x3e, 
  0x92, 0x43, 0xcb, 0x3e, 0xfa, 0x3e, 0xa9, 0x3e, 0xa2, 0xed, 0xaa, 0x3e, 
  0x80, 0x60, 0x2a, 0x3e, 0x58, 0xf4, 0x82, 0x3d, 0xd7, 0xcd, 0x5d, 0xbe, 
  0xd6, 0x88, 0x9a, 0xbe, 0xa2, 0x6c, 0xcc, 0x3e, 0xce, 0x37, 0xbd, 0x3e, 
  0x40, 0x21, 0xad, 0x3b, 0x80, 0x4c, 0x48, 0xbd, 0x08, 0xa8, 0xa6, 0xbd, 
  0xe8, 0x77, 0x6a, 0xbd, 0xe9, 0x5e, 0x74, 0xbe, 0x80, 0x49, 0xfa, 0xbb, 
  0x78, 0x8d, 0xef, 0x3d, 0xc0, 0xc4, 0x7f, 0x3e, 0x54, 0x35, 0x1b, 0x3e, 
  0xe4, 0x39, 0x1c, 0x3e, 0x38, 0x77, 0x81, 0xbe, 0xe8, 0x9a, 0x13, 0x3e, 
  0x5c, 0x27, 0x23, 0xbe, 0x90, 0xa0, 0x37, 0x3e, 0x90, 0xfa, 0xec, 0x3d, 
  0x8f, 0x4c, 0x8c, 0xbe, 0x00, 0x79, 0x37, 0xbc, 0xc3, 0x04, 0xb1, 0xbe, 
  0x1c, 0xe8, 0x26, 0xbe, 0x95, 0x0c, 0x7a, 0xbe, 0xfe, 0x4f, 0x9d, 0xbe, 
  0x21, 0x61, 0x44, 0xbe, 0x02, 0xc0, 0x82, 0xbe, 0x4e, 0x33, 0x87, 0xbe, 
  0x86, 0x39, 0xcc, 0x3e, 0x63, 0xc8, 0x78, 0xbe, 0x90, 0xa0, 0x10, 0x3d, 
  0x80, 0xba, 0xb6, 0xbd, 0xfe, 0xfd, 0x11, 0xbe, 0x98, 0x7c, 0x37, 0x3e, 
  0x34, 0x28, 0x9e, 0xbe, 0xa0, 0xbf, 0xc3, 0x3c, 0x93, 0xed, 0x95, 0xbe, 
  0x7a, 0x7c, 0xb1, 0xbe, 0xb2, 0x81, 0xb7, 0x3e, 0x28, 0x70, 0xa2, 0xbd, 
  0x74, 0x1f, 0x7b, 0x3e, 0x74, 0xe8, 0x47, 0x3e, 0xec, 0xb3, 0x35, 0x3e, 
  0xf0, 0xf3, 0x12, 0x3e, 0x60, 0x2e, 0x3e, 0x3d, 0xa0, 0x4d, 0xf6, 0xbd, 
  0xce, 0x89, 0x85, 0xbe, 0x4c, 0xc4, 0x49, 0x3e, 0xb1, 0xdf, 0xab, 0xbe, 
  0xe8, 0x03, 0x78, 0x3d, 0xa4, 0xbc, 0x87, 0xbd, 0x20, 0x40, 0xd1, 0x3c, 
  0x20, 0x72, 0xeb, 0x3d, 0x70, 0x3d, 0xd9, 0x3d, 0xb3, 0x33, 0xb9, 0xbe, 
  0xe0, 0xf9, 0xc4, 0xbe, 0xbc, 0xda, 0x1f, 0x3e, 0xb2, 0x07, 0xc1, 0x3e, 
  0x16, 0x1b, 0xb4, 0xbe, 0xd4, 0xf2, 0x46, 0xbe, 0xac, 0xca, 0x9f, 0xbd, 
  0x18, 0x26, 0x14, 0x3e, 0xfc, 0x31, 0xcb, 0x3e, 0x9a, 0xdd, 0x94, 0x3e, 
  0xd8, 0x44, 0x1a, 0xbe, 0xdc, 0xfb, 0x7a, 0xbe, 0x6e, 0x39, 0x8c, 0x3e, 
  0x60, 0xfb, 0xff, 0xff, 0x64, 0xfb, 0xff, 0xff, 0x0f, 0x00, 0x00, 0x00, 
  0x4d, 0x4c, 0x49, 0x52, 0x20, 0x43, 0x6f, 0x6e, 0x76, 0x65, 0x72, 0x74, 
  0x65, 0x64, 0x2e, 0x00, 0x01, 0x00, 0x00, 0x00, 0x14, 0x00, 0x00, 0x00, 
  0x00, 0x00, 0x0e, 0x00, 0x18, 0x00, 0x14, 0x00, 0x10, 0x00, 0x0c, 0x00, 
  0x08, 0x00, 0x04, 0x00, 0x0e, 0x00, 0x00, 0x00, 0x14, 0x00, 0x00, 0x00, 
  0x1c, 0x00, 0x00, 0x00, 0x08, 0x01, 0x00, 0x00, 0x0c, 0x01, 0x00, 0x00, 
  0x10, 0x01, 0x00, 0x00, 0x04, 0x00, 0x00, 0x00, 0x6d, 0x61, 0x69, 0x6e, 
  0x00, 0x00, 0x00, 0x00, 0x04, 0x00, 0x00, 0x00, 0xb0, 0x00, 0x00, 0x00, 
  0x68, 0x00, 0x00, 0x00, 0x34, 0x00, 0x00, 0x00, 0x10, 0x00, 0x00, 0x00, 
  0x00, 0x00, 0x0a, 0x00, 0x10, 0x00, 0x0c, 0x00, 0x08, 0x00, 0x04, 0x00, 
  0x0a, 0x00, 0x00, 0x00, 0x0c, 0x00, 0x00, 0x00, 0x10, 0x00, 0x00, 0x00, 
  0x01, 0x00, 0x00, 0x00, 0x01, 0x00, 0x00, 0x00, 0x07, 0x00, 0x00, 0x00, 
  0x01, 0x00, 0x00, 0x00, 0x06, 0x00, 0x00, 0x00, 0x9a, 0xff, 0xff, 0xff, 
  0x10, 0x00, 0x00, 0x00, 0x00, 0x00, 0x00, 0x08, 0x0c, 0x00, 0x00, 0x00, 
  0x10, 0x00, 0x00, 0x00, 0x0c, 0xfc, 0xff, 0xff, 0x01, 0x00, 0x00, 0x00, 
  0x06, 0x00, 0x00, 0x00, 0x03, 0x00, 0x00, 0x00, 0x05, 0x00, 0x00, 0x00, 
  0x03, 0x00, 0x00, 0x00, 0xff, 0xff, 0xff, 0xff, 0xca, 0xff, 0xff, 0xff, 
  0x10, 0x00, 0x00, 0x00, 0x00, 0x00, 0x00, 0x08, 0x10, 0x00, 0x00, 0x00, 
  0x14, 0x00, 0x00, 0x00, 0xba, 0xff, 0xff, 0xff, 0x00, 0x00, 0x00, 0x01, 
  0x01, 0x00, 0x00, 0x00, 0x05, 0x00, 0x00, 0x00, 0x03, 0x00, 0x00, 0x00, 
  0x04, 0x00, 0x00, 0x00, 0x02, 0x00, 0x00, 0x00, 0xff, 0xff, 0xff, 0xff, 
  0x00, 0x00, 0x0e, 0x00, 0x16, 0x00, 0x00, 0x00, 0x10, 0x00, 0x0c, 0x00, 
  0x0b, 0x00, 0x04, 0x00, 0x0e, 0x00, 0x00, 0x00, 0x18, 0x00, 0x00, 0x00, 
  0x00, 0x00, 0x00, 0x08, 0x18, 0x00, 0x00, 0x00, 0x1c, 0x00, 0x00, 0x00, 
  0x00, 0x00, 0x06, 0x00, 0x08, 0x00, 0x07, 0x00, 0x06, 0x00, 0x00, 0x00, 
  0x00, 0x00, 0x00, 0x01, 0x01, 0x00, 0x00, 0x00, 0x04, 0x00, 0x00, 0x00, 
  0x03, 0x00, 0x00, 0x00, 0x00, 0x00, 0x00, 0x00, 0x01, 0x00, 0x00, 0x00, 
  0xff, 0xff, 0xff, 0xff, 0x01, 0x00, 0x00, 0x00, 0x07, 0x00, 0x00, 0x00, 
  0x01, 0x00, 0x00, 0x00, 0x00, 0x00, 0x00, 0x00, 0x08, 0x00, 0x00, 0x00, 
  0x1c, 0x03, 0x00, 0x00, 0xb4, 0x02, 0x00, 0x00, 0x50, 0x02, 0x00, 0x00, 
  0x04, 0x02, 0x00, 0x00, 0x70, 0x01, 0x00, 0x00, 0xdc, 0x00, 0x00, 0x00, 
  0x60, 0x00, 0x00, 0x00, 0x04, 0x00, 0x00, 0x00, 0x1a, 0xfd, 0xff, 0xff, 
  0x00, 0x00, 0x00, 0x01, 0x14, 0x00, 0x00, 0x00, 0x1c, 0x00, 0x00, 0x00, 
  0x1c, 0x00, 0x00, 0x00, 0x08, 0x00, 0x00, 0x00, 0x34, 0x00, 0x00, 0x00, 
  0x02, 0x00, 0x00, 0x00, 0xff, 0xff, 0xff, 0xff, 0x04, 0x00, 0x00, 0x00, 
  0x04, 0xfd, 0xff, 0xff, 0x19, 0x00, 0x00, 0x00, 0x53, 0x74, 0x61, 0x74, 
  0x65, 0x66, 0x75, 0x6c, 0x50, 0x61, 0x72, 0x74, 0x69, 0x74, 0x69, 0x6f, 
  0x6e, 0x65, 0x64, 0x43, 0x61, 0x6c, 0x6c, 0x3a, 0x30, 0x00, 0x00, 0x00, 
  0x02, 0x00, 0x00, 0x00, 0x01, 0x00, 0x00, 0x00, 0x04, 0x00, 0x00, 0x00, 
  0x72, 0xfd, 0xff, 0xff, 0x00, 0x00, 0x00, 0x01, 0x14, 0x00, 0x00, 0x00, 
  0x1c, 0x00, 0x00, 0x00, 0x1c, 0x00, 0x00, 0x00, 0x07, 0x00, 0x00, 0x00, 
  0x54, 0x00, 0x00, 0x00, 0x02, 0x00, 0x00, 0x00, 0xff, 0xff, 0xff, 0xff, 
  0x04, 0x00, 0x00, 0x00, 0x5c, 0xfd, 0xff, 0xff, 0x38, 0x00, 0x00, 0x00, 
  0x65, 0x73, 0x70, 0x33, 0x32, 0x5f, 0x61, 0x63, 0x74, 0x6f, 0x72, 0x2f, 
  0x64, 0x65, 0x6e, 0x73, 0x65, 0x5f, 0x36, 0x35, 0x2f, 0x4d, 0x61, 0x74, 
  0x4d, 0x75, 0x6c, 0x3b, 0x65, 0x73, 0x70, 0x33, 0x32, 0x5f, 0x61, 0x63, 
  0x74, 0x6f, 0x72, 0x2f, 0x64, 0x65, 0x6e, 0x73, 0x65, 0x5f, 0x36, 0x35, 
  0x2f, 0x42, 0x69, 0x61, 0x73, 0x41, 0x64, 0x64, 0x00, 0x00, 0x00, 0x00, 
  0x02, 0x00, 0x00, 0x00, 0x01, 0x00, 0x00, 0x00, 0x04, 0x00, 0x00, 0x00, 
  0xea, 0xfd, 0xff, 0xff, 0x00, 0x00, 0x00, 0x01, 0x14, 0x00, 0x00, 0x00, 
  0x1c, 0x00, 0x00, 0x00, 0x1c, 0x00, 0x00, 0x00, 0x06, 0x00, 0x00, 0x00, 
  0x6c, 0x00, 0x00, 0x00, 0x02, 0x00, 0x00, 0x00, 0xff, 0xff, 0xff, 0xff, 
  0x20, 0x00, 0x00, 0x00, 0xd4, 0xfd, 0xff, 0xff, 0x52, 0x00, 0x00, 0x00, 
  0x65, 0x73, 0x70, 0x33, 0x32, 0x5f, 0x61, 0x63, 0x74, 0x6f, 0x72, 0x2f, 
  0x64, 0x65, 0x6e, 0x73, 0x65, 0x5f, 0x36, 0x34, 0x2f, 0x4d, 0x61, 0x74, 
  0x4d, 0x75, 0x6c, 0x3b, 0x65, 0x73, 0x70, 0x33, 0x32, 0x5f, 0x61, 0x63, 
  0x74, 0x6f, 0x72, 0x2f, 0x64, 0x65, 0x6e, 0x73, 0x65, 0x5f, 0x36, 0x34, 
  0x2f, 0x52, 0x65, 0x6c, 0x75, 0x3b, 0x65, 0x73, 0x70, 0x33, 0x32, 0x5f, 
  0x61, 0x63, 0x74, 0x6f, 0x72, 0x2f, 0x64, 0x65, 0x6e, 0x73, 0x65, 0x5f, 
  0x36, 0x34, 0x2f, 0x42, 0x69, 0x61, 0x73, 0x41, 0x64, 0x64, 0x00, 0x00, 
  0x02, 0x00, 0x00, 0x00, 0x01, 0x00, 0x00, 0x00, 0x20, 0x00, 0x00, 0x00, 
  0x7a, 0xfe, 0xff, 0xff, 0x00, 0x00, 0x00, 0x01, 0x14, 0x00, 0x00, 0x00, 
  0x1c, 0x00, 0x00, 0x00, 0x1c, 0x00, 0x00, 0x00, 0x05, 0x00, 0x00, 0x00, 
  0x6c, 0x00, 0x00, 0x00, 0x02, 0x00, 0x00, 0x00, 0xff, 0xff, 0xff, 0xff, 
  0x20, 0x00, 0x00, 0x00, 0x64, 0xfe, 0xff, 0xff, 0x52, 0x00, 0x00, 0x00, 
  0x65, 0x73, 0x70, 0x33, 0x32, 0x5f, 0x61, 0x63, 0x74, 0x6f, 0x72, 0x2f, 
  0x64, 0x65, 0x6e, 0x73, 0x65, 0x5f, 0x36, 0x33, 0x2f, 0x4d, 0x61, 0x74, 
  0x4d, 0x75, 0x6c, 0x3b, 0x65, 0x73, 0x70, 0x33, 0x32, 0x5f, 0x61, 0x63, 
  0x74, 0x6f, 0x72, 0x2f, 0x64, 0x65, 0x6e, 0x73, 0x65, 0x5f, 0x36, 0x33, 
  0x2f, 0x52, 0x65, 0x6c, 0x75, 0x3b, 0x65, 0x73, 0x70, 0x33, 0x32, 0x5f, 
  0x61, 0x63, 0x74, 0x6f, 0x72, 0x2f, 0x64, 0x65, 0x6e, 0x73, 0x65, 0x5f, 
  0x36, 0x33, 0x2f, 0x42, 0x69, 0x61, 0x73, 0x41, 0x64, 0x64, 0x00, 0x00, 
  0x02, 0x00, 0x00, 0x00, 0x01, 0x00, 0x00, 0x00, 0x20, 0x00, 0x00, 0x00, 
  0x6e, 0xff, 0xff, 0xff, 0x00, 0x00, 0x00, 0x01, 0x10, 0x00, 0x00, 0x00, 
  0x10, 0x00, 0x00, 0x00, 0x04, 0x00, 0x00, 0x00, 0x28, 0x00, 0x00, 0x00, 
  0xe4, 0xfe, 0xff, 0xff, 0x1b, 0x00, 0x00, 0x00, 0x65, 0x73, 0x70, 0x33, 
  0x32, 0x5f, 0x61, 0x63, 0x74, 0x6f, 0x72, 0x2f, 0x64, 0x65, 0x6e, 0x73, 
  0x65, 0x5f, 0x36, 0x35, 0x2f, 0x4d, 0x61, 0x74, 0x4d, 0x75, 0x6c, 0x00, 
  0x02, 0x00, 0x00, 0x00, 0x04, 0x00, 0x00, 0x00, 0x20, 0x00, 0x00, 0x00, 
  0xb6, 0xff, 0xff, 0xff, 0x00, 0x00, 0x00, 0x01, 0x10, 0x00, 0x00, 0x00, 
  0x10, 0x00, 0x00, 0x00, 0x03, 0x00, 0x00, 0x00, 0x28, 0x00, 0x00, 0x00, 
  0x2c, 0xff, 0xff, 0xff, 0x1b, 0x00, 0x00, 0x00, 0x65, 0x73, 0x70, 0x33, 
  0x32, 0x5f, 0x61, 0x63, 0x74, 0x6f, 0x72, 0x2f, 0x64, 0x65, 0x6e, 0x73, 
  0x65, 0x5f, 0x36, 0x34, 0x2f, 0x4d, 0x61, 0x74, 0x4d, 0x75, 0x6c, 0x00, 
  0x02, 0x00, 0x00, 0x00, 0x20, 0x00, 0x00, 0x00, 0x20, 0x00, 0x00, 0x00, 
  0x00, 0x00, 0x16, 0x00, 0x18, 0x00, 0x14, 0x00, 0x00, 0x00, 0x10, 0x00, 
  0x0c, 0x00, 0x08, 0x00, 0x00, 0x00, 0x00, 0x00, 0x00, 0x00, 0x07, 0x00, 
  0x16, 0x00, 0x00, 0x00, 0x00, 0x00, 0x00, 0x01, 0x10, 0x00, 0x00, 0x00, 
  0x10, 0x00, 0x00, 0x00, 0x02, 0x00, 0x00, 0x00, 0x2c, 0x00, 0x00, 0x00, 
  0x8c, 0xff, 0xff, 0xff, 0x1c, 0x00, 0x00, 0x00, 0x65, 0x73, 0x70, 0x33, 
  0x32, 0x5f, 0x61, 0x63, 0x74, 0x6f, 0x72, 0x2f, 0x64, 0x65, 0x6e, 0x73, 
  0x65, 0x5f, 0x36, 0x33, 0x2f, 0x4d, 0x61, 0x74, 0x4d, 0x75, 0x6c, 0x31, 
  0x00, 0x00, 0x00, 0x00, 0x02, 0x00, 0x00, 0x00, 0x20, 0x00, 0x00, 0x00, 
  0x05, 0x00, 0x00, 0x00, 0x00, 0x00, 0x16, 0x00, 0x1c, 0x00, 0x18, 0x00, 
  0x00, 0x00, 0x14, 0x00, 0x10, 0x00, 0x0c, 0x00, 0x00, 0x00, 0x00, 0x00, 
  0x08, 0x00, 0x07, 0x00, 0x16, 0x00, 0x00, 0x00, 0x00, 0x00, 0x00, 0x01, 
  0x14, 0x00, 0x00, 0x00, 0x20, 0x00, 0x00, 0x00, 0x20, 0x00, 0x00, 0x00, 
  0x01, 0x00, 0x00, 0x00, 0x40, 0x00, 0x00, 0x00, 0x02, 0x00, 0x00, 0x00, 
  0xff, 0xff, 0xff, 0xff, 0x05, 0x00, 0x00, 0x00, 0x04, 0x00, 0x04, 0x00, 
  0x04, 0x00, 0x00, 0x00, 0x20, 0x00, 0x00, 0x00, 0x73, 0x65, 0x72, 0x76, 
  0x69, 0x6e, 0x67, 0x5f, 0x64, 0x65, 0x66, 0x61, 0x75, 0x6c, 0x74, 0x5f, 
  0x64, 0x65, 0x6e, 0x73, 0x65, 0x5f, 0x36, 0x33, 0x5f, 0x69, 0x6e, 0x70, 
  0x75, 0x74, 0x3a, 0x30, 0x00, 0x00, 0x00, 0x00, 0x02, 0x00, 0x00, 0x00, 
  0x01, 0x00, 0x00, 0x00, 0x05, 0x00, 0x00, 0x00, 0x02, 0x00, 0x00, 0x00, 
  0x20, 0x00, 0x00, 0x00, 0x04, 0x00, 0x00, 0x00, 0xf4, 0xff, 0xff, 0xff, 
  0x1c, 0x00, 0x00, 0x00, 0x00, 0x00, 0x00, 0x1c, 0x0c, 0x00, 0x0c, 0x00, 
  0x0b, 0x00, 0x00, 0x00, 0x00, 0x00, 0x04, 0x00, 0x0c, 0x00, 0x00, 0x00, 
  0x09, 0x00, 0x00, 0x00, 0x00, 0x00, 0x00, 0x09, 
};

const unsigned int actor_model_len = 7040;
