#include "critic_task0.h"

const uint8_t critic_model[] = {

  0x1c, 0x00, 0x00, 0x00, 0x54, 0x46, 0x4c, 0x33, 0x14, 0x00, 0x20, 0x00, 
  0x1c, 0x00, 0x18, 0x00, 0x14, 0x00, 0x10, 0x00, 0x0c, 0x00, 0x00, 0x00, 
  0x08, 0x00, 0x04, 0x00, 0x14, 0x00, 0x00, 0x00, 0x1c, 0x00, 0x00, 0x00, 
  0x98, 0x00, 0x00, 0x00, 0xf0, 0x00, 0x00, 0x00, 0xd4, 0x14, 0x00, 0x00, 
  0xe4, 0x14, 0x00, 0x00, 0x04, 0x19, 0x00, 0x00, 0x03, 0x00, 0x00, 0x00, 
  0x01, 0x00, 0x00, 0x00, 0x10, 0x00, 0x00, 0x00, 0x00, 0x00, 0x0a, 0x00, 
  0x10, 0x00, 0x0c, 0x00, 0x08, 0x00, 0x04, 0x00, 0x0a, 0x00, 0x00, 0x00, 
  0x0c, 0x00, 0x00, 0x00, 0x1c, 0x00, 0x00, 0x00, 0x3c, 0x00, 0x00, 0x00, 
  0x0f, 0x00, 0x00, 0x00, 0x73, 0x65, 0x72, 0x76, 0x69, 0x6e, 0x67, 0x5f, 
  0x64, 0x65, 0x66, 0x61, 0x75, 0x6c, 0x74, 0x00, 0x01, 0x00, 0x00, 0x00, 
  0x04, 0x00, 0x00, 0x00, 0x90, 0xff, 0xff, 0xff, 0x06, 0x00, 0x00, 0x00, 
  0x04, 0x00, 0x00, 0x00, 0x08, 0x00, 0x00, 0x00, 0x64, 0x65, 0x6e, 0x73, 
  0x65, 0x5f, 0x36, 0x38, 0x00, 0x00, 0x00, 0x00, 0x01, 0x00, 0x00, 0x00, 
  0x04, 0x00, 0x00, 0x00, 0x3a, 0xee, 0xff, 0xff, 0x04, 0x00, 0x00, 0x00, 
  0x0e, 0x00, 0x00, 0x00, 0x64, 0x65, 0x6e, 0x73, 0x65, 0x5f, 0x36, 0x36, 
  0x5f, 0x69, 0x6e, 0x70, 0x75, 0x74, 0x00, 0x00, 0x02, 0x00, 0x00, 0x00, 
  0x34, 0x00, 0x00, 0x00, 0x04, 0x00, 0x00, 0x00, 0xdc, 0xff, 0xff, 0xff, 
  0x09, 0x00, 0x00, 0x00, 0x04, 0x00, 0x00, 0x00, 0x13, 0x00, 0x00, 0x00, 
  0x43, 0x4f, 0x4e, 0x56, 0x45, 0x52, 0x53, 0x49, 0x4f, 0x4e, 0x5f, 0x4d, 
  0x45, 0x54, 0x41, 0x44, 0x41, 0x54, 0x41, 0x00, 0x08, 0x00, 0x0c, 0x00, 
  0x08, 0x00, 0x04, 0x00, 0x08, 0x00, 0x00, 0x00, 0x08, 0x00, 0x00, 0x00, 
  0x04, 0x00, 0x00, 0x00, 0x13, 0x00, 0x00, 0x00, 0x6d, 0x69, 0x6e, 0x5f, 
  0x72, 0x75, 0x6e, 0x74, 0x69, 0x6d, 0x65, 0x5f, 0x76, 0x65, 0x72, 0x73, 
  0x69, 0x6f, 0x6e, 0x00, 0x0a, 0x00, 0x00, 0x00, 0xe0, 0x13, 0x00, 0x00, 
  0xd8, 0x13, 0x00, 0x00, 0x48, 0x11, 0x00, 0x00, 0x30, 0x01, 0x00, 0x00, 
  0xa0, 0x00, 0x00, 0x00, 0x98, 0x00, 0x00, 0x00, 0x90, 0x00, 0x00, 0x00, 
  0x88, 0x00, 0x00, 0x00, 0x68, 0x00, 0x00, 0x00, 0x04, 0x00, 0x00, 0x00, 
  0xde, 0xee, 0xff, 0xff, 0x04, 0x00, 0x00, 0x00, 0x54, 0x00, 0x00, 0x00, 
  0x0c, 0x00, 0x00, 0x00, 0x08, 0x00, 0x0e, 0x00, 0x08, 0x00, 0x04, 0x00, 
  0x08, 0x00, 0x00, 0x00, 0x10, 0x00, 0x00, 0x00, 0x24, 0x00, 0x00, 0x00, 
  0x00, 0x00, 0x06, 0x00, 0x08, 0x00, 0x04, 0x00, 0x06, 0x00, 0x00, 0x00, 
  0x04, 0x00, 0x00, 0x00, 0x00, 0x00, 0x00, 0x00, 0x00, 0x00, 0x0a, 0x00, 
  0x10, 0x00, 0x0c, 0x00, 0x08, 0x00, 0x04, 0x00, 0x0a, 0x00, 0x00, 0x00, 
  0x02, 0x00, 0x00, 0x00, 0x02, 0x00, 0x00, 0x00, 0x04, 0x00, 0x00, 0x00, 
  0x06, 0x00, 0x00, 0x00, 0x32, 0x2e, 0x31, 0x33, 0x2e, 0x30, 0x00, 0x00, 
  0x3e, 0xef, 0xff, 0xff, 0x04, 0x00, 0x00, 0x00, 0x10, 0x00, 0x00, 0x00, 
  0x31, 0x2e, 0x35, 0x2e, 0x30, 0x00, 0x00, 0x00, 0x00, 0x00, 0x00, 0x00, 
  0x00, 0x00, 0x00, 0x00, 0xc4, 0xe8, 0xff, 0xff, 0xc8, 0xe8, 0xff, 0xff, 
  0xcc, 0xe8, 0xff, 0xff, 0x66, 0xef, 0xff, 0xff, 0x04, 0x00, 0x00, 0x00, 
  0x80, 0x00, 0x00, 0x00, 0x30, 0x1e, 0x97, 0x3d, 0x9e, 0x7f, 0x42, 0xbe, 
  0xeb, 0xb0, 0x64, 0xbe, 0x20, 0x09, 0x88, 0x3e, 0xb8, 0xdd, 0xb1, 0x3d, 
  0x18, 0x2b, 0x6c, 0x3e, 0xf4, 0xfc, 0xc1, 0x3e, 0xd0, 0x48, 0x84, 0x3e, 
  0x90, 0x6a, 0xa6, 0xbd, 0x5a, 0x59, 0x2a, 0xbe, 0x58, 0x66, 0x79, 0x3e, 
  0xac, 0x85, 0x06, 0xbe, 0xf6, 0x44, 0x94, 0x3e, 0x2e, 0x22, 0x8b, 0x3e, 
  0xab, 0x89, 0x4a, 0xbe, 0xfc, 0x4e, 0x06, 0xbe, 0xc8, 0x37, 0x3e, 0x3d, 
  0x71, 0xc0, 0x8d, 0xbe, 0x15, 0x86, 0x81, 0xbe, 0x6c, 0x71, 0x2c, 0xbe, 
  0xb4, 0xba, 0xd8, 0xbe, 0xe6, 0x77, 0xad, 0x3e, 0x6c, 0xe0, 0x14, 0x3e, 
  0xe8, 0x08, 0xd8, 0xbe, 0x34, 0x81, 0x09, 0x3e, 0x81, 0xb1, 0x9f, 0xbe, 
  0xc4, 0xb9, 0xac, 0x3e, 0x7c, 0xc6, 0x73, 0x3e, 0xce, 0x03, 0xa9, 0x3e, 
  0x7d, 0x06, 0xd2, 0xbe, 0xae, 0xb3, 0xb7, 0x3e, 0x50, 0xd4, 0x3f, 0x3e, 
  0xf2, 0xef, 0xff, 0xff, 0x04, 0x00, 0x00, 0x00, 0x00, 0x10, 0x00, 0x00, 
  0x80, 0xa9, 0x42, 0xbd, 0xff, 0xbb, 0x89, 0x3e, 0xf2, 0x65, 0xb7, 0xbd, 
  0x10, 0xf9, 0x3a, 0xbe, 0x85, 0x25, 0x82, 0x3e, 0x18, 0x80, 0x1e, 0x3d, 
  0x84, 0x4f, 0x98, 0x3d, 0x37, 0x62, 0x9a, 0x3e, 0x68, 0x70, 0x64, 0x3d, 
  0x49, 0xd8, 0x87, 0x3e, 0xbd, 0xb6, 0x96, 0x3e, 0x80, 0x07, 0x46, 0x3e, 
  0x14, 0xf4, 0x34, 0x3e, 0x60, 0x80, 0x39, 0xbe, 0x30, 0xec, 0x8e, 0x3c, 
  0xac, 0xd1, 0x0d, 0x3e, 0x44, 0x24, 0x92, 0xbe, 0xf2, 0x18, 0x0d, 0x3e, 
  0x23, 0x3d, 0x7d, 0xbe, 0xdf, 0x57, 0x0c, 0xbe, 0x60, 0x3c, 0x0a, 0x3c, 
  0x9c, 0xe1, 0x8d, 0xbe, 0xea, 0x74, 0x7f, 0x3e, 0x7e, 0xf0, 0x1a, 0x3e, 
  0x5c, 0x6c, 0x3d, 0xbe, 0xcc, 0x1b, 0x5a, 0xbe, 0x1e, 0x06, 0x77, 0x3e, 
  0x39, 0x42, 0x9a, 0x3e, 0x7e, 0xe8, 0x4e, 0x3e, 0xa6, 0x9f, 0x64, 0xbe, 
  0x73, 0xee, 0x26, 0xbe, 0xb8, 0xe5, 0x84, 0xbe, 0x70, 0x97, 0x47, 0x3d, 
  0xc0, 0x2e, 0x20, 0xbd, 0x72, 0x62, 0x26, 0x3e, 0x52, 0xd3, 0x73, 0x3e, 
  0x9c, 0x51, 0xbd, 0x3d, 0xfc, 0xbb, 0x9b, 0xbe, 0x82, 0x5b, 0xee, 0xbd, 
  0x78, 0x28, 0x32, 0x3e, 0x10, 0x9e, 0x58, 0xbd, 0xac, 0xf3, 0x8c, 0x3d, 
  0x42, 0xad, 0x2e, 0x3e, 0xb8, 0x93, 0x33, 0x3e, 0x00, 0xf5, 0xf0, 0xbb, 
  0x16, 0xf3, 0x2e, 0x3e, 0x68, 0xc5, 0x63, 0x3d, 0x08, 0x8b, 0x78, 0xbd, 
  0x0c, 0xca, 0xcc, 0x3d, 0x7b, 0x95, 0x98, 0x3e, 0xd0, 0x38, 0x82, 0xbc, 
  0xb8, 0xb2, 0x84, 0x3d, 0x5a, 0xe5, 0x68, 0x3e, 0x67, 0x50, 0x28, 0xbe, 
  0x31, 0xec, 0x89, 0x3e, 0x88, 0x1a, 0x2e, 0x3e, 0x90, 0xcd, 0xb3, 0x3c, 
  0x98, 0xc0, 0xdf, 0xbd, 0x48, 0xa8, 0x31, 0xbd, 0x4c, 0xb2, 0xbb, 0x3d, 
  0x90, 0xd7, 0xf2, 0xbc, 0x2c, 0xb5, 0x0b, 0x3e, 0x30, 0x15, 0x89, 0xbd, 
  0xa0, 0x2c, 0x5b, 0xbe, 0x6a, 0xf9, 0x4a, 0x3e, 0xc0, 0x66, 0x2a, 0x3d, 
  0xcd, 0x8f, 0x8d, 0xbe, 0x7a, 0xc2, 0x3b, 0x3e, 0x10, 0xed, 0x96, 0x3d, 
  0x4e, 0x53, 0x83, 0xbe, 0xd8, 0x10, 0x46, 0xbe, 0xda, 0x50, 0x0c, 0x3e, 
  0xcf, 0xe5, 0x3a, 0xbe, 0x5a, 0x09, 0xae, 0xbd, 0x80, 0xeb, 0x25, 0x3b, 
  0x11, 0x2d, 0x72, 0xbe, 0xc0, 0xbd, 0xc7, 0xbb, 0x30, 0x66, 0x38, 0x3d, 
  0xcd, 0x53, 0x94, 0x3e, 0xf0, 0x6d, 0x68, 0xbd, 0x2b, 0xf2, 0x06, 0xbe, 
  0x8a, 0x89, 0x7e, 0x3e, 0xfc, 0x11, 0xd3, 0x3d, 0x94, 0xf7, 0x99, 0x3d, 
  0x25, 0x2f, 0x80, 0x3e, 0x56, 0xa2, 0xd9, 0xbd, 0x1c, 0xd2, 0x90, 0xbe, 
  0x44, 0x44, 0xce, 0xbd, 0xf0, 0x40, 0x5c, 0xbe, 0x6c, 0x4e, 0x94, 0xbe, 
  0x66, 0xcd, 0x28, 0x3e, 0xb8, 0x15, 0x40, 0x3e, 0xd7, 0x03, 0x85, 0x3e, 
  0xfc, 0xa1, 0xc2, 0x3d, 0xa6, 0x17, 0x0c, 0x3e, 0x7a, 0x88, 0x62, 0x3e, 
  0x00, 0xa3, 0x39, 0x3d, 0xee, 0xf6, 0x6f, 0x3e, 0x88, 0x95, 0x04, 0x3e, 
  0x05, 0x81, 0x12, 0xbe, 0x18, 0xb1, 0x50, 0xbe, 0xe0, 0x9c, 0xa1, 0x3d, 
  0x80, 0x1a, 0x35, 0x3d, 0x80, 0x93, 0xfb, 0x3c, 0x48, 0x6a, 0x0b, 0x3d, 
  0xe2, 0x92, 0x3d, 0x3e, 0xfa, 0x6c, 0x66, 0xbe, 0x2a, 0x36, 0xd0, 0xbd, 
  0x10, 0xe0, 0xd0, 0x3c, 0x84, 0x79, 0xc3, 0x3d, 0x28, 0x81, 0x24, 0x3d, 
  0xce, 0x65, 0x7b, 0x3e, 0x01, 0x46, 0x82, 0x3e, 0xef, 0xf5, 0x11, 0xbe, 
  0xee, 0xf9, 0x37, 0x3e, 0x08, 0x0d, 0x19, 0x3d, 0xe8, 0x89, 0x23, 0xbd, 
  0xe8, 0xcd, 0xb4, 0x3d, 0x1a, 0x24, 0x45, 0xbe, 0xc2, 0x74, 0x9c, 0xbe, 
  0xa0, 0x32, 0x0b, 0xbc, 0xcc, 0xfa, 0xe2, 0xbd, 0xc4, 0x35, 0x79, 0xbe, 
  0xb0, 0x36, 0x31, 0x3d, 0xb0, 0xa3, 0x09, 0x3d, 0xdb, 0x18, 0x8f, 0x3e, 
  0xb4, 0x98, 0x04, 0xbe, 0xf7, 0x68, 0x8e, 0x3e, 0x70, 0x28, 0x85, 0xbd, 
  0xc3, 0xa4, 0x87, 0xbe, 0x2c, 0x2c, 0x39, 0x3e, 0x20, 0x9e, 0x8c, 0xbd, 
  0x7a, 0x85, 0x78, 0x3e, 0x86, 0x22, 0x63, 0xbe, 0xa1, 0xf6, 0x9b, 0x3e, 
  0x3b, 0xf4, 0x89, 0x3e, 0x58, 0x58, 0xf7, 0xbd, 0x4a, 0x96, 0x45, 0x3e, 
  0xb3, 0xdd, 0x97, 0x3e, 0x26, 0x5a, 0x19, 0x3e, 0x22, 0x1b, 0x34, 0x3e, 
  0xfe, 0xd9, 0x0b, 0xbe, 0xd4, 0x0a, 0x19, 0x3e, 0xbe, 0xac, 0x86, 0xbe, 
  0x20, 0xf7, 0xf2, 0xbc, 0xd8, 0x28, 0x8b, 0x3d, 0x2e, 0x98, 0x6b, 0xbe, 
  0xca, 0xf8, 0x6e, 0x3e, 0x80, 0x2c, 0xbf, 0xbd, 0x4a, 0x72, 0x65, 0x3e, 
  0x3e, 0xa6, 0x40, 0x3e, 0x98, 0x45, 0x2a, 0x3d, 0x80, 0xd5, 0xf5, 0xbb, 
  0xb0, 0x45, 0xcd, 0xbc, 0x66, 0x5d, 0x75, 0xbe, 0xa6, 0xf7, 0x01, 0xbe, 
  0x4e, 0x06, 0x51, 0x3e, 0x52, 0x7f, 0x49, 0x3e, 0x50, 0x14, 0x26, 0xbe, 
  0x8b, 0xb4, 0x3f, 0xbe, 0x00, 0x49, 0x04, 0x3e, 0x28, 0x8f, 0x63, 0x3d, 
  0x26, 0x09, 0x1a, 0xbe, 0xa2, 0x4e, 0x61, 0xbe, 0x0b, 0xa0, 0x99, 0xbe, 
  0xc8, 0xcf, 0x3c, 0x3e, 0xcc, 0xbf, 0x32, 0x3e, 0x0a, 0x62, 0xab, 0xbd, 
  0xc0, 0x46, 0x3d, 0xbd, 0xd8, 0x94, 0x1f, 0x3e, 0xb7, 0x5f, 0x9c, 0x3e, 
  0x70, 0xf8, 0x7a, 0xbd, 0x00, 0x68, 0x36, 0x3e, 0x5a, 0xee, 0xa0, 0xbd, 
  0x50, 0x17, 0xcd, 0x3c, 0x40, 0x6b, 0x5d, 0xbd, 0x6e, 0xe6, 0x65, 0xbe, 
  0xa0, 0x19, 0xe4, 0x3d, 0xaf, 0xd3, 0x85, 0x3e, 0xa8, 0xc4, 0xb5, 0x3d, 
  0xe4, 0xc9, 0xad, 0x3d, 0x40, 0xf1, 0x88, 0xbe, 0x10, 0xe5, 0xcb, 0xbd, 
  0x10, 0xd0, 0xf2, 0xbc, 0x55, 0xad, 0x96, 0xbe, 0x30, 0xe4, 0x07, 0xbd, 
  0x2a, 0x0c, 0x19, 0x3e, 0x9c, 0x61, 0x02, 0x3e, 0xe8, 0xc9, 0x82, 0xbe, 
  0x1a, 0x5f, 0x19, 0x3e, 0x62, 0x43, 0xc2, 0xbd, 0x06, 0x13, 0x95, 0xbe, 
  0xfa, 0xcc, 0x76, 0x3e, 0x7c, 0x8c, 0x99, 0xbe, 0x2a, 0x7b, 0x6b, 0x3e, 
  0x14, 0x54, 0xc0, 0x3d, 0x60, 0x3e, 0xe9, 0x3d, 0x78, 0xef, 0x5d, 0xbd, 
  0x3e, 0xac, 0x0a, 0x3e, 0x70, 0x0e, 0x7f, 0x3d, 0xee, 0x9a, 0x4a, 0x3e, 
  0x26, 0x8e, 0x25, 0x3e, 0xe0, 0x82, 0x7d, 0xbc, 0x02, 0x22, 0x6d, 0x3e, 
  0xda, 0xad, 0x70, 0x3e, 0x90, 0x7d, 0x62, 0xbd, 0x83, 0x9a, 0x91, 0x3e, 
  0x74, 0x2a, 0xd0, 0xbd, 0xd0, 0xd4, 0x87, 0x3c, 0xe9, 0x54, 0x92, 0xbe, 
  0x88, 0x00, 0x35, 0xbd, 0x9c, 0xb6, 0x92, 0x3d, 0xe8, 0x4a, 0x75, 0x3d, 
  0xda, 0x07, 0x6b, 0xbe, 0x1c, 0x1f, 0x34, 0xbe, 0xe0, 0xd2, 0x91, 0xbd, 
  0x48, 0x77, 0xe5, 0xbd, 0xc0, 0x75, 0x6d, 0x3d, 0x00, 0x0c, 0xcc, 0xbc, 
  0xc0, 0x68, 0x35, 0xbc, 0x9a, 0xa4, 0x8b, 0xbe, 0xb0, 0xad, 0x8a, 0x3c, 
  0x96, 0x80, 0x69, 0x3e, 0xaa, 0x96, 0x37, 0x3e, 0x40, 0xd5, 0x75, 0x3c, 
  0xe0, 0x9a, 0x5b, 0xbc, 0x40, 0x9e, 0xde, 0xbd, 0xa6, 0x67, 0x48, 0xbe, 
  0x40, 0x3c, 0xe7, 0xbb, 0x7e, 0x68, 0x89, 0xbe, 0xdb, 0xcf, 0x1d, 0xbe, 
  0x58, 0x3d, 0x7a, 0x3d, 0x88, 0x74, 0x3f, 0xbd, 0x8c, 0x51, 0xf4, 0x3d, 
  0x66, 0x59, 0x65, 0x3e, 0x6a, 0xcc, 0x85, 0xbe, 0x56, 0x7a, 0x34, 0x3e, 
  0xa0, 0xf6, 0xc8, 0x3c, 0xf0, 0xbb, 0x62, 0xbd, 0x8a, 0x74, 0x68, 0x3e, 
  0x46, 0x2c, 0x79, 0xbe, 0xbd, 0x4c, 0x27, 0xbe, 0x6e, 0xc1, 0x77, 0x3e, 
  0xcd, 0x4c, 0x88, 0x3e, 0x10, 0x90, 0xe9, 0xbc, 0xd9, 0xc3, 0x8b, 0x3e, 
  0x28, 0x7f, 0xb9, 0x3d, 0xa9, 0x3e, 0x86, 0x3e, 0x20, 0xae, 0xc5, 0xbc, 
  0xb9, 0xa8, 0x9a, 0xbe, 0x55, 0x11, 0x32, 0xbe, 0x80, 0xc1, 0xae, 0xbc, 
  0x60, 0x6d, 0x74, 0x3d, 0xf6, 0x22, 0x52, 0x3e, 0xe8, 0x00, 0x3d, 0xbe, 
  0x92, 0x09, 0x61, 0x3e, 0xb0, 0x60, 0x95, 0xbc, 0x31, 0xe1, 0x81, 0x3e, 
  0x8b, 0x65, 0x4c, 0xbe, 0x50, 0x9c, 0x6b, 0xbe, 0x5e, 0x02, 0x4f, 0x3e, 
  0xe2, 0x2b, 0x63, 0xbe, 0x66, 0x16, 0x7d, 0x3e, 0x76, 0x2f, 0xdf, 0xbd, 
  0x3a, 0x2b, 0x25, 0xbe, 0x2c, 0x24, 0xe7, 0xbd, 0x94, 0xd6, 0x88, 0x3d, 
  0xf6, 0xff, 0x8a, 0xbe, 0xf9, 0xf4, 0x4e, 0xbe, 0xfe, 0x03, 0x02, 0x3e, 
  0x06, 0xa3, 0x6e, 0xbe, 0x70, 0xfc, 0x8e, 0xbc, 0xb2, 0xbd, 0x54, 0x3e, 
  0x9e, 0x73, 0x1b, 0xbe, 0x7c, 0xdc, 0xe6, 0x3d, 0xa0, 0x82, 0x7e, 0x3c, 
  0x51, 0x68, 0x98, 0x3e, 0x46, 0x50, 0x38, 0xbe, 0x14, 0x2c, 0xb0, 0x3d, 
  0xac, 0xb9, 0xf3, 0x3d, 0x60, 0x2e, 0x53, 0xbc, 0x0c, 0xb3, 0x20, 0x3e, 
  0xa0, 0x3d, 0xc0, 0x3c, 0xb6, 0x13, 0x74, 0xbe, 0x40, 0xa3, 0x64, 0xbd, 
  0x7d, 0x72, 0x98, 0x3e, 0x4c, 0x71, 0x8b, 0xbd, 0xa6, 0xb9, 0x8d, 0xbd, 
  0x37, 0xd7, 0x8d, 0x3e, 0x67, 0x14, 0x97, 0xbe, 0x27, 0x19, 0x87, 0xbe, 
  0xc3, 0x45, 0x0f, 0xbe, 0xfd, 0x16, 0x85, 0xbe, 0x18, 0xc0, 0x51, 0xbd, 
  0x70, 0x7d, 0xba, 0x3d, 0x2a, 0x3f, 0x47, 0xbe, 0x1a, 0x66, 0xc7, 0xbd, 
  0xd0, 0xc2, 0x30, 0x3d, 0xaf, 0xc5, 0x35, 0xbe, 0x25, 0x42, 0x90, 0x3e, 
  0x73, 0x60, 0x94, 0x3e, 0x66, 0xdb, 0x0c, 0x3e, 0x16, 0xf5, 0xce, 0xbd, 
  0x5c, 0x3e, 0xf7, 0x3d, 0xfa, 0x65, 0x5c, 0x3e, 0x36, 0xbb, 0x06, 0x3e, 
  0x00, 0x42, 0x27, 0x3a, 0x8e, 0xdd, 0xc3, 0xbd, 0x90, 0x2d, 0x37, 0x3d, 
  0x7d, 0xc3, 0x8c, 0xbe, 0xe6, 0xb4, 0x2f, 0xbe, 0xe6, 0x08, 0xec, 0xbd, 
  0xfe, 0xd8, 0x35, 0x3e, 0xf1, 0x7b, 0x9c, 0x3e, 0x78, 0x6d, 0x2a, 0x3e, 
  0xb3, 0xd0, 0x82, 0x3e, 0xb6, 0x16, 0x40, 0x3e, 0xc0, 0x28, 0xcb, 0x3b, 
  0xc6, 0x48, 0x3e, 0xbe, 0x08, 0x5c, 0x78, 0x3d, 0x44, 0x71, 0xa6, 0x3d, 
  0x94, 0x97, 0xd1, 0x3d, 0xed, 0x27, 0x88, 0xbe, 0x78, 0x63, 0x04, 0x3e, 
  0x34, 0xb7, 0xe1, 0x3d, 0x2c, 0xc8, 0x8e, 0x3d, 0x10, 0xe7, 0xc6, 0xbc, 
  0xf3, 0xd5, 0x48, 0xbe, 0x7d, 0x92, 0x8b, 0x3e, 0x44, 0x39, 0x3b, 0xbe, 
  0xf7, 0x6c, 0x44, 0xbe, 0x4d, 0x33, 0x83, 0xbe, 0x14, 0xd1, 0x11, 0xbe, 
  0x9c, 0xf0, 0x85, 0xbe, 0xe4, 0x8f, 0x85, 0xbe, 0x04, 0xde, 0x19, 0xbe, 
  0xc0, 0xd9, 0xb9, 0x3b, 0x40, 0xe7, 0x18, 0xbe, 0x9d, 0x29, 0x97, 0xbe, 
  0x5f, 0x71, 0x81, 0x3e, 0x86, 0xaa, 0xcd, 0xbd, 0xb3, 0x62, 0x81, 0xbe, 
  0xd6, 0x42, 0x34, 0x3e, 0xdd, 0x10, 0x97, 0x3e, 0xc6, 0x19, 0xba, 0xbd, 
  0xc6, 0x39, 0x61, 0x3e, 0xc0, 0xd9, 0xdd, 0x3b, 0xb0, 0xe1, 0xfc, 0x3d, 
  0x80, 0x5f, 0x39, 0x3c, 0x2a, 0x5e, 0x30, 0xbe, 0x8a, 0x1f, 0x96, 0xbe, 
  0xe8, 0x23, 0xd4, 0xbd, 0xe2, 0x5f, 0x5c, 0xbe, 0xa8, 0x06, 0x28, 0xbd, 
  0xd1, 0xa7, 0x8c, 0x3e, 0x81, 0x4f, 0x8f, 0x3e, 0x00, 0xa2, 0x56, 0xba, 
  0x28, 0x2d, 0x02, 0xbd, 0x18, 0xa2, 0x28, 0x3e, 0xa0, 0x54, 0x59, 0xbd, 
  0x36, 0x98, 0x7e, 0x3e, 0xb8, 0x32, 0x0b, 0x3e, 0xc0, 0xeb, 0xd5, 0xbb, 
  0xce, 0x5c, 0xc7, 0xbd, 0xbc, 0x51, 0x2f, 0xbe, 0x48, 0x2e, 0x59, 0x3d, 
  0x80, 0x64, 0x78, 0x3c, 0xb2, 0x9c, 0x1c, 0x3e, 0x2a, 0xd1, 0x8f, 0xbe, 
  0xc6, 0x8b, 0x68, 0x3e, 0xc0, 0x9c, 0xf5, 0x3c, 0x60, 0xda, 0x58, 0x3c, 
  0x14, 0xc6, 0x3c, 0x3e, 0x30, 0x69, 0x3d, 0x3d, 0x80, 0x1b, 0x75, 0x3b, 
  0x40, 0x45, 0x98, 0xbe, 0xf4, 0x63, 0x71, 0xbd, 0x34, 0xe1, 0x84, 0xbe, 
  0xf0, 0xca, 0x3a, 0x3e, 0x06, 0xbf, 0x4a, 0xbe, 0xe0, 0xb3, 0x27, 0xbc, 
  0x18, 0x15, 0xf2, 0x3d, 0x70, 0x4b, 0xca, 0xbc, 0xa4, 0x58, 0xfa, 0x3d, 
  0xc0, 0xda, 0xea, 0x3b, 0xd0, 0x8d, 0xf8, 0xbc, 0x18, 0x2b, 0x86, 0xbd, 
  0xd1, 0xd8, 0x8c, 0x3e, 0xd4, 0x3f, 0xc3, 0xbd, 0x4d, 0x14, 0x87, 0x3e, 
  0x98, 0x88, 0x65, 0xbd, 0xf0, 0xdb, 0x1f, 0xbd, 0xa0, 0x89, 0x67, 0xbc, 
  0x9d, 0xa5, 0x22, 0xbe, 0x80, 0x42, 0xfd, 0x3c, 0x28, 0xbb, 0x63, 0x3d, 
  0x92, 0x54, 0x1c, 0x3e, 0xf0, 0x59, 0x34, 0x3e, 0x24, 0x83, 0xf4, 0x3d, 
  0x8f, 0x46, 0x93, 0x3e, 0x32, 0x64, 0x70, 0xbe, 0x4c, 0x24, 0xab, 0x3d, 
  0xa0, 0x8a, 0x53, 0x3d, 0xb0, 0x29, 0xe3, 0x3d, 0x94, 0xd9, 0x36, 0xbe, 
  0x38, 0x5f, 0x0a, 0x3e, 0x68, 0x8c, 0x5d, 0x3d, 0x8c, 0x4b, 0x3c, 0x3e, 
  0x47, 0x92, 0x8a, 0x3e, 0x74, 0xe3, 0xa8, 0x3d, 0x85, 0x87, 0x99, 0xbe, 
  0x64, 0xf9, 0xaa, 0x3d, 0x98, 0xd9, 0xb6, 0x3d, 0x70, 0x6e, 0x0e, 0x3e, 
  0x90, 0x93, 0x64, 0x3d, 0xa0, 0x67, 0x01, 0x3e, 0x62, 0x73, 0x65, 0x3e, 
  0x1c, 0x0e, 0x1e, 0x3e, 0x68, 0xa0, 0x6a, 0x3d, 0x61, 0x50, 0x89, 0xbe, 
  0x14, 0xff, 0xa8, 0xbd, 0x0a, 0xee, 0x46, 0x3e, 0xe0, 0x97, 0xbc, 0xbc, 
  0xb0, 0xd6, 0x00, 0x3e, 0x28, 0x64, 0x16, 0xbd, 0xbc, 0x20, 0x19, 0x3e, 
  0x74, 0x1d, 0x85, 0xbd, 0x80, 0x6e, 0x71, 0xbc, 0x9d, 0x66, 0x7a, 0xbe, 
  0xc0, 0x32, 0x2b, 0x3e, 0xca, 0x3c, 0x5e, 0xbe, 0xee, 0x2e, 0x3d, 0x3e, 
  0x50, 0xf1, 0xf2, 0xbc, 0xce, 0x54, 0x30, 0x3e, 0x20, 0x44, 0x18, 0x3d, 
  0x40, 0x13, 0x43, 0x3c, 0x94, 0x25, 0x1f, 0xbe, 0x40, 0x8d, 0x2a, 0x3c, 
  0xfa, 0xdb, 0x05, 0x3e, 0x5c, 0xf1, 0x7b, 0xbd, 0x3a, 0x78, 0x7d, 0x3e, 
  0x5e, 0x21, 0x6e, 0x3e, 0xd2, 0x2c, 0x69, 0x3e, 0x52, 0x26, 0xa2, 0xbd, 
  0xe0, 0x69, 0x23, 0xbc, 0x76, 0xfb, 0x9e, 0xbd, 0x84, 0xf9, 0x02, 0x3e, 
  0xb2, 0x72, 0x13, 0x3e, 0x83, 0x05, 0x8e, 0x3e, 0xe6, 0x0f, 0x21, 0x3e, 
  0x20, 0xe7, 0x71, 0x3c, 0x4d, 0xf5, 0x8e, 0x3e, 0x48, 0xdb, 0x41, 0x3d, 
  0x48, 0xa5, 0x27, 0xbe, 0xc4, 0x69, 0x0a, 0x3e, 0x82, 0xf0, 0xa9, 0xbd, 
  0x19, 0x59, 0x84, 0x3e, 0xda, 0xba, 0x61, 0x3e, 0x9a, 0x51, 0x56, 0x3e, 
  0x30, 0x4c, 0x0c, 0xbd, 0x29, 0xce, 0x92, 0xbe, 0xc0, 0xa9, 0x1b, 0x3d, 
  0x1e, 0xe8, 0x8d, 0xbe, 0xd8, 0xf3, 0x48, 0xbe, 0xb6, 0xf1, 0x8a, 0xbe, 
  0xc0, 0x6e, 0x89, 0xbe, 0xb5, 0xc5, 0x85, 0x3e, 0x52, 0x6d, 0x80, 0xbe, 
  0xac, 0xe1, 0xdc, 0xbd, 0x2e, 0x14, 0x6a, 0x3e, 0x9b, 0xc5, 0x44, 0xbe, 
  0x18, 0xec, 0x29, 0xbd, 0x78, 0xeb, 0x9e, 0x3d, 0x69, 0x70, 0x14, 0xbe, 
  0x54, 0x46, 0x9c, 0xbd, 0x3b, 0x2c, 0x85, 0x3e, 0x3a, 0xcf, 0xcd, 0xbd, 
  0x6c, 0xa8, 0xbf, 0x3d, 0xba, 0xb0, 0x70, 0xbe, 0xd8, 0xef, 0x5a, 0x3d, 
  0xd5, 0x7e, 0x9b, 0xbe, 0x8e, 0x05, 0x35, 0xbe, 0xba, 0x29, 0x2a, 0xbe, 
  0x78, 0xbb, 0x68, 0x3d, 0x18, 0x1e, 0x9f, 0xbd, 0xdf, 0xaa, 0x8e, 0x3e, 
  0xd6, 0xdc, 0x78, 0xbe, 0x92, 0x16, 0x5c, 0xbe, 0xd6, 0x1c, 0x7d, 0x3e, 
  0x90, 0xd1, 0xce, 0x3d, 0x44, 0x38, 0xc4, 0xbd, 0xc3, 0x9b, 0x71, 0xbe, 
  0x7c, 0xc6, 0x0c, 0x3e, 0xc1, 0x47, 0x9b, 0x3e, 0x10, 0x22, 0x95, 0x3d, 
  0xd8, 0xe9, 0x00, 0xbe, 0xb4, 0x4a, 0x4b, 0xbe, 0x92, 0xd7, 0x79, 0x3e, 
  0x58, 0xeb, 0x63, 0xbe, 0x1e, 0xc2, 0x3a, 0xbe, 0x0c, 0x1e, 0xc0, 0xbd, 
  0x89, 0x98, 0x93, 0x3e, 0x78, 0xbb, 0xc9, 0x3d, 0x0a, 0xba, 0x69, 0x3e, 
  0xe0, 0x90, 0xd1, 0x3c, 0xc8, 0x66, 0x2e, 0x3d, 0x0c, 0xba, 0xb8, 0x3d, 
  0x84, 0x04, 0x92, 0xbd, 0x50, 0x94, 0x5f, 0xbd, 0x5a, 0xa8, 0x50, 0x3e, 
  0x99, 0x1c, 0x0d, 0xbe, 0x24, 0x04, 0x93, 0xbd, 0x20, 0x01, 0x47, 0x3c, 
  0x60, 0x6c, 0x05, 0xbe, 0xd2, 0xa0, 0x34, 0x3e, 0x18, 0xdd, 0x2c, 0xbd, 
  0xb8, 0x74, 0x9c, 0xbe, 0xa0, 0x50, 0x95, 0xbc, 0xa2, 0xc5, 0x61, 0x3e, 
  0x46, 0xdb, 0x7d, 0x3e, 0x90, 0x15, 0x3b, 0x3d, 0xe4, 0x69, 0x28, 0x3e, 
  0x13, 0x7b, 0x9c, 0x3e, 0x01, 0xe7, 0x6b, 0xbe, 0xd8, 0x1a, 0x05, 0xbd, 
  0x4e, 0x63, 0x56, 0x3e, 0xdb, 0x21, 0x9a, 0xbe, 0xfa, 0xe4, 0xfc, 0xbd, 
  0x62, 0x12, 0x82, 0xbe, 0x16, 0xb3, 0x09, 0xbe, 0x78, 0x8f, 0x5d, 0x3d, 
  0x02, 0x97, 0x18, 0xbe, 0x72, 0x41, 0x7b, 0x3e, 0xf6, 0x19, 0x66, 0x3e, 
  0xe1, 0x15, 0x05, 0xbe, 0xd0, 0x6d, 0xcc, 0xbd, 0xa0, 0x74, 0x00, 0xbd, 
  0xc0, 0x38, 0xf2, 0xbb, 0x7e, 0x9b, 0x7a, 0x3e, 0x5e, 0xb8, 0x35, 0x3e, 
  0x94, 0xe7, 0xed, 0x3d, 0xa8, 0xba, 0xd0, 0x3d, 0x1c, 0x15, 0x01, 0xbe, 
  0x1e, 0x05, 0x41, 0x3e, 0x6e, 0xe6, 0x85, 0xbd, 0x52, 0x26, 0x75, 0x3e, 
  0x50, 0x3f, 0xb5, 0xbc, 0x08, 0x70, 0x4c, 0x3d, 0xd0, 0x60, 0x29, 0xbe, 
  0x7a, 0x6e, 0x1e, 0x3e, 0xbb, 0xf3, 0x8a, 0x3e, 0xa0, 0x65, 0xfa, 0x3d, 
  0x12, 0xed, 0x5a, 0x3e, 0xeb, 0x02, 0x8e, 0xbe, 0x00, 0xb8, 0xd2, 0xbb, 
  0x3a, 0x99, 0x57, 0xbe, 0xf2, 0x8a, 0x04, 0x3e, 0xa4, 0x88, 0x41, 0x3e, 
  0x64, 0xd7, 0x28, 0x3e, 0xe0, 0x40, 0x41, 0x3d, 0xc3, 0x07, 0x13, 0xbe, 
  0x38, 0x89, 0x97, 0xbd, 0x46, 0x4b, 0x95, 0xbe, 0xe2, 0x22, 0x08, 0xbe, 
  0x95, 0x11, 0x87, 0x3e, 0x91, 0xeb, 0x81, 0xbe, 0x67, 0x08, 0x1a, 0xbe, 
  0xe3, 0x03, 0x31, 0xbe, 0x11, 0x88, 0x50, 0xbe, 0x58, 0xc3, 0x32, 0x3e, 
  0xce, 0xcd, 0xbd, 0xbd, 0x95, 0x04, 0x0f, 0xbe, 0xb6, 0xfc, 0x60, 0x3e, 
  0xed, 0x48, 0x82, 0x3e, 0xe0, 0x5a, 0x35, 0x3d, 0xdc, 0x5b, 0xb5, 0xbd, 
  0xb8, 0x54, 0x2b, 0xbd, 0xb0, 0x37, 0xcf, 0x3c, 0x71, 0x40, 0x93, 0x3e, 
  0xaa, 0xf9, 0x51, 0x3e, 0x28, 0x8b, 0x5b, 0x3d, 0xc0, 0x41, 0xdc, 0x3c, 
  0x3e, 0xf8, 0x4e, 0x3e, 0xf3, 0xbe, 0x67, 0xbe, 0x0a, 0x50, 0x80, 0xbd, 
  0xb8, 0xfa, 0x93, 0xbe, 0xc8, 0xad, 0x96, 0xbe, 0xd0, 0x44, 0xca, 0x3c, 
  0xd0, 0xd0, 0xda, 0x3d, 0x8e, 0x6e, 0x03, 0xbe, 0x88, 0x01, 0x2b, 0x3e, 
  0x80, 0x5d, 0x7a, 0x3d, 0xa0, 0xa9, 0x35, 0xbd, 0x92, 0xe5, 0xd4, 0xbd, 
  0xb2, 0x93, 0x12, 0xbe, 0xf8, 0x6b, 0x6a, 0x3d, 0x10, 0x77, 0x31, 0x3d, 
  0x6a, 0xb2, 0x86, 0xbe, 0x95, 0x46, 0x8a, 0xbe, 0xd4, 0x3c, 0x19, 0xbe, 
  0x77, 0x24, 0x92, 0x3e, 0xe2, 0x2b, 0x85, 0xbe, 0xba, 0x15, 0x2a, 0x3e, 
  0x5a, 0x66, 0x7a, 0x3e, 0xbc, 0xb7, 0xf1, 0x3d, 0x8c, 0x88, 0x28, 0xbe, 
  0xc4, 0xfa, 0xe2, 0x3d, 0x5e, 0xe3, 0xe9, 0xbd, 0x10, 0xf4, 0x0b, 0x3d, 
  0x1a, 0x2c, 0x69, 0x3e, 0x86, 0x48, 0x5b, 0x3e, 0xca, 0x63, 0x57, 0x3e, 
  0xa8, 0xec, 0x8f, 0x3d, 0xbd, 0xd8, 0x25, 0xbe, 0x0c, 0x64, 0x1c, 0x3e, 
  0xda, 0xd3, 0x61, 0x3e, 0xba, 0xc8, 0x94, 0xbd, 0x67, 0x80, 0x06, 0xbe, 
  0xb0, 0x97, 0x19, 0xbe, 0x2e, 0xb6, 0x62, 0x3e, 0x62, 0xc4, 0xa9, 0xbd, 
  0xbc, 0x28, 0x60, 0xbe, 0x61, 0x12, 0x84, 0x3e, 0x6e, 0x30, 0x1d, 0x3e, 
  0xc0, 0xcd, 0x02, 0xbc, 0x68, 0x4f, 0x7b, 0x3d, 0x30, 0x10, 0x21, 0xbe, 
  0x90, 0xc0, 0x4e, 0x3d, 0xdc, 0xb3, 0x62, 0xbe, 0xf0, 0xb7, 0x4b, 0xbd, 
  0xc9, 0x2e, 0x4f, 0xbe, 0xe8, 0x01, 0x41, 0x3e, 0x38, 0x85, 0x65, 0xbd, 
  0xfe, 0x49, 0x54, 0x3e, 0xe6, 0xd5, 0x45, 0x3e, 0x1a, 0xb0, 0x54, 0xbe, 
  0xec, 0x46, 0x2f, 0x3e, 0x8e, 0x53, 0x5f, 0x3e, 0x3c, 0x0a, 0x6f, 0xbd, 
  0xa5, 0x8e, 0x8e, 0x3e, 0x2c, 0x40, 0x3d, 0x3e, 0xca, 0x6f, 0x83, 0xbe, 
  0x1b, 0xab, 0x09, 0xbe, 0xc4, 0x87, 0x15, 0xbe, 0xf6, 0xba, 0x47, 0x3e, 
  0xb8, 0x68, 0xc4, 0xbd, 0x40, 0x5a, 0xe6, 0x3b, 0xbe, 0xd0, 0x6e, 0x3e, 
  0xa9, 0xe9, 0x01, 0xbe, 0x04, 0xa4, 0xe0, 0x3d, 0x33, 0x8f, 0x44, 0xbe, 
  0x80, 0x9b, 0x30, 0x3b, 0x2c, 0xad, 0x85, 0x3d, 0xea, 0xcd, 0x7e, 0x3e, 
  0x3b, 0x84, 0x90, 0x3e, 0xf0, 0x1b, 0x85, 0xbc, 0x22, 0xd2, 0x87, 0xbe, 
  0x84, 0xed, 0x15, 0x3e, 0x71, 0xac, 0x8c, 0x3e, 0x53, 0x8e, 0x99, 0x3e, 
  0x50, 0x00, 0x8c, 0xbc, 0x76, 0xee, 0x8c, 0xbe, 0x3d, 0x45, 0x5f, 0xbe, 
  0x1c, 0x9d, 0x25, 0x3e, 0x34, 0x54, 0x86, 0x3d, 0xa0, 0xa0, 0x6f, 0x3d, 
  0x5c, 0x4c, 0x8a, 0x3d, 0x3f, 0xb0, 0x8c, 0xbe, 0xe2, 0xdd, 0x34, 0x3e, 
  0x61, 0xf2, 0x8b, 0x3e, 0x40, 0xda, 0xf1, 0x3c, 0x2c, 0x02, 0x30, 0x3e, 
  0xbc, 0x63, 0xa1, 0x3d, 0x7e, 0x0b, 0x91, 0xbe, 0x61, 0xba, 0x24, 0xbe, 
  0xdd, 0x80, 0x88, 0xbe, 0x50, 0x62, 0xbd, 0x3c, 0x04, 0xa4, 0xbe, 0x3d, 
  0x39, 0x56, 0x89, 0x3e, 0x78, 0xf1, 0x64, 0xbd, 0xc2, 0xa0, 0x64, 0x3e, 
  0x03, 0x27, 0x9a, 0xbe, 0x64, 0x50, 0x88, 0xbd, 0x6a, 0x17, 0xf9, 0xbd, 
  0x22, 0x02, 0x26, 0x3e, 0xc8, 0xf8, 0xc0, 0x3d, 0xb0, 0x68, 0x58, 0xbe, 
  0xde, 0xf6, 0x1c, 0xbe, 0x96, 0xdb, 0x97, 0xbe, 0x10, 0x65, 0xb2, 0x3c, 
  0xfe, 0x59, 0x7d, 0xbe, 0xd0, 0xcd, 0x81, 0x3d, 0xd1, 0x45, 0x82, 0x3e, 
  0x2c, 0xb2, 0xa3, 0x3d, 0x08, 0x3f, 0x39, 0xbd, 0x1f, 0x13, 0x05, 0xbe, 
  0x00, 0x7b, 0x2b, 0xbd, 0x4c, 0xa9, 0x64, 0xbe, 0xde, 0x20, 0x5a, 0x3e, 
  0xa6, 0x25, 0x63, 0x3e, 0x60, 0xfd, 0x7e, 0xbd, 0xf0, 0x23, 0x77, 0x3d, 
  0xc6, 0x47, 0xa6, 0xbd, 0x74, 0x23, 0xb2, 0xbd, 0x1c, 0x4d, 0x15, 0x3e, 
  0xde, 0xb8, 0xd0, 0xbd, 0xe4, 0x55, 0xe3, 0xbd, 0xee, 0x5b, 0xa1, 0xbd, 
  0x9a, 0xe9, 0x5f, 0xbe, 0x7e, 0x41, 0x3f, 0xbe, 0x26, 0x23, 0x00, 0xbe, 
  0x50, 0x5a, 0x3d, 0xbe, 0x10, 0x37, 0x0c, 0x3d, 0xc2, 0x1e, 0x85, 0xbd, 
  0xf2, 0xb2, 0x36, 0x3e, 0x54, 0x3a, 0x76, 0xbe, 0x66, 0xf4, 0x7c, 0xbe, 
  0x58, 0x39, 0x37, 0x3d, 0x68, 0x15, 0xff, 0xbd, 0x20, 0xe2, 0xd9, 0x3c, 
  0xa9, 0x21, 0x8f, 0x3e, 0x7d, 0x87, 0x82, 0x3e, 0x00, 0xcc, 0x50, 0x3a, 
  0x00, 0xfb, 0x50, 0x3d, 0x47, 0x9b, 0x16, 0xbe, 0x30, 0x10, 0xe6, 0x3d, 
  0x79, 0x7d, 0x9b, 0x3e, 0x36, 0x70, 0x47, 0xbe, 0x00, 0x70, 0x47, 0x3c, 
  0x84, 0xb0, 0x9e, 0x3d, 0xdf, 0xfd, 0x81, 0x3e, 0xf0, 0x2c, 0xaf, 0xbc, 
  0x2d, 0x1d, 0x60, 0xbe, 0xa1, 0x8f, 0x8f, 0xbe, 0x84, 0x18, 0x29, 0x3e, 
  0xd5, 0xac, 0x95, 0x3e, 0x4e, 0x7b, 0x74, 0x3e, 0x44, 0x2a, 0x8f, 0x3d, 
  0x00, 0xaf, 0xfb, 0xba, 0xda, 0x59, 0x4e, 0x3e, 0x19, 0x82, 0x8f, 0x3e, 
  0xf1, 0x0c, 0x81, 0x3e, 0xb5, 0x5c, 0x89, 0x3e, 0xc0, 0xd7, 0xe8, 0xbc, 
  0x20, 0x0a, 0x92, 0xbe, 0x38, 0xd2, 0xe8, 0x3d, 0x46, 0x5f, 0x7f, 0x3e, 
  0xdc, 0x61, 0x13, 0x3e, 0x63, 0x66, 0x6b, 0xbe, 0x61, 0x81, 0x38, 0xbe, 
  0x5b, 0xe0, 0x8a, 0x3e, 0x6a, 0xc6, 0x35, 0xbe, 0x9a, 0xe9, 0x54, 0x3e, 
  0xa0, 0xba, 0x31, 0x3e, 0xd0, 0x2b, 0x03, 0x3d, 0x00, 0x6f, 0x0a, 0xbb, 
  0x67, 0xb4, 0x86, 0x3e, 0xac, 0x98, 0x33, 0x3e, 0x44, 0xc9, 0xe1, 0xbd, 
  0x5e, 0x86, 0xa8, 0xbd, 0xe0, 0xff, 0x8f, 0xbe, 0x9e, 0x55, 0x4e, 0x3e, 
  0x12, 0x0c, 0xd1, 0xbd, 0x1a, 0x26, 0x18, 0x3e, 0xde, 0xeb, 0x39, 0xbe, 
  0xe8, 0x0c, 0x44, 0xbd, 0x20, 0x45, 0xf5, 0x3c, 0x56, 0x16, 0x44, 0x3e, 
  0x37, 0x7c, 0x57, 0xbe, 0xbc, 0x62, 0xb7, 0x3d, 0xc8, 0x9f, 0x44, 0x3d, 
  0xe8, 0xd7, 0x58, 0xbe, 0xcb, 0x97, 0x98, 0x3e, 0xaf, 0xae, 0x4e, 0xbe, 
  0x1c, 0x1f, 0x15, 0x3e, 0x4c, 0x22, 0x9a, 0xbd, 0xae, 0x4e, 0x93, 0xbe, 
  0x00, 0x5d, 0x37, 0x3b, 0x06, 0xbe, 0x64, 0x3e, 0x30, 0xd5, 0x58, 0xbd, 
  0x67, 0xf8, 0x3f, 0xbe, 0xb8, 0x03, 0x8f, 0xbd, 0xf0, 0x1a, 0x68, 0xbe, 
  0x00, 0x35, 0x51, 0xbb, 0xe8, 0x26, 0x16, 0xbe, 0xd2, 0xeb, 0x3a, 0x3e, 
  0x00, 0x73, 0x94, 0x3d, 0xb6, 0xed, 0x0e, 0x3e, 0x6c, 0x3e, 0x8e, 0xbd, 
  0xb4, 0x2e, 0x87, 0x3d, 0xb3, 0xeb, 0x89, 0x3e, 0x45, 0x02, 0x02, 0xbe, 
  0x5e, 0x6c, 0x6e, 0xbe, 0xc8, 0x0d, 0x60, 0x3d, 0x00, 0x7e, 0x0a, 0xbd, 
  0x88, 0xd3, 0x62, 0xbe, 0xb2, 0x9c, 0x6d, 0x3e, 0x1b, 0xf6, 0x58, 0xbe, 
  0x88, 0x80, 0xfb, 0x3d, 0x4f, 0x47, 0x24, 0xbe, 0x80, 0x6e, 0x01, 0xbc, 
  0x00, 0xfb, 0x45, 0xbd, 0xc8, 0xee, 0x7f, 0xbe, 0xac, 0xf5, 0xee, 0x3d, 
  0x86, 0x24, 0xcd, 0xbd, 0xd0, 0x5a, 0xbf, 0x3d, 0x23, 0xd0, 0x88, 0xbe, 
  0x80, 0x71, 0x90, 0xbc, 0x00, 0x68, 0x76, 0xb9, 0xb7, 0x04, 0x8a, 0x3e, 
  0x42, 0x36, 0x69, 0xbe, 0x60, 0xdb, 0x1b, 0xbc, 0xde, 0xac, 0x24, 0x3e, 
  0xda, 0x96, 0x5c, 0x3e, 0xea, 0xa8, 0x04, 0xbe, 0x10, 0x76, 0x0c, 0xbd, 
  0xd2, 0x56, 0x46, 0x3e, 0x50, 0xbc, 0x42, 0x3d, 0x98, 0xd9, 0x49, 0x3d, 
  0xe2, 0x34, 0xd6, 0xbd, 0x4e, 0xac, 0x7d, 0x3e, 0xbc, 0xbd, 0x19, 0xbe, 
  0x2e, 0x08, 0x92, 0xbe, 0xa1, 0x39, 0x58, 0xbe, 0x50, 0x60, 0xb2, 0xbc, 
  0xd0, 0x36, 0x82, 0xbe, 0x0a, 0xc2, 0x99, 0xbd, 0x9b, 0x9b, 0x9c, 0xbe, 
  0x29, 0xa1, 0x15, 0xbe, 0x90, 0x36, 0xd9, 0x3d, 0xc0, 0x3d, 0xc7, 0xbb, 
  0x5e, 0x4f, 0x05, 0x3e, 0x1a, 0x3d, 0x36, 0x3e, 0xce, 0x49, 0x53, 0x3e, 
  0xe0, 0x17, 0x38, 0x3e, 0xc2, 0xa9, 0x4c, 0x3e, 0x86, 0x67, 0x6b, 0x3e, 
  0x24, 0x5c, 0xaf, 0x3d, 0xe9, 0x18, 0x85, 0x3e, 0x72, 0x92, 0x93, 0xbe, 
  0x38, 0xf8, 0xd5, 0xbd, 0x96, 0x07, 0xf7, 0xbd, 0x98, 0x98, 0xb1, 0x3d, 
  0x59, 0x15, 0x97, 0xbe, 0x20, 0x1e, 0xd9, 0x3c, 0x86, 0xd9, 0x29, 0x3e, 
  0xd6, 0x76, 0x27, 0x3e, 0x56, 0xa8, 0x5e, 0x3e, 0xe0, 0xbc, 0x8b, 0xbe, 
  0x60, 0x45, 0x8b, 0xbc, 0xf8, 0xf8, 0xb5, 0x3d, 0x79, 0xfe, 0x98, 0x3e, 
  0xf4, 0xa9, 0x61, 0xbe, 0x30, 0x36, 0x50, 0x3d, 0x00, 0xe8, 0xf3, 0xbb, 
  0xe0, 0xb9, 0xd5, 0x3d, 0xb8, 0x55, 0xa4, 0xbd, 0x64, 0x97, 0xc6, 0x3d, 
  0x5f, 0xb3, 0x84, 0x3e, 0xb4, 0x7d, 0x06, 0xbe, 0x9d, 0xa9, 0x8c, 0x3e, 
  0xd2, 0x4d, 0x5e, 0x3e, 0xb6, 0xca, 0x5e, 0x3e, 0x10, 0xc2, 0x10, 0xbe, 
  0xff, 0xa7, 0x6a, 0xbe, 0x7c, 0xc8, 0x7b, 0xbd, 0x14, 0xed, 0x9f, 0xbd, 
  0xf4, 0x8f, 0x50, 0xbe, 0x74, 0x1e, 0x03, 0x3e, 0xb2, 0x7b, 0xa9, 0xbd, 
  0xc2, 0xab, 0xda, 0xbd, 0x08, 0xf9, 0x54, 0xbe, 0xf8, 0x0e, 0x62, 0x3d, 
  0x9c, 0xe8, 0xd9, 0x3d, 0xe0, 0x74, 0xde, 0xbd, 0x30, 0xdd, 0xf9, 0xbc, 
  0x64, 0x58, 0x25, 0xbe, 0x9c, 0xa7, 0x34, 0x3e, 0x45, 0x6a, 0x18, 0xbe, 
  0x89, 0xf6, 0x8e, 0xbe, 0xc8, 0xc7, 0x3d, 0x3d, 0x23, 0x16, 0x89, 0xbe, 
  0x77, 0xf0, 0x8a, 0x3e, 0xd0, 0x4d, 0xe7, 0x3c, 0x8e, 0x94, 0x79, 0x3e, 
  0xca, 0xfa, 0x5b, 0x3e, 0xea, 0xf4, 0x63, 0xbe, 0xac, 0x10, 0x31, 0xbe, 
  0x60, 0x83, 0x38, 0x3c, 0x30, 0xa3, 0xc9, 0xbc, 0x48, 0xb6, 0x75, 0xbd, 
  0x2e, 0x14, 0x2e, 0x3e, 0x55, 0x02, 0x21, 0xbe, 0x24, 0xf7, 0x95, 0xbe, 
  0xde, 0x15, 0x75, 0x3e, 0xf2, 0xdb, 0x77, 0x3e, 0x48, 0x31, 0x87, 0xbe, 
  0xe6, 0x0f, 0x72, 0x3e, 0xc8, 0x6e, 0xc6, 0x3d, 0x0e, 0x53, 0x96, 0xbe, 
  0x56, 0x5c, 0x57, 0x3e, 0xf8, 0xeb, 0x54, 0x3d, 0x1a, 0x75, 0x67, 0xbe, 
  0x1d, 0x90, 0x51, 0xbe, 0xec, 0xcf, 0xbe, 0x3d, 0xb1, 0x72, 0x52, 0xbe, 
  0x9c, 0x39, 0xef, 0x3d, 0x0a, 0x7f, 0x9b, 0xbd, 0x72, 0xe4, 0x6f, 0x3e, 
  0x8c, 0x27, 0xec, 0x3d, 0x7f, 0x25, 0x26, 0xbe, 0xc9, 0x5e, 0x93, 0xbe, 
  0x58, 0x60, 0xe4, 0x3d, 0x86, 0x9a, 0xd5, 0xbd, 0x23, 0x56, 0x84, 0x3e, 
  0x00, 0x69, 0x7c, 0xbd, 0xde, 0x19, 0x79, 0xbe, 0xf0, 0xec, 0x8d, 0xbe, 
  0x6d, 0xbd, 0x7b, 0xbe, 0x76, 0x8a, 0xc7, 0xbd, 0x2f, 0xcd, 0x93, 0xbe, 
  0xfe, 0xe9, 0x52, 0xbe, 0x28, 0x94, 0xb4, 0x3d, 0x6e, 0xea, 0x05, 0xbe, 
  0xd4, 0x28, 0xe5, 0x3d, 0xc6, 0xed, 0x65, 0x3e, 0xe2, 0x6b, 0x3b, 0x3e, 
  0x68, 0x53, 0xaa, 0xbd, 0xd7, 0xa1, 0x2d, 0xbe, 0x1a, 0xb0, 0x22, 0xbe, 
  0xf2, 0x81, 0xdc, 0xbd, 0xbc, 0xb9, 0x9d, 0x3d, 0x90, 0xc1, 0x00, 0xbd, 
  0x7e, 0x36, 0x94, 0xbe, 0xf0, 0xd5, 0x8a, 0xbc, 0x52, 0x38, 0x1e, 0x3e, 
  0x52, 0x0f, 0x2e, 0x3e, 0x95, 0x4f, 0x7d, 0xbe, 0x10, 0x34, 0x97, 0xbd, 
  0x38, 0x77, 0xe7, 0x3d, 0xc0, 0xbd, 0x2f, 0xbc, 0xa0, 0x4b, 0x93, 0x3c, 
  0x56, 0xbd, 0x0c, 0xbe, 0x90, 0xf5, 0xb9, 0x3d, 0xb2, 0x71, 0x2d, 0x3e, 
  0x7e, 0x5c, 0x56, 0x3e, 0x6a, 0x45, 0x79, 0x3e, 0x7c, 0x10, 0x3f, 0x3e, 
  0x28, 0xcd, 0x2c, 0x3e, 0x20, 0x52, 0x6c, 0x3d, 0x58, 0x35, 0x9d, 0xbd, 
  0x66, 0xa9, 0xc4, 0xbd, 0x00, 0x34, 0xe2, 0x3d, 0x5e, 0xb2, 0x19, 0xbe, 
  0x8f, 0xfc, 0x87, 0x3e, 0x7c, 0x49, 0xb5, 0x3d, 0x50, 0x7f, 0x60, 0x3d, 
  0x80, 0xd7, 0xc7, 0xbb, 0x4c, 0xfb, 0x1f, 0xbe, 0xbe, 0xfd, 0x11, 0xbe, 
  0x70, 0x10, 0x8b, 0xbc, 0xcc, 0xa8, 0xb5, 0x3d, 0x39, 0xe5, 0x80, 0xbe, 
  0x7e, 0x63, 0xc6, 0xbd, 0xab, 0x02, 0x92, 0xbe, 0x38, 0x93, 0x2b, 0xbe, 
  0x5a, 0xb8, 0x0f, 0xbe, 0x84, 0xcc, 0x48, 0xbe, 0x75, 0x23, 0x0a, 0xbe, 
  0xe6, 0xf1, 0x2c, 0xbe, 0x86, 0x57, 0x54, 0x3e, 0xaa, 0xbe, 0x1a, 0x3e, 
  0xa4, 0xe1, 0xf0, 0xbd, 0x40, 0xc6, 0x77, 0xbe, 0x3b, 0x46, 0x95, 0x3e, 
  0x60, 0xa4, 0x0b, 0x3e, 0x62, 0xab, 0x9b, 0xbe, 0x38, 0x2e, 0x9c, 0xbe, 
  0xd4, 0x9e, 0x1b, 0xbe, 0x4a, 0xbd, 0x48, 0x3e, 0xe8, 0x08, 0x41, 0xbe, 
  0x23, 0x09, 0x87, 0x3e, 0x3c, 0xcc, 0x93, 0xbd, 0xcb, 0x51, 0x82, 0x3e, 
  0xbc, 0x2e, 0x83, 0xbd, 0x6e, 0x93, 0x63, 0xbe, 0xec, 0xa4, 0x6f, 0xbd, 
  0xa0, 0x9c, 0x5e, 0xbe, 0x80, 0x13, 0x06, 0xbc, 0x50, 0x1c, 0x18, 0x3d, 
  0xe0, 0xcd, 0xae, 0xbc, 0xef, 0x31, 0x88, 0x3e, 0x28, 0xb7, 0x41, 0x3d, 
  0x44, 0xf5, 0x9b, 0x3d, 0x76, 0x4d, 0xb0, 0xbd, 0x55, 0xca, 0x74, 0xbe, 
  0xbb, 0x59, 0x86, 0x3e, 0x6e, 0xde, 0xe5, 0xbd, 0x1d, 0xdb, 0x92, 0xbe, 
  0x77, 0x87, 0x38, 0xbe, 0x28, 0x8a, 0xc7, 0xbd, 0x0c, 0x9c, 0x3b, 0xbe, 
  0x72, 0x8c, 0x12, 0x3e, 0x51, 0x81, 0x96, 0x3e, 0x7e, 0x04, 0x32, 0x3e, 
  0x7b, 0x9f, 0x84, 0x3e, 0xd8, 0x71, 0x04, 0x3d, 0x41, 0xc1, 0x9c, 0xbe, 
  0xa6, 0x71, 0x56, 0x3e, 0xd6, 0xad, 0xa5, 0xbd, 0x9a, 0x81, 0x24, 0x3e, 
  0x1a, 0xcd, 0x36, 0xbe, 0x4a, 0x7b, 0x1f, 0x3e, 0x46, 0x60, 0xf4, 0xbd, 
  0x20, 0x0a, 0x39, 0x3c, 0xda, 0xca, 0x37, 0x3e, 0x58, 0x41, 0x51, 0xbd, 
  0x7d, 0x80, 0x88, 0x3e, 0x14, 0xe0, 0x0d, 0x3e, 0x36, 0x6b, 0x58, 0x3e, 
  0x78, 0x7c, 0x43, 0xbd, 0x22, 0xff, 0x70, 0x3e, 0xc0, 0xd1, 0xa3, 0x3b, 
  0x30, 0x99, 0x0e, 0xbe, 0x00, 0x00, 0x06, 0x00, 0x08, 0x00, 0x04, 0x00, 
  0x06, 0x00, 0x00, 0x00, 0x04, 0x00, 0x00, 0x00, 0x80, 0x02, 0x00, 0x00, 
  0xf0, 0xbe, 0xcf, 0xbd, 0x0c, 0x1e, 0x78, 0x3e, 0xb8, 0x25, 0xb3, 0x3d, 
  0x20, 0xbe, 0xcf, 0x3c, 0x00, 0xc2, 0x5c, 0x3c, 0x6d, 0xb0, 0x2b, 0xbe, 
  0x38, 0xf3, 0x48, 0x3d, 0xc8, 0x3b, 0x69, 0x3d, 0x8e, 0x20, 0x77, 0xbe, 
  0x8e, 0xaa, 0x08, 0xbe, 0xb0, 0xbd, 0x6e, 0x3e, 0x54, 0x62, 0x9a, 0xbe, 
  0xe8, 0x46, 0x0c, 0xbe, 0x43, 0xdd, 0xac, 0xbe, 0x9f, 0x47, 0xbd, 0xbe, 
  0x08, 0x4c, 0x87, 0x3e, 0x84, 0xf6, 0xb4, 0xbe, 0x69, 0x35, 0x58, 0xbe, 
  0xdc, 0x56, 0x6e, 0x3e, 0x72, 0xe4, 0x43, 0xbe, 0x00, 0x3c, 0x79, 0xbc, 
  0x60, 0x0c, 0x8c, 0x3d, 0x5a, 0x7a, 0xaf, 0x3e, 0x20, 0xfe, 0xe6, 0xbc, 
  0xd9, 0x14, 0x91, 0xbe, 0x0c, 0xae, 0x9c, 0x3e, 0xf8, 0xd8, 0xaf, 0xbd, 
  0x4c, 0x2b, 0xa8, 0x3e, 0xc2, 0x0e, 0xae, 0x3e, 0x20, 0x1e, 0x4b, 0x3d, 
  0x5d, 0xae, 0x95, 0xbe, 0x91, 0xee, 0x23, 0xbe, 0xc8, 0x47, 0x6a, 0x3d, 
  0x40, 0xc3, 0x2f, 0x3e, 0x0f, 0xd7, 0xa1, 0xbe, 0xf3, 0x2d, 0x3b, 0xbe, 
  0x24, 0x9a, 0x99, 0x3e, 0x48, 0x03, 0x8e, 0x3e, 0x9c, 0x03, 0x98, 0x3d, 
  0x0b, 0xb2, 0x4e, 0xbe, 0xe8, 0x10, 0x90, 0x3e, 0x24, 0xfe, 0xf1, 0xbd, 
  0x96, 0xd3, 0x0b, 0xbe, 0xf4, 0xfd, 0xc8, 0xbe, 0xa0, 0x64, 0x7c, 0xbc, 
  0xfd, 0xeb, 0x91, 0xbe, 0x42, 0x29, 0x91, 0x3e, 0x64, 0x92, 0x1e, 0x3e, 
  0x54, 0xb0, 0xa2, 0x3e, 0xbc, 0x57, 0x9d, 0x3d, 0xbc, 0x79, 0x97, 0x3e, 
  0x5c, 0x88, 0xac, 0x3e, 0xe0, 0x93, 0x6d, 0xbe, 0xdf, 0xad, 0xa4, 0xbe, 
  0x5d, 0x7a, 0x2d, 0xbe, 0xc6, 0x8e, 0x9c, 0x3e, 0xcd, 0x46, 0x4e, 0xbe, 
  0xe8, 0x65, 0x39, 0x3e, 0x90, 0xda, 0x35, 0x3e, 0xe4, 0x9e, 0xc0, 0x3d, 
  0x00, 0x63, 0x90, 0xbd, 0x28, 0x97, 0x8d, 0xbd, 0x8a, 0xda, 0x54, 0xbe, 
  0xc8, 0xe0, 0x8c, 0x3d, 0x74, 0xde, 0xc5, 0x3e, 0x47, 0xf1, 0x5f, 0xbe, 
  0xef, 0x53, 0x96, 0xbe, 0xf0, 0x6c, 0x80, 0x3c, 0xd8, 0x59, 0x9b, 0x3e, 
  0x61, 0x2a, 0xa1, 0xbe, 0xb4, 0x02, 0x6b, 0xbe, 0x28, 0x65, 0x84, 0x3d, 
  0x54, 0x93, 0x08, 0x3e, 0xd8, 0x97, 0xd9, 0x3d, 0x08, 0x14, 0x69, 0xbd, 
  0x2e, 0xa0, 0x97, 0xbe, 0xf3, 0x63, 0x3a, 0xbe, 0xfc, 0x6d, 0x0d, 0xbe, 
  0x50, 0x1d, 0x43, 0x3d, 0x11, 0x6a, 0x38, 0xbe, 0x38, 0x5c, 0xbd, 0x3e, 
  0xc8, 0x42, 0x44, 0x3d, 0xb8, 0x71, 0x9a, 0x3e, 0xc8, 0x97, 0x26, 0x3d, 
  0x6a, 0xc1, 0xaf, 0x3e, 0x10, 0x59, 0xcf, 0xbc, 0x80, 0x8e, 0xd1, 0xbd, 
  0xf4, 0xaa, 0xa2, 0x3d, 0x38, 0x68, 0x7c, 0x3e, 0xc2, 0x65, 0xb5, 0x3e, 
  0x8e, 0x31, 0x93, 0x3e, 0x2b, 0x85, 0xc9, 0xbe, 0xf8, 0xcb, 0x3a, 0x3d, 
  0xf0, 0xe5, 0xa6, 0x3d, 0x68, 0x57, 0xc0, 0x3d, 0x16, 0x96, 0xa1, 0x3e, 
  0x00, 0xa6, 0xb6, 0x3a, 0x74, 0x45, 0xc5, 0x3e, 0x4e, 0x63, 0xc1, 0xbe, 
  0x78, 0xa3, 0xc8, 0x3e, 0xb7, 0xa9, 0xc4, 0xbe, 0x82, 0xa4, 0x90, 0xbe, 
  0x18, 0x45, 0x45, 0xbd, 0x6a, 0xf0, 0xaf, 0xbe, 0xc4, 0x04, 0xb8, 0xbd, 
  0x22, 0xf2, 0x80, 0xbe, 0x58, 0xa4, 0x96, 0xbe, 0x70, 0xf2, 0x22, 0xbd, 
  0x18, 0x9a, 0x26, 0x3e, 0x70, 0x0e, 0xbd, 0x3d, 0x38, 0x01, 0xca, 0xbd, 
  0x92, 0x52, 0x2f, 0xbe, 0x8c, 0x21, 0xbf, 0x3d, 0xb8, 0x1f, 0xad, 0x3e, 
  0x70, 0x73, 0x4f, 0x3d, 0x68, 0x2c, 0x74, 0x3d, 0x80, 0x89, 0xe5, 0x3d, 
  0x08, 0x16, 0x11, 0x3d, 0x30, 0xec, 0x9f, 0xbe, 0xf8, 0x6b, 0x06, 0xbd, 
  0xa0, 0x6d, 0xd3, 0x3c, 0x48, 0x7a, 0x23, 0x3e, 0xb8, 0xee, 0x5e, 0x3e, 
  0xae, 0x29, 0xc6, 0x3e, 0xb0, 0xf8, 0x2b, 0x3d, 0x28, 0xd3, 0xa4, 0x3e, 
  0x4c, 0x0e, 0x68, 0xbe, 0xc0, 0x85, 0xc0, 0xbb, 0x40, 0xb7, 0xf4, 0x3d, 
  0xc0, 0x14, 0x8b, 0xbc, 0x80, 0xf8, 0x9d, 0xbd, 0x9e, 0x67, 0x13, 0xbe, 
  0xc2, 0x34, 0x16, 0xbe, 0xbc, 0x23, 0x58, 0x3e, 0x60, 0x69, 0xe1, 0x3c, 
  0x7c, 0xb3, 0x75, 0x3e, 0x40, 0xae, 0x75, 0x3c, 0x38, 0x72, 0xc2, 0x3e, 
  0x79, 0xbd, 0x24, 0xbe, 0x10, 0x97, 0xd2, 0xbd, 0xe8, 0x5f, 0x5f, 0x3d, 
  0xe8, 0xde, 0xaa, 0x3e, 0x96, 0x03, 0xc9, 0x3e, 0x6f, 0x11, 0xb7, 0xbe, 
  0x18, 0x9f, 0x34, 0xbe, 0x14, 0xdd, 0x72, 0xbe, 0x88, 0x1d, 0x90, 0xbe, 
  0xc8, 0xfe, 0xf4, 0xbd, 0x2b, 0x36, 0xa5, 0xbe, 0x0d, 0xc4, 0xc9, 0xbe, 
  0x58, 0x7d, 0x02, 0xbd, 0x92, 0x74, 0xc2, 0x3e, 0xb4, 0x9d, 0x74, 0x3e, 
  0x48, 0x6f, 0x3d, 0x3d, 0x7f, 0xce, 0xc5, 0xbe, 0x84, 0x30, 0xf2, 0xbd, 
  0xdc, 0xe7, 0xa2, 0x3e, 0xae, 0x90, 0x82, 0xbe, 0x1c, 0x67, 0x07, 0x3e, 
  0xc8, 0xa7, 0xdf, 0x3d, 0xfc, 0xfb, 0xff, 0xff, 0x00, 0xfc, 0xff, 0xff, 
  0x0f, 0x00, 0x00, 0x00, 0x4d, 0x4c, 0x49, 0x52, 0x20, 0x43, 0x6f, 0x6e, 
  0x76, 0x65, 0x72, 0x74, 0x65, 0x64, 0x2e, 0x00, 0x01, 0x00, 0x00, 0x00, 
  0x14, 0x00, 0x00, 0x00, 0x00, 0x00, 0x0e, 0x00, 0x18, 0x00, 0x14, 0x00, 
  0x10, 0x00, 0x0c, 0x00, 0x08, 0x00, 0x04, 0x00, 0x0e, 0x00, 0x00, 0x00, 
  0x14, 0x00, 0x00, 0x00, 0x1c, 0x00, 0x00, 0x00, 0xd8, 0x00, 0x00, 0x00, 
  0xdc, 0x00, 0x00, 0x00, 0xe0, 0x00, 0x00, 0x00, 0x04, 0x00, 0x00, 0x00, 
  0x6d, 0x61, 0x69, 0x6e, 0x00, 0x00, 0x00, 0x00, 0x03, 0x00, 0x00, 0x00, 
  0x80, 0x00, 0x00, 0x00, 0x38, 0x00, 0x00, 0x00, 0x04, 0x00, 0x00, 0x00, 
  0x9a, 0xff, 0xff, 0xff, 0x10, 0x00, 0x00, 0x00, 0x00, 0x00, 0x00, 0x08, 
  0x0c, 0x00, 0x00, 0x00, 0x10, 0x00, 0x00, 0x00, 0x78, 0xfc, 0xff, 0xff, 
  0x01, 0x00, 0x00, 0x00, 0x06, 0x00, 0x00, 0x00, 0x03, 0x00, 0x00, 0x00, 
  0x05, 0x00, 0x00, 0x00, 0x03, 0x00, 0x00, 0x00, 0xff, 0xff, 0xff, 0xff, 
  0xca, 0xff, 0xff, 0xff, 0x10, 0x00, 0x00, 0x00, 0x00, 0x00, 0x00, 0x08, 
  0x10, 0x00, 0x00, 0x00, 0x14, 0x00, 0x00, 0x00, 0xba, 0xff, 0xff, 0xff, 
  0x00, 0x00, 0x00, 0x01, 0x01, 0x00, 0x00, 0x00, 0x05, 0x00, 0x00, 0x00, 
  0x03, 0x00, 0x00, 0x00, 0x04, 0x00, 0x00, 0x00, 0x02, 0x00, 0x00, 0x00, 
  0xff, 0xff, 0xff, 0xff, 0x00, 0x00, 0x0e, 0x00, 0x16, 0x00, 0x00, 0x00, 
  0x10, 0x00, 0x0c, 0x00, 0x0b, 0x00, 0x04, 0x00, 0x0e, 0x00, 0x00, 0x00, 
  0x18, 0x00, 0x00, 0x00, 0x00, 0x00, 0x00, 0x08, 0x18, 0x00, 0x00, 0x00, 
  0x1c, 0x00, 0x00, 0x00, 0x00, 0x00, 0x06, 0x00, 0x08, 0x00, 0x07, 0x00, 
  0x06, 0x00, 0x00, 0x00, 0x00, 0x00, 0x00, 0x01, 0x01, 0x00, 0x00, 0x00, 
  0x04, 0x00, 0x00, 0x00, 0x03, 0x00, 0x00, 0x00, 0x00, 0x00, 0x00, 0x00, 
  0x01, 0x00, 0x00, 0x00, 0xff, 0xff, 0xff, 0xff, 0x01, 0x00, 0x00, 0x00, 
  0x06, 0x00, 0x00, 0x00, 0x01, 0x00, 0x00, 0x00, 0x00, 0x00, 0x00, 0x00, 
  0x07, 0x00, 0x00, 0x00, 0xb0, 0x02, 0x00, 0x00, 0x48, 0x02, 0x00, 0x00, 
  0xe0, 0x01, 0x00, 0x00, 0x90, 0x01, 0x00, 0x00, 0xf8, 0x00, 0x00, 0x00, 
  0x60, 0x00, 0x00, 0x00, 0x04, 0x00, 0x00, 0x00, 0x82, 0xfd, 0xff, 0xff, 
  0x00, 0x00, 0x00, 0x01, 0x14, 0x00, 0x00, 0x00, 0x1c, 0x00, 0x00, 0x00, 
  0x1c, 0x00, 0x00, 0x00, 0x07, 0x00, 0x00, 0x00, 0x34, 0x00, 0x00, 0x00, 
  0x02, 0x00, 0x00, 0x00, 0xff, 0xff, 0xff, 0xff, 0x01, 0x00, 0x00, 0x00, 
  0x6c, 0xfd, 0xff, 0xff, 0x19, 0x00, 0x00, 0x00, 0x53, 0x74, 0x61, 0x74, 
  0x65, 0x66, 0x75, 0x6c, 0x50, 0x61, 0x72, 0x74, 0x69, 0x74, 0x69, 0x6f, 
  0x6e, 0x65, 0x64, 0x43, 0x61, 0x6c, 0x6c, 0x3a, 0x30, 0x00, 0x00, 0x00, 
  0x02, 0x00, 0x00, 0x00, 0x01, 0x00, 0x00, 0x00, 0x01, 0x00, 0x00, 0x00, 
  0xda, 0xfd, 0xff, 0xff, 0x00, 0x00, 0x00, 0x01, 0x14, 0x00, 0x00, 0x00, 
  0x1c, 0x00, 0x00, 0x00, 0x1c, 0x00, 0x00, 0x00, 0x06, 0x00, 0x00, 0x00, 
  0x70, 0x00, 0x00, 0x00, 0x02, 0x00, 0x00, 0x00, 0xff, 0xff, 0xff, 0xff, 
  0x20, 0x00, 0x00, 0x00, 0xc4, 0xfd, 0xff, 0xff, 0x55, 0x00, 0x00, 0x00, 
  0x65, 0x73, 0x70, 0x33, 0x32, 0x5f, 0x63, 0x72, 0x69, 0x74, 0x69, 0x63, 
  0x2f, 0x64, 0x65, 0x6e, 0x73, 0x65, 0x5f, 0x36, 0x37, 0x2f, 0x4d, 0x61, 
  0x74, 0x4d, 0x75, 0x6c, 0x3b, 0x65, 0x73, 0x70, 0x33, 0x32, 0x5f, 0x63, 
  0x72, 0x69, 0x74, 0x69, 0x63, 0x2f, 0x64, 0x65, 0x6e, 0x73, 0x65, 0x5f, 
  0x36, 0x37, 0x2f, 0x52, 0x65, 0x6c, 0x75, 0x3b, 0x65, 0x73, 0x70, 0x33, 
  0x32, 0x5f, 0x63, 0x72, 0x69, 0x74, 0x69, 0x63, 0x2f, 0x64, 0x65, 0x6e, 
  0x73, 0x65, 0x5f, 0x36, 0x37, 0x2f, 0x42, 0x69, 0x61, 0x73, 0x41, 0x64, 
  0x64, 0x00, 0x00, 0x00, 0x02, 0x00, 0x00, 0x00, 0x01, 0x00, 0x00, 0x00, 
  0x20, 0x00, 0x00, 0x00, 0x6e, 0xfe, 0xff, 0xff, 0x00, 0x00, 0x00, 0x01, 
  0x14, 0x00, 0x00, 0x00, 0x1c, 0x00, 0x00, 0x00, 0x1c, 0x00, 0x00, 0x00, 
  0x05, 0x00, 0x00, 0x00, 0x70, 0x00, 0x00, 0x00, 0x02, 0x00, 0x00, 0x00, 
  0xff, 0xff, 0xff, 0xff, 0x20, 0x00, 0x00, 0x00, 0x58, 0xfe, 0xff, 0xff, 
  0x55, 0x00, 0x00, 0x00, 0x65, 0x73, 0x70, 0x33, 0x32, 0x5f, 0x63, 0x72, 
  0x69, 0x74, 0x69, 0x63, 0x2f, 0x64, 0x65, 0x6e, 0x73, 0x65, 0x5f, 0x36, 
  0x36, 0x2f, 0x4d, 0x61, 0x74, 0x4d, 0x75, 0x6c, 0x3b, 0x65, 0x73, 0x70, 
  0x33, 0x32, 0x5f, 0x63, 0x72, 0x69, 0x74, 0x69, 0x63, 0x2f, 0x64, 0x65, 
  0x6e, 0x73, 0x65, 0x5f, 0x36, 0x36, 0x2f, 0x52, 0x65, 0x6c, 0x75, 0x3b, 
  0x65, 0x73, 0x70, 0x33, 0x32, 0x5f, 0x63, 0x72, 0x69, 0x74, 0x69, 0x63, 
  0x2f, 0x64, 0x65, 0x6e, 0x73, 0x65, 0x5f, 0x36, 0x36, 0x2f, 0x42, 0x69, 
  0x61, 0x73, 0x41, 0x64, 0x64, 0x00, 0x00, 0x00, 0x02, 0x00, 0x00, 0x00, 
  0x01, 0x00, 0x00, 0x00, 0x20, 0x00, 0x00, 0x00, 0x66, 0xff, 0xff, 0xff, 
  0x00, 0x00, 0x00, 0x01, 0x10, 0x00, 0x00, 0x00, 0x10, 0x00, 0x00, 0x00, 
  0x04, 0x00, 0x00, 0x00, 0x2c, 0x00, 0x00, 0x00, 0xdc, 0xfe, 0xff, 0xff, 
  0x1c, 0x00, 0x00, 0x00, 0x65, 0x73, 0x70, 0x33, 0x32, 0x5f, 0x63, 0x72, 
  0x69, 0x74, 0x69, 0x63, 0x2f, 0x64, 0x65, 0x6e, 0x73, 0x65, 0x5f, 0x36, 
  0x38, 0x2f, 0x4d, 0x61, 0x74, 0x4d, 0x75, 0x6c, 0x00, 0x00, 0x00, 0x00, 
  0x02, 0x00, 0x00, 0x00, 0x01, 0x00, 0x00, 0x00, 0x20, 0x00, 0x00, 0x00, 
  0xb2, 0xff, 0xff, 0xff, 0x00, 0x00, 0x00, 0x01, 0x10, 0x00, 0x00, 0x00, 
  0x10, 0x00, 0x00, 0x00, 0x03, 0x00, 0x00, 0x00, 0x2c, 0x00, 0x00, 0x00, 
  0x28, 0xff, 0xff, 0xff, 0x1c, 0x00, 0x00, 0x00, 0x65, 0x73, 0x70, 0x33, 
  0x32, 0x5f, 0x63, 0x72, 0x69, 0x74, 0x69, 0x63, 0x2f, 0x64, 0x65, 0x6e, 
  0x73, 0x65, 0x5f, 0x36, 0x37, 0x2f, 0x4d, 0x61, 0x74, 0x4d, 0x75, 0x6c, 
  0x00, 0x00, 0x00, 0x00, 0x02, 0x00, 0x00, 0x00, 0x20, 0x00, 0x00, 0x00, 
  0x20, 0x00, 0x00, 0x00, 0x00, 0x00, 0x16, 0x00, 0x18, 0x00, 0x14, 0x00, 
  0x00, 0x00, 0x10, 0x00, 0x0c, 0x00, 0x08, 0x00, 0x00, 0x00, 0x00, 0x00, 
  0x00, 0x00, 0x07, 0x00, 0x16, 0x00, 0x00, 0x00, 0x00, 0x00, 0x00, 0x01, 
  0x10, 0x00, 0x00, 0x00, 0x10, 0x00, 0x00, 0x00, 0x02, 0x00, 0x00, 0x00, 
  0x2c, 0x00, 0x00, 0x00, 0x8c, 0xff, 0xff, 0xff, 0x1d, 0x00, 0x00, 0x00, 
  0x65, 0x73, 0x70, 0x33, 0x32, 0x5f, 0x63, 0x72, 0x69, 0x74, 0x69, 0x63, 
  0x2f, 0x64, 0x65, 0x6e, 0x73, 0x65, 0x5f, 0x36, 0x36, 0x2f, 0x4d, 0x61, 
  0x74, 0x4d, 0x75, 0x6c, 0x31, 0x00, 0x00, 0x00, 0x02, 0x00, 0x00, 0x00, 
  0x20, 0x00, 0x00, 0x00, 0x05, 0x00, 0x00, 0x00, 0x00, 0x00, 0x16, 0x00, 
  0x1c, 0x00, 0x18, 0x00, 0x00, 0x00, 0x14, 0x00, 0x10, 0x00, 0x0c, 0x00, 
  0x00, 0x00, 0x00, 0x00, 0x08, 0x00, 0x07, 0x00, 0x16, 0x00, 0x00, 0x00, 
  0x00, 0x00, 0x00, 0x01, 0x14, 0x00, 0x00, 0x00, 0x20, 0x00, 0x00, 0x00, 
  0x20, 0x00, 0x00, 0x00, 0x01, 0x00, 0x00, 0x00, 0x40, 0x00, 0x00, 0x00, 
  0x02, 0x00, 0x00, 0x00, 0xff, 0xff, 0xff, 0xff, 0x05, 0x00, 0x00, 0x00, 
  0x04, 0x00, 0x04, 0x00, 0x04, 0x00, 0x00, 0x00, 0x20, 0x00, 0x00, 0x00, 
  0x73, 0x65, 0x72, 0x76, 0x69, 0x6e, 0x67, 0x5f, 0x64, 0x65, 0x66, 0x61, 
  0x75, 0x6c, 0x74, 0x5f, 0x64, 0x65, 0x6e, 0x73, 0x65, 0x5f, 0x36, 0x36, 
  0x5f, 0x69, 0x6e, 0x70, 0x75, 0x74, 0x3a, 0x30, 0x00, 0x00, 0x00, 0x00, 
  0x02, 0x00, 0x00, 0x00, 0x01, 0x00, 0x00, 0x00, 0x05, 0x00, 0x00, 0x00, 
  0x01, 0x00, 0x00, 0x00, 0x10, 0x00, 0x00, 0x00, 0x0c, 0x00, 0x0c, 0x00, 
  0x0b, 0x00, 0x00, 0x00, 0x00, 0x00, 0x04, 0x00, 0x0c, 0x00, 0x00, 0x00, 
  0x09, 0x00, 0x00, 0x00, 0x00, 0x00, 0x00, 0x09, 
};

const unsigned int critic_model_len = 6488;
