#include "critic_task0.h"

const uint8_t critic_model[] = {

  0x1c, 0x00, 0x00, 0x00, 0x54, 0x46, 0x4c, 0x33, 0x14, 0x00, 0x20, 0x00, 
  0x1c, 0x00, 0x18, 0x00, 0x14, 0x00, 0x10, 0x00, 0x0c, 0x00, 0x00, 0x00, 
  0x08, 0x00, 0x04, 0x00, 0x14, 0x00, 0x00, 0x00, 0x1c, 0x00, 0x00, 0x00, 
  0x98, 0x00, 0x00, 0x00, 0xf0, 0x00, 0x00, 0x00, 0xd4, 0x15, 0x00, 0x00, 
  0xe4, 0x15, 0x00, 0x00, 0x04, 0x1a, 0x00, 0x00, 0x03, 0x00, 0x00, 0x00, 
  0x01, 0x00, 0x00, 0x00, 0x10, 0x00, 0x00, 0x00, 0x00, 0x00, 0x0a, 0x00, 
  0x10, 0x00, 0x0c, 0x00, 0x08, 0x00, 0x04, 0x00, 0x0a, 0x00, 0x00, 0x00, 
  0x0c, 0x00, 0x00, 0x00, 0x1c, 0x00, 0x00, 0x00, 0x3c, 0x00, 0x00, 0x00, 
  0x0f, 0x00, 0x00, 0x00, 0x73, 0x65, 0x72, 0x76, 0x69, 0x6e, 0x67, 0x5f, 
  0x64, 0x65, 0x66, 0x61, 0x75, 0x6c, 0x74, 0x00, 0x01, 0x00, 0x00, 0x00, 
  0x04, 0x00, 0x00, 0x00, 0x90, 0xff, 0xff, 0xff, 0x06, 0x00, 0x00, 0x00, 
  0x04, 0x00, 0x00, 0x00, 0x08, 0x00, 0x00, 0x00, 0x64, 0x65, 0x6e, 0x73, 
  0x65, 0x5f, 0x36, 0x38, 0x00, 0x00, 0x00, 0x00, 0x01, 0x00, 0x00, 0x00, 
  0x04, 0x00, 0x00, 0x00, 0x3a, 0xee, 0xff, 0xff, 0x04, 0x00, 0x00, 0x00, 
  0x0e, 0x00, 0x00, 0x00, 0x64, 0x65, 0x6e, 0x73, 0x65, 0x5f, 0x36, 0x36, 
  0x5f, 0x69, 0x6e, 0x70, 0x75, 0x74, 0x00, 0x00, 0x02, 0x00, 0x00, 0x00, 
  0x34, 0x00, 0x00, 0x00, 0x04, 0x00, 0x00, 0x00, 0xdc, 0xff, 0xff, 0xff, 
  0x09, 0x00, 0x00, 0x00, 0x04, 0x00, 0x00, 0x00, 0x13, 0x00, 0x00, 0x00, 
  0x43, 0x4f, 0x4e, 0x56, 0x45, 0x52, 0x53, 0x49, 0x4f, 0x4e, 0x5f, 0x4d, 
  0x45, 0x54, 0x41, 0x44, 0x41, 0x54, 0x41, 0x00, 0x08, 0x00, 0x0c, 0x00, 
  0x08, 0x00, 0x04, 0x00, 0x08, 0x00, 0x00, 0x00, 0x08, 0x00, 0x00, 0x00, 
  0x04, 0x00, 0x00, 0x00, 0x13, 0x00, 0x00, 0x00, 0x6d, 0x69, 0x6e, 0x5f, 
  0x72, 0x75, 0x6e, 0x74, 0x69, 0x6d, 0x65, 0x5f, 0x76, 0x65, 0x72, 0x73, 
  0x69, 0x6f, 0x6e, 0x00, 0x0a, 0x00, 0x00, 0x00, 0xe0, 0x14, 0x00, 0x00, 
  0xd8, 0x14, 0x00, 0x00, 0x48, 0x11, 0x00, 0x00, 0x30, 0x01, 0x00, 0x00, 
  0xa0, 0x00, 0x00, 0x00, 0x98, 0x00, 0x00, 0x00, 0x90, 0x00, 0x00, 0x00, 
  0x88, 0x00, 0x00, 0x00, 0x68, 0x00, 0x00, 0x00, 0x04, 0x00, 0x00, 0x00, 
  0xde, 0xee, 0xff, 0xff, 0x04, 0x00, 0x00, 0x00, 0x54, 0x00, 0x00, 0x00, 
  0x0c, 0x00, 0x00, 0x00, 0x08, 0x00, 0x0e, 0x00, 0x08, 0x00, 0x04, 0x00, 
  0x08, 0x00, 0x00, 0x00, 0x10, 0x00, 0x00, 0x00, 0x24, 0x00, 0x00, 0x00, 
  0x00, 0x00, 0x06, 0x00, 0x08, 0x00, 0x04, 0x00, 0x06, 0x00, 0x00, 0x00, 
  0x04, 0x00, 0x00, 0x00, 0x00, 0x00, 0x00, 0x00, 0x00, 0x00, 0x0a, 0x00, 
  0x10, 0x00, 0x0c, 0x00, 0x08, 0x00, 0x04, 0x00, 0x0a, 0x00, 0x00, 0x00, 
  0x02, 0x00, 0x00, 0x00, 0x02, 0x00, 0x00, 0x00, 0x04, 0x00, 0x00, 0x00, 
  0x06, 0x00, 0x00, 0x00, 0x32, 0x2e, 0x31, 0x33, 0x2e, 0x30, 0x00, 0x00, 
  0x3e, 0xef, 0xff, 0xff, 0x04, 0x00, 0x00, 0x00, 0x10, 0x00, 0x00, 0x00, 
  0x31, 0x2e, 0x35, 0x2e, 0x30, 0x00, 0x00, 0x00, 0x00, 0x00, 0x00, 0x00, 
  0x00, 0x00, 0x00, 0x00, 0xc4, 0xe7, 0xff, 0xff, 0xc8, 0xe7, 0xff, 0xff, 
  0xcc, 0xe7, 0xff, 0xff, 0x66, 0xef, 0xff, 0xff, 0x04, 0x00, 0x00, 0x00, 
  0x80, 0x00, 0x00, 0x00, 0x70, 0xef, 0x7e, 0x3e, 0xa4, 0x87, 0xc4, 0xbd, 
  0xc2, 0xe8, 0x4a, 0xbe, 0x9a, 0xd9, 0x77, 0xbe, 0xa3, 0xbc, 0x5d, 0xbe, 
  0x68, 0x27, 0x1a, 0x3e, 0x78, 0x1a, 0xc8, 0x3e, 0x68, 0x56, 0x7e, 0xbe, 
  0x00, 0xde, 0x7a, 0x3e, 0x72, 0xa4, 0xc5, 0x3e, 0xa8, 0x8c, 0x73, 0xbe, 
  0x6e, 0x56, 0xb8, 0x3e, 0x30, 0x81, 0x49, 0x3d, 0x38, 0x0b, 0xe8, 0x3d, 
  0xea, 0x7c, 0xd5, 0x3e, 0xfc, 0x41, 0xbf, 0xbe, 0x70, 0xf1, 0x4a, 0x3e, 
  0x60, 0xb5, 0xc5, 0x3d, 0x30, 0x78, 0xc7, 0x3e, 0xd4, 0xb7, 0xc3, 0xbd, 
  0x18, 0xe1, 0x5d, 0xbe, 0xdc, 0xfe, 0x3f, 0x3e, 0x5d, 0xed, 0xb3, 0xbe, 
  0xd0, 0x66, 0x2a, 0x3e, 0xb8, 0x95, 0x13, 0x3d, 0xda, 0xe5, 0x85, 0xbe, 
  0xb6, 0x65, 0xb3, 0xbe, 0xa6, 0x87, 0xbe, 0xbe, 0xa0, 0xbc, 0x03, 0xbe, 
  0xac, 0x73, 0xc1, 0x3e, 0xf8, 0x64, 0x6e, 0x3e, 0x50, 0xb1, 0x4c, 0xbd, 
  0xf2, 0xef, 0xff, 0xff, 0x04, 0x00, 0x00, 0x00, 0x00, 0x10, 0x00, 0x00, 
  0xa1, 0x9e, 0x87, 0xbe, 0x76, 0x5d, 0x5d, 0x3e, 0x08, 0x98, 0xb2, 0x3d, 
  0xa8, 0x0a, 0x14, 0x3d, 0x3a, 0x0e, 0x2e, 0x3e, 0xb5, 0x88, 0x88, 0x3e, 
  0x58, 0x7f, 0x0e, 0xbd, 0x30, 0x11, 0x86, 0xbc, 0x16, 0x7b, 0x8d, 0xbe, 
  0xb6, 0xc9, 0x15, 0x3e, 0xe2, 0xd1, 0x7b, 0xbe, 0x55, 0xd2, 0x78, 0xbe, 
  0x73, 0xf8, 0x86, 0x3e, 0xb0, 0xa0, 0xc4, 0x3c, 0x00, 0x4e, 0x65, 0xbc, 
  0x53, 0x94, 0x89, 0xbe, 0x96, 0xf9, 0xb9, 0xbd, 0x96, 0x91, 0x46, 0x3e, 
  0x75, 0xc1, 0x88, 0x3e, 0x18, 0x28, 0x67, 0xbe, 0x38, 0x1b, 0x51, 0xbd, 
  0xa6, 0xbe, 0x77, 0x3e, 0xa9, 0x36, 0x8b, 0x3e, 0x06, 0x35, 0x84, 0xbe, 
  0x48, 0x99, 0x92, 0x3d, 0x48, 0xf7, 0x0c, 0x3e, 0x68, 0x22, 0xa5, 0xbd, 
  0xd7, 0x4c, 0x52, 0xbe, 0xe2, 0x84, 0x57, 0x3e, 0xe6, 0x55, 0x19, 0x3e, 
  0x78, 0xc4, 0xba, 0x3d, 0x5e, 0x95, 0x3f, 0xbe, 0x5b, 0x1b, 0x92, 0x3e, 
  0x66, 0xc4, 0x60, 0x3e, 0xd2, 0xa0, 0x56, 0x3e, 0x40, 0x8b, 0x4d, 0xbe, 
  0x54, 0x49, 0x3e, 0x3e, 0xe0, 0xb2, 0x9b, 0x3c, 0x4d, 0xcd, 0x98, 0x3e, 
  0x1e, 0xfc, 0x95, 0xbe, 0x80, 0xc1, 0x50, 0xbd, 0xc5, 0x8e, 0x94, 0xbe, 
  0x70, 0x61, 0x9a, 0xbc, 0x9f, 0xaf, 0x03, 0xbe, 0xe4, 0x1a, 0x78, 0xbd, 
  0x26, 0x2b, 0x5c, 0x3e, 0xd0, 0x5f, 0xca, 0xbc, 0x2d, 0x21, 0x99, 0x3e, 
  0xef, 0xd6, 0x84, 0x3e, 0xb0, 0xd8, 0x69, 0xbe, 0x5e, 0xa9, 0xe0, 0xbd, 
  0x1c, 0xd9, 0x6d, 0xbe, 0x12, 0xe9, 0x9b, 0xbe, 0xb0, 0x19, 0xb4, 0x3c, 
  0x18, 0x7e, 0x78, 0xbe, 0xea, 0x62, 0x79, 0x3e, 0x34, 0x68, 0xab, 0x3d, 
  0xf2, 0xd9, 0x3c, 0xbe, 0x52, 0x75, 0x56, 0x3e, 0xc8, 0x5a, 0x5b, 0x3d, 
  0x00, 0xb1, 0x46, 0xbb, 0xc8, 0x76, 0x38, 0x3d, 0xd1, 0x69, 0x5a, 0xbe, 
  0x52, 0x0e, 0xb1, 0xbd, 0x80, 0x53, 0x20, 0xbb, 0x40, 0x61, 0xef, 0x3b, 
  0x72, 0xb3, 0x56, 0x3e, 0x78, 0x1c, 0x46, 0x3d, 0x1b, 0x01, 0x8c, 0x3e, 
  0x49, 0x74, 0x49, 0xbe, 0x08, 0xc9, 0x27, 0x3e, 0x90, 0x30, 0xd7, 0x3c, 
  0xb7, 0x97, 0x74, 0xbe, 0x62, 0x58, 0xe0, 0xbd, 0x86, 0x68, 0xb8, 0xbd, 
  0xc3, 0x23, 0x34, 0xbe, 0x53, 0xff, 0x87, 0x3e, 0xfb, 0xa3, 0x8e, 0x3e, 
  0x92, 0x6d, 0x02, 0x3e, 0xf4, 0xba, 0x75, 0xbd, 0xfc, 0x52, 0x76, 0xbd, 
  0xd0, 0x44, 0xd7, 0x3d, 0xf2, 0x2a, 0x7c, 0xbe, 0x02, 0xa9, 0x32, 0x3e, 
  0x9d, 0xd4, 0x90, 0x3e, 0xc8, 0x33, 0xb1, 0x3d, 0xee, 0xcc, 0x3e, 0x3e, 
  0x0c, 0x26, 0x7c, 0xbe, 0x8d, 0x7d, 0x9b, 0x3e, 0xd2, 0xca, 0x80, 0xbe, 
  0xd2, 0x49, 0x62, 0x3e, 0x44, 0xe9, 0x8a, 0x3d, 0xc6, 0x3f, 0xb6, 0xbd, 
  0x5b, 0x2b, 0x98, 0x3e, 0x30, 0x90, 0xff, 0x3d, 0x34, 0x94, 0x11, 0x3e, 
  0x60, 0x7f, 0x04, 0x3d, 0x54, 0x2b, 0x20, 0x3e, 0xaf, 0x8a, 0x74, 0xbe, 
  0xa0, 0x7e, 0xff, 0xbd, 0xb0, 0xdd, 0xf4, 0xbc, 0xd8, 0xdf, 0x42, 0xbd, 
  0x50, 0x8e, 0x09, 0x3d, 0xb6, 0xd6, 0x7b, 0x3e, 0x64, 0xd6, 0x67, 0xbe, 
  0x00, 0x6a, 0xc7, 0x3c, 0x21, 0x63, 0x9a, 0xbe, 0x6d, 0x7b, 0x9a, 0x3e, 
  0x58, 0xd6, 0x80, 0xbe, 0xc8, 0x4b, 0x0a, 0x3d, 0x8e, 0xbe, 0x4b, 0x3e, 
  0x70, 0x4b, 0x51, 0x3d, 0x56, 0x68, 0x87, 0xbd, 0x8a, 0xb3, 0x55, 0xbe, 
  0x14, 0x36, 0xdb, 0x3d, 0x60, 0xa0, 0x66, 0x3c, 0x44, 0x88, 0x06, 0x3e, 
  0xa2, 0x88, 0x51, 0xbe, 0x7c, 0xc0, 0x71, 0xbe, 0x10, 0x91, 0xf1, 0x3c, 
  0xd2, 0xec, 0x72, 0x3e, 0x60, 0x1c, 0x3b, 0xbd, 0x00, 0x6a, 0x2e, 0xba, 
  0x92, 0xa0, 0x7b, 0x3e, 0xc8, 0x0a, 0xd6, 0x3d, 0xeb, 0x7b, 0x8c, 0x3e, 
  0x82, 0x8d, 0x17, 0x3e, 0xad, 0x1a, 0x88, 0x3e, 0xe1, 0x30, 0x86, 0xbe, 
  0xb4, 0x82, 0xee, 0xbd, 0xe6, 0x79, 0x7e, 0x3e, 0x4a, 0x48, 0x43, 0xbe, 
  0xd8, 0x60, 0x42, 0x3d, 0x0a, 0xb6, 0x3f, 0x3e, 0x54, 0xc0, 0xd0, 0xbd, 
  0xf4, 0xc2, 0x89, 0xbd, 0xf6, 0x29, 0x75, 0x3e, 0x64, 0xd2, 0xdb, 0x3d, 
  0x77, 0xee, 0x8a, 0x3e, 0xb4, 0xad, 0xb7, 0x3d, 0xec, 0x2b, 0xb7, 0x3d, 
  0x28, 0xb1, 0xf5, 0xbd, 0xf0, 0xe6, 0x86, 0xbe, 0x16, 0x91, 0x62, 0x3e, 
  0x1d, 0x11, 0x09, 0xbe, 0xe9, 0xa0, 0x97, 0x3e, 0x34, 0x60, 0xda, 0x3d, 
  0x80, 0x03, 0xc6, 0xbb, 0xc6, 0x8e, 0x57, 0x3e, 0xb8, 0x5e, 0x08, 0x3e, 
  0x30, 0x80, 0x9c, 0xbc, 0x4c, 0x9d, 0x1b, 0x3e, 0x7b, 0x6f, 0x45, 0xbe, 
  0x80, 0x78, 0x73, 0x3c, 0x90, 0x63, 0x6f, 0xbd, 0xc4, 0x91, 0xd2, 0x3d, 
  0x5f, 0x79, 0x8b, 0x3e, 0x86, 0xcf, 0x83, 0xbe, 0xc0, 0x36, 0x12, 0xbe, 
  0x5a, 0xad, 0x4d, 0xbe, 0x0c, 0x4f, 0xf3, 0xbd, 0x5e, 0x5c, 0x48, 0x3e, 
  0xe8, 0xef, 0xe7, 0x3d, 0x9a, 0x7e, 0x66, 0x3e, 0x30, 0xae, 0xe9, 0xbc, 
  0xae, 0x30, 0x4c, 0x3e, 0xe8, 0x6d, 0x2f, 0x3e, 0x18, 0x42, 0x32, 0x3e, 
  0xbb, 0x55, 0x57, 0xbe, 0x47, 0xba, 0x44, 0xbe, 0x5c, 0xf2, 0x98, 0xbe, 
  0x34, 0x95, 0xc1, 0x3d, 0xa7, 0x25, 0x5e, 0xbe, 0xaa, 0x10, 0x6a, 0xbe, 
  0x2e, 0x16, 0xab, 0xbd, 0x8c, 0x3e, 0x6b, 0xbd, 0xd4, 0x42, 0x31, 0x3e, 
  0xe8, 0x25, 0x45, 0x3d, 0x3e, 0x26, 0x58, 0xbe, 0x04, 0xbb, 0xf7, 0x3d, 
  0xce, 0x64, 0xb8, 0xbd, 0x30, 0xff, 0x99, 0x3c, 0xb2, 0x1c, 0x7a, 0x3e, 
  0xc8, 0xa9, 0xc4, 0x3d, 0x84, 0xd8, 0xb9, 0x3d, 0x9a, 0xf1, 0x7c, 0x3e, 
  0x8a, 0x8b, 0x80, 0xbe, 0x2a, 0xd5, 0x27, 0x3e, 0xa4, 0x84, 0xaf, 0x3d, 
  0xb1, 0xf5, 0x68, 0xbe, 0xe0, 0x62, 0x41, 0xbd, 0xaa, 0x30, 0x3c, 0xbe, 
  0xa9, 0xfd, 0x89, 0x3e, 0xc0, 0xfd, 0x8e, 0x3b, 0x40, 0x97, 0xd9, 0xbb, 
  0x46, 0xf4, 0x32, 0x3e, 0xb4, 0x08, 0xf0, 0xbd, 0xf5, 0xdd, 0x8e, 0x3e, 
  0x8a, 0x04, 0x51, 0x3e, 0x1c, 0xd0, 0x0a, 0xbe, 0x00, 0x5b, 0xc5, 0x3a, 
  0x2a, 0x93, 0x57, 0x3e, 0x7b, 0xf5, 0x99, 0x3e, 0x30, 0x20, 0x2f, 0x3e, 
  0x74, 0xf0, 0x8c, 0xbd, 0xa0, 0x85, 0x23, 0x3e, 0x0f, 0x97, 0x62, 0xbe, 
  0x98, 0xbd, 0xe6, 0x3d, 0xb3, 0xe7, 0x7d, 0xbe, 0xc7, 0x62, 0x98, 0xbe, 
  0xaa, 0x8d, 0x1b, 0x3e, 0xa9, 0xe4, 0x80, 0x3e, 0xf9, 0xbe, 0x8d, 0xbe, 
  0x44, 0x5a, 0xb2, 0x3d, 0xb8, 0x96, 0x7b, 0x3d, 0x45, 0xdd, 0x97, 0xbe, 
  0x5a, 0xa8, 0xa8, 0xbd, 0xab, 0xee, 0x23, 0xbe, 0x42, 0x8c, 0x73, 0x3e, 
  0x1b, 0xa0, 0x8e, 0x3e, 0xa8, 0xf5, 0x2a, 0xbd, 0xd8, 0x6f, 0x1f, 0x3d, 
  0x7c, 0x62, 0x0b, 0xbe, 0xbb, 0x11, 0x91, 0x3e, 0x53, 0x7a, 0x81, 0x3e, 
  0xa0, 0xcb, 0x06, 0x3e, 0x40, 0xb6, 0xcd, 0x3b, 0x45, 0x67, 0x8f, 0x3e, 
  0xac, 0x9b, 0x8b, 0xbe, 0x50, 0xe0, 0x14, 0x3d, 0x24, 0x3d, 0x0c, 0xbe, 
  0xe1, 0x0f, 0x8b, 0x3e, 0xaf, 0x29, 0x98, 0xbe, 0x1f, 0x2f, 0x8a, 0xbe, 
  0x78, 0xe2, 0xe3, 0xbd, 0xea, 0x31, 0x67, 0x3e, 0x36, 0x3b, 0x7a, 0xbe, 
  0x70, 0x0d, 0x1b, 0x3d, 0x2b, 0x93, 0x9b, 0x3e, 0xc6, 0xd1, 0x8a, 0xbe, 
  0xa2, 0xf6, 0x27, 0xbe, 0x90, 0xcc, 0x73, 0xbe, 0x18, 0xc0, 0x74, 0xbe, 
  0x9e, 0x63, 0x04, 0x3e, 0xe9, 0x1e, 0x83, 0xbe, 0x66, 0x1b, 0x5d, 0x3e, 
  0x80, 0x22, 0xdc, 0x3d, 0x2a, 0xd8, 0xea, 0xbd, 0xed, 0xda, 0x8a, 0x3e, 
  0x08, 0xf0, 0x2f, 0x3e, 0x94, 0x97, 0x6a, 0xbe, 0x5d, 0xab, 0x99, 0x3e, 
  0xa1, 0x69, 0x99, 0x3e, 0xae, 0x7c, 0x49, 0x3e, 0x98, 0x05, 0x76, 0x3d, 
  0x2e, 0xe0, 0x0c, 0x3e, 0x3c, 0x3b, 0xde, 0x3d, 0xba, 0xf2, 0x8e, 0xbe, 
  0xcd, 0x78, 0x8d, 0x3e, 0xca, 0x78, 0x51, 0x3e, 0x94, 0x24, 0xf9, 0x3d, 
  0xce, 0x4b, 0x4c, 0x3e, 0xf2, 0x92, 0x79, 0x3e, 0x50, 0x97, 0x86, 0xbc, 
  0x52, 0x11, 0x76, 0xbe, 0xf6, 0x18, 0xdc, 0xbd, 0x19, 0x48, 0x82, 0x3e, 
  0x16, 0xbd, 0x44, 0x3e, 0x1a, 0xcd, 0xc7, 0xbd, 0xc0, 0x0c, 0xd8, 0x3d, 
  0x5b, 0x54, 0x96, 0xbe, 0x72, 0x77, 0x95, 0xbd, 0xda, 0x0b, 0x8e, 0xbe, 
  0x1a, 0x6d, 0x6e, 0x3e, 0xfc, 0x01, 0xf1, 0x3d, 0x02, 0xaa, 0xa9, 0xbd, 
  0x5d, 0x67, 0x8d, 0x3e, 0x6e, 0xbb, 0x8d, 0xbe, 0x94, 0xdd, 0x45, 0x3e, 
  0xd4, 0x63, 0x19, 0xbe, 0xfc, 0xdc, 0x91, 0x3d, 0x2e, 0x0c, 0x26, 0x3e, 
  0x12, 0x8a, 0x67, 0x3e, 0x10, 0xa6, 0x1e, 0xbd, 0x40, 0xc3, 0xb0, 0x3c, 
  0x6a, 0x72, 0x10, 0x3e, 0x4c, 0x83, 0x81, 0x3d, 0x4a, 0x50, 0x93, 0xbe, 
  0x9b, 0x12, 0x1c, 0xbe, 0xa0, 0x5a, 0x66, 0xbd, 0x4b, 0x35, 0x95, 0x3e, 
  0xc0, 0xcc, 0x37, 0x3e, 0x9e, 0xd5, 0x4f, 0xbe, 0x30, 0xe2, 0xa0, 0x3c, 
  0x61, 0xa4, 0x88, 0xbe, 0xb8, 0x21, 0x8e, 0x3d, 0x1e, 0x38, 0x53, 0x3e, 
  0xf8, 0xba, 0x34, 0xbd, 0xd1, 0x3d, 0x9b, 0xbe, 0xc4, 0xb5, 0xef, 0x3d, 
  0x52, 0xfa, 0x30, 0x3e, 0x80, 0xb2, 0xfd, 0x3b, 0x2f, 0x82, 0x8e, 0xbe, 
  0x78, 0x95, 0x3c, 0x3d, 0x1d, 0xcd, 0x8a, 0x3e, 0xfe, 0xb5, 0x56, 0x3e, 
  0x82, 0x48, 0x4c, 0x3e, 0x0c, 0xb9, 0x21, 0x3e, 0xda, 0x29, 0x7f, 0x3e, 
  0x3a, 0x3a, 0x7d, 0x3e, 0x7f, 0x54, 0x2a, 0xbe, 0xa8, 0xf3, 0xf3, 0xbd, 
  0x71, 0x47, 0x80, 0x3e, 0xec, 0x3e, 0x98, 0xbe, 0x2e, 0x81, 0x28, 0x3e, 
  0xee, 0x84, 0x2c, 0x3e, 0x40, 0xb3, 0x23, 0xbe, 0x15, 0xbd, 0x96, 0xbe, 
  0xcd, 0xe6, 0x87, 0x3e, 0xcc, 0x8c, 0x9c, 0x3d, 0x01, 0xde, 0x91, 0x3e, 
  0xac, 0x90, 0x6e, 0xbe, 0x8f, 0x99, 0x9c, 0x3e, 0x74, 0xbf, 0x80, 0xbd, 
  0x24, 0x65, 0x8d, 0x3d, 0x43, 0x4c, 0x35, 0xbe, 0xd0, 0x09, 0x1f, 0x3d, 
  0x1a, 0x91, 0x2c, 0x3e, 0x24, 0x1f, 0x79, 0xbd, 0x66, 0x6e, 0xbe, 0xbd, 
  0x20, 0x4b, 0xe6, 0xbd, 0x2c, 0xea, 0x70, 0xbe, 0xe2, 0xab, 0x3c, 0xbe, 
  0x39, 0xeb, 0x06, 0xbe, 0x28, 0x3f, 0x20, 0xbe, 0x90, 0xb7, 0x22, 0x3d, 
  0x58, 0x70, 0x9f, 0x3d, 0x16, 0x47, 0xcd, 0xbd, 0xc1, 0xe1, 0x98, 0x3e, 
  0x76, 0xfa, 0x97, 0xbe, 0x11, 0xc5, 0x88, 0xbe, 0x10, 0xea, 0x35, 0xbe, 
  0xa1, 0x2f, 0x89, 0x3e, 0x9e, 0x1c, 0x3d, 0xbe, 0xdc, 0x39, 0x11, 0x3e, 
  0x00, 0x68, 0xdc, 0xbd, 0x80, 0xa2, 0x73, 0xbe, 0xd8, 0x3b, 0xd1, 0x3d, 
  0x80, 0x74, 0x94, 0xbb, 0x93, 0xf1, 0x34, 0xbe, 0x6a, 0xa9, 0x55, 0x3e, 
  0x30, 0x93, 0x6f, 0xbe, 0x88, 0xf5, 0xaa, 0x3d, 0xbb, 0x29, 0x02, 0xbe, 
  0x28, 0x09, 0x9a, 0x3d, 0x0e, 0xfa, 0x5c, 0x3e, 0x40, 0x0b, 0xbf, 0xbb, 
  0xad, 0x75, 0x81, 0x3e, 0xd8, 0x60, 0x7b, 0xbd, 0x80, 0x10, 0x08, 0x3d, 
  0x42, 0x84, 0x01, 0x3e, 0x9a, 0xca, 0x84, 0xbe, 0xfe, 0xba, 0x89, 0xbe, 
  0x9c, 0x3a, 0x8c, 0xbd, 0x80, 0x0c, 0x60, 0x3d, 0x5a, 0x70, 0x57, 0x3e, 
  0x86, 0xd9, 0x1f, 0xbe, 0x00, 0x10, 0x89, 0x3c, 0x90, 0x22, 0x9a, 0xbd, 
  0xc0, 0x70, 0x1f, 0xbc, 0xc2, 0x5c, 0xc6, 0xbd, 0x07, 0x14, 0x2c, 0xbe, 
  0x1e, 0x30, 0x3f, 0xbe, 0xc8, 0xce, 0xbf, 0xbd, 0x68, 0x72, 0xff, 0x3d, 
  0x6e, 0x87, 0x62, 0x3e, 0x24, 0x42, 0xfa, 0x3d, 0xfb, 0x40, 0x93, 0xbe, 
  0xfd, 0x5c, 0x86, 0xbe, 0x72, 0x1e, 0x8b, 0xbe, 0x1b, 0x8e, 0x89, 0x3e, 
  0x40, 0xc9, 0x1f, 0x3d, 0xfa, 0x64, 0x47, 0x3e, 0x40, 0xa6, 0xa2, 0xbc, 
  0xcc, 0xaf, 0x58, 0xbe, 0x30, 0x8d, 0xcc, 0x3d, 0xa4, 0xe8, 0xe0, 0x3d, 
  0x74, 0xc5, 0x2d, 0xbe, 0xe0, 0x2b, 0x04, 0x3e, 0x30, 0xf1, 0xf6, 0x3c, 
  0x40, 0xc0, 0x1a, 0xbe, 0x0c, 0x06, 0x6e, 0xbd, 0xbb, 0x0e, 0x38, 0xbe, 
  0x9a, 0xa3, 0x76, 0xbe, 0x73, 0x2a, 0x67, 0xbe, 0x86, 0x4a, 0xa6, 0xbd, 
  0x74, 0x8f, 0x9a, 0x3d, 0x73, 0xa2, 0x90, 0x3e, 0x10, 0x64, 0x04, 0xbd, 
  0xa6, 0x8e, 0xdf, 0xbd, 0xc8, 0x14, 0x44, 0x3e, 0x9a, 0x2e, 0x1e, 0xbe, 
  0x60, 0xe2, 0xef, 0xbc, 0x02, 0xda, 0xb5, 0xbd, 0x4a, 0xa8, 0x40, 0xbe, 
  0x66, 0xdc, 0x81, 0xbe, 0xf1, 0xdc, 0x13, 0xbe, 0x1e, 0x93, 0xc7, 0xbd, 
  0x30, 0x6b, 0x8c, 0x3c, 0x34, 0x7a, 0x6a, 0xbe, 0xe1, 0xd6, 0x9a, 0x3e, 
  0x34, 0xe3, 0xc5, 0xbd, 0xff, 0xde, 0x9a, 0x3e, 0x10, 0x30, 0x35, 0x3d, 
  0xcd, 0x11, 0x1a, 0xbe, 0xaa, 0x8a, 0x59, 0xbe, 0x31, 0xf7, 0x80, 0xbe, 
  0xd0, 0x6e, 0x3e, 0xbd, 0xf8, 0xf7, 0x39, 0xbd, 0x6f, 0xdd, 0x84, 0xbe, 
  0x7e, 0xc6, 0x8a, 0xbe, 0xc0, 0x48, 0x2a, 0x3e, 0xd8, 0x84, 0xda, 0x3d, 
  0xdd, 0x4e, 0x97, 0x3e, 0x78, 0x1b, 0x40, 0xbd, 0x8c, 0x3a, 0xa1, 0x3d, 
  0x36, 0x8a, 0x4d, 0x3e, 0x0b, 0x87, 0x9b, 0x3e, 0xc8, 0x1f, 0x68, 0xbe, 
  0x30, 0x1a, 0x65, 0x3d, 0x94, 0xb5, 0x97, 0xbe, 0xf3, 0x80, 0x6b, 0xbe, 
  0x48, 0xde, 0xcb, 0x3d, 0x9e, 0x26, 0x94, 0xbe, 0x70, 0x8b, 0x6f, 0x3d, 
  0x7a, 0x87, 0xde, 0xbd, 0x50, 0x36, 0xb8, 0xbc, 0x3e, 0x0b, 0x26, 0xbe, 
  0xe8, 0x39, 0x24, 0x3d, 0x32, 0x94, 0xe3, 0xbd, 0x2c, 0x89, 0x33, 0x3e, 
  0x91, 0x16, 0x9a, 0x3e, 0x9f, 0x35, 0x46, 0xbe, 0xb8, 0x0f, 0xda, 0x3d, 
  0x4c, 0xea, 0x0d, 0x3e, 0xe0, 0xa5, 0x23, 0xbc, 0xc0, 0x3a, 0xd7, 0x3d, 
  0x12, 0x17, 0x1b, 0x3e, 0x74, 0x18, 0x84, 0xbe, 0xf2, 0x1b, 0xc1, 0xbd, 
  0x4a, 0x79, 0x8e, 0xbd, 0x9a, 0x91, 0x73, 0x3e, 0xef, 0xf4, 0x95, 0x3e, 
  0x40, 0x3c, 0x50, 0xbe, 0x18, 0xe5, 0x0a, 0x3d, 0x5e, 0x8c, 0x81, 0xbd, 
  0x43, 0xdd, 0x93, 0x3e, 0x08, 0x5e, 0x66, 0xbe, 0xf0, 0xa3, 0x00, 0x3d, 
  0xc0, 0x5d, 0xe0, 0x3d, 0x4b, 0xe7, 0x94, 0x3e, 0x52, 0x0c, 0x5a, 0x3e, 
  0xfe, 0x22, 0x63, 0x3e, 0xc0, 0x85, 0x8a, 0xbc, 0x34, 0xa3, 0x83, 0x3d, 
  0xd8, 0xb5, 0xb5, 0xbd, 0x1e, 0x7d, 0x2b, 0x3e, 0xa0, 0x5e, 0xd5, 0xbd, 
  0x04, 0x0f, 0xc5, 0xbd, 0x98, 0x1b, 0xbc, 0x3d, 0x4c, 0x23, 0xf7, 0xbd, 
  0x7c, 0xa6, 0x70, 0xbe, 0x5a, 0x11, 0x84, 0xbd, 0x36, 0x2c, 0xfe, 0xbd, 
  0x42, 0x0d, 0x68, 0xbe, 0x97, 0xcb, 0x04, 0xbe, 0x9c, 0x1e, 0x82, 0x3d, 
  0xf6, 0x7a, 0x62, 0x3e, 0x6e, 0xfa, 0x63, 0x3e, 0xc6, 0x8e, 0x49, 0xbe, 
  0x18, 0xf1, 0x1e, 0xbd, 0x79, 0xd7, 0x82, 0xbe, 0x66, 0x0a, 0x91, 0xbd, 
  0x17, 0xd4, 0x8d, 0xbe, 0x89, 0xc7, 0x55, 0xbe, 0xf6, 0x4e, 0xe3, 0xbd, 
  0xca, 0x33, 0x52, 0xbe, 0xa2, 0xb9, 0x76, 0x3e, 0x34, 0x2e, 0xae, 0x3d, 
  0x8d, 0x2d, 0x97, 0x3e, 0x40, 0xa1, 0x47, 0xbd, 0x16, 0x57, 0x8c, 0xbd, 
  0x72, 0xe4, 0xcb, 0xbd, 0x48, 0x34, 0x48, 0x3d, 0xc0, 0x14, 0xb3, 0xbb, 
  0x00, 0x7f, 0x3b, 0xbe, 0x05, 0xc5, 0x8c, 0xbe, 0xbc, 0x39, 0xc2, 0xbd, 
  0x9c, 0x2a, 0x99, 0xbe, 0xa6, 0x2b, 0x70, 0xbe, 0xdf, 0x9f, 0x4a, 0xbe, 
  0x86, 0xe6, 0xd4, 0xbd, 0x98, 0x04, 0x83, 0xbd, 0xc9, 0x01, 0x67, 0xbe, 
  0x1d, 0x05, 0x99, 0xbe, 0xb6, 0x3b, 0x88, 0xbe, 0x9c, 0x5a, 0x9b, 0xbd, 
  0x9e, 0x4e, 0x7e, 0x3e, 0x4a, 0x56, 0x9c, 0xbd, 0x81, 0xef, 0x11, 0xbe, 
  0xf8, 0xfe, 0x08, 0x3e, 0xe4, 0xf0, 0xfd, 0x3d, 0x22, 0x21, 0x24, 0xbe, 
  0x00, 0x5c, 0x25, 0xba, 0xa2, 0x8f, 0x66, 0x3e, 0x40, 0x6e, 0x43, 0x3c, 
  0x7c, 0x7b, 0x7f, 0xbe, 0xa6, 0xac, 0x21, 0x3e, 0x03, 0x7b, 0x2f, 0xbe, 
  0xc9, 0xc1, 0x2a, 0xbe, 0xcc, 0xc8, 0xc9, 0x3d, 0x48, 0x14, 0x0d, 0xbd, 
  0xec, 0x93, 0xee, 0xbd, 0xd3, 0x65, 0x8f, 0xbe, 0x27, 0x14, 0x98, 0xbe, 
  0x14, 0xef, 0xe9, 0xbd, 0xc9, 0x7e, 0x52, 0xbe, 0x78, 0x7b, 0xe3, 0xbd, 
  0x62, 0x94, 0x6a, 0x3e, 0xf8, 0x99, 0x57, 0xbd, 0xdb, 0xe1, 0x8d, 0x3e, 
  0x30, 0x10, 0xef, 0xbc, 0x20, 0x6e, 0xf8, 0xbc, 0x52, 0xe4, 0x6c, 0x3e, 
  0x1c, 0x3d, 0xe9, 0xbd, 0x56, 0x18, 0x47, 0x3e, 0x96, 0x91, 0xd3, 0xbd, 
  0xdf, 0x66, 0x15, 0xbe, 0x66, 0x44, 0x5f, 0x3e, 0x00, 0xa7, 0x56, 0x3d, 
  0xe9, 0x2e, 0x22, 0xbe, 0xc0, 0xaa, 0x87, 0xbb, 0x6a, 0xaf, 0x6f, 0x3e, 
  0xc0, 0xf9, 0xb3, 0x3b, 0xe8, 0xef, 0xbe, 0x3d, 0xe8, 0xec, 0x3b, 0xbd, 
  0xa2, 0xc4, 0x73, 0x3e, 0x11, 0x6d, 0x52, 0xbe, 0x00, 0xb6, 0xd4, 0x3b, 
  0x28, 0xbd, 0x6d, 0xbe, 0x28, 0x59, 0x54, 0x3d, 0x62, 0x48, 0x73, 0xbe, 
  0xaa, 0x9e, 0x80, 0xbe, 0x55, 0x13, 0x82, 0x3e, 0x96, 0x0e, 0xe3, 0xbd, 
  0x7c, 0x71, 0xfa, 0xbd, 0xc0, 0xb4, 0x7a, 0xbe, 0xc4, 0x32, 0x25, 0xbe, 
  0xf5, 0x7c, 0x68, 0xbe, 0xc8, 0x93, 0x0e, 0x3d, 0x69, 0xbd, 0x85, 0x3e, 
  0xea, 0x75, 0xee, 0xbd, 0x5b, 0x79, 0x8f, 0xbe, 0xde, 0x0a, 0x87, 0xbe, 
  0xc2, 0x7b, 0x14, 0xbe, 0x28, 0x9e, 0xd0, 0x3d, 0xec, 0x35, 0xea, 0xbd, 
  0x29, 0xde, 0x96, 0x3e, 0xc1, 0x93, 0x8d, 0x3e, 0x88, 0x03, 0x45, 0x3e, 
  0xa0, 0x49, 0xf1, 0x3d, 0x4c, 0xe2, 0x3d, 0xbe, 0xb0, 0x33, 0x9f, 0x3c, 
  0x36, 0xc7, 0x53, 0x3e, 0x02, 0xbc, 0x58, 0x3e, 0xe3, 0xde, 0x97, 0x3e, 
  0x26, 0x9e, 0x9e, 0xbd, 0xc0, 0xdc, 0xc3, 0xbd, 0x70, 0x97, 0xfd, 0x3c, 
  0x4a, 0x34, 0x74, 0x3e, 0x96, 0x06, 0x54, 0x3e, 0x70, 0xde, 0x8d, 0x3c, 
  0xb4, 0x94, 0xa6, 0xbd, 0x74, 0x10, 0xad, 0x3d, 0xe6, 0xf6, 0x5b, 0x3e, 
  0xe0, 0x1a, 0xb4, 0x3c, 0xcc, 0x87, 0xf6, 0x3d, 0x29, 0x90, 0x35, 0xbe, 
  0x0e, 0xa4, 0x51, 0xbe, 0xa0, 0xaf, 0x9b, 0xbc, 0xed, 0x97, 0x8a, 0x3e, 
  0xaa, 0xef, 0x7a, 0x3e, 0xc7, 0x9d, 0x34, 0xbe, 0x7a, 0xa6, 0x90, 0xbe, 
  0xa2, 0xe7, 0x84, 0xbe, 0x75, 0x30, 0x98, 0xbe, 0x90, 0x4a, 0x3f, 0xbe, 
  0x80, 0x13, 0x2f, 0x3c, 0x20, 0x9d, 0x54, 0xbd, 0x42, 0xcd, 0x16, 0x3e, 
  0x7c, 0xc4, 0x93, 0xbe, 0x10, 0x2f, 0x40, 0x3d, 0x4a, 0x43, 0x83, 0xbd, 
  0xd6, 0x0d, 0x6d, 0x3e, 0x20, 0xad, 0x82, 0xbc, 0x1c, 0xa4, 0x9a, 0xbe, 
  0x53, 0x11, 0x98, 0x3e, 0x40, 0x6a, 0xa3, 0x3b, 0x50, 0xb8, 0x81, 0x3d, 
  0x94, 0xe8, 0xee, 0x3d, 0xa2, 0x3b, 0x73, 0x3e, 0x0c, 0xa1, 0xfd, 0xbd, 
  0xf4, 0xf7, 0x0e, 0x3e, 0x06, 0x71, 0xd0, 0xbd, 0x74, 0x79, 0xa7, 0x3d, 
  0x42, 0x59, 0x4e, 0xbe, 0xed, 0x8e, 0x98, 0x3e, 0x2d, 0x71, 0x2b, 0xbe, 
  0x40, 0xad, 0x80, 0xbb, 0x80, 0x44, 0x08, 0x3d, 0xdd, 0xb0, 0x9a, 0x3e, 
  0xc0, 0xcd, 0x8a, 0xbd, 0x20, 0xbd, 0xc2, 0xbd, 0xa4, 0x43, 0x04, 0xbe, 
  0x40, 0x5f, 0x81, 0x3d, 0x80, 0x17, 0x5a, 0xbc, 0xe0, 0x01, 0xa6, 0x3c, 
  0x98, 0xba, 0x97, 0xbd, 0xc2, 0x37, 0x34, 0x3e, 0x20, 0xb8, 0x37, 0x3d, 
  0x46, 0xb5, 0x2e, 0x3e, 0xb4, 0x67, 0x2d, 0x3e, 0xdc, 0xfb, 0xe5, 0x3d, 
  0x23, 0x15, 0x90, 0x3e, 0xb0, 0x95, 0x09, 0xbd, 0x90, 0xb5, 0xd3, 0xbc, 
  0x55, 0x27, 0x86, 0x3e, 0xc0, 0xc5, 0xc3, 0x3d, 0xb0, 0x0e, 0x8d, 0x3c, 
  0xce, 0x6e, 0x61, 0xbe, 0xb0, 0x05, 0x55, 0xbd, 0x1e, 0x17, 0x96, 0xbd, 
  0x80, 0x9d, 0x4a, 0xbe, 0xd8, 0x6e, 0x96, 0x3d, 0xd7, 0xcc, 0x91, 0xbe, 
  0xa0, 0x82, 0x7c, 0x3c, 0x9c, 0x38, 0x6f, 0xbd, 0x11, 0x20, 0x98, 0x3e, 
  0x78, 0xf7, 0x43, 0x3e, 0xd9, 0x52, 0x8c, 0x3e, 0x38, 0xd5, 0x89, 0xbe, 
  0x16, 0x80, 0x5e, 0x3e, 0x2a, 0xb4, 0x66, 0xbe, 0x32, 0xca, 0xb8, 0xbd, 
  0x2e, 0x3a, 0x01, 0xbe, 0x2f, 0xe2, 0x88, 0x3e, 0xc6, 0xec, 0x71, 0x3e, 
  0x6a, 0xbf, 0x6c, 0x3e, 0x4a, 0x86, 0x1e, 0x3e, 0xcc, 0xfb, 0x1f, 0x3e, 
  0xa0, 0xd9, 0xd7, 0x3d, 0xe7, 0xef, 0x9a, 0x3e, 0x5b, 0xdb, 0x02, 0xbe, 
  0xaf, 0x22, 0x3d, 0xbe, 0xa6, 0x26, 0x5c, 0xbe, 0xb2, 0x02, 0x1d, 0x3e, 
  0x20, 0xe1, 0xfd, 0x3d, 0x35, 0x48, 0x1c, 0xbe, 0x38, 0x0d, 0x61, 0xbd, 
  0x34, 0x67, 0xd9, 0xbd, 0x04, 0x21, 0x50, 0xbe, 0x9b, 0x58, 0x95, 0x3e, 
  0xf8, 0xc6, 0xc6, 0x3d, 0x36, 0xaf, 0x23, 0x3e, 0xd3, 0xa9, 0x88, 0x3e, 
  0xd0, 0x07, 0x82, 0xbe, 0xf0, 0x35, 0x1b, 0x3d, 0xff, 0xa5, 0x03, 0xbe, 
  0xc3, 0x33, 0x55, 0xbe, 0xd0, 0xc9, 0xc3, 0x3d, 0xe0, 0x1d, 0x9b, 0xbc, 
  0xae, 0xeb, 0xea, 0xbd, 0xd0, 0x2b, 0xb7, 0x3d, 0xc8, 0xa5, 0xf8, 0x3d, 
  0x98, 0x6b, 0x61, 0x3d, 0x92, 0xad, 0x82, 0xbe, 0xe0, 0xfa, 0xaa, 0x3c, 
  0x8e, 0x75, 0x5c, 0x3e, 0x70, 0xb9, 0x5c, 0xbd, 0x50, 0xab, 0x6b, 0xbd, 
  0xe4, 0x29, 0x14, 0x3e, 0x18, 0xfb, 0x27, 0x3e, 0xfc, 0x25, 0x72, 0xbe, 
  0xc6, 0x25, 0x51, 0x3e, 0x30, 0xa9, 0x11, 0xbd, 0x48, 0x55, 0x50, 0x3d, 
  0x40, 0xee, 0x1b, 0xbd, 0xc0, 0x78, 0x94, 0x3c, 0xa3, 0x5d, 0x29, 0xbe, 
  0x1a, 0x75, 0x87, 0xbe, 0xef, 0xee, 0x64, 0xbe, 0xfe, 0x92, 0xaf, 0xbd, 
  0x19, 0x4f, 0x85, 0x3e, 0x50, 0x07, 0xfa, 0xbd, 0x3d, 0x10, 0x77, 0xbe, 
  0x52, 0x61, 0x6f, 0xbe, 0xa9, 0x09, 0x89, 0x3e, 0xd4, 0xfd, 0xe3, 0x3d, 
  0x78, 0x57, 0x8c, 0xbd, 0x30, 0x83, 0x00, 0xbd, 0x92, 0x8a, 0x2b, 0x3e, 
  0x48, 0x56, 0x9b, 0xbe, 0x40, 0x80, 0xb4, 0x3d, 0xf8, 0xb1, 0x28, 0xbd, 
  0xe4, 0x28, 0xec, 0xbd, 0x75, 0x5d, 0x34, 0xbe, 0x36, 0x94, 0x8a, 0xbe, 
  0x3f, 0xf9, 0x85, 0x3e, 0xe0, 0x0c, 0x1c, 0xbd, 0x50, 0x57, 0xcc, 0x3d, 
  0xda, 0x88, 0x52, 0x3e, 0x7c, 0x07, 0x1e, 0x3e, 0x74, 0x6f, 0x2b, 0xbe, 
  0xd6, 0xbc, 0x06, 0xbe, 0x30, 0xa7, 0xe8, 0x3c, 0xcc, 0xb5, 0xd7, 0xbd, 
  0x60, 0x14, 0xaf, 0x3d, 0x40, 0xf9, 0x93, 0x3d, 0x14, 0x0f, 0x40, 0x3e, 
  0x59, 0x8a, 0x81, 0x3e, 0x5e, 0xca, 0x57, 0x3e, 0x07, 0x36, 0x09, 0xbe, 
  0xfc, 0x00, 0x79, 0xbd, 0x10, 0x0d, 0xe7, 0x3c, 0x98, 0xd4, 0x1e, 0xbe, 
  0x02, 0x9a, 0x02, 0x3e, 0x67, 0xf3, 0x4e, 0xbe, 0x90, 0x30, 0x02, 0x3e, 
  0xd6, 0x75, 0x67, 0x3e, 0xbf, 0x6d, 0x29, 0xbe, 0x74, 0x9d, 0xc3, 0x3d, 
  0x14, 0x16, 0x88, 0xbe, 0x38, 0x99, 0x1b, 0x3d, 0x12, 0x15, 0x29, 0xbe, 
  0xf0, 0xb3, 0xd5, 0x3d, 0x9d, 0xfb, 0x96, 0x3e, 0x4a, 0x88, 0xad, 0xbd, 
  0x50, 0x02, 0xb1, 0xbc, 0x46, 0x65, 0x7c, 0xbe, 0x50, 0x67, 0x56, 0xbd, 
  0x18, 0xeb, 0x6e, 0xbe, 0x68, 0x24, 0x3e, 0xbd, 0x63, 0x99, 0x0f, 0xbe, 
  0x8e, 0x5d, 0x62, 0xbe, 0x0c, 0xad, 0x9b, 0xbd, 0xd2, 0x69, 0x4d, 0x3e, 
  0xc0, 0xea, 0xc1, 0x3c, 0x78, 0x72, 0x36, 0xbe, 0x12, 0x16, 0x71, 0xbe, 
  0x8a, 0x0b, 0x53, 0x3e, 0xd8, 0x87, 0x08, 0x3d, 0x58, 0x8e, 0x23, 0x3d, 
  0x68, 0x1a, 0x3a, 0x3e, 0x32, 0xf6, 0x4e, 0x3e, 0xf7, 0x79, 0x8d, 0xbe, 
  0x10, 0xea, 0x03, 0xbe, 0x58, 0x32, 0x29, 0xbd, 0xa8, 0x97, 0xff, 0x3d, 
  0x18, 0x42, 0x9d, 0x3d, 0x3a, 0x93, 0x91, 0xbe, 0xc9, 0x84, 0x23, 0xbe, 
  0xe4, 0x39, 0xb7, 0xbd, 0xce, 0x17, 0x0c, 0x3e, 0xfb, 0x1e, 0x86, 0x3e, 
  0xf4, 0xed, 0x2c, 0xbe, 0xf2, 0xc1, 0x83, 0xbe, 0x1c, 0x39, 0xd0, 0x3d, 
  0x08, 0xf5, 0xa2, 0x3d, 0x92, 0x98, 0x84, 0xbd, 0x0e, 0x27, 0x8a, 0xbe, 
  0xd0, 0x34, 0x8d, 0x3c, 0xf0, 0x06, 0xcc, 0xbc, 0x80, 0x50, 0x9b, 0xbd, 
  0x39, 0x2a, 0x54, 0xbe, 0x40, 0xa7, 0x6c, 0x3c, 0x74, 0x18, 0xa8, 0x3d, 
  0x30, 0xdb, 0xa8, 0x3c, 0x6a, 0xf2, 0x7f, 0x3e, 0x80, 0x5d, 0x83, 0x3d, 
  0xb5, 0xa5, 0x81, 0x3e, 0xc4, 0xf6, 0x8c, 0x3d, 0x90, 0xc7, 0xeb, 0x3c, 
  0x38, 0x82, 0x0f, 0x3d, 0x40, 0x8f, 0xb5, 0xbc, 0x86, 0x4a, 0x3f, 0x3e, 
  0xc0, 0x0e, 0x02, 0x3c, 0xf7, 0x45, 0x98, 0x3e, 0xba, 0x4e, 0x7d, 0x3e, 
  0x3e, 0x49, 0x2c, 0x3e, 0x43, 0x46, 0x86, 0x3e, 0x22, 0x78, 0xde, 0xbd, 
  0x26, 0xb1, 0x1c, 0x3e, 0x00, 0x47, 0xaf, 0xbc, 0x3f, 0x9a, 0x87, 0xbe, 
  0x32, 0x8a, 0x49, 0xbe, 0xc6, 0xc1, 0x76, 0x3e, 0x4c, 0x8f, 0x76, 0xbd, 
  0x85, 0x41, 0x84, 0xbe, 0xee, 0x7c, 0x75, 0x3e, 0x6c, 0xb6, 0x34, 0xbe, 
  0x90, 0x9f, 0xc4, 0x3d, 0x00, 0x99, 0xf3, 0xbb, 0xc0, 0x33, 0x33, 0x3e, 
  0x30, 0x41, 0xc4, 0x3d, 0x48, 0xe9, 0x20, 0x3e, 0x74, 0x63, 0x2f, 0x3e, 
  0x92, 0x3f, 0x27, 0xbe, 0x61, 0x19, 0x95, 0x3e, 0x34, 0x69, 0x13, 0x3e, 
  0xb3, 0x8d, 0x2c, 0xbe, 0xc8, 0x8c, 0x80, 0xbe, 0xc0, 0xc0, 0x96, 0x3d, 
  0x51, 0x4b, 0x1f, 0xbe, 0xa8, 0xa3, 0xa5, 0xbd, 0xb6, 0x5c, 0x7d, 0x3e, 
  0xe4, 0x9a, 0x8d, 0xbe, 0x40, 0xa8, 0xe9, 0x3c, 0xa4, 0xfb, 0xf6, 0x3d, 
  0xe0, 0xb8, 0x2f, 0xbc, 0xf8, 0x20, 0xfb, 0x3d, 0x82, 0x18, 0x5d, 0x3e, 
  0xea, 0x9f, 0x39, 0x3e, 0xa2, 0xa2, 0x2a, 0x3e, 0xf8, 0xd1, 0x2d, 0x3e, 
  0xb2, 0x88, 0x63, 0x3e, 0x70, 0xa7, 0x19, 0x3e, 0xe6, 0x37, 0x72, 0x3e, 
  0xfe, 0xd7, 0x4d, 0x3e, 0xda, 0x33, 0x2c, 0xbe, 0xb1, 0xb0, 0x83, 0x3e, 
  0x42, 0x13, 0x54, 0x3e, 0xcb, 0x94, 0x52, 0xbe, 0xae, 0x43, 0x13, 0x3e, 
  0x60, 0x29, 0x78, 0xbc, 0x88, 0xa3, 0xda, 0x3d, 0x10, 0xa3, 0x1a, 0xbd, 
  0xe6, 0x82, 0x1c, 0x3e, 0xcc, 0xdf, 0xba, 0x3d, 0x44, 0xcd, 0x7e, 0xbe, 
  0xad, 0x92, 0x81, 0x3e, 0x5a, 0xf6, 0x85, 0xbe, 0xf4, 0xde, 0x79, 0xbe, 
  0xa0, 0xb4, 0xc4, 0x3c, 0xe6, 0x9b, 0x4d, 0x3e, 0x50, 0xe5, 0x93, 0x3d, 
  0x64, 0xaf, 0xbb, 0xbd, 0x70, 0xea, 0x91, 0x3c, 0x88, 0x8d, 0xe2, 0x3d, 
  0x20, 0x22, 0x93, 0xbc, 0xd6, 0xf6, 0x4b, 0xbe, 0x00, 0x42, 0xf0, 0xbb, 
  0xc3, 0x63, 0x90, 0x3e, 0xbe, 0x6b, 0x22, 0x3e, 0x6e, 0x09, 0xfb, 0xbd, 
  0xd8, 0x66, 0x5c, 0xbd, 0xd0, 0x1f, 0xd4, 0xbd, 0x80, 0xd4, 0x09, 0xbe, 
  0x5a, 0x23, 0x7e, 0x3e, 0x86, 0xd1, 0x7e, 0x3e, 0xb6, 0x1b, 0x18, 0xbe, 
  0x92, 0x33, 0x3e, 0x3e, 0x94, 0xba, 0x23, 0x3e, 0x20, 0x2e, 0x70, 0xbc, 
  0x9e, 0x65, 0x7c, 0x3e, 0x90, 0xa4, 0x3b, 0x3e, 0x68, 0x7f, 0xd7, 0xbd, 
  0x68, 0xa0, 0xd3, 0x3d, 0x04, 0xb1, 0x82, 0xbe, 0x47, 0x45, 0x1e, 0xbe, 
  0xd7, 0x34, 0x86, 0xbe, 0x2b, 0xf4, 0x07, 0xbe, 0xf8, 0xf7, 0xb4, 0xbd, 
  0xc6, 0x5a, 0x6f, 0xbe, 0xf2, 0x45, 0x16, 0x3e, 0x0a, 0x8a, 0x89, 0xbd, 
  0x3e, 0x24, 0x3a, 0x3e, 0xa5, 0x48, 0x98, 0xbe, 0x2c, 0x68, 0x00, 0xbe, 
  0x0a, 0x9b, 0x02, 0x3e, 0xe1, 0x90, 0x98, 0x3e, 0x1c, 0x0b, 0xa6, 0xbd, 
  0x5a, 0x10, 0x3f, 0x3e, 0x5b, 0x03, 0x87, 0x3e, 0xc9, 0x77, 0x5c, 0xbe, 
  0x08, 0x4e, 0x8e, 0x3d, 0xac, 0xc1, 0x00, 0x3e, 0xea, 0xd1, 0x65, 0x3e, 
  0x77, 0x92, 0x94, 0x3e, 0x55, 0xfb, 0x98, 0xbe, 0xb4, 0x6c, 0x5a, 0xbe, 
  0x45, 0x7a, 0x86, 0x3e, 0xf6, 0xfd, 0x76, 0xbe, 0xf4, 0x7f, 0x92, 0x3d, 
  0x3a, 0x56, 0x55, 0x3e, 0x49, 0xc1, 0x7e, 0xbe, 0x20, 0x43, 0xb4, 0x3d, 
  0xd6, 0x74, 0x03, 0x3e, 0x3a, 0x06, 0x88, 0xbe, 0xe4, 0x92, 0x40, 0x3e, 
  0x89, 0x0d, 0x85, 0x3e, 0xa6, 0x81, 0xf0, 0xbd, 0xe0, 0x98, 0xe1, 0xbc, 
  0xa6, 0x3b, 0x61, 0x3e, 0x80, 0x20, 0xfa, 0x3d, 0x20, 0xdb, 0x27, 0x3c, 
  0x27, 0x9f, 0x8f, 0x3e, 0xb1, 0x85, 0x81, 0x3e, 0x5c, 0xcf, 0xb0, 0x3d, 
  0x02, 0xd6, 0xab, 0xbd, 0xcf, 0x19, 0x8b, 0x3e, 0x81, 0x2e, 0x61, 0xbe, 
  0xd8, 0xf2, 0x61, 0xbe, 0x69, 0xa2, 0x21, 0xbe, 0x76, 0x6e, 0x83, 0xbd, 
  0x28, 0x81, 0x16, 0xbe, 0x8c, 0x0a, 0x07, 0x3e, 0xa0, 0xfb, 0xeb, 0x3c, 
  0x80, 0x61, 0x39, 0x3b, 0x0e, 0xde, 0x60, 0x3e, 0x62, 0x16, 0x99, 0xbe, 
  0x30, 0x11, 0xfe, 0xbd, 0xe0, 0x00, 0xef, 0xbc, 0xfe, 0xb6, 0x7f, 0x3e, 
  0x68, 0xc9, 0x17, 0x3e, 0x6a, 0x77, 0x80, 0xbe, 0x6a, 0xce, 0x69, 0x3e, 
  0xc2, 0x22, 0x85, 0xbe, 0x11, 0x06, 0x76, 0xbe, 0x74, 0x84, 0xe9, 0xbd, 
  0xa3, 0x32, 0x96, 0x3e, 0xd1, 0xff, 0x8a, 0xbe, 0xa8, 0x3c, 0x34, 0x3e, 
  0xc6, 0x5c, 0x0c, 0xbe, 0xcd, 0x16, 0x92, 0x3e, 0x7a, 0xe5, 0x02, 0x3e, 
  0x34, 0x42, 0xb3, 0x3d, 0x25, 0xe2, 0x28, 0xbe, 0x20, 0xa3, 0x52, 0x3c, 
  0xe4, 0xea, 0xf6, 0x3d, 0x8f, 0xb5, 0x96, 0xbe, 0xf2, 0x41, 0x29, 0x3e, 
  0x99, 0x4c, 0x8c, 0x3e, 0xbd, 0x74, 0x8d, 0x3e, 0x20, 0xb9, 0x5d, 0xbc, 
  0x50, 0xc5, 0x89, 0xbe, 0xa6, 0xcd, 0x5a, 0x3e, 0xdd, 0x01, 0x3d, 0xbe, 
  0x2a, 0x48, 0x6e, 0x3e, 0x22, 0xca, 0x36, 0x3e, 0x48, 0xf3, 0x1d, 0x3e, 
  0x28, 0xc0, 0xd2, 0xbd, 0xea, 0x96, 0x55, 0x3e, 0xfc, 0x83, 0x14, 0xbe, 
  0x7e, 0xce, 0xe7, 0xbd, 0xa9, 0x36, 0x8e, 0x3e, 0x12, 0x29, 0x48, 0xbe, 
  0x7a, 0x44, 0x3b, 0xbe, 0x4c, 0x5c, 0xe8, 0x3d, 0x22, 0x92, 0x3b, 0xbe, 
  0x50, 0x5c, 0xd3, 0xbd, 0xb3, 0xa9, 0x9a, 0x3e, 0x36, 0x51, 0x55, 0x3e, 
  0xa6, 0xfe, 0x6c, 0x3e, 0x72, 0xcf, 0x58, 0x3e, 0x1e, 0x8b, 0x57, 0x3e, 
  0x10, 0x0b, 0x9c, 0xbc, 0xed, 0xaf, 0x89, 0x3e, 0xa7, 0x03, 0x8e, 0xbe, 
  0x26, 0x17, 0x66, 0x3e, 0xea, 0x38, 0x44, 0x3e, 0xfc, 0xc1, 0xff, 0x3d, 
  0x96, 0xb7, 0xed, 0xbd, 0x48, 0x3c, 0x10, 0x3e, 0x40, 0xe0, 0x8f, 0xbe, 
  0x1a, 0x44, 0x64, 0xbe, 0x58, 0xc7, 0x4a, 0xbd, 0x5c, 0xbc, 0x53, 0xbe, 
  0xc0, 0xec, 0x22, 0x3c, 0x50, 0x8f, 0x27, 0xbd, 0xf0, 0x35, 0xdc, 0x3c, 
  0xc0, 0x46, 0x37, 0x3e, 0xe2, 0x67, 0xeb, 0xbd, 0x16, 0xc6, 0xab, 0xbd, 
  0x7a, 0xb1, 0x1a, 0x3e, 0x47, 0x6c, 0x97, 0xbe, 0x24, 0xfa, 0xc2, 0x3d, 
  0xae, 0xdd, 0x80, 0xbe, 0x8a, 0x77, 0x1d, 0x3e, 0xbc, 0xc1, 0xc0, 0x3d, 
  0x22, 0x78, 0xa1, 0xbd, 0xa8, 0xd8, 0x5c, 0xbe, 0x68, 0x03, 0x3c, 0xbd, 
  0x41, 0x14, 0x90, 0xbe, 0x40, 0x22, 0x7c, 0xbc, 0xf6, 0xe4, 0x7c, 0x3e, 
  0x00, 0x16, 0x43, 0x3c, 0xe8, 0x81, 0x78, 0x3d, 0x3a, 0xce, 0x93, 0xbd, 
  0x00, 0xf4, 0x83, 0x3c, 0x82, 0x90, 0x4e, 0x3e, 0x82, 0x9d, 0x6c, 0x3e, 
  0x13, 0x1f, 0x0a, 0xbe, 0xe7, 0x80, 0x12, 0xbe, 0xb8, 0x88, 0x48, 0x3d, 
  0xaa, 0x64, 0x0b, 0x3e, 0x78, 0x65, 0x0b, 0x3e, 0x08, 0xaf, 0xaa, 0x3d, 
  0xfe, 0xae, 0x3d, 0x3e, 0x18, 0x4a, 0xfd, 0x3d, 0x52, 0x4d, 0x7f, 0x3e, 
  0x2d, 0x54, 0x17, 0xbe, 0xf0, 0x0b, 0x1b, 0x3e, 0x48, 0x18, 0x19, 0x3d, 
  0x54, 0x01, 0xf8, 0x3d, 0x00, 0x00, 0x06, 0x00, 0x08, 0x00, 0x04, 0x00, 
  0x06, 0x00, 0x00, 0x00, 0x04, 0x00, 0x00, 0x00, 0x80, 0x03, 0x00, 0x00, 
  0xc6, 0x06, 0x77, 0x3e, 0x0a, 0x87, 0x49, 0x3e, 0xee, 0xc9, 0xa7, 0xbe, 
  0x17, 0x9c, 0x9e, 0x3e, 0x4a, 0x43, 0x59, 0x3e, 0x41, 0xc8, 0x92, 0x3e, 
  0x4e, 0x6d, 0x22, 0xbe, 0x80, 0x5d, 0x9a, 0x3d, 0x9e, 0xea, 0x60, 0x3e, 
  0x47, 0x68, 0xa7, 0xbe, 0xdb, 0xe4, 0x43, 0xbe, 0xe5, 0x45, 0x16, 0xbe, 
  0x1f, 0xca, 0xb1, 0x3e, 0xb8, 0x21, 0xb4, 0xbd, 0x21, 0x1d, 0xa5, 0x3e, 
  0x16, 0x45, 0x47, 0x3e, 0xca, 0xe8, 0x0c, 0x3e, 0xd0, 0x7c, 0xc0, 0xbe, 
  0x38, 0x43, 0x2e, 0x3d, 0x02, 0xa8, 0x9c, 0xbe, 0x7f, 0xb7, 0x9d, 0x3e, 
  0xac, 0x61, 0xae, 0xbe, 0x91, 0xcf, 0x9b, 0x3e, 0xb8, 0x10, 0x9a, 0xbe, 
  0xcc, 0x9e, 0xbe, 0xbd, 0x89, 0xf2, 0x89, 0x3e, 0xbd, 0xa8, 0x71, 0xbe, 
  0x28, 0x05, 0x68, 0xbe, 0x19, 0x95, 0xa6, 0x3e, 0x98, 0xc0, 0x97, 0xbd, 
  0xc0, 0xd3, 0x8d, 0x3c, 0xcb, 0x24, 0x8b, 0x3e, 0x58, 0xef, 0x6e, 0xbd, 
  0x48, 0xa0, 0xcf, 0x3d, 0xf4, 0xce, 0xdc, 0x3d, 0xe0, 0x47, 0x5e, 0xbc, 
  0x49, 0x08, 0xaf, 0xbe, 0xc0, 0x74, 0x90, 0xbe, 0x78, 0xba, 0x77, 0xbd, 
  0xa6, 0x22, 0x2a, 0xbe, 0xbc, 0x50, 0x8e, 0x3d, 0x22, 0x1f, 0x1d, 0x3e, 
  0xf2, 0x77, 0x7f, 0x3e, 0x00, 0x16, 0xaa, 0xbd, 0x00, 0x32, 0xba, 0x3c, 
  0x01, 0x19, 0xb4, 0x3e, 0xc5, 0x1d, 0xa8, 0x3e, 0xa0, 0x1e, 0x92, 0x3c, 
  0x23, 0x60, 0x9d, 0x3e, 0xa0, 0x19, 0x06, 0xbd, 0xff, 0x72, 0xad, 0xbe, 
  0x58, 0x38, 0x60, 0x3d, 0xfc, 0x73, 0xd0, 0x3d, 0x2c, 0x2d, 0xa9, 0xbe, 
  0x84, 0x13, 0x90, 0x3d, 0x64, 0xb2, 0xa8, 0xbd, 0xcf, 0x17, 0x76, 0xbe, 
  0x04, 0xe4, 0x9b, 0xbd, 0xc5, 0xaa, 0x4a, 0xbe, 0xe3, 0xb1, 0xb8, 0x3e, 
  0xa0, 0xba, 0xe1, 0x3c, 0x38, 0xe9, 0x93, 0xbe, 0x20, 0xc7, 0x6a, 0x3d, 
  0xa0, 0x02, 0x13, 0xbc, 0xe0, 0x35, 0x55, 0xbc, 0xd4, 0xad, 0x10, 0xbe, 
  0xb9, 0x7e, 0x85, 0x3e, 0x09, 0x3a, 0x8b, 0xbe, 0xfa, 0x0a, 0x23, 0x3e, 
  0x40, 0xd4, 0xbf, 0x3b, 0xf6, 0x73, 0x9e, 0xbe, 0x5c, 0x1c, 0xb2, 0xbd, 
  0x52, 0x0d, 0x16, 0x3e, 0x50, 0x9b, 0x09, 0xbe, 0xd5, 0x39, 0xa7, 0x3e, 
  0x72, 0x7f, 0x01, 0xbe, 0x08, 0x52, 0x76, 0xbe, 0x1c, 0xcb, 0xf3, 0xbd, 
  0x00, 0xbb, 0x5c, 0xbc, 0x41, 0x67, 0xbb, 0xbe, 0xf0, 0xbb, 0x80, 0x3c, 
  0x0d, 0xea, 0xbd, 0x3e, 0x8e, 0xef, 0x02, 0x3e, 0xf8, 0xd6, 0x3a, 0xbd, 
  0x58, 0x02, 0x15, 0xbd, 0xa7, 0xb9, 0xa9, 0x3e, 0xd4, 0x92, 0xa2, 0x3d, 
  0x6c, 0x6b, 0xf0, 0x3d, 0xbc, 0xac, 0x9f, 0xbd, 0x7c, 0x26, 0x9d, 0xbd, 
  0xd2, 0x31, 0x50, 0xbe, 0x68, 0x14, 0x72, 0x3d, 0x82, 0x9e, 0x48, 0x3e, 
  0xb1, 0x76, 0x9d, 0xbe, 0x1d, 0xbe, 0xc1, 0x3e, 0xa0, 0xe7, 0xaf, 0x3c, 
  0x00, 0x2f, 0x38, 0xbc, 0x2e, 0x98, 0x60, 0x3e, 0x08, 0x90, 0xc4, 0xbe, 
  0xc0, 0xb6, 0x7c, 0xbc, 0xa6, 0x3b, 0x09, 0x3e, 0xeb, 0x78, 0x97, 0x3e, 
  0x6f, 0x96, 0x9a, 0xbe, 0x21, 0xb2, 0x9b, 0xbe, 0xf0, 0xd7, 0x81, 0xbc, 
  0x24, 0x3e, 0xf4, 0x3d, 0xc2, 0x4d, 0x84, 0xbe, 0x49, 0xfd, 0x4f, 0xbe, 
  0x61, 0x8d, 0xbc, 0xbe, 0x9e, 0xaa, 0x31, 0xbe, 0x73, 0x94, 0x9d, 0x3e, 
  0xce, 0x0f, 0xbf, 0xbe, 0xec, 0x9e, 0xf4, 0xbd, 0x41, 0x6d, 0xc2, 0x3e, 
  0xfc, 0xa1, 0xa2, 0x3d, 0xaf, 0x94, 0x9b, 0x3e, 0x2c, 0x00, 0x6c, 0xbe, 
  0x84, 0xa3, 0xfc, 0xbd, 0x82, 0x1f, 0x34, 0x3e, 0xe8, 0x0d, 0x91, 0xbd, 
  0x00, 0x74, 0x86, 0x3d, 0x84, 0xd6, 0xba, 0xbd, 0xb0, 0x6c, 0x06, 0x3d, 
  0x32, 0x3e, 0x7b, 0x3e, 0x01, 0x10, 0xac, 0xbe, 0x40, 0x28, 0x82, 0xbb, 
  0x38, 0xec, 0x54, 0xbd, 0x66, 0xa2, 0x4d, 0xbe, 0xa8, 0xe6, 0x79, 0xbd, 
  0xce, 0x12, 0x89, 0xbe, 0xbd, 0x02, 0xa9, 0x3e, 0x13, 0x3a, 0x1a, 0xbe, 
  0x6e, 0x93, 0x02, 0x3e, 0xac, 0x9a, 0x84, 0x3d, 0xfc, 0xa4, 0x81, 0x3d, 
  0xcb, 0xe1, 0x90, 0x3e, 0x7f, 0xf3, 0xa0, 0xbe, 0x00, 0x2a, 0xba, 0xba, 
  0x00, 0x4c, 0x5c, 0xbc, 0xc1, 0x25, 0xab, 0x3e, 0xb8, 0x3d, 0xc3, 0xbd, 
  0x10, 0x77, 0x34, 0xbd, 0x20, 0x80, 0x12, 0x3c, 0xc0, 0xe6, 0x71, 0x3c, 
  0xaa, 0xea, 0xa6, 0xbe, 0xb7, 0x6a, 0x37, 0xbe, 0x98, 0x3e, 0x66, 0x3d, 
  0x92, 0xd5, 0x2d, 0x3e, 0x61, 0x21, 0xb0, 0x3e, 0xc8, 0x94, 0x54, 0xbe, 
  0x40, 0xfe, 0x49, 0xbd, 0x80, 0xb0, 0x0d, 0x3c, 0x1b, 0xa7, 0x78, 0xbe, 
  0xc5, 0xc1, 0xba, 0x3e, 0x08, 0x3d, 0xa6, 0xbe, 0xa0, 0xb2, 0x8f, 0xbd, 
  0x50, 0xdf, 0x27, 0x3d, 0xf8, 0xf6, 0x00, 0xbd, 0x20, 0xe5, 0x90, 0xbe, 
  0x29, 0x98, 0x99, 0x3e, 0x4f, 0xc5, 0x57, 0xbe, 0xae, 0x0e, 0x65, 0x3e, 
  0x60, 0xc9, 0xda, 0x3c, 0x43, 0x1c, 0x58, 0xbe, 0xec, 0xfa, 0x78, 0xbe, 
  0x80, 0xf9, 0x61, 0x3b, 0xf0, 0x70, 0x5a, 0xbd, 0x98, 0xa6, 0x64, 0x3d, 
  0x64, 0x92, 0xa7, 0xbd, 0x90, 0x75, 0x33, 0xbd, 0x09, 0x35, 0x5f, 0xbe, 
  0xc8, 0x79, 0x01, 0x3d, 0x01, 0x17, 0x9e, 0x3e, 0x82, 0x3e, 0x0b, 0xbe, 
  0x2b, 0x56, 0x9a, 0x3e, 0x67, 0x2f, 0x93, 0x3e, 0xb9, 0x7d, 0xa6, 0xbe, 
  0x9f, 0xf6, 0x9d, 0xbe, 0x20, 0xcf, 0x8f, 0x3c, 0xea, 0x81, 0x79, 0x3e, 
  0x52, 0x16, 0x38, 0x3e, 0x80, 0x3b, 0x44, 0xbc, 0xc8, 0x74, 0x79, 0xbe, 
  0xc0, 0xc3, 0x0e, 0xbc, 0xa7, 0xc2, 0x97, 0x3e, 0x36, 0x5a, 0x79, 0x3e, 
  0x54, 0x30, 0xc1, 0x3d, 0x5c, 0x52, 0xda, 0x3d, 0xb7, 0x09, 0x50, 0xbe, 
  0xb6, 0x18, 0x5c, 0x3e, 0xc6, 0xee, 0x79, 0x3e, 0x00, 0x67, 0x7d, 0xbe, 
  0xaa, 0x67, 0x22, 0xbe, 0x42, 0x8f, 0x7d, 0x3e, 0xa3, 0xc2, 0x91, 0xbe, 
  0xb8, 0x88, 0x37, 0x3d, 0xc5, 0xdc, 0xb8, 0x3e, 0x96, 0xdc, 0xbf, 0xbe, 
  0x79, 0xf3, 0x61, 0xbe, 0xe0, 0x84, 0x06, 0xbc, 0x39, 0xa9, 0x99, 0x3e, 
  0x8c, 0xb3, 0x03, 0xbe, 0x7e, 0x43, 0x03, 0x3e, 0xdd, 0x34, 0xc7, 0xbe, 
  0xd3, 0x16, 0xb2, 0xbe, 0xd7, 0xa8, 0x17, 0xbe, 0x6f, 0xc5, 0xa2, 0xbe, 
  0xe2, 0x22, 0x4a, 0xbe, 0x48, 0xe0, 0x26, 0xbd, 0x96, 0xfe, 0x62, 0x3e, 
  0xb9, 0xa1, 0xc3, 0x3e, 0x7a, 0x06, 0x2e, 0xbe, 0x33, 0xc4, 0x9e, 0xbe, 
  0x1e, 0xbb, 0x5d, 0x3e, 0xe6, 0xc9, 0x2c, 0x3e, 0xc4, 0xa6, 0x85, 0xbd, 
  0x40, 0x13, 0x11, 0xbe, 0x90, 0xef, 0x88, 0xbc, 0xe1, 0xc0, 0x84, 0x3e, 
  0x70, 0xaf, 0x72, 0xbd, 0x29, 0xc3, 0x28, 0xbe, 0x46, 0xe3, 0x70, 0x3e, 
  0x30, 0xef, 0x55, 0x3d, 0xf0, 0xa1, 0xfa, 0xbd, 0xfc, 0xfb, 0xff, 0xff, 
  0x00, 0xfc, 0xff, 0xff, 0x0f, 0x00, 0x00, 0x00, 0x4d, 0x4c, 0x49, 0x52, 
  0x20, 0x43, 0x6f, 0x6e, 0x76, 0x65, 0x72, 0x74, 0x65, 0x64, 0x2e, 0x00, 
  0x01, 0x00, 0x00, 0x00, 0x14, 0x00, 0x00, 0x00, 0x00, 0x00, 0x0e, 0x00, 
  0x18, 0x00, 0x14, 0x00, 0x10, 0x00, 0x0c, 0x00, 0x08, 0x00, 0x04, 0x00, 
  0x0e, 0x00, 0x00, 0x00, 0x14, 0x00, 0x00, 0x00, 0x1c, 0x00, 0x00, 0x00, 
  0xd8, 0x00, 0x00, 0x00, 0xdc, 0x00, 0x00, 0x00, 0xe0, 0x00, 0x00, 0x00, 
  0x04, 0x00, 0x00, 0x00, 0x6d, 0x61, 0x69, 0x6e, 0x00, 0x00, 0x00, 0x00, 
  0x03, 0x00, 0x00, 0x00, 0x80, 0x00, 0x00, 0x00, 0x38, 0x00, 0x00, 0x00, 
  0x04, 0x00, 0x00, 0x00, 0x9a, 0xff, 0xff, 0xff, 0x10, 0x00, 0x00, 0x00, 
  0x00, 0x00, 0x00, 0x08, 0x0c, 0x00, 0x00, 0x00, 0x10, 0x00, 0x00, 0x00, 
  0x78, 0xfc, 0xff, 0xff, 0x01, 0x00, 0x00, 0x00, 0x06, 0x00, 0x00, 0x00, 
  0x03, 0x00, 0x00, 0x00, 0x05, 0x00, 0x00, 0x00, 0x03, 0x00, 0x00, 0x00, 
  0xff, 0xff, 0xff, 0xff, 0xca, 0xff, 0xff, 0xff, 0x10, 0x00, 0x00, 0x00, 
  0x00, 0x00, 0x00, 0x08, 0x10, 0x00, 0x00, 0x00, 0x14, 0x00, 0x00, 0x00, 
  0xba, 0xff, 0xff, 0xff, 0x00, 0x00, 0x00, 0x01, 0x01, 0x00, 0x00, 0x00, 
  0x05, 0x00, 0x00, 0x00, 0x03, 0x00, 0x00, 0x00, 0x04, 0x00, 0x00, 0x00, 
  0x02, 0x00, 0x00, 0x00, 0xff, 0xff, 0xff, 0xff, 0x00, 0x00, 0x0e, 0x00, 
  0x16, 0x00, 0x00, 0x00, 0x10, 0x00, 0x0c, 0x00, 0x0b, 0x00, 0x04, 0x00, 
  0x0e, 0x00, 0x00, 0x00, 0x18, 0x00, 0x00, 0x00, 0x00, 0x00, 0x00, 0x08, 
  0x18, 0x00, 0x00, 0x00, 0x1c, 0x00, 0x00, 0x00, 0x00, 0x00, 0x06, 0x00, 
  0x08, 0x00, 0x07, 0x00, 0x06, 0x00, 0x00, 0x00, 0x00, 0x00, 0x00, 0x01, 
  0x01, 0x00, 0x00, 0x00, 0x04, 0x00, 0x00, 0x00, 0x03, 0x00, 0x00, 0x00, 
  0x00, 0x00, 0x00, 0x00, 0x01, 0x00, 0x00, 0x00, 0xff, 0xff, 0xff, 0xff, 
  0x01, 0x00, 0x00, 0x00, 0x06, 0x00, 0x00, 0x00, 0x01, 0x00, 0x00, 0x00, 
  0x00, 0x00, 0x00, 0x00, 0x07, 0x00, 0x00, 0x00, 0xb0, 0x02, 0x00, 0x00, 
  0x48, 0x02, 0x00, 0x00, 0xe0, 0x01, 0x00, 0x00, 0x90, 0x01, 0x00, 0x00, 
  0xf8, 0x00, 0x00, 0x00, 0x60, 0x00, 0x00, 0x00, 0x04, 0x00, 0x00, 0x00, 
  0x82, 0xfd, 0xff, 0xff, 0x00, 0x00, 0x00, 0x01, 0x14, 0x00, 0x00, 0x00, 
  0x1c, 0x00, 0x00, 0x00, 0x1c, 0x00, 0x00, 0x00, 0x07, 0x00, 0x00, 0x00, 
  0x34, 0x00, 0x00, 0x00, 0x02, 0x00, 0x00, 0x00, 0xff, 0xff, 0xff, 0xff, 
  0x01, 0x00, 0x00, 0x00, 0x6c, 0xfd, 0xff, 0xff, 0x19, 0x00, 0x00, 0x00, 
  0x53, 0x74, 0x61, 0x74, 0x65, 0x66, 0x75, 0x6c, 0x50, 0x61, 0x72, 0x74, 
  0x69, 0x74, 0x69, 0x6f, 0x6e, 0x65, 0x64, 0x43, 0x61, 0x6c, 0x6c, 0x3a, 
  0x30, 0x00, 0x00, 0x00, 0x02, 0x00, 0x00, 0x00, 0x01, 0x00, 0x00, 0x00, 
  0x01, 0x00, 0x00, 0x00, 0xda, 0xfd, 0xff, 0xff, 0x00, 0x00, 0x00, 0x01, 
  0x14, 0x00, 0x00, 0x00, 0x1c, 0x00, 0x00, 0x00, 0x1c, 0x00, 0x00, 0x00, 
  0x06, 0x00, 0x00, 0x00, 0x70, 0x00, 0x00, 0x00, 0x02, 0x00, 0x00, 0x00, 
  0xff, 0xff, 0xff, 0xff, 0x20, 0x00, 0x00, 0x00, 0xc4, 0xfd, 0xff, 0xff, 
  0x55, 0x00, 0x00, 0x00, 0x65, 0x73, 0x70, 0x33, 0x32, 0x5f, 0x63, 0x72, 
  0x69, 0x74, 0x69, 0x63, 0x2f, 0x64, 0x65, 0x6e, 0x73, 0x65, 0x5f, 0x36, 
  0x37, 0x2f, 0x4d, 0x61, 0x74, 0x4d, 0x75, 0x6c, 0x3b, 0x65, 0x73, 0x70, 
  0x33, 0x32, 0x5f, 0x63, 0x72, 0x69, 0x74, 0x69, 0x63, 0x2f, 0x64, 0x65, 
  0x6e, 0x73, 0x65, 0x5f, 0x36, 0x37, 0x2f, 0x52, 0x65, 0x6c, 0x75, 0x3b, 
  0x65, 0x73, 0x70, 0x33, 0x32, 0x5f, 0x63, 0x72, 0x69, 0x74, 0x69, 0x63, 
  0x2f, 0x64, 0x65, 0x6e, 0x73, 0x65, 0x5f, 0x36, 0x37, 0x2f, 0x42, 0x69, 
  0x61, 0x73, 0x41, 0x64, 0x64, 0x00, 0x00, 0x00, 0x02, 0x00, 0x00, 0x00, 
  0x01, 0x00, 0x00, 0x00, 0x20, 0x00, 0x00, 0x00, 0x6e, 0xfe, 0xff, 0xff, 
  0x00, 0x00, 0x00, 0x01, 0x14, 0x00, 0x00, 0x00, 0x1c, 0x00, 0x00, 0x00, 
  0x1c, 0x00, 0x00, 0x00, 0x05, 0x00, 0x00, 0x00, 0x70, 0x00, 0x00, 0x00, 
  0x02, 0x00, 0x00, 0x00, 0xff, 0xff, 0xff, 0xff, 0x20, 0x00, 0x00, 0x00, 
  0x58, 0xfe, 0xff, 0xff, 0x55, 0x00, 0x00, 0x00, 0x65, 0x73, 0x70, 0x33, 
  0x32, 0x5f, 0x63, 0x72, 0x69, 0x74, 0x69, 0x63, 0x2f, 0x64, 0x65, 0x6e, 
  0x73, 0x65, 0x5f, 0x36, 0x36, 0x2f, 0x4d, 0x61, 0x74, 0x4d, 0x75, 0x6c, 
  0x3b, 0x65, 0x73, 0x70, 0x33, 0x32, 0x5f, 0x63, 0x72, 0x69, 0x74, 0x69, 
  0x63, 0x2f, 0x64, 0x65, 0x6e, 0x73, 0x65, 0x5f, 0x36, 0x36, 0x2f, 0x52, 
  0x65, 0x6c, 0x75, 0x3b, 0x65, 0x73, 0x70, 0x33, 0x32, 0x5f, 0x63, 0x72, 
  0x69, 0x74, 0x69, 0x63, 0x2f, 0x64, 0x65, 0x6e, 0x73, 0x65, 0x5f, 0x36, 
  0x36, 0x2f, 0x42, 0x69, 0x61, 0x73, 0x41, 0x64, 0x64, 0x00, 0x00, 0x00, 
  0x02, 0x00, 0x00, 0x00, 0x01, 0x00, 0x00, 0x00, 0x20, 0x00, 0x00, 0x00, 
  0x66, 0xff, 0xff, 0xff, 0x00, 0x00, 0x00, 0x01, 0x10, 0x00, 0x00, 0x00, 
  0x10, 0x00, 0x00, 0x00, 0x04, 0x00, 0x00, 0x00, 0x2c, 0x00, 0x00, 0x00, 
  0xdc, 0xfe, 0xff, 0xff, 0x1c, 0x00, 0x00, 0x00, 0x65, 0x73, 0x70, 0x33, 
  0x32, 0x5f, 0x63, 0x72, 0x69, 0x74, 0x69, 0x63, 0x2f, 0x64, 0x65, 0x6e, 
  0x73, 0x65, 0x5f, 0x36, 0x38, 0x2f, 0x4d, 0x61, 0x74, 0x4d, 0x75, 0x6c, 
  0x00, 0x00, 0x00, 0x00, 0x02, 0x00, 0x00, 0x00, 0x01, 0x00, 0x00, 0x00, 
  0x20, 0x00, 0x00, 0x00, 0xb2, 0xff, 0xff, 0xff, 0x00, 0x00, 0x00, 0x01, 
  0x10, 0x00, 0x00, 0x00, 0x10, 0x00, 0x00, 0x00, 0x03, 0x00, 0x00, 0x00, 
  0x2c, 0x00, 0x00, 0x00, 0x28, 0xff, 0xff, 0xff, 0x1c, 0x00, 0x00, 0x00, 
  0x65, 0x73, 0x70, 0x33, 0x32, 0x5f, 0x63, 0x72, 0x69, 0x74, 0x69, 0x63, 
  0x2f, 0x64, 0x65, 0x6e, 0x73, 0x65, 0x5f, 0x36, 0x37, 0x2f, 0x4d, 0x61, 
  0x74, 0x4d, 0x75, 0x6c, 0x00, 0x00, 0x00, 0x00, 0x02, 0x00, 0x00, 0x00, 
  0x20, 0x00, 0x00, 0x00, 0x20, 0x00, 0x00, 0x00, 0x00, 0x00, 0x16, 0x00, 
  0x18, 0x00, 0x14, 0x00, 0x00, 0x00, 0x10, 0x00, 0x0c, 0x00, 0x08, 0x00, 
  0x00, 0x00, 0x00, 0x00, 0x00, 0x00, 0x07, 0x00, 0x16, 0x00, 0x00, 0x00, 
  0x00, 0x00, 0x00, 0x01, 0x10, 0x00, 0x00, 0x00, 0x10, 0x00, 0x00, 0x00, 
  0x02, 0x00, 0x00, 0x00, 0x2c, 0x00, 0x00, 0x00, 0x8c, 0xff, 0xff, 0xff, 
  0x1d, 0x00, 0x00, 0x00, 0x65, 0x73, 0x70, 0x33, 0x32, 0x5f, 0x63, 0x72, 
  0x69, 0x74, 0x69, 0x63, 0x2f, 0x64, 0x65, 0x6e, 0x73, 0x65, 0x5f, 0x36, 
  0x36, 0x2f, 0x4d, 0x61, 0x74, 0x4d, 0x75, 0x6c, 0x31, 0x00, 0x00, 0x00, 
  0x02, 0x00, 0x00, 0x00, 0x20, 0x00, 0x00, 0x00, 0x07, 0x00, 0x00, 0x00, 
  0x00, 0x00, 0x16, 0x00, 0x1c, 0x00, 0x18, 0x00, 0x00, 0x00, 0x14, 0x00, 
  0x10, 0x00, 0x0c, 0x00, 0x00, 0x00, 0x00, 0x00, 0x08, 0x00, 0x07, 0x00, 
  0x16, 0x00, 0x00, 0x00, 0x00, 0x00, 0x00, 0x01, 0x14, 0x00, 0x00, 0x00, 
  0x20, 0x00, 0x00, 0x00, 0x20, 0x00, 0x00, 0x00, 0x01, 0x00, 0x00, 0x00, 
  0x40, 0x00, 0x00, 0x00, 0x02, 0x00, 0x00, 0x00, 0xff, 0xff, 0xff, 0xff, 
  0x07, 0x00, 0x00, 0x00, 0x04, 0x00, 0x04, 0x00, 0x04, 0x00, 0x00, 0x00, 
  0x20, 0x00, 0x00, 0x00, 0x73, 0x65, 0x72, 0x76, 0x69, 0x6e, 0x67, 0x5f, 
  0x64, 0x65, 0x66, 0x61, 0x75, 0x6c, 0x74, 0x5f, 0x64, 0x65, 0x6e, 0x73, 
  0x65, 0x5f, 0x36, 0x36, 0x5f, 0x69, 0x6e, 0x70, 0x75, 0x74, 0x3a, 0x30, 
  0x00, 0x00, 0x00, 0x00, 0x02, 0x00, 0x00, 0x00, 0x01, 0x00, 0x00, 0x00, 
  0x07, 0x00, 0x00, 0x00, 0x01, 0x00, 0x00, 0x00, 0x10, 0x00, 0x00, 0x00, 
  0x0c, 0x00, 0x0c, 0x00, 0x0b, 0x00, 0x00, 0x00, 0x00, 0x00, 0x04, 0x00, 
  0x0c, 0x00, 0x00, 0x00, 0x09, 0x00, 0x00, 0x00, 0x00, 0x00, 0x00, 0x09, 
};

const unsigned int critic_model_len = 6744;
