#include "critic_task0.h"

const uint8_t critic_model[] = {

  0x1c, 0x00, 0x00, 0x00, 0x54, 0x46, 0x4c, 0x33, 0x14, 0x00, 0x20, 0x00, 
  0x1c, 0x00, 0x18, 0x00, 0x14, 0x00, 0x10, 0x00, 0x0c, 0x00, 0x00, 0x00, 
  0x08, 0x00, 0x04, 0x00, 0x14, 0x00, 0x00, 0x00, 0x1c, 0x00, 0x00, 0x00, 
  0x98, 0x00, 0x00, 0x00, 0xf0, 0x00, 0x00, 0x00, 0xd4, 0x14, 0x00, 0x00, 
  0xe4, 0x14, 0x00, 0x00, 0x04, 0x19, 0x00, 0x00, 0x03, 0x00, 0x00, 0x00, 
  0x01, 0x00, 0x00, 0x00, 0x10, 0x00, 0x00, 0x00, 0x00, 0x00, 0x0a, 0x00, 
  0x10, 0x00, 0x0c, 0x00, 0x08, 0x00, 0x04, 0x00, 0x0a, 0x00, 0x00, 0x00, 
  0x0c, 0x00, 0x00, 0x00, 0x1c, 0x00, 0x00, 0x00, 0x3c, 0x00, 0x00, 0x00, 
  0x0f, 0x00, 0x00, 0x00, 0x73, 0x65, 0x72, 0x76, 0x69, 0x6e, 0x67, 0x5f, 
  0x64, 0x65, 0x66, 0x61, 0x75, 0x6c, 0x74, 0x00, 0x01, 0x00, 0x00, 0x00, 
  0x04, 0x00, 0x00, 0x00, 0x90, 0xff, 0xff, 0xff, 0x06, 0x00, 0x00, 0x00, 
  0x04, 0x00, 0x00, 0x00, 0x08, 0x00, 0x00, 0x00, 0x64, 0x65, 0x6e, 0x73, 
  0x65, 0x5f, 0x36, 0x38, 0x00, 0x00, 0x00, 0x00, 0x01, 0x00, 0x00, 0x00, 
  0x04, 0x00, 0x00, 0x00, 0x3a, 0xee, 0xff, 0xff, 0x04, 0x00, 0x00, 0x00, 
  0x0e, 0x00, 0x00, 0x00, 0x64, 0x65, 0x6e, 0x73, 0x65, 0x5f, 0x36, 0x36, 
  0x5f, 0x69, 0x6e, 0x70, 0x75, 0x74, 0x00, 0x00, 0x02, 0x00, 0x00, 0x00, 
  0x34, 0x00, 0x00, 0x00, 0x04, 0x00, 0x00, 0x00, 0xdc, 0xff, 0xff, 0xff, 
  0x09, 0x00, 0x00, 0x00, 0x04, 0x00, 0x00, 0x00, 0x13, 0x00, 0x00, 0x00, 
  0x43, 0x4f, 0x4e, 0x56, 0x45, 0x52, 0x53, 0x49, 0x4f, 0x4e, 0x5f, 0x4d, 
  0x45, 0x54, 0x41, 0x44, 0x41, 0x54, 0x41, 0x00, 0x08, 0x00, 0x0c, 0x00, 
  0x08, 0x00, 0x04, 0x00, 0x08, 0x00, 0x00, 0x00, 0x08, 0x00, 0x00, 0x00, 
  0x04, 0x00, 0x00, 0x00, 0x13, 0x00, 0x00, 0x00, 0x6d, 0x69, 0x6e, 0x5f, 
  0x72, 0x75, 0x6e, 0x74, 0x69, 0x6d, 0x65, 0x5f, 0x76, 0x65, 0x72, 0x73, 
  0x69, 0x6f, 0x6e, 0x00, 0x0a, 0x00, 0x00, 0x00, 0xe0, 0x13, 0x00, 0x00, 
  0xd8, 0x13, 0x00, 0x00, 0x48, 0x11, 0x00, 0x00, 0x30, 0x01, 0x00, 0x00, 
  0xa0, 0x00, 0x00, 0x00, 0x98, 0x00, 0x00, 0x00, 0x90, 0x00, 0x00, 0x00, 
  0x88, 0x00, 0x00, 0x00, 0x68, 0x00, 0x00, 0x00, 0x04, 0x00, 0x00, 0x00, 
  0xde, 0xee, 0xff, 0xff, 0x04, 0x00, 0x00, 0x00, 0x54, 0x00, 0x00, 0x00, 
  0x0c, 0x00, 0x00, 0x00, 0x08, 0x00, 0x0e, 0x00, 0x08, 0x00, 0x04, 0x00, 
  0x08, 0x00, 0x00, 0x00, 0x10, 0x00, 0x00, 0x00, 0x24, 0x00, 0x00, 0x00, 
  0x00, 0x00, 0x06, 0x00, 0x08, 0x00, 0x04, 0x00, 0x06, 0x00, 0x00, 0x00, 
  0x04, 0x00, 0x00, 0x00, 0x00, 0x00, 0x00, 0x00, 0x00, 0x00, 0x0a, 0x00, 
  0x10, 0x00, 0x0c, 0x00, 0x08, 0x00, 0x04, 0x00, 0x0a, 0x00, 0x00, 0x00, 
  0x02, 0x00, 0x00, 0x00, 0x02, 0x00, 0x00, 0x00, 0x04, 0x00, 0x00, 0x00, 
  0x06, 0x00, 0x00, 0x00, 0x32, 0x2e, 0x31, 0x33, 0x2e, 0x30, 0x00, 0x00, 
  0x3e, 0xef, 0xff, 0xff, 0x04, 0x00, 0x00, 0x00, 0x10, 0x00, 0x00, 0x00, 
  0x31, 0x2e, 0x35, 0x2e, 0x30, 0x00, 0x00, 0x00, 0x00, 0x00, 0x00, 0x00, 
  0x00, 0x00, 0x00, 0x00, 0xc4, 0xe8, 0xff, 0xff, 0xc8, 0xe8, 0xff, 0xff, 
  0xcc, 0xe8, 0xff, 0xff, 0x66, 0xef, 0xff, 0xff, 0x04, 0x00, 0x00, 0x00, 
  0x80, 0x00, 0x00, 0x00, 0x6c, 0x4a, 0x1f, 0xbe, 0xd5, 0xed, 0xc8, 0xbe, 
  0x31, 0xef, 0x5d, 0xbe, 0x6a, 0x18, 0x0d, 0xbe, 0xc4, 0xc3, 0x84, 0xbe, 
  0xf4, 0xf7, 0x7f, 0x3e, 0x8c, 0xcf, 0xcf, 0xbd, 0x20, 0x82, 0x41, 0x3e, 
  0xd0, 0x02, 0x27, 0x3e, 0xfc, 0xa4, 0xee, 0xbd, 0x6c, 0xba, 0xd3, 0x3e, 
  0xe8, 0xa3, 0x7c, 0x3e, 0x00, 0xda, 0x76, 0xbc, 0x7c, 0xbe, 0x1f, 0xbe, 
  0x48, 0xc7, 0xbe, 0xbd, 0xb4, 0xa8, 0x78, 0x3e, 0x28, 0xa8, 0xc1, 0x3d, 
  0x37, 0x14, 0xd1, 0xbe, 0xe0, 0x7d, 0x2d, 0x3d, 0x3e, 0x02, 0x32, 0xbe, 
  0xd4, 0xaa, 0x90, 0x3e, 0x90, 0x0e, 0x01, 0x3e, 0xe6, 0xd3, 0xb8, 0x3e, 
  0x77, 0x9e, 0x57, 0xbe, 0x18, 0x56, 0xe3, 0xbd, 0xf4, 0x40, 0x81, 0xbe, 
  0x51, 0x0f, 0x6d, 0xbe, 0xd0, 0x64, 0xa8, 0xbe, 0xf6, 0xf6, 0x6e, 0xbe, 
  0xe2, 0xe1, 0xcc, 0xbe, 0x10, 0x94, 0xb7, 0xbe, 0xf8, 0x9f, 0xa6, 0x3d, 
  0xf2, 0xef, 0xff, 0xff, 0x04, 0x00, 0x00, 0x00, 0x00, 0x10, 0x00, 0x00, 
  0xf6, 0xd3, 0x7c, 0xbe, 0xc0, 0x67, 0xfb, 0x3b, 0x70, 0x25, 0xfc, 0xbc, 
  0x13, 0x72, 0x91, 0xbe, 0x8a, 0x95, 0x07, 0x3e, 0x41, 0x3c, 0x8e, 0x3e, 
  0x56, 0x15, 0x25, 0xbe, 0x5f, 0x67, 0x1d, 0xbe, 0x48, 0x6e, 0x44, 0x3d, 
  0x2e, 0x67, 0x71, 0x3e, 0x78, 0x57, 0xd9, 0x3d, 0xfc, 0x16, 0x42, 0xbe, 
  0x44, 0xf8, 0x81, 0xbd, 0x23, 0x1c, 0x54, 0xbe, 0xd9, 0x6a, 0x8a, 0x3e, 
  0xb8, 0x6c, 0x0f, 0x3d, 0x28, 0xeb, 0x52, 0xbe, 0xcd, 0x12, 0x99, 0x3e, 
  0x1b, 0x3f, 0x7d, 0xbe, 0x0d, 0x51, 0x95, 0x3e, 0x52, 0x8e, 0x74, 0xbe, 
  0x00, 0xe7, 0x16, 0xbb, 0xb8, 0xd3, 0x7e, 0x3d, 0x2e, 0x6b, 0x53, 0x3e, 
  0xfb, 0x81, 0x37, 0xbe, 0x56, 0x6b, 0x63, 0x3e, 0x41, 0xf8, 0x85, 0x3e, 
  0x1e, 0x20, 0x1c, 0x3e, 0xf2, 0xbb, 0x49, 0x3e, 0x80, 0x48, 0xd3, 0x3b, 
  0x0b, 0xc5, 0x80, 0xbe, 0x46, 0xff, 0x3d, 0xbe, 0xd2, 0xa5, 0x92, 0xbe, 
  0x07, 0x6c, 0x10, 0xbe, 0x74, 0x1f, 0x49, 0xbe, 0x00, 0x0b, 0xdc, 0xbb, 
  0x88, 0xdd, 0xdf, 0x3d, 0x26, 0x49, 0x6b, 0x3e, 0x50, 0xe5, 0x4e, 0x3d, 
  0x3a, 0x8e, 0xb9, 0xbd, 0xd0, 0xcf, 0xaa, 0xbc, 0xe4, 0x53, 0xa1, 0xbd, 
  0x60, 0xc1, 0x1a, 0xbd, 0x96, 0xc4, 0x08, 0x3e, 0xa0, 0x5f, 0x15, 0xbc, 
  0xe8, 0x0b, 0xc5, 0x3d, 0x3e, 0xb3, 0xd8, 0xbd, 0xd6, 0xc0, 0x08, 0xbe, 
  0x26, 0xb6, 0x7c, 0x3e, 0x3e, 0x84, 0x77, 0xbe, 0xc0, 0x46, 0x92, 0x3c, 
  0x98, 0x8e, 0x09, 0x3e, 0x60, 0xec, 0xad, 0x3d, 0xe0, 0x48, 0x83, 0x3d, 
  0xde, 0x86, 0x57, 0x3e, 0x7c, 0xff, 0x5e, 0xbe, 0x1b, 0xb1, 0x9a, 0x3e, 
  0xf0, 0x31, 0x44, 0x3d, 0xc2, 0x64, 0xa4, 0xbd, 0x9b, 0x3c, 0x8d, 0x3e, 
  0x07, 0xcd, 0x87, 0x3e, 0xaa, 0xeb, 0x30, 0x3e, 0xc5, 0x92, 0x80, 0xbe, 
  0xc0, 0xa0, 0x8b, 0xbb, 0x0a, 0x92, 0x1e, 0x3e, 0xa2, 0x82, 0x4c, 0x3e, 
  0x18, 0x38, 0xbb, 0x3d, 0xc3, 0x53, 0x99, 0x3e, 0xba, 0x8e, 0x6f, 0xbe, 
  0x5e, 0xe1, 0xc5, 0xbd, 0x32, 0xc2, 0x36, 0xbe, 0xa0, 0x9f, 0x3e, 0xbc, 
  0x70, 0x9d, 0xbb, 0xbc, 0x6a, 0xa1, 0x88, 0xbd, 0x0d, 0xdb, 0x85, 0x3e, 
  0x6c, 0x09, 0xe0, 0x3d, 0xa6, 0xd0, 0x7f, 0x3e, 0x08, 0x19, 0x48, 0xbd, 
  0x04, 0xa0, 0x3c, 0x3e, 0x8c, 0x7a, 0xdf, 0x3d, 0x40, 0x13, 0xa2, 0x3d, 
  0x4a, 0x78, 0x59, 0x3e, 0x68, 0x98, 0xe7, 0xbd, 0xf0, 0x71, 0xf1, 0xbc, 
  0x38, 0xe8, 0x66, 0xbe, 0xf8, 0xa2, 0x93, 0xbe, 0x0d, 0xb3, 0x8b, 0xbe, 
  0x90, 0x4b, 0x2e, 0x3e, 0x16, 0x09, 0xd5, 0xbd, 0xc8, 0xb0, 0x09, 0xbd, 
  0x25, 0x52, 0x81, 0x3e, 0xa1, 0x8d, 0x91, 0x3e, 0xd8, 0x49, 0x88, 0x3d, 
  0x43, 0x3f, 0x8b, 0xbe, 0xe8, 0x0c, 0x2a, 0x3e, 0xd0, 0x70, 0x4e, 0xbe, 
  0xff, 0x2a, 0x3a, 0xbe, 0x91, 0xaa, 0x5d, 0xbe, 0x40, 0xcb, 0x35, 0x3d, 
  0xf4, 0x9b, 0xcf, 0x3d, 0xa0, 0xd6, 0xb3, 0x3d, 0x2c, 0xb9, 0xae, 0x3d, 
  0xa0, 0xa4, 0xed, 0x3c, 0x00, 0x78, 0x77, 0xbd, 0x1c, 0x02, 0x9b, 0xbe, 
  0x68, 0x7f, 0x21, 0xbe, 0xd8, 0xf4, 0x08, 0x3d, 0xd2, 0x95, 0xd1, 0xbd, 
  0xb8, 0x7b, 0x17, 0x3d, 0xca, 0xe8, 0xdc, 0xbd, 0x5f, 0x3a, 0x8e, 0x3e, 
  0x90, 0x4c, 0xc1, 0xbc, 0x44, 0xa6, 0x01, 0x3e, 0x92, 0x88, 0x59, 0x3e, 
  0xe4, 0x7b, 0x92, 0x3d, 0x03, 0x72, 0x08, 0xbe, 0x03, 0x5f, 0x12, 0xbe, 
  0x10, 0x3d, 0x26, 0xbd, 0xd4, 0x1d, 0xf7, 0x3d, 0xa0, 0x47, 0x39, 0x3c, 
  0x7b, 0x0c, 0x8b, 0x3e, 0x14, 0xa5, 0x18, 0x3e, 0x00, 0x9f, 0x2f, 0x3d, 
  0x4a, 0xc3, 0x7a, 0x3e, 0x80, 0xd4, 0x42, 0x3d, 0x7a, 0x3f, 0xe5, 0xbd, 
  0xc4, 0x30, 0x8b, 0xbd, 0x00, 0x71, 0x1d, 0x3b, 0x04, 0x1a, 0xf5, 0xbd, 
  0x80, 0x07, 0x5a, 0xbb, 0xb7, 0x82, 0x95, 0x3e, 0xd8, 0x57, 0x6d, 0xbe, 
  0xc8, 0x89, 0x21, 0xbe, 0x42, 0xf1, 0x27, 0x3e, 0x00, 0x0f, 0x01, 0xbc, 
  0x9e, 0xfa, 0x3b, 0x3e, 0xb0, 0x96, 0xe7, 0x3c, 0x9a, 0x60, 0x7e, 0x3e, 
  0x14, 0x22, 0x88, 0xbe, 0xc1, 0x15, 0x99, 0x3e, 0x36, 0xdc, 0x67, 0x3e, 
  0x86, 0x34, 0x77, 0xbe, 0x7c, 0xd1, 0xe0, 0x3d, 0x90, 0x69, 0xa5, 0xbc, 
  0x02, 0x81, 0x71, 0x3e, 0x2d, 0xf8, 0x9b, 0xbe, 0x3c, 0xca, 0x82, 0x3d, 
  0xd7, 0x61, 0x36, 0xbe, 0x72, 0x26, 0xd5, 0xbd, 0x70, 0xa9, 0xdf, 0xbd, 
  0x20, 0x36, 0xeb, 0xbd, 0xc3, 0x23, 0x86, 0x3e, 0x50, 0x50, 0x66, 0xbe, 
  0x7a, 0x05, 0x82, 0xbe, 0xbc, 0xf9, 0xee, 0xbd, 0x56, 0x78, 0x9b, 0xbe, 
  0xd6, 0x8f, 0x07, 0xbe, 0x83, 0xa1, 0x93, 0xbe, 0x62, 0x5f, 0x39, 0x3e, 
  0x90, 0xcb, 0x37, 0x3e, 0x48, 0x8b, 0x39, 0x3e, 0xea, 0xd1, 0x52, 0xbe, 
  0xfb, 0x99, 0x82, 0x3e, 0x30, 0x9e, 0xb6, 0x3c, 0xe6, 0x9b, 0x62, 0xbe, 
  0x80, 0xe7, 0xab, 0x3b, 0x98, 0xa8, 0x44, 0x3d, 0xc4, 0xde, 0x9b, 0x3d, 
  0xff, 0xaa, 0x91, 0x3e, 0xb0, 0x02, 0x8e, 0x3c, 0x70, 0x21, 0xd5, 0x3c, 
  0x3d, 0xf8, 0x89, 0xbe, 0x80, 0x9c, 0xfa, 0xbd, 0xc6, 0x3b, 0x58, 0xbe, 
  0x06, 0x38, 0x94, 0xbe, 0x1a, 0xaf, 0x76, 0x3e, 0x52, 0x89, 0x4d, 0x3e, 
  0x4a, 0xd8, 0x86, 0xbe, 0x3e, 0x48, 0x10, 0x3e, 0x85, 0xc3, 0x83, 0x3e, 
  0x00, 0x6c, 0x2d, 0xbb, 0xb7, 0x49, 0x98, 0x3e, 0xcd, 0x7a, 0x5d, 0xbe, 
  0x80, 0xe7, 0x95, 0x3b, 0xa1, 0xa0, 0x6c, 0xbe, 0xa1, 0x30, 0x85, 0x3e, 
  0xce, 0x07, 0x64, 0x3e, 0x00, 0x95, 0x50, 0xbc, 0x34, 0xac, 0x0f, 0x3e, 
  0xf0, 0x43, 0x80, 0xbe, 0x78, 0xc0, 0x24, 0x3d, 0xbe, 0x9e, 0xe1, 0xbd, 
  0x3e, 0xfe, 0x4b, 0xbe, 0x0f, 0xbc, 0x31, 0xbe, 0x24, 0x99, 0x8b, 0xbd, 
  0x6e, 0x77, 0x61, 0x3e, 0x44, 0x44, 0xf5, 0x3d, 0xbc, 0x9a, 0x91, 0x3d, 
  0xa0, 0x40, 0x63, 0xbe, 0xc4, 0xd8, 0x61, 0xbe, 0x7e, 0x89, 0xe4, 0xbd, 
  0x40, 0xbc, 0x1e, 0x3e, 0xf6, 0x0f, 0x14, 0x3e, 0xe0, 0x8c, 0xc1, 0xbc, 
  0x6e, 0x35, 0xdb, 0xbd, 0xfa, 0x20, 0x67, 0xbe, 0xd0, 0x2a, 0x6d, 0x3d, 
  0x56, 0xcb, 0x8c, 0xbe, 0x80, 0x11, 0x57, 0xbd, 0xec, 0xee, 0xfc, 0xbd, 
  0x1a, 0xb9, 0x13, 0x3e, 0x8c, 0xec, 0x80, 0x3d, 0x58, 0x9d, 0x82, 0xbe, 
  0x03, 0x10, 0x32, 0xbe, 0xc0, 0xe6, 0x3c, 0x3c, 0xdf, 0xaa, 0x91, 0x3e, 
  0x80, 0x07, 0xfd, 0x3d, 0x2a, 0x39, 0x81, 0xbd, 0xfa, 0x70, 0x9d, 0xbd, 
  0x16, 0x4f, 0x72, 0x3e, 0x20, 0xfe, 0x09, 0x3e, 0x92, 0xa8, 0x1f, 0xbe, 
  0xd0, 0xa6, 0x0c, 0x3d, 0xe0, 0x3b, 0xb7, 0x3c, 0x3e, 0x74, 0x41, 0x3e, 
  0x21, 0xd6, 0x8a, 0x3e, 0x58, 0x6b, 0xf5, 0x3d, 0xd7, 0x09, 0x07, 0xbe, 
  0x1c, 0x27, 0x49, 0xbe, 0xf4, 0x9c, 0xcf, 0x3d, 0xd2, 0xd5, 0xf1, 0xbd, 
  0x05, 0xf9, 0x36, 0xbe, 0x7a, 0xaf, 0xb8, 0xbd, 0xf8, 0x7f, 0xa8, 0x3d, 
  0x17, 0xb3, 0x75, 0xbe, 0xa0, 0x41, 0xb4, 0x3c, 0xf5, 0xe7, 0x7c, 0xbe, 
  0x60, 0x38, 0x0a, 0xbe, 0x8e, 0xa5, 0x98, 0xbe, 0x80, 0x75, 0x37, 0x3b, 
  0x14, 0x80, 0x06, 0x3e, 0x4c, 0xc9, 0x2f, 0x3e, 0x64, 0x9e, 0x00, 0x3e, 
  0xef, 0x01, 0x31, 0xbe, 0xd2, 0xc7, 0x76, 0x3e, 0x00, 0xa6, 0x94, 0xbe, 
  0x6e, 0xcb, 0x60, 0x3e, 0xd6, 0xf1, 0x3b, 0xbe, 0x82, 0x78, 0x72, 0x3e, 
  0xde, 0x94, 0x6b, 0x3e, 0x58, 0xe3, 0xee, 0x3d, 0x90, 0xe0, 0xc5, 0x3d, 
  0x73, 0xcb, 0x95, 0x3e, 0x01, 0xe7, 0x0b, 0xbe, 0x28, 0x70, 0x2a, 0xbd, 
  0xe6, 0xe2, 0x7d, 0x3e, 0x19, 0xc7, 0x74, 0xbe, 0x54, 0x40, 0x3f, 0x3e, 
  0x48, 0xb5, 0x34, 0xbd, 0x48, 0xf3, 0xcd, 0xbd, 0xc0, 0xbd, 0xbc, 0x3d, 
  0xae, 0x0c, 0x34, 0x3e, 0x58, 0xb7, 0x1f, 0xbd, 0xf8, 0xd5, 0x0e, 0x3e, 
  0x07, 0xc6, 0x2f, 0xbe, 0x08, 0x49, 0xb9, 0x3d, 0x80, 0xd0, 0x76, 0xbb, 
  0xbc, 0xfc, 0x21, 0x3e, 0x7d, 0x7e, 0x8c, 0x3e, 0xd6, 0x62, 0x8b, 0xbe, 
  0x45, 0x48, 0x9b, 0x3e, 0x40, 0xb7, 0x60, 0x3d, 0xba, 0x91, 0xdd, 0xbd, 
  0x00, 0x2f, 0x83, 0xbd, 0x42, 0x9a, 0x8f, 0xbe, 0xca, 0xd5, 0x66, 0xbe, 
  0x9e, 0x9c, 0x72, 0x3e, 0x40, 0x08, 0x58, 0x3c, 0xe8, 0x7a, 0x1b, 0x3d, 
  0x96, 0x51, 0x86, 0xbe, 0x5d, 0x74, 0x99, 0x3e, 0x24, 0x5d, 0x65, 0xbe, 
  0xff, 0x49, 0x96, 0x3e, 0x08, 0xec, 0x19, 0x3d, 0xfe, 0x2d, 0x49, 0x3e, 
  0xa4, 0x93, 0x44, 0x3e, 0xd1, 0x1b, 0x95, 0x3e, 0xc8, 0x61, 0x99, 0xbd, 
  0xf2, 0x39, 0x27, 0x3e, 0x54, 0x1e, 0x88, 0xbe, 0x36, 0xf7, 0x31, 0xbe, 
  0x18, 0xc4, 0x59, 0xbe, 0x50, 0x1d, 0xcb, 0xbd, 0x42, 0x1b, 0x6d, 0xbe, 
  0xd0, 0x48, 0xd5, 0x3c, 0xc2, 0xad, 0x02, 0x3e, 0x68, 0x72, 0x61, 0xbd, 
  0xdc, 0x28, 0x05, 0x3e, 0x25, 0x88, 0x94, 0x3e, 0x90, 0x2e, 0x84, 0xbe, 
  0xc0, 0x1f, 0xf6, 0xbc, 0x19, 0x13, 0x98, 0x3e, 0xe1, 0x20, 0x80, 0x3e, 
  0xc0, 0x96, 0x47, 0xbe, 0x70, 0x7c, 0x2e, 0x3e, 0xab, 0x2d, 0x8c, 0x3e, 
  0x24, 0x07, 0xce, 0xbd, 0xde, 0xb3, 0x4e, 0xbe, 0x72, 0x6d, 0xd2, 0xbd, 
  0x68, 0x99, 0xb9, 0xbd, 0x38, 0x53, 0x07, 0x3d, 0x20, 0xd5, 0x21, 0x3c, 
  0x94, 0x95, 0xdb, 0x3d, 0x94, 0x66, 0x09, 0xbe, 0x04, 0xe9, 0x5c, 0xbe, 
  0xc6, 0x79, 0x6b, 0xbe, 0x38, 0x5b, 0xc1, 0x3d, 0x2e, 0x85, 0x5a, 0xbe, 
  0xde, 0x3c, 0x51, 0xbe, 0x91, 0x07, 0x3d, 0xbe, 0x3a, 0xc5, 0x78, 0xbe, 
  0xde, 0xf8, 0x48, 0x3e, 0xa9, 0x51, 0x88, 0xbe, 0x20, 0xf7, 0x99, 0x3d, 
  0xfa, 0xce, 0xcb, 0xbd, 0x2b, 0x55, 0x2e, 0xbe, 0xba, 0xf9, 0x75, 0x3e, 
  0xd8, 0x41, 0xef, 0x3d, 0x08, 0xac, 0x27, 0x3d, 0xb8, 0x3b, 0x78, 0x3d, 
  0x20, 0x12, 0x4e, 0xbd, 0x76, 0xd6, 0x6c, 0x3e, 0x35, 0x76, 0x90, 0xbe, 
  0x1c, 0x79, 0x87, 0xbe, 0x80, 0xb8, 0xf7, 0x3c, 0xe2, 0x48, 0x19, 0xbe, 
  0x70, 0x68, 0x67, 0x3d, 0xc4, 0x85, 0x10, 0xbe, 0x3e, 0xe2, 0x61, 0x3e, 
  0x54, 0xec, 0xe2, 0x3d, 0x28, 0x3d, 0x34, 0xbe, 0x21, 0x4d, 0x26, 0xbe, 
  0xd0, 0xb8, 0x3c, 0x3d, 0x56, 0xf2, 0x48, 0x3e, 0xc0, 0x84, 0x2d, 0xbe, 
  0xf8, 0xf9, 0x16, 0xbd, 0x70, 0x3d, 0xe2, 0x3c, 0x80, 0xed, 0x1b, 0xbd, 
  0x71, 0x18, 0x83, 0x3e, 0x70, 0xf2, 0x85, 0xbe, 0xa0, 0xf7, 0x15, 0x3d, 
  0xb8, 0x3f, 0xd2, 0x3d, 0x1c, 0x53, 0xc2, 0xbd, 0x25, 0xf5, 0x50, 0xbe, 
  0x50, 0x79, 0x87, 0xbe, 0x98, 0xc3, 0xe9, 0x3d, 0xd0, 0xcd, 0x0d, 0x3d, 
  0x00, 0xf6, 0x6e, 0xbe, 0x2a, 0x40, 0x38, 0x3e, 0xc8, 0x0f, 0x00, 0x3e, 
  0x08, 0x61, 0x44, 0xbd, 0x6e, 0xae, 0x2d, 0x3e, 0x80, 0x24, 0xfa, 0x3b, 
  0x4a, 0x8c, 0x6a, 0xbe, 0x50, 0xa5, 0xb9, 0x3c, 0x66, 0x61, 0x19, 0xbe, 
  0xf5, 0x53, 0x83, 0xbe, 0x73, 0x5b, 0x8c, 0x3e, 0x0c, 0xfd, 0xc6, 0x3d, 
  0xd7, 0x2a, 0x34, 0xbe, 0xf8, 0xbb, 0xbd, 0xbd, 0x09, 0x1f, 0x7f, 0xbe, 
  0x42, 0xfe, 0x6f, 0xbe, 0xc9, 0x9e, 0x8f, 0x3e, 0xda, 0x67, 0x7d, 0x3e, 
  0x5c, 0x80, 0xbc, 0x3d, 0x36, 0xc1, 0x22, 0xbe, 0x68, 0xb2, 0x57, 0xbe, 
  0xee, 0xb2, 0x33, 0xbe, 0x80, 0xb8, 0x99, 0xbe, 0xec, 0x19, 0xe8, 0x3d, 
  0x16, 0x5c, 0x7a, 0xbe, 0x10, 0xe1, 0xdd, 0x3d, 0xb0, 0x79, 0x38, 0x3e, 
  0xc0, 0x65, 0xc4, 0x3c, 0xd2, 0x8b, 0x3f, 0xbe, 0xc0, 0x7a, 0x9e, 0xbd, 
  0xbc, 0x59, 0x91, 0x3d, 0x8c, 0xe4, 0x12, 0xbe, 0x8e, 0x5f, 0x09, 0x3e, 
  0x9d, 0x51, 0x68, 0xbe, 0x52, 0xef, 0x4e, 0x3e, 0xea, 0x74, 0x07, 0x3e, 
  0xdd, 0x72, 0x39, 0xbe, 0xe4, 0xe4, 0x3c, 0xbe, 0xca, 0xe8, 0x2a, 0x3e, 
  0x11, 0x61, 0x9a, 0x3e, 0xa8, 0x9f, 0x05, 0xbd, 0xa0, 0x65, 0x42, 0x3c, 
  0x66, 0x3c, 0x86, 0xbe, 0xe0, 0x2e, 0x21, 0x3c, 0x83, 0x95, 0x25, 0xbe, 
  0x32, 0x29, 0x4b, 0xbe, 0x43, 0x9f, 0x8c, 0xbe, 0xfe, 0x27, 0x3a, 0xbe, 
  0x30, 0xbe, 0x49, 0x3d, 0x35, 0x6e, 0x99, 0x3e, 0x40, 0x7f, 0x0b, 0x3e, 
  0xce, 0x84, 0x7b, 0x3e, 0x0e, 0x2e, 0x96, 0xbe, 0x7e, 0x37, 0x64, 0x3e, 
  0x03, 0x54, 0x83, 0xbe, 0xd4, 0x74, 0x76, 0xbe, 0x8a, 0xa4, 0xdb, 0xbd, 
  0x47, 0xfc, 0x8e, 0x3e, 0xdf, 0xca, 0x7c, 0xbe, 0xb2, 0xf2, 0x6c, 0x3e, 
  0x8c, 0x5d, 0x3d, 0x3e, 0x30, 0x91, 0x29, 0x3e, 0x68, 0xe2, 0x36, 0xbd, 
  0xf9, 0xba, 0x0f, 0xbe, 0xc4, 0x21, 0x0b, 0xbe, 0x7e, 0x4a, 0x84, 0xbe, 
  0x08, 0xeb, 0x8a, 0xbe, 0x7a, 0x38, 0x35, 0xbe, 0xc8, 0x0b, 0x18, 0x3d, 
  0x42, 0x03, 0x54, 0x3e, 0xec, 0x49, 0x98, 0x3d, 0x50, 0x3f, 0xfc, 0xbc, 
  0x5e, 0x83, 0xcd, 0xbd, 0x82, 0x1d, 0x12, 0x3e, 0x03, 0x0e, 0x9a, 0xbe, 
  0xd2, 0xc0, 0x68, 0x3e, 0x20, 0x9e, 0x11, 0x3c, 0x90, 0x5f, 0x47, 0xbe, 
  0x88, 0xd0, 0x27, 0xbe, 0x39, 0xd6, 0x96, 0x3e, 0xc0, 0x9b, 0xbd, 0x3b, 
  0x2c, 0xa0, 0xad, 0x3d, 0x9b, 0x1f, 0x91, 0xbe, 0xb0, 0xe7, 0x61, 0x3d, 
  0x78, 0x92, 0x75, 0x3d, 0x00, 0xf3, 0x9e, 0xba, 0xdb, 0x93, 0x85, 0xbe, 
  0xe0, 0x25, 0x9a, 0xbc, 0xc0, 0x1f, 0x07, 0x3e, 0x32, 0xaf, 0x5f, 0x3e, 
  0xac, 0x3e, 0xb6, 0x3d, 0x5e, 0x83, 0x7b, 0xbe, 0x60, 0xc3, 0xd6, 0x3d, 
  0x78, 0x5a, 0xb0, 0x3d, 0x63, 0x2d, 0x34, 0xbe, 0x15, 0x1f, 0x07, 0xbe, 
  0xa0, 0x1f, 0x60, 0xbe, 0x20, 0x4e, 0xd8, 0x3d, 0x70, 0xad, 0xbd, 0x3c, 
  0xec, 0xe9, 0x89, 0xbe, 0xcb, 0x0b, 0x86, 0xbe, 0x3c, 0x36, 0x16, 0x3e, 
  0x88, 0xf6, 0x7a, 0x3d, 0x6f, 0xce, 0x85, 0x3e, 0x14, 0x45, 0x51, 0xbe, 
  0xb5, 0x79, 0x84, 0x3e, 0x6e, 0x59, 0x6d, 0xbe, 0x48, 0x5e, 0x15, 0xbd, 
  0xf9, 0xbb, 0x80, 0x3e, 0x93, 0x26, 0x9c, 0xbe, 0xc7, 0xcf, 0x15, 0xbe, 
  0xfd, 0x04, 0x02, 0xbe, 0x6a, 0x37, 0x2e, 0x3e, 0xf0, 0x42, 0x90, 0x3c, 
  0x64, 0x65, 0xbd, 0x3d, 0x50, 0xdf, 0x17, 0xbd, 0x92, 0xf6, 0x88, 0xbd, 
  0x9a, 0x0f, 0xca, 0xbd, 0xe9, 0x35, 0x9b, 0xbe, 0x78, 0xb9, 0xbc, 0xbd, 
  0x77, 0x9d, 0x43, 0xbe, 0xb6, 0x99, 0x8d, 0xbe, 0x32, 0x72, 0x72, 0x3e, 
  0x20, 0x5a, 0x43, 0x3e, 0x7c, 0x91, 0x2a, 0xbe, 0x85, 0x9e, 0x15, 0xbe, 
  0x30, 0x9e, 0x2e, 0xbd, 0xf4, 0x1e, 0xbc, 0x3d, 0x9a, 0xf3, 0x72, 0x3e, 
  0xc7, 0x40, 0x74, 0xbe, 0x88, 0x97, 0xc1, 0xbd, 0x3b, 0xaf, 0x3c, 0xbe, 
  0xe9, 0x80, 0x35, 0xbe, 0x40, 0x2b, 0xb6, 0xbb, 0xc0, 0xbc, 0xe4, 0x3c, 
  0x30, 0xae, 0x0d, 0xbe, 0x89, 0x2d, 0x2a, 0xbe, 0xfa, 0x83, 0xef, 0xbd, 
  0x4a, 0x47, 0x65, 0xbe, 0x00, 0xd6, 0x49, 0xbd, 0x6b, 0x46, 0x85, 0x3e, 
  0xf0, 0x8e, 0xa4, 0x3c, 0xdf, 0x1f, 0x73, 0xbe, 0x42, 0xa5, 0xe2, 0xbd, 
  0xf2, 0x6f, 0x34, 0x3e, 0xc2, 0xbf, 0x6a, 0x3e, 0xd4, 0xe2, 0x94, 0xbe, 
  0xc8, 0xff, 0x97, 0xbe, 0x82, 0xda, 0x87, 0xbe, 0xcf, 0xf2, 0x86, 0x3e, 
  0x8a, 0x12, 0x51, 0x3e, 0xd2, 0x4e, 0x08, 0xbe, 0xe8, 0x49, 0x64, 0x3d, 
  0x51, 0x88, 0x91, 0x3e, 0xcf, 0x57, 0x2c, 0xbe, 0x24, 0x1f, 0x9c, 0x3d, 
  0x1b, 0xc8, 0x97, 0x3e, 0x0f, 0x73, 0x73, 0xbe, 0x35, 0x88, 0x80, 0xbe, 
  0xb1, 0x47, 0x6b, 0xbe, 0x98, 0x69, 0x4a, 0x3d, 0x74, 0xd8, 0x06, 0x3e, 
  0x53, 0xd8, 0x63, 0xbe, 0xa0, 0x18, 0x7e, 0x3c, 0xb8, 0x02, 0x7d, 0x3d, 
  0x8c, 0x98, 0xb3, 0x3d, 0xbf, 0x24, 0x9c, 0x3e, 0x24, 0x2b, 0x28, 0xbe, 
  0xe0, 0xdc, 0xef, 0x3d, 0xee, 0x4b, 0x75, 0x3e, 0x70, 0x61, 0x05, 0x3d, 
  0x26, 0x88, 0x73, 0x3e, 0x10, 0xb5, 0xbf, 0xbc, 0x28, 0xf4, 0x91, 0xbe, 
  0x34, 0xf2, 0x84, 0xbd, 0xa9, 0xd3, 0x92, 0xbe, 0x96, 0xe5, 0x46, 0xbe, 
  0xcd, 0xb3, 0x9a, 0x3e, 0xa6, 0xc2, 0x66, 0x3e, 0x7c, 0xc9, 0xc6, 0x3d, 
  0x32, 0x0f, 0x83, 0xbd, 0xff, 0xb4, 0x8d, 0x3e, 0x90, 0x32, 0xa2, 0xbd, 
  0x81, 0x2a, 0x78, 0xbe, 0xca, 0x8a, 0x24, 0x3e, 0x10, 0xbb, 0xf4, 0x3c, 
  0x00, 0x4f, 0xb5, 0xbd, 0xb2, 0x51, 0x48, 0xbe, 0xee, 0x68, 0x31, 0xbe, 
  0x1c, 0x9a, 0xbe, 0x3d, 0x34, 0x98, 0x0d, 0xbe, 0x1e, 0x69, 0x7d, 0x3e, 
  0x80, 0x6a, 0x43, 0x3c, 0x52, 0x7c, 0x54, 0xbe, 0xa4, 0xe8, 0x80, 0x3d, 
  0x87, 0x0d, 0x89, 0x3e, 0x8c, 0xa8, 0xcb, 0xbd, 0x2e, 0x34, 0x1d, 0xbe, 
  0x10, 0x49, 0x86, 0xbc, 0x15, 0xd2, 0x92, 0x3e, 0xa0, 0x2b, 0x1f, 0x3c, 
  0x02, 0x23, 0x95, 0xbd, 0xf2, 0x01, 0xc3, 0xbd, 0xa0, 0xaf, 0xc1, 0x3c, 
  0x4a, 0x5b, 0x37, 0x3e, 0x00, 0x1c, 0x0a, 0xbb, 0x56, 0xb5, 0x77, 0x3e, 
  0xa8, 0x88, 0xab, 0x3d, 0x20, 0x97, 0x19, 0xbd, 0x80, 0xa2, 0x2a, 0xbe, 
  0x4c, 0xef, 0x28, 0x3e, 0x14, 0x99, 0xb0, 0x3d, 0xe4, 0x02, 0x70, 0xbe, 
  0x24, 0x46, 0xa8, 0xbd, 0xb9, 0x52, 0x19, 0xbe, 0x5a, 0x33, 0x69, 0x3e, 
  0x70, 0xe9, 0x5c, 0xbd, 0x27, 0x17, 0x55, 0xbe, 0x03, 0x39, 0x37, 0xbe, 
  0xbf, 0x00, 0x83, 0x3e, 0x86, 0x46, 0x35, 0xbe, 0xc0, 0x8e, 0x42, 0xbc, 
  0xec, 0xd5, 0x77, 0xbd, 0xfd, 0x6f, 0x8c, 0x3e, 0xc4, 0xab, 0xdb, 0x3d, 
  0xb6, 0xe9, 0x40, 0x3e, 0xb0, 0x54, 0x01, 0xbd, 0xb8, 0xd0, 0x38, 0xbe, 
  0x10, 0xac, 0xb4, 0x3c, 0xd8, 0x11, 0x38, 0x3d, 0x6e, 0xef, 0x5b, 0x3e, 
  0x52, 0x58, 0x61, 0xbe, 0x04, 0xf1, 0xb9, 0xbd, 0x11, 0xf5, 0x98, 0xbe, 
  0x70, 0x98, 0x4d, 0xbe, 0x71, 0x4f, 0x84, 0xbe, 0x12, 0x21, 0x2d, 0xbe, 
  0xa6, 0x1f, 0xea, 0xbd, 0xc6, 0x8b, 0x0c, 0x3e, 0x76, 0xa6, 0x56, 0x3e, 
  0x74, 0xa9, 0xb7, 0x3d, 0xf0, 0xe5, 0xdf, 0xbc, 0x7f, 0x13, 0x87, 0x3e, 
  0x18, 0x81, 0x03, 0x3d, 0x20, 0x1a, 0x9a, 0xbc, 0x08, 0xae, 0xe7, 0x3d, 
  0x07, 0xb6, 0x93, 0xbe, 0xae, 0xeb, 0x2c, 0xbe, 0xde, 0x20, 0x47, 0x3e, 
  0x90, 0xdc, 0xf6, 0x3c, 0x7e, 0xdf, 0x08, 0xbe, 0x48, 0x5c, 0x3f, 0xbd, 
  0xd0, 0x76, 0x7d, 0xbe, 0xed, 0xae, 0x89, 0x3e, 0xe2, 0x52, 0x7a, 0x3e, 
  0xad, 0x09, 0x8f, 0x3e, 0xf0, 0x9d, 0x88, 0x3d, 0xbf, 0xba, 0x98, 0xbe, 
  0x2a, 0xee, 0x45, 0xbe, 0x80, 0xaf, 0xe1, 0x3c, 0x00, 0xc4, 0x0c, 0x3a, 
  0x0b, 0x9d, 0x8f, 0x3e, 0x00, 0x13, 0x36, 0x3c, 0x00, 0x36, 0xfa, 0xbc, 
  0x66, 0xc1, 0x9a, 0xbe, 0xe8, 0x3e, 0xe1, 0xbd, 0xfa, 0x70, 0x82, 0xbe, 
  0x6d, 0x9b, 0x87, 0x3e, 0xd8, 0xac, 0x31, 0xbe, 0x6b, 0x28, 0x80, 0xbe, 
  0xdc, 0xf1, 0x8f, 0xbd, 0x10, 0xb3, 0x7a, 0xbe, 0xa6, 0x0c, 0x38, 0x3e, 
  0xc8, 0x6f, 0x65, 0xbe, 0xf7, 0xef, 0x32, 0xbe, 0x0d, 0x94, 0x8c, 0x3e, 
  0x30, 0x13, 0x5f, 0x3d, 0x22, 0x8b, 0xbd, 0xbd, 0x94, 0xa3, 0xd3, 0x3d, 
  0x00, 0x3c, 0x71, 0xba, 0x00, 0x67, 0x56, 0xbe, 0xf0, 0xd6, 0x88, 0xbe, 
  0x78, 0x67, 0x39, 0x3d, 0xa4, 0xf3, 0x62, 0xbe, 0xc3, 0x23, 0x86, 0xbe, 
  0x94, 0xf5, 0xc2, 0x3d, 0xb3, 0x17, 0x8b, 0xbe, 0x70, 0x4e, 0x69, 0x3d, 
  0x56, 0xab, 0x59, 0x3e, 0xac, 0x80, 0x21, 0xbe, 0xb3, 0x5a, 0x99, 0x3e, 
  0x26, 0x0c, 0xfb, 0xbd, 0x40, 0x49, 0x0a, 0xbc, 0xf6, 0x02, 0x84, 0xbd, 
  0x1b, 0x18, 0x88, 0x3e, 0xd2, 0xc0, 0xf6, 0xbd, 0x12, 0x7e, 0x74, 0x3e, 
  0x07, 0xfe, 0x89, 0xbe, 0x3c, 0xf9, 0x8a, 0x3d, 0xe6, 0x4d, 0x30, 0xbe, 
  0xf2, 0x80, 0x67, 0xbe, 0x18, 0x23, 0x67, 0xbd, 0x83, 0x64, 0x92, 0x3e, 
  0xce, 0xf2, 0xa9, 0xbd, 0x38, 0x7b, 0x0c, 0x3e, 0x0b, 0xf0, 0x9a, 0x3e, 
  0xb4, 0x53, 0x7a, 0xbd, 0xa7, 0xdd, 0x92, 0x3e, 0x80, 0xa1, 0xa0, 0x3b, 
  0x3c, 0x21, 0x9f, 0xbd, 0x40, 0xdd, 0xa5, 0xbb, 0x35, 0x7b, 0x84, 0xbe, 
  0xb8, 0x18, 0x2b, 0xbd, 0x2a, 0x3a, 0x3f, 0xbe, 0x93, 0x8f, 0x47, 0xbe, 
  0x8d, 0x74, 0x99, 0x3e, 0x86, 0xd1, 0x5c, 0x3e, 0xd5, 0x37, 0x97, 0xbe, 
  0x80, 0xaa, 0xf0, 0x3c, 0x38, 0x1a, 0x39, 0x3d, 0x10, 0xb5, 0xef, 0xbc, 
  0x34, 0x5d, 0x8f, 0x3d, 0xa2, 0x5a, 0x87, 0xbd, 0x01, 0xee, 0x95, 0x3e, 
  0xc8, 0x46, 0x67, 0x3d, 0x8e, 0xcb, 0x70, 0xbe, 0x69, 0x73, 0x6a, 0xbe, 
  0x50, 0x11, 0x1b, 0xbe, 0x98, 0x99, 0x72, 0x3d, 0xa1, 0xc4, 0x10, 0xbe, 
  0x00, 0x12, 0x91, 0xbb, 0xce, 0xf6, 0x77, 0x3e, 0x3a, 0x55, 0x69, 0x3e, 
  0x94, 0xba, 0x7a, 0xbd, 0x36, 0xb3, 0xc9, 0xbd, 0x8e, 0x9a, 0x63, 0x3e, 
  0x96, 0x55, 0x73, 0x3e, 0x26, 0x3d, 0x0f, 0xbe, 0xfa, 0x52, 0x57, 0x3e, 
  0x8a, 0x0b, 0x56, 0x3e, 0xfe, 0xee, 0x4b, 0xbe, 0xf8, 0x84, 0x15, 0x3e, 
  0xda, 0x37, 0x7d, 0xbe, 0xc6, 0xa4, 0x3f, 0xbe, 0xe4, 0x64, 0x9a, 0xbd, 
  0x0e, 0x85, 0x36, 0x3e, 0x2a, 0x25, 0x64, 0x3e, 0x0d, 0xb0, 0x9c, 0x3e, 
  0x8c, 0x4d, 0x0f, 0x3e, 0x2c, 0x6a, 0xb8, 0x3d, 0xd8, 0x15, 0x9d, 0x3d, 
  0x34, 0x6f, 0x46, 0x3e, 0x28, 0xf6, 0x5e, 0x3d, 0x8d, 0xfc, 0x8e, 0x3e, 
  0x32, 0x7c, 0x5b, 0x3e, 0xb8, 0xfd, 0x28, 0x3e, 0x49, 0x96, 0x33, 0xbe, 
  0x98, 0x28, 0x09, 0x3e, 0xce, 0xa6, 0x9b, 0xbd, 0xb4, 0xd8, 0x92, 0xbd, 
  0x7d, 0x73, 0x0a, 0xbe, 0xc0, 0xec, 0x95, 0x3c, 0x90, 0x33, 0xee, 0xbc, 
  0x91, 0x3f, 0x8e, 0x3e, 0x76, 0x8a, 0x0f, 0x3e, 0x91, 0x65, 0x91, 0xbe, 
  0x72, 0x31, 0x04, 0xbe, 0x42, 0x69, 0x63, 0x3e, 0x66, 0x97, 0x76, 0x3e, 
  0xf8, 0x9b, 0x8b, 0x3d, 0x28, 0x9a, 0x4e, 0x3d, 0x98, 0xe1, 0x97, 0xbe, 
  0xce, 0xec, 0x7b, 0x3e, 0xce, 0x10, 0x97, 0xbe, 0xe4, 0x2b, 0x11, 0x3e, 
  0x5c, 0x62, 0x8e, 0xbe, 0x16, 0x23, 0x53, 0x3e, 0x08, 0xd9, 0xab, 0xbd, 
  0x70, 0xc9, 0x67, 0xbe, 0xf6, 0x87, 0x5b, 0x3e, 0xd8, 0x54, 0x02, 0x3e, 
  0xcb, 0x1e, 0x16, 0xbe, 0x8e, 0xd1, 0xfb, 0xbd, 0x32, 0x1d, 0x6d, 0x3e, 
  0x59, 0x78, 0x57, 0xbe, 0xb7, 0x8c, 0x89, 0x3e, 0x18, 0xb7, 0x4d, 0xbe, 
  0xee, 0x49, 0xb3, 0xbd, 0x00, 0x82, 0x27, 0x3c, 0xc1, 0xf9, 0x14, 0xbe, 
  0x90, 0xbb, 0xbc, 0x3c, 0x98, 0x14, 0x68, 0x3d, 0x3e, 0xf4, 0x51, 0x3e, 
  0x10, 0x82, 0x1a, 0x3d, 0x00, 0xaa, 0x55, 0x3c, 0x40, 0x3b, 0x48, 0xbd, 
  0x22, 0x4d, 0xaa, 0xbd, 0x07, 0x95, 0x96, 0x3e, 0x00, 0xb0, 0x3e, 0x3b, 
  0x5c, 0x87, 0xfc, 0xbd, 0x2e, 0x64, 0x2b, 0xbe, 0x4a, 0x8a, 0x66, 0x3e, 
  0x2d, 0x7e, 0x85, 0x3e, 0xf0, 0xaa, 0xa3, 0x3d, 0xf8, 0xdd, 0x2b, 0x3e, 
  0x88, 0x38, 0x7f, 0x3d, 0x07, 0x2c, 0x99, 0x3e, 0x34, 0x5b, 0x10, 0xbe, 
  0x00, 0xcb, 0x5e, 0xbb, 0x55, 0x77, 0x89, 0xbe, 0xa0, 0x9a, 0x4d, 0xbc, 
  0x1a, 0xbd, 0x02, 0x3e, 0xb8, 0x3e, 0x07, 0x3e, 0xb5, 0x7b, 0x87, 0x3e, 
  0x80, 0xf9, 0x78, 0x3d, 0xb2, 0x4f, 0x65, 0x3e, 0xfd, 0x1c, 0x9a, 0x3e, 
  0x24, 0xec, 0x91, 0x3d, 0xea, 0xf9, 0x65, 0x3e, 0x66, 0x70, 0xda, 0xbd, 
  0x9a, 0xe6, 0xb1, 0xbd, 0x08, 0x38, 0x15, 0x3d, 0x30, 0xd5, 0x25, 0xbd, 
  0xd4, 0x83, 0xfc, 0x3d, 0x42, 0x50, 0x68, 0x3e, 0x40, 0x66, 0x2c, 0xbc, 
  0xa4, 0xd6, 0xdf, 0xbd, 0xba, 0xf0, 0xda, 0xbd, 0xd8, 0xee, 0x95, 0xbe, 
  0x38, 0xc8, 0x4d, 0xbe, 0xde, 0x45, 0x8c, 0xbd, 0x54, 0x25, 0x43, 0xbe, 
  0x32, 0x11, 0x93, 0xbd, 0x6a, 0x6c, 0x33, 0xbe, 0x2d, 0x5f, 0x82, 0x3e, 
  0x7a, 0x7f, 0x6f, 0x3e, 0xd2, 0xa6, 0x07, 0xbe, 0x63, 0x06, 0x66, 0xbe, 
  0x98, 0x0f, 0x30, 0x3d, 0x30, 0x0c, 0x99, 0xbc, 0x1a, 0x04, 0x49, 0x3e, 
  0xf2, 0x42, 0xc1, 0xbd, 0x6a, 0x30, 0x92, 0xbe, 0x9a, 0x41, 0x5f, 0xbe, 
  0x00, 0x2b, 0x77, 0x3b, 0xf8, 0x28, 0x08, 0x3e, 0xf7, 0xd5, 0x21, 0xbe, 
  0xba, 0x05, 0xe1, 0xbd, 0xfc, 0xf2, 0x0d, 0xbe, 0x80, 0x2f, 0x20, 0xbc, 
  0xe0, 0x54, 0xa5, 0xbc, 0xee, 0x8f, 0x37, 0xbe, 0x3b, 0xf5, 0x06, 0xbe, 
  0x74, 0x6f, 0xc8, 0x3d, 0x8a, 0x96, 0x6f, 0x3e, 0x98, 0xad, 0x65, 0xbe, 
  0xd0, 0x53, 0x43, 0x3e, 0x38, 0xcf, 0xfe, 0x3d, 0x02, 0x40, 0xf0, 0xbd, 
  0x51, 0x0e, 0x93, 0x3e, 0xb0, 0xcb, 0x7b, 0x3d, 0x10, 0x86, 0x8f, 0xbc, 
  0x58, 0x1b, 0x1c, 0x3d, 0x7c, 0xe8, 0xf7, 0xbd, 0x10, 0x7c, 0x05, 0xbd, 
  0x82, 0xcb, 0x6a, 0x3e, 0x19, 0x20, 0x88, 0x3e, 0x00, 0x38, 0xa0, 0xbb, 
  0x70, 0xd0, 0xaf, 0x3c, 0x80, 0x7a, 0x61, 0xbc, 0x7b, 0x2d, 0x30, 0xbe, 
  0x96, 0x85, 0x19, 0xbe, 0x01, 0x83, 0x1d, 0xbe, 0xb0, 0xc4, 0xf2, 0x3d, 
  0x34, 0xa4, 0x17, 0xbe, 0x36, 0x47, 0x82, 0xbe, 0xd7, 0x95, 0x74, 0xbe, 
  0xcc, 0xe3, 0x7d, 0xbe, 0x64, 0x2e, 0xee, 0x3d, 0x82, 0x19, 0x94, 0xbe, 
  0x10, 0x25, 0x2c, 0x3e, 0xd0, 0x4a, 0x5a, 0x3d, 0xfc, 0xad, 0x86, 0xbe, 
  0x35, 0x22, 0x9a, 0x3e, 0xe1, 0xad, 0x81, 0x3e, 0xa2, 0x88, 0x7b, 0x3e, 
  0x8d, 0x44, 0x81, 0xbe, 0x96, 0x60, 0x2d, 0x3e, 0x50, 0x40, 0xdd, 0xbc, 
  0x48, 0xfd, 0x25, 0x3d, 0xc4, 0x8a, 0x20, 0x3e, 0x52, 0x46, 0x97, 0xbe, 
  0xdd, 0x31, 0x1d, 0xbe, 0x65, 0x6e, 0x1b, 0xbe, 0xe5, 0xfe, 0x88, 0xbe, 
  0x68, 0x12, 0x39, 0xbd, 0x96, 0x4f, 0x49, 0x3e, 0xa8, 0xeb, 0x1c, 0x3e, 
  0x4c, 0xa9, 0xa6, 0x3d, 0xa4, 0x34, 0x57, 0xbe, 0x88, 0xc7, 0x97, 0x3d, 
  0xf0, 0x7f, 0xe6, 0x3d, 0x90, 0x95, 0xd2, 0x3d, 0x1d, 0x22, 0x97, 0x3e, 
  0x98, 0x75, 0x68, 0xbd, 0x9e, 0x7c, 0x31, 0x3e, 0x27, 0x28, 0x07, 0xbe, 
  0xb0, 0x42, 0x29, 0x3e, 0x10, 0xfb, 0x3b, 0xbe, 0xc0, 0xc3, 0xc5, 0xbc, 
  0x1a, 0x22, 0xc4, 0xbd, 0x48, 0xc1, 0x44, 0x3e, 0xd5, 0xcc, 0x34, 0xbe, 
  0x60, 0x27, 0x49, 0xbe, 0x02, 0x74, 0x61, 0xbe, 0xb8, 0x96, 0x56, 0xbd, 
  0x0d, 0xcf, 0x96, 0x3e, 0xf3, 0xec, 0x0e, 0xbe, 0x7c, 0xe2, 0x9c, 0x3d, 
  0x98, 0x2b, 0x92, 0xbe, 0xc0, 0xa6, 0xe3, 0x3c, 0xaf, 0x5a, 0x89, 0xbe, 
  0x62, 0x85, 0x51, 0x3e, 0xb1, 0x0b, 0x87, 0x3e, 0xd0, 0xb6, 0xa2, 0xbc, 
  0xab, 0xe0, 0x84, 0xbe, 0x32, 0x80, 0x63, 0x3e, 0x76, 0x06, 0x1f, 0x3e, 
  0xac, 0x49, 0x9a, 0x3d, 0x66, 0x2f, 0x88, 0xbd, 0x43, 0xba, 0x37, 0xbe, 
  0x74, 0xd4, 0x04, 0x3e, 0x6a, 0x40, 0x0c, 0x3e, 0x78, 0x60, 0x85, 0xbd, 
  0xc9, 0xf2, 0x25, 0xbe, 0x12, 0x45, 0x58, 0xbe, 0xc4, 0xb5, 0x4e, 0xbe, 
  0x42, 0xe3, 0x2a, 0xbe, 0x48, 0x03, 0x8d, 0x3d, 0x14, 0xd0, 0xed, 0x3d, 
  0xe8, 0x71, 0x8f, 0x3d, 0x20, 0xa7, 0x04, 0x3c, 0x3f, 0x73, 0x8f, 0x3e, 
  0xfc, 0x11, 0x23, 0x3e, 0xad, 0xc5, 0x1b, 0xbe, 0x08, 0x9a, 0x19, 0xbd, 
  0xc0, 0xee, 0x9e, 0xbd, 0x18, 0x8b, 0x14, 0x3d, 0x26, 0xa7, 0x6c, 0x3e, 
  0x80, 0xf9, 0x1b, 0x3c, 0xd5, 0x57, 0x84, 0xbe, 0xf8, 0x3e, 0x06, 0xbd, 
  0x80, 0xf8, 0x43, 0xbe, 0x90, 0x56, 0x23, 0xbd, 0xba, 0x3c, 0x3f, 0xbe, 
  0x56, 0x58, 0x80, 0xbe, 0x6e, 0x0a, 0x01, 0x3e, 0xb4, 0x0e, 0x43, 0x3e, 
  0xdb, 0xa0, 0x84, 0xbe, 0xb7, 0xae, 0x8a, 0x3e, 0x54, 0x61, 0xfa, 0xbd, 
  0xcf, 0x5e, 0x1e, 0xbe, 0xe4, 0xf4, 0x55, 0xbe, 0x14, 0x2a, 0x8c, 0x3d, 
  0xaa, 0xdf, 0x7b, 0x3e, 0xa0, 0xdd, 0xdf, 0xbc, 0x30, 0x8f, 0xdc, 0x3c, 
  0x40, 0x41, 0x42, 0x3d, 0xb2, 0x5b, 0x49, 0x3e, 0x43, 0x8a, 0x93, 0xbe, 
  0x04, 0x10, 0x8c, 0xbd, 0x98, 0xb6, 0x0b, 0x3d, 0x4f, 0x0c, 0x63, 0xbe, 
  0x9a, 0x86, 0x72, 0x3e, 0x70, 0xdc, 0x64, 0xbd, 0x86, 0x40, 0x15, 0x3e, 
  0xc4, 0xdc, 0xfe, 0xbd, 0x86, 0x85, 0x58, 0xbe, 0x1a, 0x67, 0x2e, 0xbe, 
  0xe8, 0xef, 0x3d, 0x3d, 0x22, 0xc8, 0x59, 0x3e, 0xf0, 0x05, 0x98, 0x3c, 
  0x26, 0x56, 0xfd, 0xbd, 0xf3, 0xf0, 0x94, 0xbe, 0x33, 0xef, 0x99, 0xbe, 
  0x62, 0x12, 0x2c, 0x3e, 0xc2, 0x03, 0x58, 0xbe, 0xb0, 0xcf, 0xa4, 0x3c, 
  0xda, 0x67, 0x57, 0xbe, 0x60, 0x83, 0x6c, 0xbc, 0x04, 0x4c, 0xc8, 0xbd, 
  0x3e, 0xa0, 0x70, 0x3e, 0x93, 0x9b, 0x97, 0x3e, 0xb6, 0x72, 0x22, 0x3e, 
  0xc2, 0x3b, 0x5f, 0x3e, 0x9e, 0xbb, 0x55, 0x3e, 0xf8, 0x93, 0x52, 0xbe, 
  0x59, 0xbf, 0x5b, 0xbe, 0x68, 0x27, 0x0d, 0x3e, 0xb8, 0xf8, 0x08, 0x3e, 
  0x48, 0xa6, 0x52, 0x3d, 0x00, 0x18, 0xfe, 0x3d, 0x24, 0x22, 0xd3, 0x3d, 
  0x20, 0xed, 0x81, 0xbe, 0xdf, 0x5f, 0x51, 0xbe, 0xdc, 0x76, 0x9a, 0xbe, 
  0x9b, 0x83, 0x89, 0x3e, 0xcc, 0x36, 0x75, 0xbe, 0xae, 0x76, 0x79, 0x3e, 
  0xb6, 0x2a, 0x6c, 0x3e, 0xaa, 0x5c, 0x6d, 0x3e, 0x50, 0xec, 0x9a, 0x3c, 
  0x4a, 0x05, 0x11, 0x3e, 0xc4, 0x0b, 0x42, 0x3e, 0xad, 0xff, 0x2e, 0xbe, 
  0x80, 0x21, 0xa4, 0xbc, 0x00, 0xc0, 0x01, 0x3a, 0xc0, 0x9a, 0x5a, 0xbe, 
  0x0a, 0xbf, 0x75, 0x3e, 0x1a, 0xdf, 0xd4, 0xbd, 0xa2, 0x33, 0x83, 0xbe, 
  0x84, 0x3e, 0x30, 0x3e, 0x8c, 0xbd, 0xa7, 0xbd, 0xee, 0x21, 0x40, 0xbe, 
  0x60, 0x51, 0x05, 0xbe, 0x13, 0x8b, 0x92, 0x3e, 0xe6, 0xa7, 0x60, 0xbe, 
  0x86, 0xa2, 0x59, 0x3e, 0xd2, 0x74, 0x9b, 0xbd, 0x12, 0xa5, 0xdb, 0xbd, 
  0x70, 0xce, 0x0f, 0x3e, 0xe0, 0x2b, 0x82, 0xbe, 0x40, 0x5d, 0xce, 0xbb, 
  0xd0, 0xc9, 0x21, 0xbd, 0xfe, 0xc6, 0x90, 0xbe, 0x5b, 0xc7, 0x94, 0xbe, 
  0xd0, 0x98, 0x70, 0x3d, 0x68, 0x83, 0x44, 0xbd, 0x30, 0xb8, 0x75, 0x3d, 
  0x75, 0x18, 0x95, 0xbe, 0xd0, 0xe9, 0xd7, 0x3d, 0x18, 0x8e, 0x42, 0xbd, 
  0x00, 0x4d, 0x9c, 0xbe, 0x28, 0x67, 0x2c, 0xbe, 0x1a, 0xde, 0x72, 0xbe, 
  0x50, 0x23, 0x14, 0xbd, 0xd0, 0x5e, 0xc2, 0xbc, 0xc2, 0xad, 0x27, 0x3e, 
  0x32, 0x97, 0x5d, 0x3e, 0x9c, 0x76, 0x99, 0x3d, 0x10, 0x37, 0xdd, 0x3d, 
  0x39, 0x75, 0x96, 0xbe, 0x3a, 0xbe, 0x8c, 0xbe, 0x5b, 0x49, 0x89, 0xbe, 
  0x55, 0x90, 0x4c, 0xbe, 0xa8, 0x06, 0xdb, 0x3d, 0xf8, 0xf5, 0x39, 0x3e, 
  0xe8, 0x15, 0x79, 0xbe, 0x38, 0xd3, 0x09, 0x3e, 0xe6, 0xd1, 0x37, 0x3e, 
  0xd6, 0x7d, 0x56, 0x3e, 0xd0, 0xbc, 0xfc, 0x3c, 0x3c, 0xfc, 0x84, 0xbe, 
  0xff, 0xf7, 0x83, 0x3e, 0x40, 0xb7, 0x92, 0xbc, 0x98, 0xb4, 0xaf, 0xbd, 
  0x17, 0x19, 0x82, 0x3e, 0x00, 0x00, 0x06, 0x00, 0x08, 0x00, 0x04, 0x00, 
  0x06, 0x00, 0x00, 0x00, 0x04, 0x00, 0x00, 0x00, 0x80, 0x02, 0x00, 0x00, 
  0xf6, 0x2b, 0xad, 0xbe, 0x4e, 0x79, 0x37, 0xbe, 0x1b, 0xd7, 0xb5, 0xbe, 
  0x4b, 0xb8, 0x8b, 0xbe, 0x0a, 0x53, 0xba, 0x3e, 0xd8, 0x08, 0x00, 0xbd, 
  0xd2, 0x5e, 0x8e, 0xbe, 0x15, 0x4f, 0x4a, 0xbe, 0xec, 0x36, 0x6d, 0x3e, 
  0x00, 0xe6, 0x5f, 0xbe, 0xc0, 0x5d, 0xed, 0x3d, 0xf0, 0x14, 0x87, 0x3e, 
  0xc0, 0x0f, 0x93, 0x3b, 0x00, 0x51, 0x37, 0x3d, 0x29, 0x5e, 0xa9, 0xbe, 
  0x88, 0x56, 0x1a, 0x3e, 0x32, 0x95, 0x81, 0xbe, 0x84, 0x74, 0x84, 0x3e, 
  0xdc, 0x54, 0x80, 0x3d, 0xf8, 0xa1, 0xa9, 0x3e, 0x38, 0x22, 0x20, 0xbd, 
  0xd8, 0xbd, 0x33, 0x3e, 0xbd, 0xfb, 0x2e, 0xbe, 0xdc, 0x1d, 0xb6, 0xbd, 
  0x0b, 0x2b, 0xb6, 0xbe, 0x80, 0xc1, 0x97, 0x3e, 0x60, 0x95, 0x2b, 0x3c, 
  0x28, 0xac, 0xa7, 0x3e, 0x28, 0xec, 0x41, 0x3d, 0x60, 0xce, 0xb9, 0xbd, 
  0x20, 0x21, 0xc0, 0xbe, 0x00, 0xdd, 0xbc, 0x3a, 0x04, 0x5c, 0xae, 0xbd, 
  0x6d, 0xfd, 0xa6, 0xbe, 0x34, 0xf3, 0x5e, 0xbe, 0x00, 0xdc, 0xf4, 0x3b, 
  0x6c, 0x59, 0x03, 0xbe, 0xd8, 0x79, 0x6e, 0x3e, 0x92, 0x7d, 0xa3, 0xbe, 
  0x46, 0x2f, 0xa6, 0x3e, 0x0c, 0xe7, 0x48, 0xbe, 0x14, 0xfd, 0xc4, 0x3d, 
  0xf0, 0xa5, 0xc4, 0x3c, 0x60, 0xd9, 0x75, 0x3c, 0x58, 0xd8, 0x17, 0xbe, 
  0xf6, 0x04, 0xc1, 0x3e, 0x54, 0xc1, 0x91, 0x3e, 0x4d, 0x4e, 0xcb, 0xbe, 
  0x56, 0x3e, 0xbd, 0x3e, 0x36, 0xf7, 0x9e, 0x3e, 0xe5, 0x87, 0x90, 0xbe, 
  0x84, 0xd9, 0xd7, 0xbd, 0x00, 0xaa, 0xd1, 0x3a, 0x38, 0xbc, 0xa1, 0xbe, 
  0x9d, 0xe2, 0x89, 0xbe, 0x40, 0xfa, 0x45, 0xbc, 0xf0, 0x70, 0xb8, 0xbe, 
  0x30, 0xf3, 0x0d, 0x3d, 0x06, 0x28, 0x9d, 0xbe, 0xe4, 0xe8, 0x28, 0x3e, 
  0x46, 0x1a, 0x74, 0xbe, 0x0a, 0x46, 0x86, 0xbe, 0xa8, 0xef, 0x44, 0xbe, 
  0xc4, 0x22, 0x84, 0x3e, 0x38, 0xf5, 0xbe, 0x3e, 0x30, 0x49, 0xb1, 0xbc, 
  0x14, 0x45, 0xc4, 0x3e, 0xc4, 0xae, 0xb5, 0x3d, 0x20, 0x7a, 0x02, 0xbe, 
  0x12, 0xa3, 0x9d, 0x3e, 0xe2, 0x50, 0xa9, 0xbe, 0x48, 0x13, 0xc5, 0xbe, 
  0x2c, 0x7e, 0x2c, 0x3e, 0xb8, 0x92, 0x54, 0xbd, 0x84, 0xd2, 0x77, 0x3e, 
  0x44, 0xaf, 0x99, 0x3e, 0x80, 0xa7, 0x98, 0x3d, 0x10, 0x02, 0x8c, 0x3e, 
  0x88, 0x26, 0x62, 0xbe, 0x5c, 0x46, 0x69, 0x3e, 0xb9, 0xe4, 0xc4, 0xbe, 
  0xca, 0xd7, 0xa9, 0xbe, 0xe0, 0x9b, 0x1c, 0xbd, 0xbc, 0xff, 0x9b, 0x3d, 
  0xb4, 0x53, 0x17, 0x3e, 0x9c, 0x69, 0x0d, 0x3e, 0x10, 0x1c, 0xc8, 0x3c, 
  0x57, 0xba, 0xa3, 0xbe, 0x1c, 0x6d, 0xbd, 0x3e, 0x9b, 0x48, 0x9c, 0xbe, 
  0x80, 0x25, 0xde, 0x3d, 0x26, 0x1a, 0x78, 0xbe, 0x78, 0x47, 0x10, 0x3e, 
  0xc8, 0x74, 0xb2, 0x3d, 0x26, 0xcc, 0xa9, 0xbe, 0x8c, 0xf4, 0x82, 0x3d, 
  0x80, 0x59, 0x06, 0xbb, 0x96, 0x63, 0xb2, 0x3e, 0x3c, 0xdf, 0x47, 0xbe, 
  0x08, 0xf3, 0x40, 0xbe, 0x50, 0x32, 0x0b, 0x3e, 0xac, 0x0c, 0xa0, 0x3d, 
  0xcb, 0x48, 0x34, 0xbe, 0x60, 0x0f, 0xac, 0x3e, 0x7c, 0xcd, 0x8b, 0xbe, 
  0x84, 0xe0, 0x5f, 0xbe, 0xe0, 0x18, 0xfb, 0xbd, 0x48, 0x80, 0x1c, 0x3d, 
  0x2a, 0x43, 0xc5, 0x3e, 0x60, 0x3f, 0x02, 0x3c, 0xf4, 0x8d, 0xb4, 0x3e, 
  0x32, 0xe0, 0x27, 0xbe, 0x68, 0x70, 0xb4, 0x3e, 0xc6, 0xe7, 0x96, 0x3e, 
  0xbc, 0xbe, 0x99, 0x3e, 0x30, 0xb8, 0xa3, 0x3e, 0x9c, 0x94, 0x86, 0xbd, 
  0x10, 0xd3, 0x5d, 0x3d, 0xfe, 0xda, 0xcd, 0x3e, 0x6a, 0xfb, 0x2e, 0xbe, 
  0x12, 0xbc, 0x71, 0xbe, 0xa9, 0x8e, 0xab, 0xbe, 0xee, 0xc3, 0xb8, 0x3e, 
  0x40, 0x13, 0xcf, 0x3d, 0x42, 0xc2, 0x96, 0x3e, 0x5f, 0xa5, 0xc3, 0xbe, 
  0x60, 0x8e, 0xb3, 0x3d, 0x50, 0x55, 0xc5, 0xbc, 0x5c, 0x47, 0x18, 0xbe, 
  0x8b, 0x45, 0xc8, 0xbe, 0x00, 0x80, 0xb4, 0xb7, 0x68, 0xb4, 0xda, 0x3d, 
  0x2e, 0xfb, 0x96, 0x3e, 0x58, 0xcd, 0x48, 0x3d, 0x3e, 0xc1, 0x8f, 0x3e, 
  0xb7, 0x86, 0x55, 0xbe, 0x0e, 0x4b, 0xbc, 0xbe, 0x00, 0x46, 0x67, 0x3c, 
  0x2b, 0xdc, 0x23, 0xbe, 0xe4, 0x66, 0x92, 0x3d, 0x89, 0xfa, 0x92, 0xbe, 
  0x50, 0xcf, 0xc0, 0xbd, 0x51, 0x03, 0xb2, 0xbe, 0x64, 0xfa, 0x3d, 0x3e, 
  0xa8, 0xa0, 0x64, 0x3e, 0xe4, 0x21, 0xcc, 0x3e, 0xac, 0x86, 0xb6, 0x3e, 
  0x90, 0xed, 0x1b, 0xbe, 0x68, 0x0c, 0x0b, 0x3e, 0x68, 0x49, 0xfb, 0x3d, 
  0x3e, 0x49, 0x5a, 0xbe, 0x2a, 0xd3, 0x83, 0x3e, 0xd6, 0x8c, 0x2f, 0xbe, 
  0x0c, 0x70, 0xa2, 0x3e, 0xa0, 0xcb, 0xff, 0xbc, 0xc1, 0x26, 0x9e, 0xbe, 
  0x40, 0xa5, 0xa7, 0xbe, 0x10, 0xa3, 0x0f, 0xbd, 0x4c, 0x87, 0x7a, 0x3e, 
  0x09, 0xdf, 0x2f, 0xbe, 0xfc, 0xfb, 0xff, 0xff, 0x00, 0xfc, 0xff, 0xff, 
  0x0f, 0x00, 0x00, 0x00, 0x4d, 0x4c, 0x49, 0x52, 0x20, 0x43, 0x6f, 0x6e, 
  0x76, 0x65, 0x72, 0x74, 0x65, 0x64, 0x2e, 0x00, 0x01, 0x00, 0x00, 0x00, 
  0x14, 0x00, 0x00, 0x00, 0x00, 0x00, 0x0e, 0x00, 0x18, 0x00, 0x14, 0x00, 
  0x10, 0x00, 0x0c, 0x00, 0x08, 0x00, 0x04, 0x00, 0x0e, 0x00, 0x00, 0x00, 
  0x14, 0x00, 0x00, 0x00, 0x1c, 0x00, 0x00, 0x00, 0xd8, 0x00, 0x00, 0x00, 
  0xdc, 0x00, 0x00, 0x00, 0xe0, 0x00, 0x00, 0x00, 0x04, 0x00, 0x00, 0x00, 
  0x6d, 0x61, 0x69, 0x6e, 0x00, 0x00, 0x00, 0x00, 0x03, 0x00, 0x00, 0x00, 
  0x80, 0x00, 0x00, 0x00, 0x38, 0x00, 0x00, 0x00, 0x04, 0x00, 0x00, 0x00, 
  0x9a, 0xff, 0xff, 0xff, 0x10, 0x00, 0x00, 0x00, 0x00, 0x00, 0x00, 0x08, 
  0x0c, 0x00, 0x00, 0x00, 0x10, 0x00, 0x00, 0x00, 0x78, 0xfc, 0xff, 0xff, 
  0x01, 0x00, 0x00, 0x00, 0x06, 0x00, 0x00, 0x00, 0x03, 0x00, 0x00, 0x00, 
  0x05, 0x00, 0x00, 0x00, 0x03, 0x00, 0x00, 0x00, 0xff, 0xff, 0xff, 0xff, 
  0xca, 0xff, 0xff, 0xff, 0x10, 0x00, 0x00, 0x00, 0x00, 0x00, 0x00, 0x08, 
  0x10, 0x00, 0x00, 0x00, 0x14, 0x00, 0x00, 0x00, 0xba, 0xff, 0xff, 0xff, 
  0x00, 0x00, 0x00, 0x01, 0x01, 0x00, 0x00, 0x00, 0x05, 0x00, 0x00, 0x00, 
  0x03, 0x00, 0x00, 0x00, 0x04, 0x00, 0x00, 0x00, 0x02, 0x00, 0x00, 0x00, 
  0xff, 0xff, 0xff, 0xff, 0x00, 0x00, 0x0e, 0x00, 0x16, 0x00, 0x00, 0x00, 
  0x10, 0x00, 0x0c, 0x00, 0x0b, 0x00, 0x04, 0x00, 0x0e, 0x00, 0x00, 0x00, 
  0x18, 0x00, 0x00, 0x00, 0x00, 0x00, 0x00, 0x08, 0x18, 0x00, 0x00, 0x00, 
  0x1c, 0x00, 0x00, 0x00, 0x00, 0x00, 0x06, 0x00, 0x08, 0x00, 0x07, 0x00, 
  0x06, 0x00, 0x00, 0x00, 0x00, 0x00, 0x00, 0x01, 0x01, 0x00, 0x00, 0x00, 
  0x04, 0x00, 0x00, 0x00, 0x03, 0x00, 0x00, 0x00, 0x00, 0x00, 0x00, 0x00, 
  0x01, 0x00, 0x00, 0x00, 0xff, 0xff, 0xff, 0xff, 0x01, 0x00, 0x00, 0x00, 
  0x06, 0x00, 0x00, 0x00, 0x01, 0x00, 0x00, 0x00, 0x00, 0x00, 0x00, 0x00, 
  0x07, 0x00, 0x00, 0x00, 0xb0, 0x02, 0x00, 0x00, 0x48, 0x02, 0x00, 0x00, 
  0xe0, 0x01, 0x00, 0x00, 0x90, 0x01, 0x00, 0x00, 0xf8, 0x00, 0x00, 0x00, 
  0x60, 0x00, 0x00, 0x00, 0x04, 0x00, 0x00, 0x00, 0x82, 0xfd, 0xff, 0xff, 
  0x00, 0x00, 0x00, 0x01, 0x14, 0x00, 0x00, 0x00, 0x1c, 0x00, 0x00, 0x00, 
  0x1c, 0x00, 0x00, 0x00, 0x07, 0x00, 0x00, 0x00, 0x34, 0x00, 0x00, 0x00, 
  0x02, 0x00, 0x00, 0x00, 0xff, 0xff, 0xff, 0xff, 0x01, 0x00, 0x00, 0x00, 
  0x6c, 0xfd, 0xff, 0xff, 0x19, 0x00, 0x00, 0x00, 0x53, 0x74, 0x61, 0x74, 
  0x65, 0x66, 0x75, 0x6c, 0x50, 0x61, 0x72, 0x74, 0x69, 0x74, 0x69, 0x6f, 
  0x6e, 0x65, 0x64, 0x43, 0x61, 0x6c, 0x6c, 0x3a, 0x30, 0x00, 0x00, 0x00, 
  0x02, 0x00, 0x00, 0x00, 0x01, 0x00, 0x00, 0x00, 0x01, 0x00, 0x00, 0x00, 
  0xda, 0xfd, 0xff, 0xff, 0x00, 0x00, 0x00, 0x01, 0x14, 0x00, 0x00, 0x00, 
  0x1c, 0x00, 0x00, 0x00, 0x1c, 0x00, 0x00, 0x00, 0x06, 0x00, 0x00, 0x00, 
  0x70, 0x00, 0x00, 0x00, 0x02, 0x00, 0x00, 0x00, 0xff, 0xff, 0xff, 0xff, 
  0x20, 0x00, 0x00, 0x00, 0xc4, 0xfd, 0xff, 0xff, 0x55, 0x00, 0x00, 0x00, 
  0x65, 0x73, 0x70, 0x33, 0x32, 0x5f, 0x63, 0x72, 0x69, 0x74, 0x69, 0x63, 
  0x2f, 0x64, 0x65, 0x6e, 0x73, 0x65, 0x5f, 0x36, 0x37, 0x2f, 0x4d, 0x61, 
  0x74, 0x4d, 0x75, 0x6c, 0x3b, 0x65, 0x73, 0x70, 0x33, 0x32, 0x5f, 0x63, 
  0x72, 0x69, 0x74, 0x69, 0x63, 0x2f, 0x64, 0x65, 0x6e, 0x73, 0x65, 0x5f, 
  0x36, 0x37, 0x2f, 0x52, 0x65, 0x6c, 0x75, 0x3b, 0x65, 0x73, 0x70, 0x33, 
  0x32, 0x5f, 0x63, 0x72, 0x69, 0x74, 0x69, 0x63, 0x2f, 0x64, 0x65, 0x6e, 
  0x73, 0x65, 0x5f, 0x36, 0x37, 0x2f, 0x42, 0x69, 0x61, 0x73, 0x41, 0x64, 
  0x64, 0x00, 0x00, 0x00, 0x02, 0x00, 0x00, 0x00, 0x01, 0x00, 0x00, 0x00, 
  0x20, 0x00, 0x00, 0x00, 0x6e, 0xfe, 0xff, 0xff, 0x00, 0x00, 0x00, 0x01, 
  0x14, 0x00, 0x00, 0x00, 0x1c, 0x00, 0x00, 0x00, 0x1c, 0x00, 0x00, 0x00, 
  0x05, 0x00, 0x00, 0x00, 0x70, 0x00, 0x00, 0x00, 0x02, 0x00, 0x00, 0x00, 
  0xff, 0xff, 0xff, 0xff, 0x20, 0x00, 0x00, 0x00, 0x58, 0xfe, 0xff, 0xff, 
  0x55, 0x00, 0x00, 0x00, 0x65, 0x73, 0x70, 0x33, 0x32, 0x5f, 0x63, 0x72, 
  0x69, 0x74, 0x69, 0x63, 0x2f, 0x64, 0x65, 0x6e, 0x73, 0x65, 0x5f, 0x36, 
  0x36, 0x2f, 0x4d, 0x61, 0x74, 0x4d, 0x75, 0x6c, 0x3b, 0x65, 0x73, 0x70, 
  0x33, 0x32, 0x5f, 0x63, 0x72, 0x69, 0x74, 0x69, 0x63, 0x2f, 0x64, 0x65, 
  0x6e, 0x73, 0x65, 0x5f, 0x36, 0x36, 0x2f, 0x52, 0x65, 0x6c, 0x75, 0x3b, 
  0x65, 0x73, 0x70, 0x33, 0x32, 0x5f, 0x63, 0x72, 0x69, 0x74, 0x69, 0x63, 
  0x2f, 0x64, 0x65, 0x6e, 0x73, 0x65, 0x5f, 0x36, 0x36, 0x2f, 0x42, 0x69, 
  0x61, 0x73, 0x41, 0x64, 0x64, 0x00, 0x00, 0x00, 0x02, 0x00, 0x00, 0x00, 
  0x01, 0x00, 0x00, 0x00, 0x20, 0x00, 0x00, 0x00, 0x66, 0xff, 0xff, 0xff, 
  0x00, 0x00, 0x00, 0x01, 0x10, 0x00, 0x00, 0x00, 0x10, 0x00, 0x00, 0x00, 
  0x04, 0x00, 0x00, 0x00, 0x2c, 0x00, 0x00, 0x00, 0xdc, 0xfe, 0xff, 0xff, 
  0x1c, 0x00, 0x00, 0x00, 0x65, 0x73, 0x70, 0x33, 0x32, 0x5f, 0x63, 0x72, 
  0x69, 0x74, 0x69, 0x63, 0x2f, 0x64, 0x65, 0x6e, 0x73, 0x65, 0x5f, 0x36, 
  0x38, 0x2f, 0x4d, 0x61, 0x74, 0x4d, 0x75, 0x6c, 0x00, 0x00, 0x00, 0x00, 
  0x02, 0x00, 0x00, 0x00, 0x01, 0x00, 0x00, 0x00, 0x20, 0x00, 0x00, 0x00, 
  0xb2, 0xff, 0xff, 0xff, 0x00, 0x00, 0x00, 0x01, 0x10, 0x00, 0x00, 0x00, 
  0x10, 0x00, 0x00, 0x00, 0x03, 0x00, 0x00, 0x00, 0x2c, 0x00, 0x00, 0x00, 
  0x28, 0xff, 0xff, 0xff, 0x1c, 0x00, 0x00, 0x00, 0x65, 0x73, 0x70, 0x33, 
  0x32, 0x5f, 0x63, 0x72, 0x69, 0x74, 0x69, 0x63, 0x2f, 0x64, 0x65, 0x6e, 
  0x73, 0x65, 0x5f, 0x36, 0x37, 0x2f, 0x4d, 0x61, 0x74, 0x4d, 0x75, 0x6c, 
  0x00, 0x00, 0x00, 0x00, 0x02, 0x00, 0x00, 0x00, 0x20, 0x00, 0x00, 0x00, 
  0x20, 0x00, 0x00, 0x00, 0x00, 0x00, 0x16, 0x00, 0x18, 0x00, 0x14, 0x00, 
  0x00, 0x00, 0x10, 0x00, 0x0c, 0x00, 0x08, 0x00, 0x00, 0x00, 0x00, 0x00, 
  0x00, 0x00, 0x07, 0x00, 0x16, 0x00, 0x00, 0x00, 0x00, 0x00, 0x00, 0x01, 
  0x10, 0x00, 0x00, 0x00, 0x10, 0x00, 0x00, 0x00, 0x02, 0x00, 0x00, 0x00, 
  0x2c, 0x00, 0x00, 0x00, 0x8c, 0xff, 0xff, 0xff, 0x1d, 0x00, 0x00, 0x00, 
  0x65, 0x73, 0x70, 0x33, 0x32, 0x5f, 0x63, 0x72, 0x69, 0x74, 0x69, 0x63, 
  0x2f, 0x64, 0x65, 0x6e, 0x73, 0x65, 0x5f, 0x36, 0x36, 0x2f, 0x4d, 0x61, 
  0x74, 0x4d, 0x75, 0x6c, 0x31, 0x00, 0x00, 0x00, 0x02, 0x00, 0x00, 0x00, 
  0x20, 0x00, 0x00, 0x00, 0x05, 0x00, 0x00, 0x00, 0x00, 0x00, 0x16, 0x00, 
  0x1c, 0x00, 0x18, 0x00, 0x00, 0x00, 0x14, 0x00, 0x10, 0x00, 0x0c, 0x00, 
  0x00, 0x00, 0x00, 0x00, 0x08, 0x00, 0x07, 0x00, 0x16, 0x00, 0x00, 0x00, 
  0x00, 0x00, 0x00, 0x01, 0x14, 0x00, 0x00, 0x00, 0x20, 0x00, 0x00, 0x00, 
  0x20, 0x00, 0x00, 0x00, 0x01, 0x00, 0x00, 0x00, 0x40, 0x00, 0x00, 0x00, 
  0x02, 0x00, 0x00, 0x00, 0xff, 0xff, 0xff, 0xff, 0x05, 0x00, 0x00, 0x00, 
  0x04, 0x00, 0x04, 0x00, 0x04, 0x00, 0x00, 0x00, 0x20, 0x00, 0x00, 0x00, 
  0x73, 0x65, 0x72, 0x76, 0x69, 0x6e, 0x67, 0x5f, 0x64, 0x65, 0x66, 0x61, 
  0x75, 0x6c, 0x74, 0x5f, 0x64, 0x65, 0x6e, 0x73, 0x65, 0x5f, 0x36, 0x36, 
  0x5f, 0x69, 0x6e, 0x70, 0x75, 0x74, 0x3a, 0x30, 0x00, 0x00, 0x00, 0x00, 
  0x02, 0x00, 0x00, 0x00, 0x01, 0x00, 0x00, 0x00, 0x05, 0x00, 0x00, 0x00, 
  0x01, 0x00, 0x00, 0x00, 0x10, 0x00, 0x00, 0x00, 0x0c, 0x00, 0x0c, 0x00, 
  0x0b, 0x00, 0x00, 0x00, 0x00, 0x00, 0x04, 0x00, 0x0c, 0x00, 0x00, 0x00, 
  0x09, 0x00, 0x00, 0x00, 0x00, 0x00, 0x00, 0x09, 
};

const unsigned int critic_model_len = 6488;
