#include "critic_task0.h"

const uint8_t critic_model[] = {

  0x1c, 0x00, 0x00, 0x00, 0x54, 0x46, 0x4c, 0x33, 0x14, 0x00, 0x20, 0x00, 
  0x1c, 0x00, 0x18, 0x00, 0x14, 0x00, 0x10, 0x00, 0x0c, 0x00, 0x00, 0x00, 
  0x08, 0x00, 0x04, 0x00, 0x14, 0x00, 0x00, 0x00, 0x1c, 0x00, 0x00, 0x00, 
  0x98, 0x00, 0x00, 0x00, 0xf0, 0x00, 0x00, 0x00, 0xd4, 0x14, 0x00, 0x00, 
  0xe4, 0x14, 0x00, 0x00, 0x04, 0x19, 0x00, 0x00, 0x03, 0x00, 0x00, 0x00, 
  0x01, 0x00, 0x00, 0x00, 0x10, 0x00, 0x00, 0x00, 0x00, 0x00, 0x0a, 0x00, 
  0x10, 0x00, 0x0c, 0x00, 0x08, 0x00, 0x04, 0x00, 0x0a, 0x00, 0x00, 0x00, 
  0x0c, 0x00, 0x00, 0x00, 0x1c, 0x00, 0x00, 0x00, 0x3c, 0x00, 0x00, 0x00, 
  0x0f, 0x00, 0x00, 0x00, 0x73, 0x65, 0x72, 0x76, 0x69, 0x6e, 0x67, 0x5f, 
  0x64, 0x65, 0x66, 0x61, 0x75, 0x6c, 0x74, 0x00, 0x01, 0x00, 0x00, 0x00, 
  0x04, 0x00, 0x00, 0x00, 0x90, 0xff, 0xff, 0xff, 0x06, 0x00, 0x00, 0x00, 
  0x04, 0x00, 0x00, 0x00, 0x08, 0x00, 0x00, 0x00, 0x64, 0x65, 0x6e, 0x73, 
  0x65, 0x5f, 0x36, 0x38, 0x00, 0x00, 0x00, 0x00, 0x01, 0x00, 0x00, 0x00, 
  0x04, 0x00, 0x00, 0x00, 0x3a, 0xee, 0xff, 0xff, 0x04, 0x00, 0x00, 0x00, 
  0x0e, 0x00, 0x00, 0x00, 0x64, 0x65, 0x6e, 0x73, 0x65, 0x5f, 0x36, 0x36, 
  0x5f, 0x69, 0x6e, 0x70, 0x75, 0x74, 0x00, 0x00, 0x02, 0x00, 0x00, 0x00, 
  0x34, 0x00, 0x00, 0x00, 0x04, 0x00, 0x00, 0x00, 0xdc, 0xff, 0xff, 0xff, 
  0x09, 0x00, 0x00, 0x00, 0x04, 0x00, 0x00, 0x00, 0x13, 0x00, 0x00, 0x00, 
  0x43, 0x4f, 0x4e, 0x56, 0x45, 0x52, 0x53, 0x49, 0x4f, 0x4e, 0x5f, 0x4d, 
  0x45, 0x54, 0x41, 0x44, 0x41, 0x54, 0x41, 0x00, 0x08, 0x00, 0x0c, 0x00, 
  0x08, 0x00, 0x04, 0x00, 0x08, 0x00, 0x00, 0x00, 0x08, 0x00, 0x00, 0x00, 
  0x04, 0x00, 0x00, 0x00, 0x13, 0x00, 0x00, 0x00, 0x6d, 0x69, 0x6e, 0x5f, 
  0x72, 0x75, 0x6e, 0x74, 0x69, 0x6d, 0x65, 0x5f, 0x76, 0x65, 0x72, 0x73, 
  0x69, 0x6f, 0x6e, 0x00, 0x0a, 0x00, 0x00, 0x00, 0xe0, 0x13, 0x00, 0x00, 
  0xd8, 0x13, 0x00, 0x00, 0x48, 0x11, 0x00, 0x00, 0x30, 0x01, 0x00, 0x00, 
  0xa0, 0x00, 0x00, 0x00, 0x98, 0x00, 0x00, 0x00, 0x90, 0x00, 0x00, 0x00, 
  0x88, 0x00, 0x00, 0x00, 0x68, 0x00, 0x00, 0x00, 0x04, 0x00, 0x00, 0x00, 
  0xde, 0xee, 0xff, 0xff, 0x04, 0x00, 0x00, 0x00, 0x54, 0x00, 0x00, 0x00, 
  0x0c, 0x00, 0x00, 0x00, 0x08, 0x00, 0x0e, 0x00, 0x08, 0x00, 0x04, 0x00, 
  0x08, 0x00, 0x00, 0x00, 0x10, 0x00, 0x00, 0x00, 0x24, 0x00, 0x00, 0x00, 
  0x00, 0x00, 0x06, 0x00, 0x08, 0x00, 0x04, 0x00, 0x06, 0x00, 0x00, 0x00, 
  0x04, 0x00, 0x00, 0x00, 0x00, 0x00, 0x00, 0x00, 0x00, 0x00, 0x0a, 0x00, 
  0x10, 0x00, 0x0c, 0x00, 0x08, 0x00, 0x04, 0x00, 0x0a, 0x00, 0x00, 0x00, 
  0x02, 0x00, 0x00, 0x00, 0x02, 0x00, 0x00, 0x00, 0x04, 0x00, 0x00, 0x00, 
  0x06, 0x00, 0x00, 0x00, 0x32, 0x2e, 0x31, 0x33, 0x2e, 0x30, 0x00, 0x00, 
  0x3e, 0xef, 0xff, 0xff, 0x04, 0x00, 0x00, 0x00, 0x10, 0x00, 0x00, 0x00, 
  0x31, 0x2e, 0x35, 0x2e, 0x30, 0x00, 0x00, 0x00, 0x00, 0x00, 0x00, 0x00, 
  0x00, 0x00, 0x00, 0x00, 0xc4, 0xe8, 0xff, 0xff, 0xc8, 0xe8, 0xff, 0xff, 
  0xcc, 0xe8, 0xff, 0xff, 0x66, 0xef, 0xff, 0xff, 0x04, 0x00, 0x00, 0x00, 
  0x80, 0x00, 0x00, 0x00, 0x98, 0xa3, 0x02, 0x3e, 0xf4, 0xe9, 0xc6, 0xbe, 
  0x1e, 0xdb, 0x53, 0xbe, 0xcb, 0xf8, 0x65, 0xbe, 0x5e, 0x91, 0x8e, 0x3e, 
  0x1e, 0x2f, 0xab, 0x3e, 0x8a, 0x83, 0xab, 0x3e, 0x54, 0x4e, 0xc4, 0xbe, 
  0x18, 0x2d, 0x92, 0x3d, 0x52, 0x6d, 0xb5, 0x3e, 0x64, 0x08, 0xa5, 0xbd, 
  0x00, 0xc4, 0xc1, 0x3e, 0x88, 0x16, 0x46, 0x3e, 0xdc, 0x62, 0x68, 0x3e, 
  0x21, 0x02, 0x88, 0xbe, 0x42, 0x1b, 0x95, 0xbe, 0xf8, 0x46, 0x23, 0xbd, 
  0x1f, 0x92, 0x9d, 0xbe, 0x00, 0x3c, 0x99, 0x39, 0xc8, 0x31, 0xca, 0x3d, 
  0x14, 0x73, 0xb3, 0xbe, 0x50, 0x47, 0x9b, 0x3d, 0x34, 0xdb, 0xb9, 0xbe, 
  0x86, 0x9f, 0xae, 0x3e, 0xc8, 0xe2, 0xb7, 0x3d, 0xa4, 0xc7, 0xd3, 0x3e, 
  0x2a, 0x15, 0xaf, 0x3e, 0xb0, 0xdd, 0xd6, 0x3d, 0xf6, 0xd7, 0x8b, 0x3e, 
  0x0c, 0x7c, 0xca, 0x3e, 0x08, 0x6e, 0x73, 0x3d, 0x40, 0xc0, 0x60, 0xbd, 
  0xf2, 0xef, 0xff, 0xff, 0x04, 0x00, 0x00, 0x00, 0x00, 0x10, 0x00, 0x00, 
  0x88, 0xf0, 0x11, 0x3d, 0xe8, 0xb4, 0xe5, 0xbd, 0x02, 0x16, 0x6e, 0x3e, 
  0x3c, 0x93, 0xb5, 0x3d, 0x1e, 0x87, 0x3c, 0x3e, 0x08, 0xa7, 0x73, 0xbd, 
  0xfe, 0x97, 0x55, 0x3e, 0xeb, 0xca, 0x17, 0xbe, 0x52, 0xac, 0x84, 0xbd, 
  0x70, 0x1f, 0x51, 0xbd, 0x98, 0x54, 0x42, 0xbd, 0x5f, 0x40, 0x36, 0xbe, 
  0x74, 0x6e, 0x70, 0xbe, 0xb7, 0x96, 0x89, 0xbe, 0x2d, 0x22, 0x8a, 0x3e, 
  0xe7, 0x8c, 0x8d, 0x3e, 0xcb, 0x79, 0x8a, 0x3e, 0x90, 0x87, 0xa0, 0xbc, 
  0xb6, 0x26, 0x23, 0xbe, 0x92, 0x55, 0x4a, 0x3e, 0xa9, 0x0d, 0x8d, 0xbe, 
  0xde, 0x3c, 0x84, 0xbd, 0xd8, 0x4c, 0x11, 0x3e, 0x87, 0x59, 0x0d, 0xbe, 
  0x81, 0x7a, 0x5c, 0xbe, 0x7e, 0xbe, 0x24, 0x3e, 0x80, 0x2e, 0x9b, 0xbb, 
  0x8c, 0x24, 0xad, 0x3d, 0x64, 0x75, 0x77, 0xbd, 0x10, 0x1b, 0x9a, 0x3d, 
  0x14, 0x4d, 0xf6, 0x3d, 0x76, 0xcd, 0x6a, 0x3e, 0x56, 0xd2, 0x85, 0xbe, 
  0x32, 0x61, 0x4b, 0x3e, 0x01, 0x8b, 0x06, 0xbe, 0x16, 0x54, 0x96, 0xbd, 
  0xc2, 0x1a, 0x3b, 0xbe, 0xe2, 0xad, 0x8e, 0xbe, 0x18, 0xb0, 0x65, 0xbd, 
  0xea, 0x90, 0x98, 0xbe, 0x80, 0x9e, 0x93, 0xbe, 0x48, 0x69, 0x03, 0xbd, 
  0xae, 0x00, 0x2c, 0xbe, 0xc8, 0xc6, 0x45, 0xbe, 0x14, 0xd2, 0x1f, 0x3e, 
  0x41, 0x92, 0x2c, 0xbe, 0xb0, 0xc7, 0x61, 0x3d, 0x7b, 0x10, 0x31, 0xbe, 
  0xc0, 0x14, 0xae, 0xbb, 0x77, 0x8a, 0x92, 0x3e, 0xf2, 0x5f, 0x8a, 0xbd, 
  0x68, 0x5c, 0x98, 0x3d, 0xa1, 0xc1, 0x84, 0xbe, 0x64, 0x8f, 0x6e, 0xbe, 
  0x99, 0xdc, 0x8b, 0x3e, 0xad, 0x4d, 0x8f, 0x3e, 0xca, 0xbe, 0x87, 0xbe, 
  0xcc, 0x58, 0xfa, 0x3d, 0x9a, 0x3d, 0x03, 0x3e, 0x3b, 0x0a, 0x99, 0x3e, 
  0x50, 0xa2, 0xfd, 0x3d, 0x06, 0x80, 0x67, 0x3e, 0xd7, 0x5e, 0x72, 0xbe, 
  0x10, 0x70, 0xc2, 0xbc, 0x38, 0xd4, 0x80, 0xbe, 0xa4, 0x8f, 0xea, 0x3d, 
  0x50, 0x72, 0x8f, 0xbc, 0x48, 0x12, 0xce, 0xbd, 0x00, 0x20, 0x1a, 0x3d, 
  0x5e, 0xb2, 0xc9, 0xbd, 0xf0, 0x66, 0x61, 0x3d, 0x8e, 0x62, 0x8e, 0xbd, 
  0x0a, 0x83, 0x6c, 0x3e, 0x64, 0xed, 0x8d, 0x3d, 0x10, 0xe4, 0x85, 0x3d, 
  0x76, 0xa0, 0x69, 0x3e, 0x38, 0x76, 0x06, 0x3d, 0x78, 0x95, 0xfe, 0x3d, 
  0x48, 0x9b, 0xff, 0x3d, 0xc6, 0xfc, 0x08, 0xbe, 0x3c, 0x76, 0x6f, 0xbd, 
  0xa8, 0xa4, 0x3a, 0x3d, 0x42, 0x4f, 0xbc, 0xbd, 0xc7, 0x0b, 0x91, 0x3e, 
  0xd0, 0xc9, 0x4f, 0x3d, 0x9e, 0x50, 0x70, 0x3e, 0xac, 0xcb, 0x2b, 0xbe, 
  0x28, 0x55, 0x42, 0xbe, 0x60, 0x40, 0x29, 0x3c, 0xf9, 0x2e, 0x79, 0xbe, 
  0x20, 0x20, 0x64, 0xbc, 0x06, 0x0f, 0x2f, 0xbe, 0xf4, 0x68, 0x8b, 0xbd, 
  0x43, 0xa5, 0x8a, 0xbe, 0x00, 0xf3, 0xac, 0x3c, 0xa8, 0x94, 0x86, 0x3d, 
  0x88, 0xcd, 0x8a, 0x3d, 0x6f, 0xe6, 0x94, 0xbe, 0x40, 0x3e, 0x8e, 0x3c, 
  0x38, 0x27, 0x43, 0xbe, 0x0a, 0x79, 0x16, 0xbe, 0x8a, 0x63, 0x62, 0x3e, 
  0x7b, 0x3f, 0x67, 0xbe, 0xb5, 0xc9, 0x8e, 0xbe, 0x28, 0xa6, 0xd5, 0x3d, 
  0x7e, 0xa4, 0x5c, 0x3e, 0x7c, 0x46, 0x1a, 0x3e, 0xc0, 0x74, 0xc6, 0x3b, 
  0x6c, 0x79, 0x95, 0xbe, 0x70, 0x1f, 0xab, 0x3d, 0xaa, 0x27, 0xb2, 0xbd, 
  0x7f, 0x79, 0x38, 0xbe, 0x5c, 0x38, 0x44, 0xbe, 0xa1, 0x5c, 0x8e, 0x3e, 
  0x66, 0xf4, 0x81, 0xbd, 0x08, 0x44, 0x94, 0xbd, 0x78, 0x53, 0xb0, 0xbd, 
  0x94, 0xec, 0x73, 0xbe, 0x33, 0xab, 0x7a, 0xbe, 0xd4, 0x2e, 0xf0, 0xbd, 
  0x00, 0xaf, 0xf4, 0x3b, 0xb3, 0x9d, 0x34, 0xbe, 0x46, 0xfd, 0x76, 0xbe, 
  0xa5, 0x12, 0x85, 0x3e, 0xfe, 0xa8, 0x4b, 0x3e, 0x2d, 0xdb, 0x83, 0xbe, 
  0x9a, 0xa0, 0x11, 0x3e, 0xf8, 0xa5, 0x2d, 0x3d, 0x3d, 0x64, 0x82, 0x3e, 
  0x20, 0xd4, 0x2e, 0x3c, 0x59, 0x02, 0x96, 0x3e, 0xa4, 0x18, 0x8a, 0x3d, 
  0x20, 0xc8, 0x3a, 0x3e, 0x8d, 0xaa, 0x80, 0x3e, 0x20, 0xe3, 0x04, 0x3e, 
  0xb3, 0x6c, 0x85, 0xbe, 0xf0, 0x15, 0xfb, 0x3d, 0x8d, 0x5a, 0x53, 0xbe, 
  0xa0, 0x7b, 0x9e, 0xbd, 0xc0, 0xf6, 0x44, 0x3c, 0x60, 0x25, 0xad, 0xbc, 
  0xf1, 0xde, 0x44, 0xbe, 0x9e, 0x3f, 0x11, 0x3e, 0x2c, 0x12, 0x7d, 0xbd, 
  0x86, 0xf0, 0x3e, 0x3e, 0xae, 0x97, 0x5d, 0xbe, 0x7e, 0xc3, 0x67, 0x3e, 
  0xde, 0xa2, 0x8c, 0xbd, 0x99, 0x23, 0x98, 0x3e, 0x84, 0xf4, 0x54, 0xbe, 
  0xda, 0xd5, 0x64, 0x3e, 0xf7, 0xf8, 0x87, 0x3e, 0xb4, 0x02, 0x33, 0xbe, 
  0xd0, 0x5e, 0x34, 0x3d, 0x46, 0x17, 0xdf, 0xbd, 0x40, 0x3f, 0x9c, 0xbe, 
  0xea, 0xd1, 0x6b, 0x3e, 0x90, 0x40, 0x4f, 0xbd, 0x46, 0x44, 0x54, 0x3e, 
  0xc0, 0x65, 0x33, 0x3e, 0x36, 0x04, 0x44, 0x3e, 0xa0, 0x2e, 0x30, 0x3e, 
  0x50, 0x15, 0x41, 0xbd, 0xa2, 0xa8, 0x42, 0xbe, 0x32, 0xe0, 0x7f, 0x3e, 
  0x48, 0x53, 0xa9, 0xbd, 0x72, 0x25, 0x0a, 0xbe, 0xec, 0xf7, 0xa8, 0x3d, 
  0x94, 0xac, 0x1e, 0xbe, 0xb6, 0x61, 0x31, 0x3e, 0xdb, 0x79, 0x85, 0xbe, 
  0xee, 0xc8, 0x6a, 0x3e, 0x34, 0xad, 0x68, 0xbe, 0xb0, 0x2a, 0x45, 0x3e, 
  0xc0, 0x34, 0x97, 0xbb, 0xaa, 0x2b, 0x80, 0xbe, 0x60, 0x24, 0x5a, 0x3d, 
  0xec, 0xb2, 0xc7, 0x3d, 0xf0, 0x2e, 0x04, 0x3e, 0x6b, 0x8f, 0x22, 0xbe, 
  0x40, 0x18, 0x02, 0xbd, 0x56, 0xcf, 0x43, 0x3e, 0x8c, 0x0e, 0x65, 0xbe, 
  0x97, 0x6b, 0x87, 0xbe, 0x40, 0xd7, 0xd2, 0xbc, 0x48, 0x42, 0xda, 0x3d, 
  0x64, 0x05, 0x1d, 0x3e, 0x98, 0x22, 0x32, 0xbe, 0x05, 0x09, 0x09, 0xbe, 
  0xf8, 0x2f, 0x29, 0xbd, 0x40, 0x56, 0x20, 0x3d, 0xf8, 0xfa, 0xb2, 0xbd, 
  0x92, 0xbd, 0x51, 0x3e, 0x5c, 0x1d, 0x31, 0x3e, 0x98, 0x9e, 0xc6, 0x3d, 
  0xac, 0x45, 0xae, 0xbd, 0x8e, 0x8e, 0x39, 0xbe, 0x8a, 0x80, 0x5d, 0x3e, 
  0x1a, 0xb8, 0xfe, 0xbd, 0x60, 0x0f, 0xa0, 0xbc, 0xe8, 0x49, 0x5f, 0xbe, 
  0xfe, 0x5a, 0x7b, 0x3e, 0xa4, 0x09, 0x8a, 0xbe, 0x45, 0xdf, 0x1c, 0xbe, 
  0x80, 0x0b, 0x77, 0xbb, 0x0d, 0x8e, 0x5b, 0xbe, 0x2a, 0x9d, 0x99, 0xbe, 
  0xf6, 0x69, 0x25, 0x3e, 0xea, 0x9f, 0x6d, 0xbe, 0xbc, 0xa4, 0xff, 0x3d, 
  0xe1, 0x65, 0x8c, 0x3e, 0x85, 0x88, 0x40, 0xbe, 0x94, 0x08, 0x1c, 0x3e, 
  0xc0, 0x9a, 0x12, 0xbc, 0x46, 0x93, 0x3a, 0xbe, 0x80, 0xd0, 0x0d, 0xbc, 
  0xf2, 0x6d, 0x78, 0x3e, 0x00, 0xce, 0x06, 0xbe, 0x00, 0x66, 0xe3, 0x3d, 
  0xe4, 0x36, 0x2a, 0x3e, 0x4d, 0x5b, 0x92, 0x3e, 0x10, 0xe3, 0xe9, 0xbd, 
  0xde, 0x9c, 0xdd, 0xbd, 0x8d, 0x36, 0x60, 0xbe, 0x72, 0x17, 0x44, 0x3e, 
  0x0e, 0x6e, 0xfc, 0xbd, 0xc7, 0x79, 0x85, 0x3e, 0x92, 0xaa, 0x3f, 0xbe, 
  0xa0, 0xd7, 0x4f, 0xbe, 0xdc, 0x86, 0x81, 0x3d, 0x00, 0x27, 0xd1, 0x3a, 
  0xc6, 0x8c, 0x50, 0x3e, 0xf0, 0x1b, 0x0a, 0x3d, 0x50, 0xd0, 0x0d, 0x3e, 
  0xf1, 0x49, 0x0e, 0xbe, 0xb0, 0x51, 0x63, 0x3d, 0xba, 0x71, 0x40, 0x3e, 
  0x0b, 0xfb, 0x90, 0xbe, 0x3b, 0xb4, 0x82, 0x3e, 0x9c, 0x5c, 0x75, 0xbe, 
  0xe4, 0x96, 0xdd, 0xbd, 0x0e, 0x2d, 0x1e, 0x3e, 0x38, 0x13, 0x0c, 0xbd, 
  0xd8, 0x8e, 0xb9, 0xbd, 0x22, 0x9d, 0x2b, 0xbe, 0xe0, 0x80, 0x0b, 0xbd, 
  0x0b, 0xa9, 0x8d, 0x3e, 0x20, 0x8d, 0x19, 0x3c, 0x60, 0x73, 0x4e, 0xbc, 
  0x1a, 0x98, 0x31, 0xbe, 0x00, 0xa4, 0xce, 0xb9, 0x71, 0xab, 0x88, 0x3e, 
  0x40, 0x0b, 0x7e, 0xbd, 0xd0, 0x43, 0x81, 0xbe, 0x34, 0xcb, 0x87, 0x3d, 
  0x60, 0x35, 0xbf, 0xbc, 0xcf, 0xc2, 0x8d, 0xbe, 0x30, 0xc1, 0x07, 0x3e, 
  0xae, 0xdc, 0x88, 0xbe, 0x5f, 0x03, 0x93, 0x3e, 0x99, 0x6f, 0x94, 0x3e, 
  0x7c, 0xed, 0x8e, 0x3d, 0x48, 0xa3, 0x71, 0xbe, 0x9a, 0xb8, 0xe4, 0xbd, 
  0x36, 0x8a, 0xbd, 0xbd, 0xa4, 0x1a, 0x69, 0xbe, 0x60, 0x7c, 0x77, 0x3c, 
  0x0e, 0xaa, 0x7a, 0x3e, 0xc0, 0xe2, 0x30, 0xbc, 0xc7, 0xb3, 0x92, 0xbe, 
  0x02, 0x03, 0x05, 0xbe, 0x18, 0xee, 0xfa, 0x3d, 0xb8, 0xe0, 0xf3, 0x3d, 
  0xee, 0x5d, 0x7a, 0x3e, 0xa4, 0xa4, 0x45, 0x3e, 0xe4, 0x39, 0xdd, 0x3d, 
  0x24, 0x12, 0x72, 0xbe, 0x90, 0x65, 0xdd, 0xbd, 0xd8, 0xad, 0xeb, 0x3d, 
  0x04, 0xcc, 0xdd, 0xbd, 0x3e, 0xd2, 0x79, 0x3e, 0xd0, 0xfc, 0x08, 0x3d, 
  0x22, 0x9b, 0xa6, 0xbd, 0xb7, 0x89, 0x54, 0xbe, 0x13, 0x0a, 0x90, 0xbe, 
  0xfd, 0x19, 0x76, 0xbe, 0x85, 0x53, 0x6f, 0xbe, 0x56, 0x90, 0x56, 0x3e, 
  0xd8, 0xca, 0x1f, 0xbe, 0xd6, 0x9e, 0x7a, 0xbe, 0x87, 0x11, 0x25, 0xbe, 
  0x0b, 0xd3, 0x88, 0x3e, 0xe0, 0x74, 0x66, 0xbc, 0xdb, 0x62, 0x21, 0xbe, 
  0x7e, 0x1e, 0x45, 0x3e, 0xbe, 0xde, 0x7d, 0x3e, 0xd8, 0xf7, 0x0b, 0x3e, 
  0x6e, 0xd6, 0x5e, 0x3e, 0xd0, 0xf6, 0xbb, 0x3d, 0xdc, 0xd7, 0xcc, 0x3d, 
  0xf4, 0x02, 0x1e, 0xbe, 0x34, 0x35, 0x82, 0xbe, 0x9d, 0xca, 0x8b, 0x3e, 
  0xa0, 0xa5, 0x46, 0x3d, 0xf8, 0x64, 0x4e, 0xbe, 0x47, 0x02, 0x2f, 0xbe, 
  0xfe, 0xc7, 0x32, 0x3e, 0x9a, 0x51, 0x2f, 0x3e, 0x28, 0x1c, 0x66, 0x3d, 
  0x24, 0x36, 0x14, 0x3e, 0xc9, 0xb0, 0x10, 0xbe, 0xd0, 0x1d, 0x8c, 0xbe, 
  0x7e, 0x30, 0x60, 0x3e, 0x24, 0xb9, 0x38, 0x3e, 0xe0, 0xff, 0x7d, 0xbc, 
  0xca, 0xf6, 0xdb, 0xbd, 0x3e, 0x0c, 0xde, 0xbd, 0x74, 0xbf, 0x3f, 0xbe, 
  0x12, 0x62, 0xb6, 0xbd, 0xc0, 0x81, 0x6f, 0xbc, 0x7e, 0xca, 0xed, 0xbd, 
  0x50, 0x80, 0xe2, 0xbc, 0x95, 0xd7, 0x90, 0x3e, 0xbc, 0xff, 0x30, 0x3e, 
  0x78, 0x03, 0x99, 0x3d, 0xdb, 0xc3, 0x19, 0xbe, 0x0d, 0x0e, 0x01, 0xbe, 
  0x94, 0x01, 0x02, 0x3e, 0xc8, 0x18, 0x1b, 0xbd, 0x84, 0xa3, 0x00, 0xbe, 
  0x27, 0xf1, 0x80, 0xbe, 0xc8, 0x93, 0x7f, 0xbd, 0x4e, 0xa5, 0x75, 0x3e, 
  0xc0, 0x1d, 0x10, 0xbd, 0x24, 0x10, 0x3d, 0x3e, 0x80, 0xe5, 0xe8, 0xbd, 
  0xf6, 0xee, 0x9c, 0xbd, 0x70, 0x35, 0x8b, 0x3d, 0x7f, 0x23, 0x8a, 0xbe, 
  0x20, 0x26, 0x31, 0x3c, 0x0d, 0x81, 0x8a, 0x3e, 0x34, 0xa5, 0x72, 0xbe, 
  0xfc, 0x73, 0x94, 0x3d, 0x62, 0x50, 0xdc, 0xbd, 0x40, 0x46, 0x42, 0x3e, 
  0x15, 0xcf, 0x37, 0xbe, 0x87, 0x43, 0x64, 0xbe, 0x81, 0x8c, 0x31, 0xbe, 
  0xb7, 0x93, 0x9a, 0x3e, 0x1e, 0x24, 0x69, 0xbe, 0x13, 0x88, 0x1b, 0xbe, 
  0x60, 0x56, 0x44, 0xbd, 0xd4, 0xc0, 0x35, 0x3e, 0xeb, 0x7d, 0x98, 0x3e, 
  0x6c, 0xfc, 0x7a, 0xbd, 0x0f, 0x2c, 0x0b, 0xbe, 0x44, 0x4e, 0x1f, 0x3e, 
  0xe0, 0x5b, 0x3c, 0xbe, 0xd8, 0x04, 0xd2, 0xbd, 0x40, 0x2f, 0xbe, 0xbb, 
  0x60, 0x5b, 0x82, 0xbc, 0xea, 0xd7, 0x38, 0x3e, 0x00, 0x53, 0xb0, 0x3a, 
  0x30, 0x93, 0xa1, 0x3c, 0xca, 0x6f, 0x99, 0xbd, 0xf8, 0xcc, 0xd1, 0xbd, 
  0x40, 0xf5, 0xfd, 0x3b, 0x09, 0x0d, 0x96, 0x3e, 0x75, 0xda, 0x92, 0x3e, 
  0x4a, 0xa6, 0x4e, 0x3e, 0x2e, 0x28, 0xea, 0xbd, 0x82, 0x82, 0x8a, 0xbe, 
  0x50, 0x30, 0xdb, 0xbc, 0x78, 0x19, 0xec, 0xbd, 0x96, 0x2f, 0x43, 0x3e, 
  0xdc, 0xb0, 0xf2, 0x3d, 0x4a, 0xb0, 0x67, 0xbe, 0x50, 0xd7, 0x26, 0xbe, 
  0xac, 0x7d, 0x1e, 0x3e, 0x62, 0x6a, 0x83, 0xbe, 0x00, 0x3e, 0xfb, 0xbb, 
  0xf3, 0xa4, 0x5e, 0xbe, 0x20, 0xed, 0x44, 0xbe, 0xb8, 0x78, 0x55, 0x3d, 
  0x00, 0x83, 0x2f, 0xbd, 0x00, 0x66, 0x19, 0xba, 0xb0, 0x83, 0x8f, 0xbe, 
  0x96, 0x07, 0x93, 0xbe, 0xa0, 0x72, 0x65, 0xbd, 0xb6, 0xa1, 0x6d, 0xbe, 
  0x8d, 0x6d, 0x97, 0xbe, 0x98, 0x18, 0x07, 0x3e, 0xa6, 0xd7, 0x65, 0x3e, 
  0x00, 0xea, 0x05, 0xbb, 0xf4, 0xe4, 0xbc, 0x3d, 0x36, 0x93, 0x7b, 0xbe, 
  0x4a, 0xe7, 0x18, 0x3e, 0xb4, 0x2a, 0xda, 0x3d, 0x7b, 0xf1, 0x86, 0xbe, 
  0xc0, 0xcb, 0xf2, 0x3b, 0xfc, 0x81, 0x8f, 0x3d, 0xba, 0x43, 0x84, 0xbe, 
  0xd2, 0x57, 0x5f, 0x3e, 0xc0, 0x20, 0x46, 0x3d, 0x0a, 0x6a, 0x72, 0x3e, 
  0xbd, 0x56, 0x2e, 0xbe, 0x64, 0x3a, 0xe9, 0xbd, 0x30, 0xe6, 0x27, 0xbd, 
  0x56, 0x78, 0x7c, 0x3e, 0x94, 0x9f, 0xe1, 0x3d, 0xc8, 0x06, 0x72, 0x3d, 
  0x14, 0x21, 0x8f, 0xbd, 0x00, 0x29, 0x1a, 0xbc, 0xb6, 0x76, 0x5b, 0x3e, 
  0x0e, 0xe0, 0x97, 0xbe, 0xba, 0x00, 0xfa, 0xbd, 0x94, 0x7b, 0xb8, 0x3d, 
  0xb2, 0x9b, 0x70, 0xbe, 0xb0, 0xcf, 0x88, 0xbe, 0x34, 0xe2, 0x8b, 0xbe, 
  0xb4, 0xf9, 0xe0, 0x3d, 0xaf, 0x69, 0x97, 0x3e, 0x53, 0x61, 0x51, 0xbe, 
  0x0a, 0xac, 0x64, 0x3e, 0x04, 0x34, 0xf2, 0xbd, 0x18, 0x07, 0xba, 0xbd, 
  0x9a, 0xc2, 0x27, 0x3e, 0x80, 0x13, 0x68, 0x3c, 0xeb, 0x41, 0x99, 0x3e, 
  0xdd, 0x35, 0x81, 0xbe, 0xda, 0xd1, 0xb1, 0xbd, 0xcc, 0x76, 0x82, 0xbd, 
  0x1f, 0x25, 0x7f, 0xbe, 0x10, 0x45, 0x2c, 0x3d, 0x1c, 0x1c, 0x87, 0xbe, 
  0xe6, 0xbd, 0x7c, 0xbe, 0x80, 0x7a, 0x92, 0x3c, 0xd0, 0x22, 0xe2, 0xbc, 
  0xb0, 0x8e, 0x4e, 0xbe, 0x6d, 0x82, 0x8e, 0x3e, 0x80, 0x47, 0x6e, 0x3d, 
  0xfa, 0xee, 0x60, 0x3e, 0x7e, 0xff, 0x3a, 0x3e, 0x77, 0x26, 0x8f, 0x3e, 
  0x3d, 0xe7, 0x92, 0xbe, 0xba, 0xc0, 0x42, 0xbe, 0xd4, 0x8d, 0x85, 0xbd, 
  0x88, 0x5f, 0x3b, 0x3d, 0xd8, 0x7e, 0x3d, 0xbe, 0xcc, 0x78, 0x93, 0x3d, 
  0x5b, 0xb1, 0x0c, 0xbe, 0x72, 0x20, 0x15, 0xbe, 0x18, 0xb7, 0xd6, 0x3d, 
  0xcc, 0x01, 0x72, 0xbe, 0xd0, 0x70, 0xae, 0x3c, 0x82, 0x83, 0x74, 0xbe, 
  0x2c, 0x6c, 0x0f, 0x3e, 0x3c, 0x1f, 0xb8, 0x3d, 0x13, 0xec, 0x88, 0xbe, 
  0x66, 0x56, 0xd1, 0xbd, 0x2e, 0x04, 0x63, 0x3e, 0xd2, 0x44, 0x1c, 0xbe, 
  0x4a, 0xbb, 0x8c, 0xbd, 0x00, 0x2c, 0x92, 0xb9, 0x6a, 0x39, 0xdf, 0xbd, 
  0xe0, 0x81, 0xe1, 0xbc, 0x9f, 0x82, 0x9c, 0xbe, 0x7b, 0xd7, 0x94, 0xbe, 
  0xbf, 0xdf, 0x95, 0x3e, 0x5a, 0xa2, 0x0a, 0x3e, 0x6a, 0xfe, 0x4b, 0x3e, 
  0x20, 0x42, 0x3a, 0xbc, 0x98, 0x80, 0xa9, 0x3d, 0x97, 0xc2, 0x8e, 0xbe, 
  0x60, 0xc8, 0x74, 0xbd, 0x4e, 0xb5, 0x78, 0x3e, 0xb0, 0x4e, 0xe9, 0x3c, 
  0x06, 0xd5, 0x4f, 0x3e, 0x6a, 0xa5, 0x65, 0x3e, 0x25, 0xcb, 0x8d, 0x3e, 
  0x20, 0x5d, 0xbc, 0xbc, 0xa0, 0xd1, 0x1c, 0x3c, 0xcf, 0x4e, 0x86, 0x3e, 
  0xec, 0x52, 0x98, 0x3d, 0xb8, 0x3c, 0x3a, 0x3d, 0x78, 0x15, 0x3f, 0x3d, 
  0x40, 0x93, 0xbd, 0xbb, 0x24, 0x52, 0xd0, 0x3d, 0x3c, 0xb8, 0x01, 0x3e, 
  0x3f, 0x97, 0x96, 0xbe, 0xb8, 0xc3, 0xa8, 0x3d, 0x48, 0xe9, 0x37, 0xbe, 
  0x02, 0x1f, 0x24, 0xbe, 0x00, 0xf9, 0xb1, 0x3b, 0x3d, 0x95, 0x19, 0xbe, 
  0x12, 0x84, 0x91, 0xbd, 0xd8, 0xcf, 0xc2, 0xbd, 0x60, 0xd6, 0x1f, 0xbc, 
  0x7a, 0x38, 0x5c, 0x3e, 0x06, 0x11, 0x4b, 0x3e, 0x11, 0x4d, 0x31, 0xbe, 
  0x4d, 0xc6, 0x82, 0x3e, 0x06, 0xc7, 0x7c, 0x3e, 0x86, 0x2c, 0x41, 0xbe, 
  0xed, 0x3b, 0x13, 0xbe, 0x68, 0x03, 0x06, 0xbd, 0x48, 0xb3, 0x22, 0x3d, 
  0xb2, 0xbf, 0x9c, 0xbe, 0x20, 0x8f, 0x1d, 0x3c, 0x54, 0x31, 0x2e, 0x3e, 
  0x6c, 0x44, 0x5a, 0xbe, 0xb2, 0x4a, 0x55, 0x3e, 0x91, 0x54, 0x84, 0x3e, 
  0x24, 0x52, 0xb9, 0xbd, 0xb4, 0xb8, 0xee, 0xbd, 0x00, 0x3b, 0x2d, 0xbb, 
  0x66, 0xb3, 0x7d, 0xbe, 0xf0, 0x53, 0x03, 0xbd, 0xd0, 0xb6, 0xa6, 0x3c, 
  0xa2, 0x21, 0x7d, 0x3e, 0xff, 0xf9, 0x21, 0xbe, 0xa8, 0x33, 0x66, 0xbd, 
  0xac, 0x89, 0xd4, 0x3d, 0x60, 0xb2, 0x4d, 0xbd, 0x73, 0xd5, 0x5b, 0xbe, 
  0xf8, 0xbd, 0x2b, 0xbd, 0x04, 0xae, 0x8d, 0xbe, 0xd7, 0x59, 0x90, 0x3e, 
  0xfc, 0x87, 0xcb, 0x3d, 0x6e, 0x65, 0x1e, 0xbe, 0x03, 0x5b, 0x6c, 0xbe, 
  0xf6, 0xda, 0x6b, 0x3e, 0x3f, 0xc6, 0x99, 0x3e, 0xba, 0x73, 0x3f, 0x3e, 
  0x5e, 0x4f, 0x95, 0xbd, 0x96, 0xad, 0x62, 0x3e, 0x46, 0xa0, 0x88, 0xbe, 
  0x30, 0x2e, 0x82, 0xbd, 0xd2, 0xc6, 0x3f, 0xbe, 0x20, 0x65, 0xa0, 0x3c, 
  0x40, 0xd3, 0x67, 0x3d, 0xa8, 0x11, 0x2e, 0x3e, 0x96, 0x05, 0x68, 0x3e, 
  0x98, 0xed, 0xde, 0xbd, 0x8e, 0xff, 0x63, 0xbe, 0x58, 0x96, 0x22, 0xbe, 
  0x59, 0x47, 0x88, 0xbe, 0x10, 0x69, 0x46, 0x3e, 0x25, 0x0f, 0x58, 0xbe, 
  0xfd, 0x04, 0x81, 0x3e, 0xe0, 0x9d, 0x03, 0x3d, 0x3a, 0x72, 0x3c, 0xbe, 
  0xc0, 0x21, 0xa8, 0x3d, 0x09, 0x98, 0x86, 0xbe, 0x02, 0x17, 0x5b, 0x3e, 
  0x40, 0x14, 0x95, 0xbb, 0xb6, 0xcf, 0x1c, 0x3e, 0x70, 0x7d, 0x9a, 0x3c, 
  0x6c, 0x40, 0x89, 0xbe, 0xa0, 0x3a, 0x2b, 0x3d, 0x1c, 0xf6, 0x85, 0xbe, 
  0x10, 0x2b, 0x54, 0x3d, 0xb2, 0x6a, 0x78, 0x3e, 0xa7, 0x76, 0x99, 0x3e, 
  0x6b, 0x76, 0x46, 0xbe, 0x20, 0x99, 0x6d, 0xbd, 0x3d, 0x9c, 0x86, 0x3e, 
  0x8c, 0x66, 0xbe, 0x3d, 0x64, 0xa5, 0x13, 0xbe, 0x20, 0x3d, 0x2d, 0xbe, 
  0x40, 0x4a, 0x82, 0xbc, 0x94, 0x47, 0x67, 0xbe, 0x00, 0x95, 0x3f, 0x3d, 
  0xf0, 0xae, 0x91, 0xbd, 0x51, 0xcc, 0x4f, 0xbe, 0x61, 0x5b, 0x31, 0xbe, 
  0x40, 0x63, 0x4c, 0x3c, 0x8b, 0x64, 0x89, 0x3e, 0x28, 0x25, 0x15, 0xbe, 
  0x48, 0xc4, 0xaf, 0x3d, 0xd4, 0x65, 0x89, 0xbd, 0x25, 0xe7, 0x81, 0xbe, 
  0x4a, 0xef, 0x48, 0xbe, 0xf0, 0xcf, 0x36, 0x3d, 0xb0, 0x9f, 0x01, 0x3d, 
  0x97, 0x69, 0x81, 0xbe, 0x50, 0x48, 0x41, 0xbd, 0xa0, 0x60, 0x07, 0x3e, 
  0xc8, 0x95, 0xf4, 0xbd, 0x9d, 0x54, 0x77, 0xbe, 0x07, 0xd8, 0x85, 0xbe, 
  0x8a, 0x67, 0x4a, 0x3e, 0x14, 0x4f, 0xc8, 0x3d, 0x17, 0xb8, 0x87, 0x3e, 
  0x12, 0x23, 0x1d, 0xbe, 0x8a, 0xcf, 0x7a, 0xbe, 0x00, 0x11, 0xff, 0x3c, 
  0xd0, 0xe1, 0x22, 0x3d, 0x32, 0xac, 0x2d, 0x3e, 0x16, 0xeb, 0x75, 0xbe, 
  0xf6, 0x01, 0x5c, 0xbe, 0xda, 0xd8, 0x66, 0x3e, 0x38, 0x72, 0x04, 0x3d, 
  0x68, 0x12, 0x54, 0xbd, 0x42, 0x70, 0xdb, 0xbd, 0x2a, 0xc2, 0x55, 0x3e, 
  0x6e, 0xc2, 0x40, 0xbe, 0x00, 0x20, 0x12, 0xb9, 0x5e, 0x2a, 0x90, 0xbe, 
  0x17, 0xa0, 0x85, 0x3e, 0xce, 0xdc, 0xc1, 0xbd, 0x74, 0x13, 0x4b, 0xbe, 
  0xe0, 0xbf, 0x45, 0x3c, 0x15, 0xb2, 0x80, 0x3e, 0xa6, 0x04, 0x55, 0xbe, 
  0x00, 0xd2, 0x7d, 0x3d, 0xe6, 0x4a, 0x3e, 0x3e, 0xc0, 0x64, 0xf8, 0x3b, 
  0x06, 0xed, 0xcf, 0xbd, 0x42, 0x4c, 0x90, 0xbd, 0x50, 0x7b, 0x84, 0x3c, 
  0x60, 0x97, 0x54, 0x3c, 0x80, 0xb3, 0x58, 0x3d, 0xee, 0x49, 0x39, 0x3e, 
  0xe0, 0xcc, 0x6b, 0x3c, 0xa0, 0x85, 0x1b, 0x3d, 0xca, 0x22, 0x49, 0x3e, 
  0xb4, 0x2e, 0xd8, 0xbd, 0xf0, 0xd9, 0xba, 0x3d, 0x82, 0xc7, 0x2a, 0xbe, 
  0x0a, 0x4b, 0xd2, 0xbd, 0x81, 0x10, 0x95, 0x3e, 0x1a, 0x76, 0x4c, 0x3e, 
  0x40, 0xe4, 0x74, 0x3c, 0x44, 0xae, 0xb1, 0x3d, 0xad, 0xd7, 0x84, 0x3e, 
  0x2a, 0x3f, 0x9b, 0xbd, 0x0c, 0x74, 0x76, 0xbd, 0x48, 0xb3, 0x63, 0x3d, 
  0x8e, 0x0f, 0x9b, 0xbd, 0x36, 0x90, 0x6e, 0xbe, 0x4c, 0xa6, 0xc8, 0x3d, 
  0xf4, 0x6f, 0x46, 0x3e, 0x00, 0x81, 0x1a, 0x3b, 0x88, 0x88, 0x23, 0x3d, 
  0x0c, 0xcb, 0x90, 0xbe, 0xf4, 0x93, 0xc6, 0x3d, 0xf6, 0xf2, 0x33, 0xbe, 
  0xe0, 0xa4, 0xe9, 0x3d, 0x32, 0xc0, 0xe9, 0xbd, 0x26, 0xdc, 0x9a, 0xbd, 
  0xc3, 0x9b, 0x93, 0xbe, 0x07, 0xfd, 0x7e, 0xbe, 0x98, 0x12, 0x05, 0x3d, 
  0x72, 0x05, 0x54, 0x3e, 0xc0, 0x66, 0x3c, 0xbc, 0x80, 0xb2, 0x78, 0xbc, 
  0xc0, 0xc5, 0x62, 0x3d, 0x3e, 0xfe, 0x79, 0xbe, 0xf7, 0x8b, 0x91, 0xbe, 
  0x00, 0xf2, 0x49, 0x3d, 0x48, 0x30, 0xae, 0x3d, 0x62, 0x35, 0x5a, 0x3e, 
  0xd4, 0xd0, 0x3b, 0xbe, 0x64, 0x3a, 0x7c, 0xbe, 0x40, 0xf7, 0x8b, 0xbb, 
  0xad, 0x0a, 0x8e, 0xbe, 0x1e, 0xb1, 0x8d, 0xbe, 0xaf, 0x0a, 0x81, 0x3e, 
  0xb2, 0xbe, 0x55, 0x3e, 0xb0, 0x3e, 0xfd, 0xbd, 0xbb, 0x10, 0x03, 0xbe, 
  0x08, 0x63, 0x14, 0x3e, 0x7f, 0xc8, 0x9a, 0x3e, 0xda, 0x6b, 0x4f, 0xbe, 
  0xa4, 0x1c, 0x1b, 0x3e, 0x3c, 0xf2, 0xc8, 0x3d, 0x2a, 0x10, 0x75, 0x3e, 
  0xf4, 0x59, 0x13, 0xbe, 0x1c, 0xa4, 0xf5, 0x3d, 0xe2, 0xb3, 0x3e, 0xbe, 
  0x88, 0xdd, 0x8d, 0xbe, 0x30, 0xbb, 0x47, 0xbd, 0xac, 0x48, 0x6f, 0xbe, 
  0x50, 0xd8, 0xcf, 0x3d, 0xfe, 0x6e, 0x3e, 0xbe, 0x9a, 0xbf, 0x7a, 0x3e, 
  0x9e, 0x07, 0xd7, 0xbd, 0x18, 0x78, 0x12, 0x3d, 0xc0, 0xf9, 0xa6, 0x3c, 
  0x96, 0x9d, 0x38, 0x3e, 0x11, 0xb8, 0x8a, 0x3e, 0x51, 0xe8, 0x8d, 0x3e, 
  0x21, 0xf9, 0x8f, 0x3e, 0xdd, 0xaf, 0x8d, 0xbe, 0x56, 0x16, 0x18, 0x3e, 
  0x00, 0x75, 0x6d, 0xbb, 0xd5, 0x80, 0x31, 0xbe, 0x49, 0xa3, 0x1b, 0xbe, 
  0x2a, 0x02, 0x2b, 0x3e, 0xd6, 0xc3, 0x51, 0x3e, 0x6d, 0xa3, 0x96, 0x3e, 
  0x92, 0xdc, 0x96, 0xbe, 0x98, 0x8a, 0xb1, 0xbd, 0xac, 0x53, 0xc5, 0xbd, 
  0x53, 0xec, 0x8a, 0x3e, 0xeb, 0x90, 0x85, 0xbe, 0xd8, 0x11, 0x3b, 0xbe, 
  0x23, 0xd7, 0x9a, 0xbe, 0xbb, 0x99, 0x69, 0xbe, 0x40, 0xc3, 0x30, 0x3d, 
  0x8e, 0x71, 0x40, 0x3e, 0xca, 0x8a, 0x4c, 0x3e, 0x05, 0x5c, 0x30, 0xbe, 
  0x61, 0x76, 0x29, 0xbe, 0x18, 0xb6, 0xac, 0x3d, 0x36, 0x1a, 0x11, 0x3e, 
  0xe0, 0x7d, 0x00, 0x3e, 0xc8, 0xbd, 0x27, 0x3d, 0xda, 0x4c, 0x86, 0xbd, 
  0xe6, 0xb0, 0x64, 0x3e, 0xd8, 0x9f, 0x34, 0xbe, 0x00, 0x5a, 0x55, 0x3a, 
  0xd8, 0xef, 0xc3, 0x3d, 0xe3, 0x11, 0x98, 0xbe, 0x38, 0x2c, 0x0d, 0xbd, 
  0x68, 0xd3, 0x91, 0x3d, 0xa3, 0xaf, 0x93, 0x3e, 0x29, 0x1c, 0x45, 0xbe, 
  0x80, 0xa7, 0x5b, 0xbb, 0x60, 0x16, 0x16, 0x3c, 0x1d, 0x18, 0x98, 0x3e, 
  0x01, 0xf6, 0x91, 0x3e, 0x49, 0x4d, 0x85, 0x3e, 0x70, 0x83, 0x93, 0xbd, 
  0x40, 0xb8, 0x1d, 0x3d, 0xe0, 0xd5, 0x68, 0x3c, 0xf6, 0xd4, 0x11, 0x3e, 
  0x75, 0x82, 0x05, 0xbe, 0x80, 0xe5, 0x1b, 0xbc, 0xd7, 0xf7, 0x9a, 0xbe, 
  0x82, 0xe8, 0x1b, 0x3e, 0x00, 0xe0, 0xf6, 0x3b, 0x5c, 0x55, 0x2a, 0xbe, 
  0xdc, 0xd9, 0x6d, 0xbe, 0x55, 0x69, 0x85, 0x3e, 0x32, 0x59, 0x1a, 0x3e, 
  0xa0, 0x60, 0x1f, 0x3d, 0x80, 0x89, 0x98, 0xbe, 0xcc, 0x5a, 0x86, 0xbe, 
  0x94, 0x66, 0xb5, 0xbd, 0x79, 0xac, 0x02, 0xbe, 0xea, 0xcc, 0x40, 0x3e, 
  0xba, 0x5b, 0x7c, 0xbe, 0xf9, 0x4e, 0x3a, 0xbe, 0x68, 0x36, 0x46, 0x3d, 
  0x3a, 0xee, 0x62, 0x3e, 0xaf, 0xa2, 0x99, 0xbe, 0x1e, 0x77, 0x51, 0x3e, 
  0x1f, 0xe3, 0x89, 0xbe, 0xc6, 0x8c, 0x18, 0x3e, 0xa8, 0xce, 0x2f, 0x3e, 
  0xb4, 0x13, 0x66, 0xbe, 0xd0, 0x9f, 0x93, 0xbc, 0x42, 0x39, 0x57, 0xbe, 
  0x65, 0x32, 0x0f, 0xbe, 0xa7, 0x79, 0x84, 0x3e, 0x30, 0x39, 0xc1, 0xbd, 
  0x5d, 0x56, 0x99, 0x3e, 0xbc, 0x2d, 0xfe, 0x3d, 0xd0, 0xe6, 0xed, 0x3d, 
  0x40, 0x78, 0x46, 0x3d, 0x63, 0xf8, 0x98, 0xbe, 0x60, 0xf0, 0xc8, 0xbc, 
  0x38, 0x21, 0xf6, 0x3d, 0x20, 0xd6, 0x3d, 0x3c, 0xb2, 0xef, 0x93, 0xbe, 
  0x90, 0x65, 0x4b, 0xbd, 0x36, 0x2d, 0x7a, 0x3e, 0xf7, 0x4f, 0x2e, 0xbe, 
  0x20, 0xd9, 0x18, 0x3c, 0x50, 0x13, 0x06, 0x3d, 0x8a, 0x69, 0x29, 0x3e, 
  0xd2, 0xd8, 0x40, 0x3e, 0x53, 0x35, 0x15, 0xbe, 0x40, 0x1a, 0x34, 0xbe, 
  0xb8, 0x83, 0x16, 0x3e, 0x7c, 0xb5, 0x43, 0xbe, 0x90, 0xa9, 0x89, 0xbc, 
  0x96, 0x44, 0x14, 0xbe, 0x85, 0x7d, 0x97, 0x3e, 0xfe, 0x1c, 0x78, 0xbe, 
  0x70, 0xf6, 0x30, 0x3e, 0x88, 0x87, 0xa5, 0x3d, 0xb4, 0x38, 0xbb, 0x3d, 
  0x46, 0x1e, 0x21, 0x3e, 0x18, 0xa4, 0x40, 0xbe, 0x78, 0x23, 0x4f, 0xbd, 
  0xb0, 0x86, 0xc9, 0x3c, 0x10, 0xd6, 0x63, 0xbe, 0xc6, 0x27, 0x63, 0x3e, 
  0xa5, 0x9d, 0x92, 0x3e, 0xca, 0xbf, 0x33, 0xbe, 0xe2, 0xa1, 0x0d, 0x3e, 
  0xf0, 0x21, 0x3c, 0xbd, 0xf4, 0xc5, 0xa1, 0x3d, 0x1c, 0x12, 0xb9, 0x3d, 
  0xf8, 0xad, 0xf0, 0xbd, 0x87, 0x3f, 0x85, 0x3e, 0x93, 0x16, 0x36, 0xbe, 
  0x34, 0x66, 0xff, 0x3d, 0x80, 0x43, 0xe8, 0xbb, 0xd6, 0x47, 0xc4, 0xbd, 
  0x94, 0x2c, 0xfc, 0x3d, 0x7b, 0x6b, 0x99, 0x3e, 0x86, 0x38, 0x47, 0x3e, 
  0x1a, 0xd6, 0x70, 0xbe, 0xac, 0x95, 0x03, 0x3e, 0x25, 0x54, 0x2d, 0xbe, 
  0x08, 0x3d, 0x3f, 0x3d, 0xb3, 0x05, 0x3a, 0xbe, 0xd9, 0xe2, 0x95, 0x3e, 
  0x7e, 0x3d, 0x64, 0x3e, 0x62, 0x53, 0x26, 0x3e, 0x21, 0xcb, 0x95, 0x3e, 
  0x65, 0xa4, 0x92, 0x3e, 0xc9, 0xb3, 0x3c, 0xbe, 0xed, 0x92, 0x1f, 0xbe, 
  0x0e, 0x31, 0x4d, 0x3e, 0x90, 0xd5, 0xbe, 0xbc, 0xb9, 0x04, 0x84, 0xbe, 
  0xb7, 0x29, 0x25, 0xbe, 0xe0, 0x10, 0x76, 0xbc, 0xb2, 0xd5, 0x23, 0xbe, 
  0xe9, 0x74, 0x09, 0xbe, 0x8b, 0x26, 0x96, 0xbe, 0x78, 0xe8, 0x0a, 0x3d, 
  0x3d, 0x47, 0x90, 0x3e, 0xad, 0xe3, 0x6f, 0xbe, 0x3c, 0xbe, 0x0a, 0xbe, 
  0x3f, 0xa1, 0x8c, 0x3e, 0x29, 0x31, 0x27, 0xbe, 0x2a, 0x59, 0x01, 0x3e, 
  0x4d, 0x02, 0x9c, 0xbe, 0xc8, 0x77, 0x74, 0x3d, 0x9b, 0x24, 0x08, 0xbe, 
  0x5f, 0x20, 0x60, 0xbe, 0x29, 0xad, 0x32, 0xbe, 0xc6, 0x55, 0x44, 0x3e, 
  0x2e, 0x26, 0x1a, 0x3e, 0x84, 0x83, 0x73, 0xbd, 0x3c, 0x6f, 0x3a, 0x3e, 
  0xf4, 0x71, 0x21, 0x3e, 0xd0, 0x08, 0x8f, 0xbc, 0x82, 0xff, 0x85, 0xbe, 
  0xbc, 0xf9, 0xe7, 0x3d, 0xc6, 0xbc, 0x96, 0xbe, 0xd2, 0x70, 0x95, 0xbd, 
  0xaf, 0xf6, 0x92, 0x3e, 0x32, 0x7d, 0x52, 0xbe, 0x0d, 0xea, 0x94, 0x3e, 
  0x70, 0xd7, 0x38, 0x3e, 0xd9, 0xa3, 0x96, 0x3e, 0xe0, 0x6b, 0x94, 0xbc, 
  0x8c, 0x82, 0x1b, 0x3e, 0x56, 0x9d, 0x51, 0x3e, 0x88, 0x7c, 0xe9, 0x3d, 
  0x5c, 0xb4, 0x89, 0xbe, 0xfe, 0x50, 0x61, 0x3e, 0xfb, 0x45, 0x3c, 0xbe, 
  0x31, 0x93, 0x95, 0xbe, 0x59, 0x7f, 0x84, 0x3e, 0x2d, 0xe1, 0x7f, 0xbe, 
  0xfe, 0x20, 0x12, 0x3e, 0x7c, 0x0d, 0x28, 0x3e, 0xa3, 0xd6, 0x0e, 0xbe, 
  0x30, 0xbe, 0x8c, 0xbe, 0x76, 0xaa, 0x7b, 0xbe, 0x22, 0x98, 0xe6, 0xbd, 
  0x08, 0x24, 0x53, 0xbe, 0xc4, 0xe6, 0x72, 0xbe, 0x81, 0x99, 0x2e, 0xbe, 
  0x03, 0x4d, 0x89, 0xbe, 0xe0, 0x3e, 0x75, 0x3d, 0xcc, 0xbc, 0xbc, 0xbd, 
  0x57, 0xeb, 0x8d, 0x3e, 0xd8, 0xcd, 0x48, 0x3d, 0xef, 0x82, 0x74, 0xbe, 
  0x56, 0xd3, 0x3b, 0x3e, 0x25, 0xd8, 0x0c, 0xbe, 0xb8, 0xb1, 0x5e, 0xbd, 
  0x46, 0x38, 0xff, 0xbd, 0x66, 0xbf, 0x46, 0x3e, 0xb8, 0xab, 0x98, 0x3d, 
  0x7a, 0xb4, 0x76, 0x3e, 0xa1, 0x8d, 0x8d, 0xbe, 0xdc, 0x3e, 0xaa, 0x3d, 
  0x6e, 0x65, 0x77, 0x3e, 0xf8, 0xe4, 0x07, 0xbd, 0xb5, 0x77, 0x9c, 0x3e, 
  0x10, 0xf4, 0xf8, 0x3c, 0x80, 0x1f, 0x27, 0x3e, 0xfc, 0x7e, 0x99, 0xbe, 
  0xae, 0x4c, 0x01, 0x3e, 0x11, 0xed, 0x5f, 0xbe, 0xa0, 0xaa, 0x42, 0xbc, 
  0x40, 0x74, 0x05, 0x3d, 0x04, 0xae, 0xca, 0xbd, 0xce, 0xcc, 0x49, 0x3e, 
  0xe0, 0x56, 0x5d, 0x3c, 0x8b, 0xde, 0x8a, 0x3e, 0x60, 0xe7, 0x0f, 0xbc, 
  0x20, 0xfb, 0x80, 0x3c, 0x84, 0x15, 0x03, 0x3e, 0x70, 0x03, 0xd6, 0x3c, 
  0xe9, 0x2d, 0x46, 0xbe, 0xbf, 0xb6, 0x90, 0xbe, 0x74, 0x90, 0xf7, 0x3d, 
  0xe1, 0x9f, 0x95, 0x3e, 0x30, 0xc0, 0x1d, 0x3e, 0x38, 0x09, 0xac, 0x3d, 
  0x8e, 0x55, 0x3a, 0xbe, 0xe0, 0x2c, 0xbe, 0x3d, 0xbc, 0x52, 0xac, 0xbd, 
  0x14, 0x30, 0xa2, 0x3d, 0xf0, 0x74, 0x31, 0x3d, 0x6c, 0x1e, 0x36, 0x3e, 
  0x8e, 0x7a, 0x35, 0x3e, 0xe5, 0x5e, 0x8b, 0x3e, 0xac, 0xcc, 0x86, 0xbe, 
  0x3a, 0x6c, 0x43, 0xbe, 0xbd, 0x15, 0x93, 0x3e, 0xda, 0x80, 0x47, 0x3e, 
  0x63, 0xd6, 0x14, 0xbe, 0x5e, 0xd9, 0x59, 0x3e, 0x9f, 0x15, 0x83, 0x3e, 
  0x87, 0x92, 0x89, 0x3e, 0xd8, 0x47, 0x1a, 0x3e, 0x86, 0x7f, 0xc4, 0xbd, 
  0xe0, 0x77, 0x1c, 0xbe, 0x40, 0x44, 0x8f, 0xbe, 0x47, 0x3e, 0x95, 0x3e, 
  0xf8, 0x0b, 0x4c, 0x3d, 0xd8, 0x51, 0x3a, 0x3d, 0x94, 0xf7, 0x20, 0x3e, 
  0x16, 0x6e, 0x66, 0xbe, 0x32, 0x88, 0xba, 0xbd, 0x7a, 0xa0, 0x36, 0x3e, 
  0x3a, 0xa3, 0x71, 0xbe, 0xb8, 0xa7, 0x58, 0x3d, 0x23, 0x2d, 0x9b, 0x3e, 
  0x80, 0xbf, 0x49, 0x3c, 0x9c, 0xaf, 0x43, 0x3e, 0xa9, 0x57, 0x96, 0x3e, 
  0xd0, 0x4b, 0x34, 0xbe, 0xb4, 0xe3, 0x59, 0xbe, 0x0b, 0x5c, 0x0c, 0xbe, 
  0x36, 0x8a, 0x3f, 0xbe, 0x2e, 0xa5, 0x6f, 0x3e, 0xc5, 0x3a, 0x18, 0xbe, 
  0x36, 0xc2, 0x32, 0x3e, 0xbc, 0x67, 0x3e, 0x3e, 0xdc, 0x0c, 0x79, 0xbd, 
  0x64, 0xc7, 0x81, 0xbd, 0x36, 0x2d, 0x8f, 0xbd, 0x5a, 0x1f, 0xd8, 0xbd, 
  0x02, 0x01, 0x9c, 0xbe, 0x1a, 0xcb, 0x8d, 0xbd, 0x5f, 0x29, 0x89, 0xbe, 
  0xd2, 0x02, 0x50, 0x3e, 0x18, 0xcd, 0x5a, 0xbd, 0x30, 0x2b, 0x42, 0xbd, 
  0xd1, 0xb3, 0x3f, 0xbe, 0x78, 0x3b, 0x47, 0xbe, 0xcc, 0xbb, 0x22, 0x3e, 
  0x90, 0xd9, 0x24, 0x3d, 0x20, 0x0e, 0x95, 0xbe, 0x67, 0x14, 0x9b, 0xbe, 
  0xcc, 0x64, 0x44, 0x3e, 0x78, 0xe9, 0xcc, 0xbd, 0xe0, 0x9f, 0x96, 0xbc, 
  0xf7, 0x18, 0x92, 0x3e, 0xea, 0x24, 0x2b, 0x3e, 0xc4, 0xf3, 0xa6, 0x3d, 
  0x30, 0x97, 0xaf, 0x3c, 0x54, 0xb3, 0x93, 0xbe, 0xeb, 0x79, 0x8b, 0xbe, 
  0x26, 0x6d, 0x4b, 0xbe, 0x7a, 0xe6, 0x0a, 0x3e, 0x26, 0xb7, 0x2e, 0xbe, 
  0x3e, 0x6a, 0x06, 0xbe, 0x90, 0x0d, 0x12, 0x3d, 0x84, 0xe1, 0xfe, 0x3d, 
  0xa0, 0xf5, 0x3b, 0xbe, 0x64, 0xfb, 0x15, 0xbe, 0xe5, 0x05, 0x98, 0xbe, 
  0xa4, 0xe2, 0xa0, 0xbd, 0xa0, 0x0b, 0x39, 0x3c, 0x00, 0x96, 0xae, 0x3d, 
  0x82, 0xdb, 0x4b, 0x3e, 0x5b, 0xd5, 0x76, 0xbe, 0x63, 0x97, 0x3a, 0xbe, 
  0x27, 0x43, 0x16, 0xbe, 0x4e, 0x41, 0x1b, 0x3e, 0x95, 0x00, 0x85, 0x3e, 
  0xa1, 0x79, 0x08, 0xbe, 0x92, 0x61, 0x30, 0x3e, 0x96, 0x04, 0x1d, 0x3e, 
  0xea, 0x8c, 0x98, 0xbe, 0x3e, 0x3c, 0xc4, 0xbd, 0x20, 0x33, 0x77, 0xbc, 
  0xe0, 0x45, 0xd0, 0x3c, 0x00, 0x00, 0x2a, 0x3b, 0xb7, 0xb8, 0x6f, 0xbe, 
  0xf3, 0x20, 0x8a, 0x3e, 0xd0, 0x28, 0xa9, 0xbc, 0xe0, 0x5f, 0xa1, 0xbc, 
  0x20, 0xc0, 0x89, 0x3d, 0x30, 0x4d, 0xde, 0xbd, 0xae, 0x72, 0x6e, 0x3e, 
  0x84, 0xc5, 0xb0, 0x3d, 0xd9, 0xa0, 0x85, 0x3e, 0x68, 0xbb, 0xe5, 0x3d, 
  0xc3, 0x50, 0x86, 0x3e, 0x00, 0x00, 0x06, 0x00, 0x08, 0x00, 0x04, 0x00, 
  0x06, 0x00, 0x00, 0x00, 0x04, 0x00, 0x00, 0x00, 0x80, 0x02, 0x00, 0x00, 
  0x60, 0x30, 0x0f, 0x3e, 0x39, 0x8c, 0x88, 0xbe, 0x78, 0x98, 0x9f, 0x3e, 
  0x79, 0x1b, 0x57, 0xbe, 0x00, 0xd4, 0x32, 0x3e, 0x66, 0xfe, 0x7c, 0xbe, 
  0x94, 0x89, 0x8f, 0xbe, 0xd4, 0x62, 0x9b, 0x3d, 0x60, 0x9d, 0xff, 0x3d, 
  0x20, 0xbc, 0xa7, 0x3d, 0x68, 0x6c, 0x48, 0xbd, 0x1a, 0x64, 0xb7, 0x3e, 
  0x59, 0xa9, 0x51, 0xbe, 0x31, 0x8f, 0x26, 0xbe, 0xcc, 0x27, 0xc8, 0xbd, 
  0x60, 0x29, 0xe3, 0x3c, 0x8c, 0x23, 0x85, 0xbe, 0xd8, 0x4a, 0x76, 0xbd, 
  0x00, 0x40, 0x43, 0x38, 0xa0, 0x5a, 0xa5, 0x3e, 0x98, 0x2f, 0xc4, 0x3d, 
  0x00, 0x08, 0x1b, 0xbe, 0x20, 0x66, 0x62, 0xbc, 0xec, 0x6c, 0xa7, 0xbe, 
  0x48, 0xb8, 0x43, 0x3e, 0x48, 0x67, 0xe1, 0x3d, 0xcc, 0xd5, 0x0a, 0x3e, 
  0x35, 0x04, 0xcb, 0xbe, 0x87, 0x05, 0xbd, 0xbe, 0x10, 0x31, 0x54, 0x3e, 
  0x9d, 0x20, 0x2f, 0xbe, 0x86, 0xdb, 0xc0, 0x3e, 0xe4, 0x7a, 0xbd, 0xbe, 
  0x11, 0x51, 0x80, 0xbe, 0xa0, 0x86, 0xcc, 0x3d, 0x80, 0xb4, 0x8a, 0xbc, 
  0x00, 0x90, 0x80, 0x3e, 0x90, 0x9d, 0x32, 0xbd, 0x1c, 0x55, 0xb6, 0x3e, 
  0x54, 0xe0, 0xe0, 0xbd, 0xae, 0xd9, 0x94, 0xbe, 0x9c, 0x6c, 0x84, 0x3e, 
  0xe0, 0xa3, 0x87, 0x3c, 0xec, 0x3d, 0x99, 0x3e, 0x4a, 0x85, 0xa3, 0x3e, 
  0xc8, 0xd7, 0x08, 0x3e, 0x00, 0xe3, 0x28, 0x3e, 0xe0, 0x43, 0x73, 0x3d, 
  0x84, 0xdc, 0x6f, 0x3e, 0x38, 0x5f, 0x9b, 0x3e, 0xde, 0xc8, 0x8c, 0xbe, 
  0xe2, 0x5b, 0xaf, 0xbe, 0xf9, 0x7a, 0x70, 0xbe, 0xf8, 0x83, 0x68, 0xbd, 
  0x70, 0x9f, 0x3f, 0x3e, 0xd4, 0x11, 0x9e, 0x3e, 0x0a, 0x15, 0x81, 0xbe, 
  0x92, 0xbb, 0xb7, 0x3e, 0xc8, 0xa2, 0xc8, 0xbe, 0x78, 0x0d, 0x47, 0x3d, 
  0x70, 0xc2, 0xc5, 0x3c, 0xc0, 0x23, 0xae, 0x3d, 0x40, 0x97, 0xea, 0x3d, 
  0x78, 0x66, 0xa0, 0x3d, 0xf4, 0x24, 0xbe, 0xbd, 0x67, 0x7d, 0x4d, 0xbe, 
  0x6e, 0x82, 0xb1, 0x3e, 0xd8, 0x9d, 0xca, 0x3d, 0xd3, 0x05, 0x83, 0xbe, 
  0x56, 0xb0, 0x8c, 0x3e, 0x51, 0xab, 0x9c, 0xbe, 0xcc, 0xcf, 0x61, 0x3e, 
  0x30, 0xc5, 0xf1, 0xbc, 0x73, 0x95, 0x5c, 0xbe, 0x8e, 0x7d, 0x49, 0xbe, 
  0x50, 0x2c, 0x4c, 0xbd, 0x3d, 0x82, 0xb1, 0xbe, 0xc4, 0x78, 0x4d, 0x3e, 
  0x08, 0x6c, 0x3a, 0x3e, 0x58, 0x9c, 0xa5, 0x3d, 0x70, 0x30, 0x86, 0x3d, 
  0x0f, 0x27, 0x70, 0xbe, 0x40, 0x4b, 0x26, 0xbd, 0x00, 0x40, 0x60, 0x3c, 
  0x88, 0x27, 0xf0, 0xbd, 0xbe, 0x26, 0xb2, 0x3e, 0xc8, 0x1c, 0xd8, 0x3d, 
  0x08, 0x85, 0xf1, 0xbd, 0xb8, 0x9b, 0x44, 0xbe, 0x28, 0xb9, 0x61, 0x3e, 
  0x5c, 0x5f, 0x1f, 0x3e, 0x43, 0x31, 0xab, 0xbe, 0x94, 0xb4, 0x86, 0xbe, 
  0x74, 0xdf, 0x8d, 0x3e, 0xdc, 0x01, 0x9e, 0x3e, 0xf8, 0x57, 0x18, 0xbe, 
  0xac, 0x7d, 0x6c, 0x3e, 0x1a, 0xca, 0x86, 0xbe, 0x9c, 0xa4, 0x36, 0x3e, 
  0x88, 0x0d, 0x24, 0x3d, 0x38, 0x3c, 0xcd, 0xbe, 0x7d, 0xad, 0x5e, 0xbe, 
  0x73, 0xad, 0x49, 0xbe, 0x9c, 0x00, 0x22, 0x3e, 0xe4, 0xb7, 0x92, 0xbe, 
  0x71, 0x39, 0xb0, 0xbe, 0x0c, 0x85, 0x92, 0xbd, 0x93, 0x86, 0x6c, 0xbe, 
  0xcc, 0x0c, 0x61, 0x3e, 0x9c, 0x8d, 0x59, 0x3e, 0x68, 0x42, 0x37, 0x3d, 
  0xd8, 0xa7, 0x25, 0x3e, 0xe4, 0x55, 0x75, 0x3e, 0xae, 0x8b, 0xba, 0x3e, 
  0xd8, 0xb8, 0xb3, 0xbe, 0x48, 0x84, 0x49, 0x3d, 0x20, 0xf7, 0x4f, 0x3d, 
  0x4c, 0x91, 0x8d, 0xbe, 0x60, 0xb9, 0x1c, 0x3e, 0xf4, 0x5e, 0x09, 0x3e, 
  0xc6, 0x37, 0x60, 0xbe, 0xf6, 0x2e, 0x84, 0xbe, 0xb0, 0xcf, 0x88, 0x3e, 
  0x77, 0x95, 0x5f, 0xbe, 0xc0, 0x37, 0xbb, 0xbb, 0xea, 0xec, 0xb2, 0xbe, 
  0x6c, 0x34, 0xa9, 0xbe, 0x94, 0xd0, 0x8c, 0xbe, 0x8a, 0x8d, 0xcb, 0xbe, 
  0xd8, 0x74, 0x10, 0xbe, 0x30, 0x69, 0x11, 0xbd, 0x10, 0xf7, 0xfa, 0x3d, 
  0x80, 0xdc, 0xf0, 0xbd, 0x20, 0x0c, 0x5a, 0xbc, 0xa4, 0x3d, 0x05, 0x3e, 
  0x0a, 0x23, 0xa9, 0xbe, 0x7e, 0x5e, 0x8e, 0xbe, 0xe0, 0x2e, 0x3c, 0x3e, 
  0xe8, 0x3f, 0x3f, 0x3d, 0xd2, 0x91, 0x90, 0x3e, 0xe0, 0x4b, 0xce, 0xbc, 
  0x1e, 0x94, 0x01, 0xbe, 0xf3, 0x1f, 0x80, 0xbe, 0x96, 0x7c, 0xc9, 0x3e, 
  0x62, 0x56, 0x9d, 0x3e, 0xd8, 0xa0, 0x29, 0x3e, 0xd2, 0xc1, 0x92, 0xbe, 
  0x4e, 0xa6, 0x98, 0x3e, 0x83, 0x01, 0xce, 0xbe, 0x44, 0xfb, 0xc4, 0xbd, 
  0xe8, 0xfa, 0x74, 0x3d, 0x9e, 0xd4, 0xb4, 0x3e, 0xf0, 0x04, 0x7d, 0x3e, 
  0xa0, 0xd9, 0x2e, 0xbd, 0x38, 0x31, 0x51, 0x3d, 0x12, 0xdb, 0xad, 0x3e, 
  0x7a, 0x0f, 0x88, 0xbe, 0x18, 0x08, 0xc9, 0xbd, 0x00, 0xe9, 0xed, 0xbb, 
  0x7c, 0xc4, 0xad, 0x3e, 0xfc, 0xfb, 0xff, 0xff, 0x00, 0xfc, 0xff, 0xff, 
  0x0f, 0x00, 0x00, 0x00, 0x4d, 0x4c, 0x49, 0x52, 0x20, 0x43, 0x6f, 0x6e, 
  0x76, 0x65, 0x72, 0x74, 0x65, 0x64, 0x2e, 0x00, 0x01, 0x00, 0x00, 0x00, 
  0x14, 0x00, 0x00, 0x00, 0x00, 0x00, 0x0e, 0x00, 0x18, 0x00, 0x14, 0x00, 
  0x10, 0x00, 0x0c, 0x00, 0x08, 0x00, 0x04, 0x00, 0x0e, 0x00, 0x00, 0x00, 
  0x14, 0x00, 0x00, 0x00, 0x1c, 0x00, 0x00, 0x00, 0xd8, 0x00, 0x00, 0x00, 
  0xdc, 0x00, 0x00, 0x00, 0xe0, 0x00, 0x00, 0x00, 0x04, 0x00, 0x00, 0x00, 
  0x6d, 0x61, 0x69, 0x6e, 0x00, 0x00, 0x00, 0x00, 0x03, 0x00, 0x00, 0x00, 
  0x80, 0x00, 0x00, 0x00, 0x38, 0x00, 0x00, 0x00, 0x04, 0x00, 0x00, 0x00, 
  0x9a, 0xff, 0xff, 0xff, 0x10, 0x00, 0x00, 0x00, 0x00, 0x00, 0x00, 0x08, 
  0x0c, 0x00, 0x00, 0x00, 0x10, 0x00, 0x00, 0x00, 0x78, 0xfc, 0xff, 0xff, 
  0x01, 0x00, 0x00, 0x00, 0x06, 0x00, 0x00, 0x00, 0x03, 0x00, 0x00, 0x00, 
  0x05, 0x00, 0x00, 0x00, 0x03, 0x00, 0x00, 0x00, 0xff, 0xff, 0xff, 0xff, 
  0xca, 0xff, 0xff, 0xff, 0x10, 0x00, 0x00, 0x00, 0x00, 0x00, 0x00, 0x08, 
  0x10, 0x00, 0x00, 0x00, 0x14, 0x00, 0x00, 0x00, 0xba, 0xff, 0xff, 0xff, 
  0x00, 0x00, 0x00, 0x01, 0x01, 0x00, 0x00, 0x00, 0x05, 0x00, 0x00, 0x00, 
  0x03, 0x00, 0x00, 0x00, 0x04, 0x00, 0x00, 0x00, 0x02, 0x00, 0x00, 0x00, 
  0xff, 0xff, 0xff, 0xff, 0x00, 0x00, 0x0e, 0x00, 0x16, 0x00, 0x00, 0x00, 
  0x10, 0x00, 0x0c, 0x00, 0x0b, 0x00, 0x04, 0x00, 0x0e, 0x00, 0x00, 0x00, 
  0x18, 0x00, 0x00, 0x00, 0x00, 0x00, 0x00, 0x08, 0x18, 0x00, 0x00, 0x00, 
  0x1c, 0x00, 0x00, 0x00, 0x00, 0x00, 0x06, 0x00, 0x08, 0x00, 0x07, 0x00, 
  0x06, 0x00, 0x00, 0x00, 0x00, 0x00, 0x00, 0x01, 0x01, 0x00, 0x00, 0x00, 
  0x04, 0x00, 0x00, 0x00, 0x03, 0x00, 0x00, 0x00, 0x00, 0x00, 0x00, 0x00, 
  0x01, 0x00, 0x00, 0x00, 0xff, 0xff, 0xff, 0xff, 0x01, 0x00, 0x00, 0x00, 
  0x06, 0x00, 0x00, 0x00, 0x01, 0x00, 0x00, 0x00, 0x00, 0x00, 0x00, 0x00, 
  0x07, 0x00, 0x00, 0x00, 0xb0, 0x02, 0x00, 0x00, 0x48, 0x02, 0x00, 0x00, 
  0xe0, 0x01, 0x00, 0x00, 0x90, 0x01, 0x00, 0x00, 0xf8, 0x00, 0x00, 0x00, 
  0x60, 0x00, 0x00, 0x00, 0x04, 0x00, 0x00, 0x00, 0x82, 0xfd, 0xff, 0xff, 
  0x00, 0x00, 0x00, 0x01, 0x14, 0x00, 0x00, 0x00, 0x1c, 0x00, 0x00, 0x00, 
  0x1c, 0x00, 0x00, 0x00, 0x07, 0x00, 0x00, 0x00, 0x34, 0x00, 0x00, 0x00, 
  0x02, 0x00, 0x00, 0x00, 0xff, 0xff, 0xff, 0xff, 0x01, 0x00, 0x00, 0x00, 
  0x6c, 0xfd, 0xff, 0xff, 0x19, 0x00, 0x00, 0x00, 0x53, 0x74, 0x61, 0x74, 
  0x65, 0x66, 0x75, 0x6c, 0x50, 0x61, 0x72, 0x74, 0x69, 0x74, 0x69, 0x6f, 
  0x6e, 0x65, 0x64, 0x43, 0x61, 0x6c, 0x6c, 0x3a, 0x30, 0x00, 0x00, 0x00, 
  0x02, 0x00, 0x00, 0x00, 0x01, 0x00, 0x00, 0x00, 0x01, 0x00, 0x00, 0x00, 
  0xda, 0xfd, 0xff, 0xff, 0x00, 0x00, 0x00, 0x01, 0x14, 0x00, 0x00, 0x00, 
  0x1c, 0x00, 0x00, 0x00, 0x1c, 0x00, 0x00, 0x00, 0x06, 0x00, 0x00, 0x00, 
  0x70, 0x00, 0x00, 0x00, 0x02, 0x00, 0x00, 0x00, 0xff, 0xff, 0xff, 0xff, 
  0x20, 0x00, 0x00, 0x00, 0xc4, 0xfd, 0xff, 0xff, 0x55, 0x00, 0x00, 0x00, 
  0x65, 0x73, 0x70, 0x33, 0x32, 0x5f, 0x63, 0x72, 0x69, 0x74, 0x69, 0x63, 
  0x2f, 0x64, 0x65, 0x6e, 0x73, 0x65, 0x5f, 0x36, 0x37, 0x2f, 0x4d, 0x61, 
  0x74, 0x4d, 0x75, 0x6c, 0x3b, 0x65, 0x73, 0x70, 0x33, 0x32, 0x5f, 0x63, 
  0x72, 0x69, 0x74, 0x69, 0x63, 0x2f, 0x64, 0x65, 0x6e, 0x73, 0x65, 0x5f, 
  0x36, 0x37, 0x2f, 0x52, 0x65, 0x6c, 0x75, 0x3b, 0x65, 0x73, 0x70, 0x33, 
  0x32, 0x5f, 0x63, 0x72, 0x69, 0x74, 0x69, 0x63, 0x2f, 0x64, 0x65, 0x6e, 
  0x73, 0x65, 0x5f, 0x36, 0x37, 0x2f, 0x42, 0x69, 0x61, 0x73, 0x41, 0x64, 
  0x64, 0x00, 0x00, 0x00, 0x02, 0x00, 0x00, 0x00, 0x01, 0x00, 0x00, 0x00, 
  0x20, 0x00, 0x00, 0x00, 0x6e, 0xfe, 0xff, 0xff, 0x00, 0x00, 0x00, 0x01, 
  0x14, 0x00, 0x00, 0x00, 0x1c, 0x00, 0x00, 0x00, 0x1c, 0x00, 0x00, 0x00, 
  0x05, 0x00, 0x00, 0x00, 0x70, 0x00, 0x00, 0x00, 0x02, 0x00, 0x00, 0x00, 
  0xff, 0xff, 0xff, 0xff, 0x20, 0x00, 0x00, 0x00, 0x58, 0xfe, 0xff, 0xff, 
  0x55, 0x00, 0x00, 0x00, 0x65, 0x73, 0x70, 0x33, 0x32, 0x5f, 0x63, 0x72, 
  0x69, 0x74, 0x69, 0x63, 0x2f, 0x64, 0x65, 0x6e, 0x73, 0x65, 0x5f, 0x36, 
  0x36, 0x2f, 0x4d, 0x61, 0x74, 0x4d, 0x75, 0x6c, 0x3b, 0x65, 0x73, 0x70, 
  0x33, 0x32, 0x5f, 0x63, 0x72, 0x69, 0x74, 0x69, 0x63, 0x2f, 0x64, 0x65, 
  0x6e, 0x73, 0x65, 0x5f, 0x36, 0x36, 0x2f, 0x52, 0x65, 0x6c, 0x75, 0x3b, 
  0x65, 0x73, 0x70, 0x33, 0x32, 0x5f, 0x63, 0x72, 0x69, 0x74, 0x69, 0x63, 
  0x2f, 0x64, 0x65, 0x6e, 0x73, 0x65, 0x5f, 0x36, 0x36, 0x2f, 0x42, 0x69, 
  0x61, 0x73, 0x41, 0x64, 0x64, 0x00, 0x00, 0x00, 0x02, 0x00, 0x00, 0x00, 
  0x01, 0x00, 0x00, 0x00, 0x20, 0x00, 0x00, 0x00, 0x66, 0xff, 0xff, 0xff, 
  0x00, 0x00, 0x00, 0x01, 0x10, 0x00, 0x00, 0x00, 0x10, 0x00, 0x00, 0x00, 
  0x04, 0x00, 0x00, 0x00, 0x2c, 0x00, 0x00, 0x00, 0xdc, 0xfe, 0xff, 0xff, 
  0x1c, 0x00, 0x00, 0x00, 0x65, 0x73, 0x70, 0x33, 0x32, 0x5f, 0x63, 0x72, 
  0x69, 0x74, 0x69, 0x63, 0x2f, 0x64, 0x65, 0x6e, 0x73, 0x65, 0x5f, 0x36, 
  0x38, 0x2f, 0x4d, 0x61, 0x74, 0x4d, 0x75, 0x6c, 0x00, 0x00, 0x00, 0x00, 
  0x02, 0x00, 0x00, 0x00, 0x01, 0x00, 0x00, 0x00, 0x20, 0x00, 0x00, 0x00, 
  0xb2, 0xff, 0xff, 0xff, 0x00, 0x00, 0x00, 0x01, 0x10, 0x00, 0x00, 0x00, 
  0x10, 0x00, 0x00, 0x00, 0x03, 0x00, 0x00, 0x00, 0x2c, 0x00, 0x00, 0x00, 
  0x28, 0xff, 0xff, 0xff, 0x1c, 0x00, 0x00, 0x00, 0x65, 0x73, 0x70, 0x33, 
  0x32, 0x5f, 0x63, 0x72, 0x69, 0x74, 0x69, 0x63, 0x2f, 0x64, 0x65, 0x6e, 
  0x73, 0x65, 0x5f, 0x36, 0x37, 0x2f, 0x4d, 0x61, 0x74, 0x4d, 0x75, 0x6c, 
  0x00, 0x00, 0x00, 0x00, 0x02, 0x00, 0x00, 0x00, 0x20, 0x00, 0x00, 0x00, 
  0x20, 0x00, 0x00, 0x00, 0x00, 0x00, 0x16, 0x00, 0x18, 0x00, 0x14, 0x00, 
  0x00, 0x00, 0x10, 0x00, 0x0c, 0x00, 0x08, 0x00, 0x00, 0x00, 0x00, 0x00, 
  0x00, 0x00, 0x07, 0x00, 0x16, 0x00, 0x00, 0x00, 0x00, 0x00, 0x00, 0x01, 
  0x10, 0x00, 0x00, 0x00, 0x10, 0x00, 0x00, 0x00, 0x02, 0x00, 0x00, 0x00, 
  0x2c, 0x00, 0x00, 0x00, 0x8c, 0xff, 0xff, 0xff, 0x1d, 0x00, 0x00, 0x00, 
  0x65, 0x73, 0x70, 0x33, 0x32, 0x5f, 0x63, 0x72, 0x69, 0x74, 0x69, 0x63, 
  0x2f, 0x64, 0x65, 0x6e, 0x73, 0x65, 0x5f, 0x36, 0x36, 0x2f, 0x4d, 0x61, 
  0x74, 0x4d, 0x75, 0x6c, 0x31, 0x00, 0x00, 0x00, 0x02, 0x00, 0x00, 0x00, 
  0x20, 0x00, 0x00, 0x00, 0x05, 0x00, 0x00, 0x00, 0x00, 0x00, 0x16, 0x00, 
  0x1c, 0x00, 0x18, 0x00, 0x00, 0x00, 0x14, 0x00, 0x10, 0x00, 0x0c, 0x00, 
  0x00, 0x00, 0x00, 0x00, 0x08, 0x00, 0x07, 0x00, 0x16, 0x00, 0x00, 0x00, 
  0x00, 0x00, 0x00, 0x01, 0x14, 0x00, 0x00, 0x00, 0x20, 0x00, 0x00, 0x00, 
  0x20, 0x00, 0x00, 0x00, 0x01, 0x00, 0x00, 0x00, 0x40, 0x00, 0x00, 0x00, 
  0x02, 0x00, 0x00, 0x00, 0xff, 0xff, 0xff, 0xff, 0x05, 0x00, 0x00, 0x00, 
  0x04, 0x00, 0x04, 0x00, 0x04, 0x00, 0x00, 0x00, 0x20, 0x00, 0x00, 0x00, 
  0x73, 0x65, 0x72, 0x76, 0x69, 0x6e, 0x67, 0x5f, 0x64, 0x65, 0x66, 0x61, 
  0x75, 0x6c, 0x74, 0x5f, 0x64, 0x65, 0x6e, 0x73, 0x65, 0x5f, 0x36, 0x36, 
  0x5f, 0x69, 0x6e, 0x70, 0x75, 0x74, 0x3a, 0x30, 0x00, 0x00, 0x00, 0x00, 
  0x02, 0x00, 0x00, 0x00, 0x01, 0x00, 0x00, 0x00, 0x05, 0x00, 0x00, 0x00, 
  0x01, 0x00, 0x00, 0x00, 0x10, 0x00, 0x00, 0x00, 0x0c, 0x00, 0x0c, 0x00, 
  0x0b, 0x00, 0x00, 0x00, 0x00, 0x00, 0x04, 0x00, 0x0c, 0x00, 0x00, 0x00, 
  0x09, 0x00, 0x00, 0x00, 0x00, 0x00, 0x00, 0x09, 
};

const unsigned int critic_model_len = 6488;
