#include "critic_task0.h"

const uint8_t critic_model[] = {

  0x1c, 0x00, 0x00, 0x00, 0x54, 0x46, 0x4c, 0x33, 0x14, 0x00, 0x20, 0x00, 
  0x1c, 0x00, 0x18, 0x00, 0x14, 0x00, 0x10, 0x00, 0x0c, 0x00, 0x00, 0x00, 
  0x08, 0x00, 0x04, 0x00, 0x14, 0x00, 0x00, 0x00, 0x1c, 0x00, 0x00, 0x00, 
  0x98, 0x00, 0x00, 0x00, 0xf0, 0x00, 0x00, 0x00, 0xd4, 0x14, 0x00, 0x00, 
  0xe4, 0x14, 0x00, 0x00, 0x04, 0x19, 0x00, 0x00, 0x03, 0x00, 0x00, 0x00, 
  0x01, 0x00, 0x00, 0x00, 0x10, 0x00, 0x00, 0x00, 0x00, 0x00, 0x0a, 0x00, 
  0x10, 0x00, 0x0c, 0x00, 0x08, 0x00, 0x04, 0x00, 0x0a, 0x00, 0x00, 0x00, 
  0x0c, 0x00, 0x00, 0x00, 0x1c, 0x00, 0x00, 0x00, 0x3c, 0x00, 0x00, 0x00, 
  0x0f, 0x00, 0x00, 0x00, 0x73, 0x65, 0x72, 0x76, 0x69, 0x6e, 0x67, 0x5f, 
  0x64, 0x65, 0x66, 0x61, 0x75, 0x6c, 0x74, 0x00, 0x01, 0x00, 0x00, 0x00, 
  0x04, 0x00, 0x00, 0x00, 0x90, 0xff, 0xff, 0xff, 0x06, 0x00, 0x00, 0x00, 
  0x04, 0x00, 0x00, 0x00, 0x08, 0x00, 0x00, 0x00, 0x64, 0x65, 0x6e, 0x73, 
  0x65, 0x5f, 0x36, 0x38, 0x00, 0x00, 0x00, 0x00, 0x01, 0x00, 0x00, 0x00, 
  0x04, 0x00, 0x00, 0x00, 0x3a, 0xee, 0xff, 0xff, 0x04, 0x00, 0x00, 0x00, 
  0x0e, 0x00, 0x00, 0x00, 0x64, 0x65, 0x6e, 0x73, 0x65, 0x5f, 0x36, 0x36, 
  0x5f, 0x69, 0x6e, 0x70, 0x75, 0x74, 0x00, 0x00, 0x02, 0x00, 0x00, 0x00, 
  0x34, 0x00, 0x00, 0x00, 0x04, 0x00, 0x00, 0x00, 0xdc, 0xff, 0xff, 0xff, 
  0x09, 0x00, 0x00, 0x00, 0x04, 0x00, 0x00, 0x00, 0x13, 0x00, 0x00, 0x00, 
  0x43, 0x4f, 0x4e, 0x56, 0x45, 0x52, 0x53, 0x49, 0x4f, 0x4e, 0x5f, 0x4d, 
  0x45, 0x54, 0x41, 0x44, 0x41, 0x54, 0x41, 0x00, 0x08, 0x00, 0x0c, 0x00, 
  0x08, 0x00, 0x04, 0x00, 0x08, 0x00, 0x00, 0x00, 0x08, 0x00, 0x00, 0x00, 
  0x04, 0x00, 0x00, 0x00, 0x13, 0x00, 0x00, 0x00, 0x6d, 0x69, 0x6e, 0x5f, 
  0x72, 0x75, 0x6e, 0x74, 0x69, 0x6d, 0x65, 0x5f, 0x76, 0x65, 0x72, 0x73, 
  0x69, 0x6f, 0x6e, 0x00, 0x0a, 0x00, 0x00, 0x00, 0xe0, 0x13, 0x00, 0x00, 
  0xd8, 0x13, 0x00, 0x00, 0x48, 0x11, 0x00, 0x00, 0x30, 0x01, 0x00, 0x00, 
  0xa0, 0x00, 0x00, 0x00, 0x98, 0x00, 0x00, 0x00, 0x90, 0x00, 0x00, 0x00, 
  0x88, 0x00, 0x00, 0x00, 0x68, 0x00, 0x00, 0x00, 0x04, 0x00, 0x00, 0x00, 
  0xde, 0xee, 0xff, 0xff, 0x04, 0x00, 0x00, 0x00, 0x54, 0x00, 0x00, 0x00, 
  0x0c, 0x00, 0x00, 0x00, 0x08, 0x00, 0x0e, 0x00, 0x08, 0x00, 0x04, 0x00, 
  0x08, 0x00, 0x00, 0x00, 0x10, 0x00, 0x00, 0x00, 0x24, 0x00, 0x00, 0x00, 
  0x00, 0x00, 0x06, 0x00, 0x08, 0x00, 0x04, 0x00, 0x06, 0x00, 0x00, 0x00, 
  0x04, 0x00, 0x00, 0x00, 0x00, 0x00, 0x00, 0x00, 0x00, 0x00, 0x0a, 0x00, 
  0x10, 0x00, 0x0c, 0x00, 0x08, 0x00, 0x04, 0x00, 0x0a, 0x00, 0x00, 0x00, 
  0x02, 0x00, 0x00, 0x00, 0x02, 0x00, 0x00, 0x00, 0x04, 0x00, 0x00, 0x00, 
  0x06, 0x00, 0x00, 0x00, 0x32, 0x2e, 0x31, 0x33, 0x2e, 0x30, 0x00, 0x00, 
  0x3e, 0xef, 0xff, 0xff, 0x04, 0x00, 0x00, 0x00, 0x10, 0x00, 0x00, 0x00, 
  0x31, 0x2e, 0x35, 0x2e, 0x30, 0x00, 0x00, 0x00, 0x00, 0x00, 0x00, 0x00, 
  0x00, 0x00, 0x00, 0x00, 0xc4, 0xe8, 0xff, 0xff, 0xc8, 0xe8, 0xff, 0xff, 
  0xcc, 0xe8, 0xff, 0xff, 0x66, 0xef, 0xff, 0xff, 0x04, 0x00, 0x00, 0x00, 
  0x80, 0x00, 0x00, 0x00, 0x62, 0x83, 0xbe, 0x3e, 0x5c, 0xfe, 0x66, 0x3e, 
  0xb8, 0xa8, 0x86, 0x3e, 0x88, 0x1f, 0x72, 0xbd, 0x28, 0x75, 0xd7, 0xbd, 
  0xb4, 0x3f, 0xbf, 0x3e, 0xc5, 0xc3, 0x74, 0xbe, 0xf8, 0x0b, 0xad, 0xbd, 
  0xe2, 0x15, 0xc5, 0xbe, 0xb8, 0xa1, 0xe1, 0x3d, 0x11, 0x79, 0xb8, 0xbe, 
  0x64, 0x9e, 0x98, 0xbe, 0x7c, 0xcf, 0xb0, 0xbe, 0xa4, 0x59, 0x81, 0x3e, 
  0x7c, 0x43, 0xca, 0x3e, 0xe8, 0x93, 0x46, 0xbd, 0x9c, 0xaf, 0x8f, 0x3e, 
  0xf6, 0x22, 0xa7, 0xbe, 0xf0, 0xe4, 0x37, 0x3e, 0x20, 0x7e, 0x23, 0x3e, 
  0xf0, 0x85, 0x2b, 0x3e, 0x0c, 0x09, 0xc2, 0x3e, 0xe8, 0x1f, 0xc9, 0xbe, 
  0x3e, 0xe5, 0x9f, 0x3e, 0x0a, 0x91, 0xa8, 0xbe, 0x88, 0x17, 0x9d, 0xbe, 
  0x80, 0xc8, 0xb3, 0x3c, 0x10, 0x8a, 0x1e, 0x3e, 0xb8, 0xef, 0xb5, 0x3e, 
  0x02, 0x0c, 0x8c, 0xbe, 0x6c, 0x8c, 0x53, 0xbe, 0xb0, 0x1e, 0xac, 0x3d, 
  0xf2, 0xef, 0xff, 0xff, 0x04, 0x00, 0x00, 0x00, 0x00, 0x10, 0x00, 0x00, 
  0xe8, 0xe1, 0x6b, 0x3d, 0xb3, 0x85, 0x96, 0x3e, 0x5a, 0x1e, 0x7c, 0xbe, 
  0x50, 0x24, 0x34, 0x3d, 0xfc, 0x88, 0x31, 0xbe, 0x3d, 0xfd, 0x84, 0xbe, 
  0x1c, 0x21, 0xfe, 0x3d, 0xa0, 0xcc, 0x60, 0x3d, 0x1e, 0xa9, 0x91, 0xbd, 
  0xe0, 0x6e, 0x3f, 0x3d, 0x16, 0xa9, 0x9b, 0xbe, 0xa3, 0xb7, 0x61, 0xbe, 
  0x23, 0x31, 0x34, 0xbe, 0x70, 0x3c, 0xba, 0x3c, 0xa8, 0x44, 0xee, 0x3d, 
  0xfc, 0x10, 0x5c, 0xbe, 0x07, 0xd3, 0x28, 0xbe, 0xd7, 0xc0, 0x2d, 0xbe, 
  0xb1, 0xe5, 0x85, 0x3e, 0x54, 0x26, 0x7f, 0xbd, 0x0b, 0x35, 0x88, 0x3e, 
  0x30, 0x9b, 0xf1, 0xbd, 0xe0, 0x2d, 0x67, 0xbc, 0xab, 0x57, 0x18, 0xbe, 
  0x80, 0x8c, 0x6f, 0x3d, 0x1c, 0xce, 0xdc, 0x3d, 0x6d, 0x46, 0x9c, 0x3e, 
  0x36, 0x26, 0xc9, 0xbd, 0x84, 0xa1, 0xe7, 0x3d, 0x67, 0x11, 0x39, 0xbe, 
  0x6e, 0xa7, 0x86, 0xbe, 0x38, 0x8f, 0x25, 0x3e, 0xec, 0x43, 0xac, 0x3d, 
  0xf3, 0x81, 0x99, 0x3e, 0x90, 0xb3, 0x94, 0xbd, 0x7c, 0x40, 0x82, 0x3d, 
  0x09, 0x6d, 0x81, 0x3e, 0x82, 0xd1, 0x6b, 0x3e, 0x5b, 0xa9, 0x82, 0x3e, 
  0xf8, 0x9f, 0x09, 0xbe, 0x50, 0x2f, 0x2a, 0x3d, 0x84, 0x95, 0xe5, 0x3d, 
  0x82, 0x34, 0x49, 0x3e, 0xfc, 0x2c, 0x06, 0xbe, 0xe0, 0xb1, 0xb8, 0xbc, 
  0x87, 0xdb, 0x9a, 0x3e, 0xf2, 0x29, 0xd7, 0xbd, 0x5c, 0x6e, 0x23, 0xbe, 
  0x41, 0x4c, 0x4b, 0xbe, 0x17, 0xe9, 0x99, 0x3e, 0x66, 0xcf, 0xa1, 0xbd, 
  0x58, 0xa8, 0xd1, 0x3d, 0x70, 0x3d, 0xab, 0x3c, 0xaf, 0x75, 0x7d, 0xbe, 
  0xe8, 0x18, 0xfc, 0x3d, 0x80, 0x67, 0x68, 0x3b, 0xf8, 0x35, 0x88, 0xbe, 
  0xbf, 0xef, 0x96, 0x3e, 0x10, 0xe2, 0xb5, 0x3c, 0x1c, 0x4c, 0x98, 0xbd, 
  0x00, 0x2b, 0xd4, 0xba, 0xbc, 0x3d, 0x87, 0x3d, 0x48, 0x0d, 0x9a, 0x3d, 
  0x79, 0xbb, 0x91, 0xbe, 0xc2, 0xa5, 0x3c, 0x3e, 0x68, 0xb0, 0x7a, 0x3d, 
  0x2a, 0x56, 0x65, 0x3e, 0x38, 0x28, 0x0b, 0xbd, 0x6e, 0x2c, 0x1f, 0xbe, 
  0x1c, 0x8c, 0x0f, 0xbe, 0xba, 0x42, 0x79, 0x3e, 0xc0, 0x14, 0xb0, 0x3c, 
  0xa0, 0x0d, 0x33, 0x3c, 0xa6, 0xfe, 0xd1, 0xbd, 0xba, 0xee, 0x6c, 0x3e, 
  0xe6, 0xca, 0x73, 0xbe, 0x60, 0x93, 0x68, 0x3d, 0xce, 0xbe, 0x19, 0xbe, 
  0x60, 0xf2, 0x2a, 0xbe, 0x36, 0x9f, 0x7b, 0x3e, 0xbf, 0x31, 0x8c, 0x3e, 
  0xd0, 0xdc, 0x3b, 0xbd, 0xf0, 0xfa, 0x8c, 0x3d, 0x7a, 0x3b, 0x61, 0xbe, 
  0xb5, 0x60, 0x83, 0x3e, 0x30, 0x2a, 0xa9, 0xbc, 0xc2, 0x8d, 0xd3, 0xbd, 
  0x3e, 0xaf, 0x92, 0xbe, 0xea, 0xe7, 0x5b, 0xbe, 0xa6, 0xdd, 0x39, 0xbe, 
  0x5f, 0x5e, 0x92, 0xbe, 0xc1, 0x67, 0x23, 0xbe, 0x98, 0x63, 0x6b, 0xbd, 
  0x86, 0x7f, 0x3e, 0x3e, 0x74, 0xbc, 0xdf, 0x3d, 0xb3, 0xb1, 0x8f, 0x3e, 
  0xd7, 0x30, 0x9a, 0x3e, 0x00, 0x95, 0x86, 0xbc, 0x2c, 0xe2, 0x90, 0xbd, 
  0x80, 0x3b, 0xcf, 0x3c, 0xc0, 0x78, 0xbd, 0x3b, 0xdc, 0xef, 0x9a, 0x3d, 
  0x80, 0xcd, 0xd6, 0x3c, 0x68, 0xd3, 0x8d, 0xbd, 0xf4, 0xbc, 0x9e, 0x3d, 
  0xf8, 0x98, 0x43, 0xbe, 0x2c, 0xe8, 0x89, 0xbe, 0x6d, 0xf8, 0x30, 0xbe, 
  0x70, 0xce, 0x8f, 0x3c, 0x1f, 0xeb, 0x2a, 0xbe, 0xe6, 0xc6, 0x43, 0x3e, 
  0xb4, 0x48, 0x74, 0xbd, 0x27, 0xf9, 0x89, 0x3e, 0xaa, 0x48, 0x57, 0x3e, 
  0x18, 0xfc, 0x0c, 0x3d, 0x25, 0x69, 0x8f, 0xbe, 0xc4, 0x2d, 0x69, 0xbd, 
  0xc0, 0xd0, 0x0a, 0x3d, 0x71, 0x62, 0x96, 0xbe, 0x2a, 0x65, 0x3d, 0x3e, 
  0x0a, 0x83, 0x91, 0xbd, 0x42, 0x63, 0x7d, 0xbe, 0xd4, 0x65, 0x91, 0x3d, 
  0x5b, 0x38, 0x3c, 0xbe, 0x46, 0xbb, 0x65, 0xbe, 0xee, 0x28, 0x9f, 0xbd, 
  0x17, 0x96, 0x9a, 0x3e, 0xe0, 0x02, 0x10, 0x3d, 0x31, 0x8e, 0x9b, 0x3e, 
  0xbc, 0xdf, 0x0b, 0xbe, 0x94, 0xfc, 0x32, 0xbe, 0x78, 0x5a, 0x34, 0x3e, 
  0x20, 0x20, 0x0d, 0x3c, 0x80, 0xb7, 0x52, 0x3d, 0x77, 0xfa, 0x86, 0x3e, 
  0xee, 0x08, 0xff, 0xbd, 0xf4, 0xa7, 0x8f, 0xbe, 0x3c, 0x38, 0x00, 0x3e, 
  0x60, 0xfa, 0x23, 0xbd, 0x70, 0x25, 0x1e, 0xbe, 0x40, 0xc4, 0xcd, 0x3c, 
  0xa6, 0xa6, 0x5b, 0x3e, 0xc1, 0xb3, 0x82, 0xbe, 0xa1, 0xcf, 0x8a, 0x3e, 
  0x20, 0x60, 0x42, 0x3e, 0xa2, 0x2f, 0x4d, 0x3e, 0x98, 0x3d, 0xa6, 0x3d, 
  0x92, 0x6f, 0x97, 0xbe, 0xc6, 0x26, 0x69, 0xbe, 0x49, 0xab, 0x98, 0xbe, 
  0x0a, 0xb9, 0xbb, 0xbd, 0xda, 0x27, 0x8c, 0xbe, 0xc0, 0x6f, 0xe4, 0xbc, 
  0x2e, 0xd7, 0x2e, 0x3e, 0xe4, 0x1c, 0xe6, 0xbd, 0x88, 0xfd, 0x6f, 0xbe, 
  0x91, 0xaa, 0x18, 0xbe, 0x78, 0x6c, 0x76, 0xbd, 0x0d, 0xf4, 0x2f, 0xbe, 
  0x00, 0x77, 0x5a, 0xbb, 0x1b, 0x18, 0x02, 0xbe, 0x72, 0x7a, 0x66, 0x3e, 
  0xe0, 0xc7, 0x2d, 0xbd, 0xa0, 0xf2, 0x6a, 0x3c, 0x78, 0xbc, 0x42, 0x3d, 
  0xe8, 0xef, 0x12, 0x3d, 0x32, 0xed, 0x88, 0xbd, 0x8d, 0xa6, 0x84, 0xbe, 
  0x3c, 0xf5, 0xe0, 0x3d, 0xed, 0x78, 0x12, 0xbe, 0x29, 0xe2, 0x97, 0xbe, 
  0xe0, 0xe7, 0xa4, 0xbc, 0x3e, 0x8d, 0xec, 0xbd, 0x04, 0x7d, 0x7f, 0xbe, 
  0x88, 0x07, 0x2f, 0x3d, 0x78, 0xc4, 0xb6, 0xbd, 0xb4, 0xf2, 0xc5, 0xbd, 
  0x1e, 0x6a, 0x78, 0xbe, 0x50, 0x07, 0x8a, 0x3d, 0x2c, 0x51, 0x1f, 0x3e, 
  0xf8, 0x2f, 0x15, 0xbe, 0xa6, 0x34, 0x53, 0x3e, 0x4a, 0x26, 0x88, 0xbe, 
  0xa0, 0x6b, 0x07, 0x3c, 0xfa, 0xf6, 0x46, 0x3e, 0x33, 0xd9, 0x59, 0xbe, 
  0x0f, 0x63, 0x9c, 0x3e, 0x0a, 0x8b, 0x75, 0x3e, 0x96, 0xc0, 0x9b, 0xbe, 
  0x5e, 0x28, 0x51, 0x3e, 0x08, 0x5f, 0x16, 0x3e, 0x6a, 0xf0, 0xca, 0xbd, 
  0xd4, 0xdd, 0x30, 0x3e, 0x2a, 0x03, 0x88, 0xbe, 0xae, 0x2a, 0x4c, 0x3e, 
  0xfc, 0x70, 0x74, 0xbe, 0x70, 0x52, 0x6e, 0x3d, 0x80, 0xb7, 0x02, 0xbb, 
  0x6c, 0xbc, 0x84, 0xbe, 0x9a, 0xb6, 0x63, 0x3e, 0x06, 0x7d, 0x12, 0x3e, 
  0x00, 0xac, 0xfc, 0xbc, 0x80, 0x49, 0xe4, 0xbd, 0xa0, 0x58, 0x06, 0xbc, 
  0xd2, 0x03, 0x5b, 0x3e, 0x8f, 0x96, 0x99, 0x3e, 0x40, 0x07, 0x1d, 0xbc, 
  0x10, 0xe3, 0xdd, 0x3c, 0x0e, 0x26, 0x7d, 0xbe, 0x1c, 0x0e, 0x3f, 0xbe, 
  0xe0, 0x9d, 0xab, 0xbc, 0x24, 0x8e, 0xac, 0x3d, 0xb0, 0xd1, 0x17, 0xbd, 
  0xf8, 0x34, 0x60, 0x3d, 0x18, 0x58, 0x3b, 0xbe, 0xc3, 0x89, 0x0a, 0xbe, 
  0x22, 0x4c, 0x49, 0x3e, 0xfe, 0x3c, 0x22, 0x3e, 0x76, 0x50, 0x80, 0xbe, 
  0x9f, 0x0f, 0x6b, 0xbe, 0x1a, 0xef, 0x4d, 0x3e, 0xf8, 0xb8, 0x6f, 0x3d, 
  0xf6, 0x71, 0x56, 0x3e, 0x4c, 0x17, 0x88, 0xbe, 0x4c, 0x0c, 0xd1, 0xbd, 
  0xe4, 0x37, 0x06, 0x3e, 0x58, 0x40, 0x39, 0x3e, 0x9c, 0x22, 0x8f, 0xbd, 
  0xb1, 0x37, 0x35, 0xbe, 0x8a, 0x8e, 0x7d, 0x3e, 0xe0, 0xab, 0x0f, 0x3e, 
  0x06, 0xd2, 0x8c, 0xbd, 0x10, 0x9c, 0x61, 0x3d, 0x22, 0x08, 0x44, 0x3e, 
  0x4e, 0xc2, 0x6f, 0xbe, 0x5e, 0xc5, 0x32, 0x3e, 0xb8, 0xeb, 0x54, 0x3d, 
  0x39, 0x1c, 0x91, 0x3e, 0xfb, 0xbe, 0x86, 0x3e, 0x56, 0x2e, 0x52, 0xbe, 
  0x6a, 0xd0, 0x76, 0x3e, 0xba, 0x37, 0x99, 0xbe, 0x5c, 0xb2, 0xa6, 0x3d, 
  0x50, 0xa7, 0xf1, 0x3d, 0x42, 0xaa, 0x78, 0x3e, 0xba, 0xc2, 0x4d, 0xbe, 
  0x1c, 0x7e, 0xb8, 0xbd, 0xdc, 0x5d, 0x7d, 0xbe, 0x52, 0xd3, 0x02, 0x3e, 
  0xa2, 0x54, 0x82, 0xbe, 0x6f, 0xc9, 0x98, 0x3e, 0x56, 0x87, 0x96, 0xbe, 
  0x30, 0xb9, 0xcf, 0x3c, 0x38, 0x3f, 0x79, 0x3d, 0x8a, 0xa0, 0x0e, 0x3e, 
  0xed, 0x48, 0x38, 0xbe, 0xb0, 0xec, 0xb1, 0xbd, 0x6d, 0x1f, 0x81, 0x3e, 
  0x9a, 0x35, 0x68, 0x3e, 0xac, 0xdd, 0x1d, 0xbe, 0xe8, 0x2a, 0x87, 0x3d, 
  0xea, 0x07, 0x52, 0x3e, 0x62, 0xc6, 0x47, 0x3e, 0xec, 0xec, 0x71, 0xbe, 
  0x3c, 0x1d, 0x9c, 0xbe, 0x52, 0x74, 0x8d, 0xbe, 0x76, 0xab, 0x29, 0x3e, 
  0xf8, 0x3f, 0x5f, 0x3d, 0x5f, 0xe4, 0x4b, 0xbe, 0x10, 0x77, 0xf0, 0xbc, 
  0x54, 0xb9, 0x5c, 0xbe, 0xb5, 0xfd, 0x98, 0xbe, 0xaf, 0x48, 0x33, 0xbe, 
  0x2a, 0xb8, 0x71, 0x3e, 0xd0, 0xf9, 0x8b, 0xbd, 0x60, 0xd4, 0x03, 0x3d, 
  0xcc, 0x38, 0xa1, 0x3d, 0xf8, 0xbb, 0x3f, 0x3e, 0xa1, 0xf8, 0x87, 0x3e, 
  0x44, 0xb2, 0xf1, 0xbd, 0x9a, 0x92, 0x4d, 0xbe, 0x50, 0x96, 0x5c, 0x3d, 
  0x80, 0x3e, 0x23, 0x3e, 0x8e, 0xb9, 0x37, 0xbe, 0xdc, 0x26, 0x64, 0xbe, 
  0xf6, 0x89, 0x61, 0xbe, 0xc0, 0xac, 0x84, 0x3b, 0x3a, 0x35, 0x09, 0xbe, 
  0x9f, 0x1e, 0x90, 0x3e, 0xb7, 0x13, 0x9a, 0x3e, 0xfc, 0x3c, 0x8f, 0x3d, 
  0x00, 0x93, 0xe6, 0x3d, 0xe7, 0x8d, 0x89, 0x3e, 0xc1, 0x7d, 0x8c, 0x3e, 
  0xb0, 0xb3, 0xfa, 0xbc, 0xc2, 0xf3, 0x4d, 0x3e, 0x1c, 0xbb, 0xa8, 0x3d, 
  0x12, 0xb0, 0x23, 0x3e, 0xa2, 0x60, 0x5b, 0x3e, 0xf0, 0x08, 0x18, 0x3e, 
  0xf4, 0xa7, 0x0f, 0x3e, 0xf1, 0xe9, 0x38, 0xbe, 0x80, 0x3e, 0x2d, 0x3c, 
  0x8d, 0x45, 0x8f, 0x3e, 0xa6, 0x28, 0x83, 0xbe, 0x02, 0x4a, 0x69, 0x3e, 
  0x6a, 0x95, 0x8e, 0xbd, 0x8d, 0xd5, 0x87, 0xbe, 0xe0, 0x46, 0xc8, 0xbc, 
  0x44, 0xa5, 0x98, 0xbe, 0x0e, 0x58, 0x0f, 0xbe, 0xb4, 0x4f, 0xd5, 0x3d, 
  0x40, 0x0d, 0x42, 0xbd, 0xb0, 0x2b, 0x3a, 0x3e, 0xab, 0xb6, 0x8d, 0x3e, 
  0xad, 0xd4, 0x99, 0x3e, 0xfc, 0x6b, 0xd9, 0x3d, 0xe5, 0xf7, 0x72, 0xbe, 
  0xa6, 0x87, 0x75, 0xbe, 0x14, 0x9a, 0x8d, 0xbd, 0x00, 0xcf, 0x8b, 0xbc, 
  0x05, 0x42, 0x8d, 0xbe, 0x61, 0x33, 0x1f, 0xbe, 0x4e, 0xa3, 0x7b, 0xbe, 
  0x84, 0xb7, 0x3c, 0x3e, 0x7c, 0x03, 0x33, 0xbe, 0x40, 0x04, 0xe9, 0x3c, 
  0x6b, 0x52, 0x0e, 0xbe, 0x78, 0x11, 0x1a, 0xbd, 0xe9, 0xb9, 0x29, 0xbe, 
  0x47, 0x2f, 0x97, 0xbe, 0xd8, 0x15, 0x34, 0x3d, 0x58, 0xfc, 0x05, 0x3e, 
  0xec, 0xae, 0x78, 0xbd, 0x54, 0x71, 0x3e, 0x3e, 0xe0, 0x8d, 0xae, 0xbc, 
  0x88, 0xb7, 0x99, 0xbe, 0xaf, 0xfd, 0x92, 0x3e, 0x2c, 0x52, 0xe3, 0xbd, 
  0x65, 0x17, 0x8e, 0x3e, 0xda, 0x2c, 0x71, 0x3e, 0x96, 0x33, 0x80, 0xbe, 
  0x7e, 0xbc, 0x9d, 0xbd, 0xc8, 0x86, 0x31, 0x3e, 0x1d, 0x68, 0x11, 0xbe, 
  0x98, 0x6f, 0x1a, 0xbd, 0x4c, 0xb5, 0x75, 0xbd, 0xbb, 0x26, 0x8e, 0x3e, 
  0x78, 0x17, 0x89, 0xbe, 0xf6, 0x45, 0x88, 0xbe, 0x8a, 0xa9, 0x0f, 0xbe, 
  0x30, 0xd7, 0xdf, 0x3c, 0xe9, 0x66, 0x83, 0x3e, 0x7c, 0x74, 0x14, 0x3e, 
  0xe8, 0x62, 0x17, 0xbd, 0xab, 0xba, 0x94, 0xbe, 0x60, 0xd9, 0x1a, 0xbc, 
  0x58, 0xff, 0x10, 0xbd, 0x21, 0x5d, 0x96, 0xbe, 0x80, 0x41, 0xc0, 0xbb, 
  0x87, 0x64, 0x14, 0xbe, 0x00, 0xdd, 0x71, 0x3b, 0x80, 0x64, 0x1a, 0x3d, 
  0x3a, 0x28, 0x76, 0x3e, 0x49, 0x28, 0x2d, 0xbe, 0xb0, 0xbd, 0x82, 0x3c, 
  0x4e, 0x18, 0x64, 0x3e, 0x80, 0x11, 0x1b, 0xbb, 0xcf, 0xfe, 0x1a, 0xbe, 
  0xe8, 0x91, 0x68, 0x3d, 0xd2, 0x3e, 0x68, 0x3e, 0x80, 0x0a, 0xe5, 0xbc, 
  0x7c, 0x77, 0x7b, 0xbe, 0x14, 0xd2, 0xa1, 0x3d, 0xa0, 0x6e, 0x23, 0xbe, 
  0xec, 0x9a, 0xb0, 0xbd, 0x32, 0x35, 0xbc, 0xbd, 0x19, 0x4f, 0x88, 0x3e, 
  0x9e, 0x80, 0x7c, 0x3e, 0x6a, 0xfd, 0x09, 0xbe, 0xd4, 0x14, 0x09, 0x3e, 
  0x0a, 0x7e, 0xd0, 0xbd, 0xd4, 0xcd, 0x15, 0x3e, 0xbe, 0x7c, 0x3f, 0x3e, 
  0xa0, 0x96, 0x90, 0xbd, 0x82, 0x5e, 0xd8, 0xbd, 0x68, 0x8d, 0x6d, 0xbe, 
  0x06, 0x7d, 0x1e, 0xbe, 0x1a, 0xc2, 0x57, 0xbe, 0x4c, 0x2b, 0xb9, 0x3d, 
  0x1d, 0xd6, 0x96, 0xbe, 0x8b, 0x74, 0x8e, 0x3e, 0xfa, 0x85, 0x7a, 0x3e, 
  0x24, 0x10, 0x73, 0xbe, 0x19, 0x00, 0x95, 0x3e, 0x58, 0x82, 0x48, 0xbe, 
  0x1c, 0xcc, 0x0e, 0x3e, 0x60, 0x14, 0x8c, 0xbd, 0xd8, 0x01, 0x01, 0x3d, 
  0x0c, 0x77, 0xbe, 0x3d, 0x5c, 0x2c, 0xdf, 0x3d, 0x4e, 0xe2, 0x19, 0x3e, 
  0x83, 0x3d, 0x3d, 0xbe, 0x04, 0x0f, 0x15, 0x3e, 0x90, 0x82, 0xec, 0xbd, 
  0x32, 0xe2, 0x80, 0xbe, 0xd0, 0xa1, 0x3d, 0x3d, 0xaa, 0xd9, 0x71, 0x3e, 
  0x14, 0xb7, 0x3a, 0x3e, 0xd0, 0x4b, 0x2c, 0x3d, 0x72, 0xa4, 0x53, 0x3e, 
  0xe0, 0x25, 0x65, 0xbe, 0x02, 0x0c, 0xb0, 0xbd, 0xf7, 0x2c, 0x86, 0x3e, 
  0xea, 0xb6, 0x59, 0x3e, 0xda, 0xac, 0xc1, 0xbd, 0xad, 0x68, 0x91, 0x3e, 
  0xb8, 0xc8, 0x06, 0xbe, 0xb2, 0x3a, 0xab, 0xbd, 0x98, 0x5a, 0x3c, 0x3d, 
  0xbb, 0xa8, 0x84, 0x3e, 0xd0, 0x41, 0xae, 0x3c, 0x84, 0xcb, 0xce, 0x3d, 
  0x7e, 0xca, 0x4b, 0x3e, 0x06, 0xf3, 0x61, 0x3e, 0x9e, 0xbe, 0x0a, 0x3e, 
  0xf9, 0x72, 0x0e, 0xbe, 0x70, 0xb4, 0xec, 0x3d, 0xaa, 0x8b, 0x33, 0xbe, 
  0x37, 0xc7, 0x81, 0x3e, 0xf0, 0xcf, 0x96, 0x3c, 0xd4, 0x6a, 0x0f, 0x3e, 
  0x90, 0xa6, 0x3b, 0xbd, 0xcd, 0x4c, 0x8d, 0x3e, 0xc0, 0x27, 0x17, 0x3d, 
  0x02, 0xf8, 0x3a, 0x3e, 0x0c, 0x23, 0xde, 0x3d, 0xd8, 0xa3, 0xcf, 0x3d, 
  0x7c, 0x1d, 0x88, 0xbe, 0x4c, 0x82, 0x70, 0xbd, 0x80, 0x79, 0xba, 0xbc, 
  0x38, 0x46, 0x6f, 0xbe, 0x30, 0x02, 0x59, 0xbd, 0x78, 0x5f, 0x04, 0xbd, 
  0xde, 0xdb, 0x0b, 0x3e, 0xd1, 0x02, 0x97, 0x3e, 0xe5, 0x04, 0x96, 0x3e, 
  0xc0, 0x99, 0x0d, 0x3e, 0x30, 0x7a, 0x2f, 0x3d, 0x0c, 0x40, 0xaa, 0x3d, 
  0xa6, 0x16, 0x94, 0xbe, 0x0f, 0x2b, 0x98, 0xbe, 0x26, 0x2a, 0xd8, 0xbd, 
  0x2e, 0x11, 0x6a, 0xbe, 0x31, 0x57, 0x20, 0xbe, 0xf9, 0xdb, 0x0e, 0xbe, 
  0xab, 0x10, 0x29, 0xbe, 0x76, 0x10, 0x03, 0xbe, 0x14, 0xec, 0xf7, 0xbd, 
  0xf0, 0x61, 0x3a, 0x3e, 0x8a, 0x92, 0x80, 0xbe, 0x88, 0x9a, 0x61, 0xbd, 
  0xae, 0xc1, 0x25, 0x3e, 0x0a, 0xf6, 0x1f, 0x3e, 0x42, 0x56, 0x6f, 0x3e, 
  0x2b, 0x14, 0x86, 0x3e, 0x39, 0x21, 0x95, 0x3e, 0xfc, 0xc3, 0x8d, 0xbe, 
  0x45, 0x80, 0x9c, 0x3e, 0x1c, 0xe0, 0x44, 0xbe, 0xd1, 0x07, 0x8c, 0xbe, 
  0x54, 0xf8, 0xaa, 0x3d, 0x9a, 0xe3, 0x28, 0xbe, 0xfa, 0x0c, 0x2b, 0xbe, 
  0xc8, 0x99, 0x18, 0x3e, 0xaf, 0x78, 0x8f, 0x3e, 0x38, 0x2a, 0x41, 0x3d, 
  0xd8, 0x99, 0x20, 0x3e, 0x20, 0x90, 0x73, 0xbc, 0x02, 0xe3, 0x7b, 0x3e, 
  0x62, 0xba, 0x2c, 0xbe, 0xaa, 0xac, 0x6d, 0x3e, 0xbc, 0x7b, 0x34, 0x3e, 
  0x62, 0xd7, 0x5d, 0xbe, 0x3e, 0x6a, 0x6a, 0x3e, 0x80, 0x11, 0x8a, 0xbb, 
  0x98, 0xad, 0x91, 0x3d, 0x0b, 0xb5, 0x8f, 0x3e, 0x6d, 0x68, 0x85, 0x3e, 
  0x44, 0x32, 0x19, 0x3e, 0xf1, 0xdd, 0x64, 0xbe, 0xd2, 0x8f, 0x07, 0x3e, 
  0xe0, 0xd2, 0x4e, 0xbd, 0xa2, 0xf8, 0x92, 0xbe, 0x62, 0x28, 0x39, 0x3e, 
  0x42, 0xe5, 0x76, 0xbe, 0xbf, 0x06, 0x45, 0xbe, 0xf4, 0xe4, 0x5f, 0xbe, 
  0x7c, 0xe9, 0xc6, 0xbd, 0xc7, 0x4b, 0x8c, 0x3e, 0x90, 0x7e, 0x83, 0xbc, 
  0x87, 0x97, 0x97, 0x3e, 0x70, 0xf6, 0x84, 0xbc, 0xac, 0x17, 0x44, 0xbe, 
  0x21, 0xe1, 0x6b, 0xbe, 0x76, 0x0a, 0x88, 0xbd, 0x8f, 0xf2, 0x80, 0x3e, 
  0x72, 0x22, 0x18, 0x3e, 0x7c, 0xda, 0xa4, 0x3d, 0x20, 0x4e, 0x2e, 0x3d, 
  0xd5, 0x8c, 0x09, 0xbe, 0xf4, 0x19, 0xfe, 0x3d, 0x5c, 0xa0, 0xa5, 0xbd, 
  0xc0, 0x6e, 0x20, 0xbd, 0x46, 0x76, 0x8f, 0xbd, 0x40, 0xa2, 0x8e, 0xbe, 
  0x7e, 0x81, 0xff, 0xbd, 0x21, 0x69, 0x00, 0xbe, 0x90, 0xa0, 0x8f, 0x3d, 
  0xf3, 0x4f, 0x9a, 0x3e, 0xfe, 0x11, 0x76, 0x3e, 0x7e, 0x62, 0x04, 0xbe, 
  0x8c, 0x63, 0xe7, 0x3d, 0x3e, 0xc5, 0x85, 0xbd, 0x22, 0x4e, 0xec, 0xbd, 
  0x26, 0xe4, 0x5d, 0x3e, 0x68, 0x62, 0xc1, 0x3d, 0x76, 0x53, 0xce, 0xbd, 
  0x4a, 0x88, 0x53, 0x3e, 0x80, 0xa5, 0x46, 0xbc, 0xaf, 0x47, 0x8a, 0xbe, 
  0x1a, 0x53, 0x4b, 0xbe, 0xd0, 0x32, 0xb3, 0x3d, 0x40, 0xff, 0xc7, 0x3c, 
  0xec, 0xfe, 0xc6, 0xbd, 0x2e, 0x46, 0x3f, 0x3e, 0xda, 0x00, 0xf7, 0xbd, 
  0xd7, 0x38, 0x98, 0xbe, 0x8d, 0x2f, 0x85, 0xbe, 0x6c, 0x18, 0x05, 0x3e, 
  0x50, 0x28, 0x92, 0xbe, 0x8c, 0x36, 0x9a, 0x3d, 0x0e, 0xf4, 0x46, 0x3e, 
  0xe0, 0x69, 0x64, 0x3c, 0x6b, 0x39, 0x92, 0x3e, 0xc5, 0xa3, 0x10, 0xbe, 
  0x5b, 0x25, 0x96, 0xbe, 0xce, 0x36, 0x42, 0x3e, 0xea, 0x08, 0x5b, 0x3e, 
  0xc0, 0xa9, 0xc0, 0x3b, 0x54, 0xa1, 0x88, 0xbe, 0x9c, 0x33, 0x44, 0xbe, 
  0xaf, 0x42, 0x90, 0x3e, 0x00, 0xc6, 0x28, 0xbc, 0xb6, 0x92, 0x4e, 0x3e, 
  0x6b, 0x75, 0x84, 0xbe, 0x88, 0x31, 0x6d, 0xbe, 0xba, 0xd6, 0x49, 0x3e, 
  0xef, 0x35, 0x89, 0x3e, 0x86, 0xac, 0x7c, 0x3e, 0xc9, 0x63, 0x94, 0x3e, 
  0x58, 0x92, 0x20, 0xbd, 0x62, 0x91, 0x4a, 0xbe, 0xe4, 0x6e, 0x32, 0xbe, 
  0x6b, 0xa1, 0x44, 0xbe, 0x5a, 0x5e, 0x24, 0x3e, 0x84, 0xc2, 0x49, 0xbe, 
  0x10, 0x71, 0x9f, 0xbc, 0x5c, 0xe8, 0xb8, 0x3d, 0xa0, 0x7c, 0x88, 0xbe, 
  0x48, 0xea, 0x00, 0xbe, 0x2a, 0x0e, 0x4e, 0xbe, 0xe0, 0x20, 0x06, 0xbd, 
  0x70, 0xd2, 0x36, 0x3e, 0x68, 0x4e, 0x1c, 0xbe, 0x78, 0xda, 0x6d, 0xbe, 
  0x00, 0x17, 0xad, 0xba, 0x09, 0x36, 0x85, 0x3e, 0x40, 0x98, 0xf8, 0x3b, 
  0x0b, 0x28, 0x0d, 0xbe, 0x6e, 0x97, 0xbe, 0xbd, 0x0e, 0xb0, 0x25, 0x3e, 
  0x0c, 0x58, 0x6e, 0xbe, 0x38, 0x96, 0x36, 0xbe, 0x37, 0x32, 0x80, 0x3e, 
  0xc8, 0x48, 0x36, 0xbd, 0x20, 0x4e, 0x2a, 0xbc, 0x03, 0xb0, 0x89, 0x3e, 
  0xc0, 0xaa, 0x85, 0xbc, 0xa4, 0xbc, 0xea, 0x3d, 0xc0, 0x94, 0x65, 0xbe, 
  0x37, 0xe6, 0x99, 0x3e, 0x1a, 0xd8, 0xf7, 0xbd, 0x58, 0xd4, 0xc8, 0xbd, 
  0xda, 0x52, 0xde, 0xbd, 0x95, 0x70, 0x97, 0x3e, 0xe5, 0xa1, 0x90, 0xbe, 
  0x10, 0x21, 0xf1, 0x3d, 0x3e, 0x9e, 0x63, 0xbe, 0xe0, 0x0a, 0xa8, 0xbc, 
  0x68, 0x6f, 0x15, 0x3e, 0x42, 0x55, 0x74, 0x3e, 0x23, 0x1a, 0x0c, 0xbe, 
  0x80, 0x17, 0x02, 0xbd, 0xa0, 0x7c, 0x8c, 0x3c, 0x0a, 0xfe, 0x33, 0x3e, 
  0xa8, 0xfc, 0x49, 0xbe, 0xef, 0x94, 0x9a, 0xbe, 0xe0, 0x71, 0x0e, 0x3d, 
  0x3b, 0x82, 0x9b, 0x3e, 0x69, 0x9e, 0x8d, 0x3e, 0xa0, 0x8f, 0xf0, 0x3d, 
  0x58, 0x1e, 0x34, 0xbd, 0x30, 0x7a, 0x4a, 0xbd, 0x40, 0xc8, 0xf2, 0x3d, 
  0x38, 0x06, 0x90, 0x3d, 0x20, 0x3d, 0xa5, 0x3d, 0xd8, 0x68, 0x9c, 0xbe, 
  0x63, 0x1b, 0x9a, 0xbe, 0x71, 0x79, 0x12, 0xbe, 0xb4, 0x74, 0x77, 0xbd, 
  0xb3, 0x16, 0x86, 0x3e, 0xf2, 0x4f, 0x66, 0x3e, 0x8c, 0x65, 0x9f, 0x3d, 
  0x3e, 0x96, 0x48, 0xbe, 0x00, 0xce, 0x97, 0xbd, 0x74, 0x60, 0x37, 0x3e, 
  0x50, 0x3e, 0xef, 0x3d, 0x20, 0xd7, 0xb8, 0x3d, 0x94, 0x59, 0x14, 0xbe, 
  0xde, 0xc5, 0x6c, 0x3e, 0xba, 0x22, 0x6d, 0x3e, 0x50, 0x86, 0xd1, 0xbd, 
  0x24, 0xed, 0x8e, 0xbd, 0xef, 0xd4, 0x84, 0x3e, 0xac, 0x10, 0x85, 0x3d, 
  0x72, 0xd9, 0x85, 0xbe, 0xb9, 0x2b, 0x02, 0xbe, 0x58, 0x4d, 0x49, 0xbe, 
  0x7a, 0x24, 0x42, 0xbe, 0x55, 0x56, 0x91, 0x3e, 0x70, 0x97, 0x17, 0x3e, 
  0x40, 0x7a, 0x0f, 0xbd, 0x92, 0x7f, 0x24, 0xbe, 0xc0, 0x22, 0x3d, 0xbc, 
  0x90, 0xd7, 0x20, 0x3e, 0x53, 0x14, 0x91, 0x3e, 0xb0, 0xa5, 0x6c, 0x3d, 
  0xf2, 0x05, 0x6f, 0x3e, 0xb4, 0x46, 0x30, 0xbe, 0xe4, 0xa8, 0xbf, 0xbd, 
  0x7e, 0x94, 0xde, 0xbd, 0x46, 0x1d, 0x9b, 0xbe, 0xf0, 0x8f, 0x97, 0xbe, 
  0xda, 0xe4, 0x70, 0xbe, 0xd8, 0x0b, 0x21, 0x3e, 0xae, 0x4f, 0x32, 0xbe, 
  0xe2, 0xc4, 0x46, 0x3e, 0xfc, 0xb5, 0x99, 0xbe, 0x6e, 0xa7, 0x9c, 0xbd, 
  0x0e, 0x0e, 0xd0, 0xbd, 0x08, 0x1e, 0xc7, 0x3d, 0xf2, 0x72, 0x98, 0xbe, 
  0x00, 0x70, 0x17, 0x3e, 0x09, 0xb0, 0x38, 0xbe, 0x36, 0x52, 0x63, 0x3e, 
  0x40, 0x2c, 0x43, 0x3e, 0x68, 0xce, 0x4c, 0xbd, 0x2a, 0x4a, 0xd2, 0xbd, 
  0xca, 0xa6, 0x08, 0x3e, 0xc6, 0x2e, 0x65, 0xbe, 0xfc, 0x2b, 0x67, 0xbd, 
  0x28, 0x04, 0x06, 0x3d, 0xf0, 0xf8, 0x68, 0xbd, 0x7e, 0x73, 0x9a, 0xbe, 
  0x24, 0xd5, 0x0e, 0xbe, 0x26, 0xc9, 0x1a, 0xbe, 0x24, 0xe5, 0x87, 0x3d, 
  0x00, 0x63, 0x0a, 0xbc, 0x40, 0x32, 0xcf, 0x3d, 0x40, 0xbe, 0x3a, 0xbe, 
  0x0e, 0x23, 0x23, 0x3e, 0xab, 0xab, 0x49, 0xbe, 0x00, 0xea, 0x20, 0x3d, 
  0x08, 0x59, 0x17, 0x3e, 0x9a, 0x44, 0x0c, 0xbe, 0xde, 0x4f, 0xa8, 0xbd, 
  0x54, 0x2b, 0xc8, 0xbd, 0xd0, 0xe8, 0x0c, 0xbe, 0x2d, 0x70, 0x06, 0xbe, 
  0xf1, 0x7a, 0x71, 0xbe, 0xd4, 0xc4, 0xed, 0x3d, 0x56, 0x03, 0x8c, 0xbe, 
  0xf8, 0x81, 0x49, 0xbe, 0xa0, 0x03, 0xc9, 0xbc, 0xc6, 0xb1, 0x6a, 0x3e, 
  0xe2, 0x64, 0x00, 0x3e, 0x7c, 0x26, 0x3e, 0x3e, 0x12, 0xc0, 0x3c, 0xbe, 
  0x72, 0xb1, 0xc5, 0xbd, 0x16, 0x5d, 0x7e, 0x3e, 0x96, 0xe0, 0x49, 0x3e, 
  0xe0, 0xc6, 0xc3, 0x3c, 0x40, 0xf8, 0xfa, 0x3d, 0x4e, 0x4f, 0x96, 0xbd, 
  0xbc, 0xd7, 0x3b, 0xbe, 0xd0, 0x70, 0x27, 0x3e, 0x4b, 0x30, 0x15, 0xbe, 
  0xfa, 0xaa, 0x3b, 0x3e, 0x37, 0x3d, 0x6e, 0xbe, 0x8e, 0xbe, 0x96, 0xbe, 
  0xb2, 0x3e, 0x83, 0xbe, 0x12, 0x92, 0x94, 0xbd, 0xae, 0x40, 0x4f, 0xbe, 
  0x60, 0x69, 0x3d, 0xbe, 0x14, 0x6d, 0xa1, 0xbd, 0x90, 0x74, 0xce, 0xbd, 
  0x10, 0x1d, 0xae, 0xbd, 0x9a, 0x7f, 0x92, 0xbe, 0xb0, 0xa4, 0x84, 0xbc, 
  0x3b, 0x4c, 0x11, 0xbe, 0x3b, 0x04, 0x97, 0xbe, 0xb2, 0xe8, 0x51, 0x3e, 
  0xf2, 0x05, 0x5a, 0x3e, 0xbe, 0x41, 0x26, 0x3e, 0xfe, 0xa8, 0xc2, 0xbd, 
  0x00, 0x93, 0xcf, 0xba, 0xba, 0xe9, 0x06, 0x3e, 0x9a, 0x7a, 0x7b, 0x3e, 
  0x88, 0x1c, 0x46, 0xbd, 0x97, 0xb4, 0x93, 0x3e, 0xcc, 0x70, 0x8a, 0xbe, 
  0xfe, 0xb2, 0x37, 0x3e, 0x5c, 0xc7, 0x38, 0x3e, 0x9e, 0xd6, 0x67, 0x3e, 
  0x2e, 0x9f, 0xb1, 0xbd, 0x67, 0xc7, 0x93, 0xbe, 0xf8, 0x2d, 0x72, 0x3d, 
  0x35, 0xfd, 0x98, 0xbe, 0x16, 0x56, 0x4a, 0x3e, 0x5c, 0x1b, 0x6a, 0xbe, 
  0x4f, 0xcb, 0x2b, 0xbe, 0x72, 0x0f, 0xc6, 0xbd, 0x46, 0x2e, 0xb5, 0xbd, 
  0x20, 0x05, 0xe1, 0xbc, 0x16, 0x00, 0x2a, 0xbe, 0xb0, 0x1c, 0xeb, 0x3c, 
  0xd9, 0x6f, 0x64, 0xbe, 0x24, 0x43, 0x95, 0xbe, 0x90, 0xda, 0xa8, 0x3d, 
  0x61, 0xf0, 0x92, 0x3e, 0xe5, 0x43, 0x88, 0x3e, 0x35, 0x28, 0x99, 0x3e, 
  0x3f, 0xe1, 0x88, 0x3e, 0x10, 0x17, 0xcb, 0x3c, 0x50, 0x73, 0xa1, 0xbc, 
  0x98, 0xcf, 0x45, 0x3d, 0xc0, 0xb4, 0x00, 0x3c, 0x64, 0x51, 0x94, 0xbd, 
  0x8a, 0xc9, 0x45, 0x3e, 0xe5, 0x42, 0x98, 0xbe, 0x62, 0xa0, 0x42, 0xbe, 
  0x60, 0x35, 0x3d, 0xbc, 0x28, 0x6e, 0xb5, 0xbd, 0xdc, 0x1d, 0x86, 0xbe, 
  0x00, 0x77, 0x58, 0xbb, 0x92, 0x40, 0x83, 0xbe, 0x50, 0xb2, 0xbc, 0x3d, 
  0xb5, 0x4f, 0x1a, 0xbe, 0x48, 0x7a, 0x0e, 0x3e, 0xf8, 0x0b, 0x28, 0x3e, 
  0x40, 0xa6, 0x81, 0x3d, 0x08, 0xfb, 0x95, 0x3d, 0x95, 0x6c, 0x94, 0x3e, 
  0x0e, 0x1a, 0x7a, 0x3e, 0x80, 0x81, 0x57, 0x3c, 0x56, 0x47, 0x36, 0x3e, 
  0x88, 0x7e, 0x60, 0xbd, 0x4c, 0x4f, 0x21, 0x3e, 0x20, 0x56, 0xf5, 0xbc, 
  0x3c, 0x72, 0x0b, 0x3e, 0x0b, 0x46, 0x82, 0xbe, 0x20, 0xfe, 0x24, 0x3c, 
  0xb8, 0x39, 0x32, 0xbd, 0xba, 0x81, 0x31, 0x3e, 0xaf, 0x8d, 0x21, 0xbe, 
  0x28, 0xdd, 0xfb, 0xbd, 0xb2, 0x89, 0x69, 0xbe, 0x94, 0x72, 0xde, 0x3d, 
  0xa9, 0x11, 0x90, 0x3e, 0x00, 0xa5, 0xe4, 0x3a, 0x9a, 0xfa, 0x8a, 0xbe, 
  0x3e, 0x9d, 0x68, 0x3e, 0x08, 0xb8, 0x14, 0x3d, 0x9c, 0x68, 0x45, 0x3e, 
  0x30, 0x27, 0xe2, 0xbd, 0x2d, 0xdc, 0x96, 0x3e, 0x04, 0x3f, 0x1f, 0x3e, 
  0xeb, 0x9b, 0x9b, 0x3e, 0xd0, 0xb9, 0x21, 0xbd, 0x53, 0xee, 0x88, 0xbe, 
  0xa6, 0x00, 0x3c, 0xbe, 0xd6, 0xf9, 0x54, 0x3e, 0xf4, 0x6c, 0xa1, 0x3d, 
  0x41, 0x49, 0x40, 0xbe, 0x5e, 0x14, 0x87, 0xbd, 0xf1, 0x2d, 0x9b, 0xbe, 
  0x4a, 0x78, 0x5e, 0x3e, 0x50, 0x8d, 0x3d, 0xbd, 0x20, 0xbc, 0xbe, 0x3c, 
  0x24, 0x8c, 0x7a, 0xbe, 0xf4, 0xa6, 0x96, 0xbd, 0x41, 0x40, 0x84, 0xbe, 
  0x90, 0xc4, 0x95, 0x3d, 0x16, 0x64, 0x59, 0xbe, 0x26, 0xbf, 0x32, 0xbe, 
  0x5e, 0x9a, 0x7f, 0x3e, 0xec, 0x29, 0x08, 0x3e, 0x0e, 0x3e, 0xa3, 0xbd, 
  0xe4, 0xab, 0xd8, 0xbd, 0x7e, 0xef, 0x66, 0x3e, 0x88, 0x3f, 0xee, 0xbd, 
  0x00, 0xa0, 0x74, 0xbe, 0xac, 0x01, 0x86, 0x3d, 0x84, 0xe7, 0x2b, 0xbe, 
  0x80, 0xc9, 0xb2, 0xbc, 0x40, 0xc4, 0xd9, 0x3c, 0x0c, 0xd1, 0xee, 0xbd, 
  0x30, 0x08, 0xee, 0x3d, 0xf4, 0x4c, 0xe5, 0xbd, 0xd9, 0x7d, 0x8b, 0x3e, 
  0x84, 0xb7, 0xc7, 0xbd, 0x0d, 0x29, 0x1c, 0xbe, 0xfc, 0xa4, 0xa0, 0x3d, 
  0x5c, 0x2e, 0xae, 0xbd, 0xfe, 0xac, 0x62, 0x3e, 0xc3, 0x30, 0x46, 0xbe, 
  0x38, 0x5b, 0x7c, 0x3d, 0x7e, 0x22, 0x8a, 0xbe, 0xcc, 0xbc, 0xcf, 0x3d, 
  0xe0, 0xbf, 0xc1, 0xbc, 0x69, 0x62, 0x41, 0xbe, 0xcb, 0x40, 0x88, 0xbe, 
  0x56, 0x83, 0x7a, 0x3e, 0x10, 0x83, 0x60, 0x3d, 0x78, 0x1c, 0x07, 0x3d, 
  0xe3, 0xf7, 0x28, 0xbe, 0x48, 0x36, 0x04, 0xbd, 0x3c, 0x12, 0x21, 0x3e, 
  0x6b, 0xce, 0x2c, 0xbe, 0xef, 0x24, 0x98, 0x3e, 0xf0, 0xc2, 0xb5, 0xbc, 
  0xe4, 0x6e, 0x1d, 0x3e, 0x69, 0xda, 0x86, 0x3e, 0x98, 0x66, 0x27, 0x3e, 
  0xd0, 0x5e, 0x67, 0xbd, 0xfa, 0xf4, 0x2c, 0xbe, 0x74, 0xd9, 0xdd, 0xbd, 
  0x70, 0x3a, 0x38, 0xbe, 0x36, 0xf5, 0x38, 0xbe, 0x33, 0xd4, 0x96, 0x3e, 
  0x7d, 0x5f, 0x9a, 0x3e, 0x26, 0x19, 0x03, 0x3e, 0xd8, 0x5f, 0x35, 0x3e, 
  0x0e, 0x13, 0x86, 0xbe, 0xa8, 0x51, 0x77, 0x3d, 0x26, 0x1f, 0x30, 0xbe, 
  0x44, 0x0b, 0xae, 0x3d, 0xd4, 0xcd, 0xc7, 0x3d, 0xc8, 0xdf, 0xee, 0xbd, 
  0x3b, 0x08, 0x9b, 0xbe, 0x20, 0xa0, 0x13, 0xbe, 0xa0, 0x6b, 0x53, 0xbd, 
  0xd6, 0x4b, 0x51, 0xbe, 0xd0, 0x5e, 0x17, 0x3e, 0xca, 0xd5, 0xac, 0xbd, 
  0x80, 0x7c, 0xd8, 0x3c, 0xeb, 0x8b, 0x5e, 0xbe, 0x38, 0x3c, 0x1d, 0x3e, 
  0x84, 0xc3, 0xdd, 0x3d, 0x68, 0x82, 0x64, 0x3d, 0x00, 0x0a, 0x9b, 0xbc, 
  0xc8, 0x05, 0x0b, 0xbd, 0xd0, 0xcd, 0x08, 0x3e, 0xf6, 0x58, 0x6a, 0xbe, 
  0x02, 0x7e, 0xec, 0xbd, 0x6a, 0xfd, 0x64, 0x3e, 0x58, 0x67, 0x43, 0x3d, 
  0x40, 0x7a, 0x0f, 0xbd, 0x7c, 0x55, 0xe1, 0x3d, 0x36, 0x68, 0x77, 0xbe, 
  0xe0, 0xfb, 0x3d, 0x3c, 0x87, 0xf0, 0x23, 0xbe, 0xce, 0x41, 0x59, 0x3e, 
  0x84, 0xfc, 0x66, 0xbd, 0x38, 0x24, 0x02, 0xbe, 0x9c, 0x72, 0x6d, 0xbd, 
  0x9a, 0xb2, 0xf0, 0xbd, 0x78, 0xa7, 0x05, 0x3d, 0x6c, 0x6b, 0xda, 0xbd, 
  0x7a, 0xcc, 0x2f, 0xbe, 0x68, 0x0f, 0x5a, 0xbd, 0x6d, 0x52, 0x8c, 0x3e, 
  0xc8, 0x70, 0x7d, 0x3d, 0x03, 0x2c, 0x6c, 0xbe, 0x89, 0x0f, 0x8a, 0xbe, 
  0xa8, 0x14, 0x09, 0xbe, 0x38, 0x7b, 0x59, 0x3d, 0x8c, 0xb4, 0x85, 0xbe, 
  0x33, 0xf3, 0x81, 0xbe, 0xd6, 0x4d, 0x2e, 0x3e, 0xb8, 0x72, 0x5c, 0x3d, 
  0x30, 0xee, 0xef, 0x3d, 0x29, 0x09, 0x94, 0x3e, 0x60, 0x8c, 0xb7, 0x3d, 
  0x6c, 0xa7, 0xc9, 0xbd, 0xd0, 0x61, 0x23, 0xbd, 0xf2, 0x30, 0x5e, 0x3e, 
  0xc6, 0xeb, 0x1b, 0x3e, 0x34, 0x0d, 0x90, 0xbe, 0x60, 0x5d, 0x00, 0x3d, 
  0x90, 0xc2, 0x8e, 0xbc, 0x40, 0x75, 0xfa, 0xbb, 0x08, 0x0f, 0x13, 0xbe, 
  0x40, 0x8d, 0x8a, 0x3c, 0x68, 0x1c, 0xfe, 0x3d, 0x5c, 0x34, 0x92, 0xbd, 
  0x40, 0xe8, 0xa1, 0x3c, 0x80, 0x3b, 0x0d, 0x3e, 0x06, 0x42, 0xfa, 0xbd, 
  0x56, 0x6e, 0x23, 0x3e, 0xdd, 0x26, 0x87, 0xbe, 0x10, 0x58, 0x85, 0xbe, 
  0x98, 0x63, 0x73, 0x3d, 0x30, 0x6b, 0x92, 0xbc, 0xc8, 0xaa, 0x79, 0x3d, 
  0x00, 0x75, 0x6d, 0xbc, 0x22, 0x87, 0x2e, 0xbe, 0x00, 0x6f, 0x1c, 0xbd, 
  0x0d, 0x23, 0x1b, 0xbe, 0xda, 0xa4, 0x77, 0xbe, 0x38, 0x81, 0x92, 0xbe, 
  0x7d, 0xf6, 0x94, 0x3e, 0x04, 0x1a, 0x2e, 0xbe, 0xe4, 0x45, 0x81, 0xbe, 
  0xb3, 0x4f, 0x66, 0xbe, 0xd9, 0x6c, 0x8d, 0x3e, 0xa2, 0x55, 0x25, 0xbe, 
  0xa3, 0x95, 0x8d, 0x3e, 0xd3, 0xef, 0x94, 0x3e, 0x10, 0xd7, 0x05, 0xbe, 
  0xa0, 0x81, 0xbc, 0xbd, 0x2e, 0x31, 0x8f, 0xbe, 0x20, 0xf6, 0xe4, 0x3c, 
  0x04, 0xcf, 0x23, 0x3e, 0xd8, 0x25, 0x06, 0xbd, 0x10, 0xbc, 0xc7, 0x3d, 
  0xc5, 0x92, 0x98, 0xbe, 0xfd, 0x75, 0x91, 0x3e, 0x30, 0x50, 0x19, 0xbd, 
  0x12, 0x63, 0x55, 0xbe, 0xf0, 0xbf, 0x06, 0xbd, 0x54, 0x1e, 0x21, 0xbe, 
  0xe0, 0xdb, 0x2a, 0xbc, 0x18, 0x65, 0x69, 0x3d, 0xca, 0xff, 0x09, 0x3e, 
  0xc0, 0x0f, 0xa8, 0xbc, 0x24, 0x28, 0x19, 0xbe, 0x50, 0xcf, 0xc7, 0x3d, 
  0x0e, 0x96, 0x87, 0xbe, 0x3a, 0x5e, 0xc0, 0xbd, 0x80, 0xc6, 0x63, 0xbd, 
  0xf0, 0xbd, 0x1f, 0x3d, 0x20, 0x77, 0x38, 0xbc, 0xd4, 0x99, 0x39, 0x3e, 
  0x00, 0xc4, 0x1f, 0x3c, 0x5d, 0x60, 0x5e, 0xbe, 0x10, 0x16, 0x24, 0xbd, 
  0xb0, 0xae, 0x87, 0xbc, 0x82, 0xe7, 0x95, 0xbe, 0x98, 0x09, 0x72, 0x3d, 
  0x3c, 0xe4, 0x32, 0xbe, 0x98, 0x54, 0x8b, 0xbd, 0xe8, 0xc8, 0x4c, 0xbd, 
  0xa0, 0xc1, 0x5a, 0xbd, 0xe0, 0x65, 0xdb, 0xbc, 0x93, 0xd0, 0x1a, 0xbe, 
  0xc0, 0x84, 0x14, 0x3e, 0x1e, 0x74, 0x51, 0x3e, 0x20, 0x45, 0x07, 0xbd, 
  0x4d, 0x1d, 0x83, 0x3e, 0xca, 0x60, 0x9d, 0xbd, 0xde, 0xa4, 0x78, 0x3e, 
  0x71, 0x0b, 0x85, 0x3e, 0x40, 0x62, 0x79, 0x3c, 0xc5, 0x5f, 0x0f, 0xbe, 
  0x30, 0x94, 0xb2, 0x3c, 0xd5, 0x89, 0x94, 0x3e, 0xe8, 0x8b, 0x42, 0xbe, 
  0x6c, 0xac, 0x44, 0xbe, 0x73, 0xdb, 0x9b, 0x3e, 0x90, 0x14, 0x81, 0x3c, 
  0x10, 0xfe, 0x6e, 0x3d, 0x68, 0x30, 0xe6, 0x3d, 0x95, 0x4b, 0x96, 0xbe, 
  0x85, 0x6c, 0x84, 0x3e, 0x00, 0x28, 0x1b, 0xba, 0xac, 0x34, 0xaa, 0xbd, 
  0xc4, 0x99, 0xfc, 0xbd, 0xc3, 0x0d, 0x81, 0xbe, 0xda, 0x01, 0x66, 0xbe, 
  0xed, 0x68, 0x92, 0x3e, 0x40, 0x8e, 0x19, 0xbd, 0x36, 0x1b, 0x72, 0xbe, 
  0x34, 0x25, 0x01, 0x3e, 0xc2, 0x66, 0x6d, 0x3e, 0x6b, 0x57, 0x95, 0xbe, 
  0xcc, 0x71, 0x8c, 0x3d, 0xda, 0xe9, 0x7d, 0x3e, 0x1c, 0x93, 0x26, 0x3e, 
  0x92, 0x7d, 0xa5, 0xbd, 0x20, 0xd6, 0x89, 0x3c, 0xf2, 0x09, 0x5c, 0x3e, 
  0x18, 0x7e, 0x01, 0x3e, 0x00, 0x00, 0x06, 0x00, 0x08, 0x00, 0x04, 0x00, 
  0x06, 0x00, 0x00, 0x00, 0x04, 0x00, 0x00, 0x00, 0x80, 0x02, 0x00, 0x00, 
  0x98, 0xdc, 0x83, 0xbd, 0xb4, 0x71, 0xd1, 0xbd, 0xec, 0xc6, 0x8d, 0x3d, 
  0x42, 0x1e, 0x9c, 0x3e, 0xb8, 0x69, 0x95, 0x3e, 0xe7, 0xcb, 0x63, 0xbe, 
  0x5e, 0x63, 0x48, 0xbe, 0xbe, 0xc4, 0x86, 0x3e, 0x3a, 0xf8, 0xc4, 0x3e, 
  0xac, 0xc5, 0xfe, 0xbd, 0x78, 0x0e, 0x6c, 0x3e, 0xdb, 0xae, 0x6b, 0xbe, 
  0x44, 0x90, 0xaa, 0xbd, 0xdc, 0xdc, 0xf9, 0xbd, 0x39, 0x59, 0x62, 0xbe, 
  0xec, 0x5b, 0x61, 0x3e, 0x48, 0x2c, 0x48, 0xbd, 0xa3, 0xae, 0x1f, 0xbe, 
  0xee, 0xa7, 0xc3, 0x3e, 0xe8, 0xff, 0x2f, 0xbe, 0x38, 0x3e, 0x49, 0x3d, 
  0xd4, 0x44, 0xb7, 0xbd, 0x4e, 0xa5, 0x86, 0xbe, 0xe8, 0x2d, 0x70, 0x3e, 
  0x58, 0x7e, 0x0b, 0x3e, 0x40, 0x32, 0x4a, 0x3d, 0xe4, 0x34, 0x3f, 0x3e, 
  0x46, 0x32, 0x61, 0xbe, 0x78, 0xf7, 0x16, 0x3e, 0xbc, 0x0f, 0xca, 0xbe, 
  0x40, 0xe0, 0xa7, 0xbb, 0x88, 0x6e, 0x2d, 0xbe, 0x83, 0xc8, 0xa1, 0xbe, 
  0x1a, 0x37, 0x86, 0x3e, 0x7c, 0xb2, 0x25, 0x3e, 0xf6, 0x82, 0xac, 0x3e, 
  0xe0, 0xe2, 0x88, 0xbe, 0x68, 0x1b, 0xc3, 0x3d, 0xb3, 0x55, 0x6e, 0xbe, 
  0xfa, 0x9f, 0xbc, 0x3e, 0xa7, 0xd1, 0x5a, 0xbe, 0xe0, 0xea, 0xe3, 0x3d, 
  0x80, 0x70, 0x45, 0xbc, 0x50, 0x4d, 0x30, 0x3d, 0xb1, 0xf2, 0x45, 0xbe, 
  0x22, 0x99, 0x0a, 0xbe, 0x94, 0x12, 0x3a, 0x3e, 0x18, 0x5e, 0x17, 0x3e, 
  0x10, 0x26, 0x4a, 0xbd, 0x90, 0xb0, 0xf0, 0xbc, 0x4a, 0x58, 0x17, 0xbe, 
  0xf8, 0x1c, 0xdc, 0x3d, 0xf8, 0x3f, 0x47, 0xbe, 0x48, 0x69, 0x18, 0x3e, 
  0x8a, 0xcb, 0xaf, 0x3e, 0x20, 0x6b, 0xa6, 0x3d, 0x42, 0x6c, 0x1c, 0xbe, 
  0xa1, 0x46, 0xb1, 0xbe, 0x70, 0x00, 0x2e, 0x3e, 0xdc, 0x13, 0x48, 0xbe, 
  0x06, 0xf2, 0xc5, 0xbe, 0x10, 0x3f, 0xc1, 0xbe, 0x88, 0x7e, 0x20, 0xbd, 
  0x2e, 0x96, 0x80, 0xbe, 0xf9, 0xe3, 0x74, 0xbe, 0x2a, 0x9a, 0x08, 0xbe, 
  0x70, 0x2a, 0x36, 0x3d, 0xf8, 0x66, 0x00, 0x3d, 0x75, 0x12, 0x92, 0xbe, 
  0xfb, 0xfb, 0xb1, 0xbe, 0xbd, 0xb6, 0xc1, 0xbe, 0x92, 0x37, 0x6a, 0xbe, 
  0x14, 0x6f, 0x8a, 0x3e, 0x88, 0x40, 0x33, 0x3e, 0x98, 0x53, 0x10, 0xbe, 
  0x6a, 0x9c, 0xc4, 0x3e, 0x78, 0x10, 0xba, 0x3d, 0x28, 0xb0, 0xe3, 0x3d, 
  0x60, 0xd6, 0x5e, 0xbd, 0x76, 0x6f, 0xb0, 0x3e, 0x20, 0x2f, 0x4b, 0x3c, 
  0xc2, 0x5d, 0xca, 0x3e, 0x00, 0x6c, 0xc0, 0xbe, 0x80, 0xe0, 0x89, 0x3e, 
  0x48, 0xdd, 0x03, 0x3e, 0x49, 0xb1, 0x7a, 0xbe, 0x75, 0x22, 0x5e, 0xbe, 
  0x60, 0x5d, 0x1f, 0x3e, 0xe0, 0xa0, 0x8e, 0xbe, 0x23, 0x8e, 0x7b, 0xbe, 
  0x6d, 0xbb, 0x8a, 0xbe, 0xf8, 0x8f, 0x75, 0x3e, 0x20, 0x2d, 0x8b, 0xbc, 
  0x48, 0x6d, 0x75, 0x3d, 0x2c, 0xb6, 0xb4, 0x3e, 0xe4, 0xff, 0x36, 0x3e, 
  0x00, 0xd7, 0xd7, 0xbc, 0x5e, 0xd1, 0xc3, 0xbe, 0x88, 0x9e, 0x1b, 0x3e, 
  0x18, 0x0f, 0x59, 0x3d, 0x29, 0x32, 0x7a, 0xbe, 0xa8, 0x52, 0xc3, 0x3e, 
  0x24, 0x65, 0x28, 0x3e, 0xec, 0x83, 0xa5, 0x3d, 0x68, 0x2d, 0xe9, 0x3d, 
  0xd8, 0xce, 0x2e, 0x3d, 0xf6, 0x48, 0x9f, 0x3e, 0x2e, 0x7d, 0xbc, 0xbe, 
  0x50, 0x87, 0x79, 0x3e, 0x1a, 0xf7, 0x8d, 0x3e, 0xac, 0xd7, 0x84, 0xbd, 
  0xd8, 0x97, 0x4a, 0xbe, 0xb2, 0x57, 0x80, 0xbe, 0xd8, 0x2c, 0x35, 0x3d, 
  0xae, 0xde, 0xbf, 0xbe, 0x97, 0x28, 0x1f, 0xbe, 0xe8, 0xb2, 0x21, 0x3d, 
  0xfd, 0x9b, 0x97, 0xbe, 0xfe, 0xb7, 0x6b, 0xbe, 0xb2, 0x47, 0xc5, 0x3e, 
  0x00, 0x10, 0x43, 0xbe, 0xfc, 0x5d, 0xc4, 0xbe, 0xc3, 0x98, 0x5d, 0xbe, 
  0x8c, 0xbe, 0x9a, 0xbe, 0x28, 0x1d, 0xdf, 0xbd, 0x00, 0xa6, 0x4f, 0x3c, 
  0xa0, 0x74, 0x31, 0x3c, 0x54, 0x1f, 0xa8, 0xbe, 0x30, 0x9b, 0xca, 0xbd, 
  0x2c, 0xb0, 0xba, 0xbe, 0xfc, 0xbf, 0xa2, 0x3d, 0x11, 0x17, 0x67, 0xbe, 
  0xa8, 0x70, 0x49, 0x3d, 0x08, 0x74, 0xaf, 0x3e, 0x10, 0x96, 0xb9, 0x3e, 
  0x9a, 0xa2, 0xc4, 0x3e, 0xfe, 0x04, 0xb6, 0x3e, 0x94, 0xdb, 0xbf, 0xbd, 
  0x24, 0xb1, 0x5a, 0x3e, 0xa1, 0x60, 0xaa, 0xbe, 0x30, 0x7f, 0x8e, 0xbc, 
  0x14, 0x93, 0x9c, 0xbe, 0xd1, 0xdd, 0xa0, 0xbe, 0x0c, 0xb5, 0x04, 0xbe, 
  0x18, 0x93, 0x86, 0xbe, 0x30, 0x89, 0x93, 0x3e, 0xc0, 0xe9, 0x10, 0x3c, 
  0x50, 0x96, 0xc8, 0x3e, 0x4a, 0xf6, 0xba, 0x3e, 0x08, 0x45, 0x17, 0x3d, 
  0xcc, 0x2b, 0x11, 0x3e, 0xf2, 0xc7, 0xa8, 0x3e, 0xd4, 0xd6, 0xa5, 0x3d, 
  0x8a, 0x26, 0x94, 0x3e, 0xb0, 0xa2, 0xb2, 0x3d, 0x88, 0xe9, 0x38, 0x3d, 
  0xa6, 0x2f, 0xa0, 0x3e, 0x5c, 0x1d, 0x92, 0xbd, 0x3c, 0x47, 0x53, 0x3e, 
  0x80, 0x39, 0xd4, 0x3d, 0xfc, 0xfb, 0xff, 0xff, 0x00, 0xfc, 0xff, 0xff, 
  0x0f, 0x00, 0x00, 0x00, 0x4d, 0x4c, 0x49, 0x52, 0x20, 0x43, 0x6f, 0x6e, 
  0x76, 0x65, 0x72, 0x74, 0x65, 0x64, 0x2e, 0x00, 0x01, 0x00, 0x00, 0x00, 
  0x14, 0x00, 0x00, 0x00, 0x00, 0x00, 0x0e, 0x00, 0x18, 0x00, 0x14, 0x00, 
  0x10, 0x00, 0x0c, 0x00, 0x08, 0x00, 0x04, 0x00, 0x0e, 0x00, 0x00, 0x00, 
  0x14, 0x00, 0x00, 0x00, 0x1c, 0x00, 0x00, 0x00, 0xd8, 0x00, 0x00, 0x00, 
  0xdc, 0x00, 0x00, 0x00, 0xe0, 0x00, 0x00, 0x00, 0x04, 0x00, 0x00, 0x00, 
  0x6d, 0x61, 0x69, 0x6e, 0x00, 0x00, 0x00, 0x00, 0x03, 0x00, 0x00, 0x00, 
  0x80, 0x00, 0x00, 0x00, 0x38, 0x00, 0x00, 0x00, 0x04, 0x00, 0x00, 0x00, 
  0x9a, 0xff, 0xff, 0xff, 0x10, 0x00, 0x00, 0x00, 0x00, 0x00, 0x00, 0x08, 
  0x0c, 0x00, 0x00, 0x00, 0x10, 0x00, 0x00, 0x00, 0x78, 0xfc, 0xff, 0xff, 
  0x01, 0x00, 0x00, 0x00, 0x06, 0x00, 0x00, 0x00, 0x03, 0x00, 0x00, 0x00, 
  0x05, 0x00, 0x00, 0x00, 0x03, 0x00, 0x00, 0x00, 0xff, 0xff, 0xff, 0xff, 
  0xca, 0xff, 0xff, 0xff, 0x10, 0x00, 0x00, 0x00, 0x00, 0x00, 0x00, 0x08, 
  0x10, 0x00, 0x00, 0x00, 0x14, 0x00, 0x00, 0x00, 0xba, 0xff, 0xff, 0xff, 
  0x00, 0x00, 0x00, 0x01, 0x01, 0x00, 0x00, 0x00, 0x05, 0x00, 0x00, 0x00, 
  0x03, 0x00, 0x00, 0x00, 0x04, 0x00, 0x00, 0x00, 0x02, 0x00, 0x00, 0x00, 
  0xff, 0xff, 0xff, 0xff, 0x00, 0x00, 0x0e, 0x00, 0x16, 0x00, 0x00, 0x00, 
  0x10, 0x00, 0x0c, 0x00, 0x0b, 0x00, 0x04, 0x00, 0x0e, 0x00, 0x00, 0x00, 
  0x18, 0x00, 0x00, 0x00, 0x00, 0x00, 0x00, 0x08, 0x18, 0x00, 0x00, 0x00, 
  0x1c, 0x00, 0x00, 0x00, 0x00, 0x00, 0x06, 0x00, 0x08, 0x00, 0x07, 0x00, 
  0x06, 0x00, 0x00, 0x00, 0x00, 0x00, 0x00, 0x01, 0x01, 0x00, 0x00, 0x00, 
  0x04, 0x00, 0x00, 0x00, 0x03, 0x00, 0x00, 0x00, 0x00, 0x00, 0x00, 0x00, 
  0x01, 0x00, 0x00, 0x00, 0xff, 0xff, 0xff, 0xff, 0x01, 0x00, 0x00, 0x00, 
  0x06, 0x00, 0x00, 0x00, 0x01, 0x00, 0x00, 0x00, 0x00, 0x00, 0x00, 0x00, 
  0x07, 0x00, 0x00, 0x00, 0xb0, 0x02, 0x00, 0x00, 0x48, 0x02, 0x00, 0x00, 
  0xe0, 0x01, 0x00, 0x00, 0x90, 0x01, 0x00, 0x00, 0xf8, 0x00, 0x00, 0x00, 
  0x60, 0x00, 0x00, 0x00, 0x04, 0x00, 0x00, 0x00, 0x82, 0xfd, 0xff, 0xff, 
  0x00, 0x00, 0x00, 0x01, 0x14, 0x00, 0x00, 0x00, 0x1c, 0x00, 0x00, 0x00, 
  0x1c, 0x00, 0x00, 0x00, 0x07, 0x00, 0x00, 0x00, 0x34, 0x00, 0x00, 0x00, 
  0x02, 0x00, 0x00, 0x00, 0xff, 0xff, 0xff, 0xff, 0x01, 0x00, 0x00, 0x00, 
  0x6c, 0xfd, 0xff, 0xff, 0x19, 0x00, 0x00, 0x00, 0x53, 0x74, 0x61, 0x74, 
  0x65, 0x66, 0x75, 0x6c, 0x50, 0x61, 0x72, 0x74, 0x69, 0x74, 0x69, 0x6f, 
  0x6e, 0x65, 0x64, 0x43, 0x61, 0x6c, 0x6c, 0x3a, 0x30, 0x00, 0x00, 0x00, 
  0x02, 0x00, 0x00, 0x00, 0x01, 0x00, 0x00, 0x00, 0x01, 0x00, 0x00, 0x00, 
  0xda, 0xfd, 0xff, 0xff, 0x00, 0x00, 0x00, 0x01, 0x14, 0x00, 0x00, 0x00, 
  0x1c, 0x00, 0x00, 0x00, 0x1c, 0x00, 0x00, 0x00, 0x06, 0x00, 0x00, 0x00, 
  0x70, 0x00, 0x00, 0x00, 0x02, 0x00, 0x00, 0x00, 0xff, 0xff, 0xff, 0xff, 
  0x20, 0x00, 0x00, 0x00, 0xc4, 0xfd, 0xff, 0xff, 0x55, 0x00, 0x00, 0x00, 
  0x65, 0x73, 0x70, 0x33, 0x32, 0x5f, 0x63, 0x72, 0x69, 0x74, 0x69, 0x63, 
  0x2f, 0x64, 0x65, 0x6e, 0x73, 0x65, 0x5f, 0x36, 0x37, 0x2f, 0x4d, 0x61, 
  0x74, 0x4d, 0x75, 0x6c, 0x3b, 0x65, 0x73, 0x70, 0x33, 0x32, 0x5f, 0x63, 
  0x72, 0x69, 0x74, 0x69, 0x63, 0x2f, 0x64, 0x65, 0x6e, 0x73, 0x65, 0x5f, 
  0x36, 0x37, 0x2f, 0x52, 0x65, 0x6c, 0x75, 0x3b, 0x65, 0x73, 0x70, 0x33, 
  0x32, 0x5f, 0x63, 0x72, 0x69, 0x74, 0x69, 0x63, 0x2f, 0x64, 0x65, 0x6e, 
  0x73, 0x65, 0x5f, 0x36, 0x37, 0x2f, 0x42, 0x69, 0x61, 0x73, 0x41, 0x64, 
  0x64, 0x00, 0x00, 0x00, 0x02, 0x00, 0x00, 0x00, 0x01, 0x00, 0x00, 0x00, 
  0x20, 0x00, 0x00, 0x00, 0x6e, 0xfe, 0xff, 0xff, 0x00, 0x00, 0x00, 0x01, 
  0x14, 0x00, 0x00, 0x00, 0x1c, 0x00, 0x00, 0x00, 0x1c, 0x00, 0x00, 0x00, 
  0x05, 0x00, 0x00, 0x00, 0x70, 0x00, 0x00, 0x00, 0x02, 0x00, 0x00, 0x00, 
  0xff, 0xff, 0xff, 0xff, 0x20, 0x00, 0x00, 0x00, 0x58, 0xfe, 0xff, 0xff, 
  0x55, 0x00, 0x00, 0x00, 0x65, 0x73, 0x70, 0x33, 0x32, 0x5f, 0x63, 0x72, 
  0x69, 0x74, 0x69, 0x63, 0x2f, 0x64, 0x65, 0x6e, 0x73, 0x65, 0x5f, 0x36, 
  0x36, 0x2f, 0x4d, 0x61, 0x74, 0x4d, 0x75, 0x6c, 0x3b, 0x65, 0x73, 0x70, 
  0x33, 0x32, 0x5f, 0x63, 0x72, 0x69, 0x74, 0x69, 0x63, 0x2f, 0x64, 0x65, 
  0x6e, 0x73, 0x65, 0x5f, 0x36, 0x36, 0x2f, 0x52, 0x65, 0x6c, 0x75, 0x3b, 
  0x65, 0x73, 0x70, 0x33, 0x32, 0x5f, 0x63, 0x72, 0x69, 0x74, 0x69, 0x63, 
  0x2f, 0x64, 0x65, 0x6e, 0x73, 0x65, 0x5f, 0x36, 0x36, 0x2f, 0x42, 0x69, 
  0x61, 0x73, 0x41, 0x64, 0x64, 0x00, 0x00, 0x00, 0x02, 0x00, 0x00, 0x00, 
  0x01, 0x00, 0x00, 0x00, 0x20, 0x00, 0x00, 0x00, 0x66, 0xff, 0xff, 0xff, 
  0x00, 0x00, 0x00, 0x01, 0x10, 0x00, 0x00, 0x00, 0x10, 0x00, 0x00, 0x00, 
  0x04, 0x00, 0x00, 0x00, 0x2c, 0x00, 0x00, 0x00, 0xdc, 0xfe, 0xff, 0xff, 
  0x1c, 0x00, 0x00, 0x00, 0x65, 0x73, 0x70, 0x33, 0x32, 0x5f, 0x63, 0x72, 
  0x69, 0x74, 0x69, 0x63, 0x2f, 0x64, 0x65, 0x6e, 0x73, 0x65, 0x5f, 0x36, 
  0x38, 0x2f, 0x4d, 0x61, 0x74, 0x4d, 0x75, 0x6c, 0x00, 0x00, 0x00, 0x00, 
  0x02, 0x00, 0x00, 0x00, 0x01, 0x00, 0x00, 0x00, 0x20, 0x00, 0x00, 0x00, 
  0xb2, 0xff, 0xff, 0xff, 0x00, 0x00, 0x00, 0x01, 0x10, 0x00, 0x00, 0x00, 
  0x10, 0x00, 0x00, 0x00, 0x03, 0x00, 0x00, 0x00, 0x2c, 0x00, 0x00, 0x00, 
  0x28, 0xff, 0xff, 0xff, 0x1c, 0x00, 0x00, 0x00, 0x65, 0x73, 0x70, 0x33, 
  0x32, 0x5f, 0x63, 0x72, 0x69, 0x74, 0x69, 0x63, 0x2f, 0x64, 0x65, 0x6e, 
  0x73, 0x65, 0x5f, 0x36, 0x37, 0x2f, 0x4d, 0x61, 0x74, 0x4d, 0x75, 0x6c, 
  0x00, 0x00, 0x00, 0x00, 0x02, 0x00, 0x00, 0x00, 0x20, 0x00, 0x00, 0x00, 
  0x20, 0x00, 0x00, 0x00, 0x00, 0x00, 0x16, 0x00, 0x18, 0x00, 0x14, 0x00, 
  0x00, 0x00, 0x10, 0x00, 0x0c, 0x00, 0x08, 0x00, 0x00, 0x00, 0x00, 0x00, 
  0x00, 0x00, 0x07, 0x00, 0x16, 0x00, 0x00, 0x00, 0x00, 0x00, 0x00, 0x01, 
  0x10, 0x00, 0x00, 0x00, 0x10, 0x00, 0x00, 0x00, 0x02, 0x00, 0x00, 0x00, 
  0x2c, 0x00, 0x00, 0x00, 0x8c, 0xff, 0xff, 0xff, 0x1d, 0x00, 0x00, 0x00, 
  0x65, 0x73, 0x70, 0x33, 0x32, 0x5f, 0x63, 0x72, 0x69, 0x74, 0x69, 0x63, 
  0x2f, 0x64, 0x65, 0x6e, 0x73, 0x65, 0x5f, 0x36, 0x36, 0x2f, 0x4d, 0x61, 
  0x74, 0x4d, 0x75, 0x6c, 0x31, 0x00, 0x00, 0x00, 0x02, 0x00, 0x00, 0x00, 
  0x20, 0x00, 0x00, 0x00, 0x05, 0x00, 0x00, 0x00, 0x00, 0x00, 0x16, 0x00, 
  0x1c, 0x00, 0x18, 0x00, 0x00, 0x00, 0x14, 0x00, 0x10, 0x00, 0x0c, 0x00, 
  0x00, 0x00, 0x00, 0x00, 0x08, 0x00, 0x07, 0x00, 0x16, 0x00, 0x00, 0x00, 
  0x00, 0x00, 0x00, 0x01, 0x14, 0x00, 0x00, 0x00, 0x20, 0x00, 0x00, 0x00, 
  0x20, 0x00, 0x00, 0x00, 0x01, 0x00, 0x00, 0x00, 0x40, 0x00, 0x00, 0x00, 
  0x02, 0x00, 0x00, 0x00, 0xff, 0xff, 0xff, 0xff, 0x05, 0x00, 0x00, 0x00, 
  0x04, 0x00, 0x04, 0x00, 0x04, 0x00, 0x00, 0x00, 0x20, 0x00, 0x00, 0x00, 
  0x73, 0x65, 0x72, 0x76, 0x69, 0x6e, 0x67, 0x5f, 0x64, 0x65, 0x66, 0x61, 
  0x75, 0x6c, 0x74, 0x5f, 0x64, 0x65, 0x6e, 0x73, 0x65, 0x5f, 0x36, 0x36, 
  0x5f, 0x69, 0x6e, 0x70, 0x75, 0x74, 0x3a, 0x30, 0x00, 0x00, 0x00, 0x00, 
  0x02, 0x00, 0x00, 0x00, 0x01, 0x00, 0x00, 0x00, 0x05, 0x00, 0x00, 0x00, 
  0x01, 0x00, 0x00, 0x00, 0x10, 0x00, 0x00, 0x00, 0x0c, 0x00, 0x0c, 0x00, 
  0x0b, 0x00, 0x00, 0x00, 0x00, 0x00, 0x04, 0x00, 0x0c, 0x00, 0x00, 0x00, 
  0x09, 0x00, 0x00, 0x00, 0x00, 0x00, 0x00, 0x09, 
};

const unsigned int critic_model_len = 6488;
