#include "ppo_policy_critic.h"

const uint8_t critic_model[] = {

  0x1c, 0x00, 0x00, 0x00, 0x54, 0x46, 0x4c, 0x33, 0x14, 0x00, 0x20, 0x00, 
  0x1c, 0x00, 0x18, 0x00, 0x14, 0x00, 0x10, 0x00, 0x0c, 0x00, 0x00, 0x00, 
  0x08, 0x00, 0x04, 0x00, 0x14, 0x00, 0x00, 0x00, 0x1c, 0x00, 0x00, 0x00, 
  0x98, 0x00, 0x00, 0x00, 0xf0, 0x00, 0x00, 0x00, 0x08, 0x16, 0x00, 0x00, 
  0x18, 0x16, 0x00, 0x00, 0x4c, 0x1b, 0x00, 0x00, 0x03, 0x00, 0x00, 0x00, 
  0x01, 0x00, 0x00, 0x00, 0x10, 0x00, 0x00, 0x00, 0x00, 0x00, 0x0a, 0x00, 
  0x10, 0x00, 0x0c, 0x00, 0x08, 0x00, 0x04, 0x00, 0x0a, 0x00, 0x00, 0x00, 
  0x0c, 0x00, 0x00, 0x00, 0x1c, 0x00, 0x00, 0x00, 0x3c, 0x00, 0x00, 0x00, 
  0x0f, 0x00, 0x00, 0x00, 0x73, 0x65, 0x72, 0x76, 0x69, 0x6e, 0x67, 0x5f, 
  0x64, 0x65, 0x66, 0x61, 0x75, 0x6c, 0x74, 0x00, 0x01, 0x00, 0x00, 0x00, 
  0x04, 0x00, 0x00, 0x00, 0x90, 0xff, 0xff, 0xff, 0x09, 0x00, 0x00, 0x00, 
  0x04, 0x00, 0x00, 0x00, 0x08, 0x00, 0x00, 0x00, 0x64, 0x65, 0x6e, 0x73, 
  0x65, 0x5f, 0x36, 0x38, 0x00, 0x00, 0x00, 0x00, 0x01, 0x00, 0x00, 0x00, 
  0x04, 0x00, 0x00, 0x00, 0x8a, 0xea, 0xff, 0xff, 0x04, 0x00, 0x00, 0x00, 
  0x0e, 0x00, 0x00, 0x00, 0x64, 0x65, 0x6e, 0x73, 0x65, 0x5f, 0x36, 0x36, 
  0x5f, 0x69, 0x6e, 0x70, 0x75, 0x74, 0x00, 0x00, 0x02, 0x00, 0x00, 0x00, 
  0x34, 0x00, 0x00, 0x00, 0x04, 0x00, 0x00, 0x00, 0xdc, 0xff, 0xff, 0xff, 
  0x0c, 0x00, 0x00, 0x00, 0x04, 0x00, 0x00, 0x00, 0x13, 0x00, 0x00, 0x00, 
  0x43, 0x4f, 0x4e, 0x56, 0x45, 0x52, 0x53, 0x49, 0x4f, 0x4e, 0x5f, 0x4d, 
  0x45, 0x54, 0x41, 0x44, 0x41, 0x54, 0x41, 0x00, 0x08, 0x00, 0x0c, 0x00, 
  0x08, 0x00, 0x04, 0x00, 0x08, 0x00, 0x00, 0x00, 0x0b, 0x00, 0x00, 0x00, 
  0x04, 0x00, 0x00, 0x00, 0x13, 0x00, 0x00, 0x00, 0x6d, 0x69, 0x6e, 0x5f, 
  0x72, 0x75, 0x6e, 0x74, 0x69, 0x6d, 0x65, 0x5f, 0x76, 0x65, 0x72, 0x73, 
  0x69, 0x6f, 0x6e, 0x00, 0x0d, 0x00, 0x00, 0x00, 0x14, 0x15, 0x00, 0x00, 
  0x0c, 0x15, 0x00, 0x00, 0xf8, 0x14, 0x00, 0x00, 0x60, 0x14, 0x00, 0x00, 
  0xd0, 0x13, 0x00, 0x00, 0x40, 0x11, 0x00, 0x00, 0x30, 0x01, 0x00, 0x00, 
  0xa0, 0x00, 0x00, 0x00, 0x98, 0x00, 0x00, 0x00, 0x90, 0x00, 0x00, 0x00, 
  0x88, 0x00, 0x00, 0x00, 0x68, 0x00, 0x00, 0x00, 0x04, 0x00, 0x00, 0x00, 
  0x3a, 0xeb, 0xff, 0xff, 0x04, 0x00, 0x00, 0x00, 0x54, 0x00, 0x00, 0x00, 
  0x0c, 0x00, 0x00, 0x00, 0x08, 0x00, 0x0e, 0x00, 0x08, 0x00, 0x04, 0x00, 
  0x08, 0x00, 0x00, 0x00, 0x10, 0x00, 0x00, 0x00, 0x24, 0x00, 0x00, 0x00, 
  0x00, 0x00, 0x06, 0x00, 0x08, 0x00, 0x04, 0x00, 0x06, 0x00, 0x00, 0x00, 
  0x04, 0x00, 0x00, 0x00, 0x00, 0x00, 0x00, 0x00, 0x00, 0x00, 0x0a, 0x00, 
  0x10, 0x00, 0x0c, 0x00, 0x08, 0x00, 0x04, 0x00, 0x0a, 0x00, 0x00, 0x00, 
  0x02, 0x00, 0x00, 0x00, 0x02, 0x00, 0x00, 0x00, 0x04, 0x00, 0x00, 0x00, 
  0x06, 0x00, 0x00, 0x00, 0x32, 0x2e, 0x31, 0x33, 0x2e, 0x30, 0x00, 0x00, 
  0x9a, 0xeb, 0xff, 0xff, 0x04, 0x00, 0x00, 0x00, 0x10, 0x00, 0x00, 0x00, 
  0x31, 0x2e, 0x35, 0x2e, 0x30, 0x00, 0x00, 0x00, 0x00, 0x00, 0x00, 0x00, 
  0x00, 0x00, 0x00, 0x00, 0x88, 0xe6, 0xff, 0xff, 0x8c, 0xe6, 0xff, 0xff, 
  0x90, 0xe6, 0xff, 0xff, 0xc2, 0xeb, 0xff, 0xff, 0x04, 0x00, 0x00, 0x00, 
  0x80, 0x00, 0x00, 0x00, 0x7c, 0xa2, 0x1b, 0x3c, 0x58, 0x32, 0xfb, 0x3d, 
  0x91, 0xfc, 0xb9, 0xbe, 0xaf, 0xdb, 0xd2, 0xbe, 0x80, 0x05, 0x6c, 0x3c, 
  0x18, 0x77, 0x8c, 0x3e, 0x6a, 0x47, 0x5e, 0x3e, 0xc2, 0x2b, 0xf0, 0xbc, 
  0x9d, 0x42, 0xa2, 0x3e, 0xed, 0xf6, 0x42, 0xbe, 0x01, 0x70, 0xbb, 0x3e, 
  0x47, 0xc5, 0x20, 0xbd, 0x5f, 0xdb, 0x10, 0x3e, 0xe2, 0xd5, 0x92, 0x3e, 
  0x5a, 0xe1, 0xd3, 0x3e, 0x10, 0x79, 0x84, 0x3e, 0x9f, 0xc5, 0xcb, 0x3e, 
  0xcb, 0xe8, 0x6c, 0x3e, 0x0f, 0x1b, 0x8b, 0xbe, 0x08, 0xb3, 0x1e, 0xbe, 
  0x68, 0x75, 0xd2, 0xbe, 0x5c, 0x9a, 0xa1, 0x3d, 0xd0, 0x7a, 0xd7, 0xbd, 
  0x93, 0xfa, 0x8f, 0xbd, 0x20, 0x58, 0xf1, 0xbd, 0x5e, 0x16, 0x99, 0xbe, 
  0xf8, 0x2a, 0x4b, 0xbd, 0x10, 0x14, 0x6f, 0xbe, 0xf4, 0xb4, 0x8f, 0x3e, 
  0x55, 0x4f, 0x5b, 0xbe, 0x9f, 0x63, 0xcc, 0xbe, 0x62, 0x6b, 0x8c, 0xbe, 
  0x4e, 0xec, 0xff, 0xff, 0x04, 0x00, 0x00, 0x00, 0x00, 0x10, 0x00, 0x00, 
  0x1b, 0xbb, 0x36, 0x3e, 0x34, 0xfb, 0x6b, 0x3e, 0x27, 0x05, 0x21, 0x3e, 
  0x7b, 0xc9, 0x52, 0x3e, 0x33, 0x44, 0xaf, 0x3d, 0x32, 0x93, 0x97, 0xbe, 
  0x58, 0x3d, 0x3e, 0x3e, 0x4d, 0x67, 0x37, 0xbc, 0x78, 0x3b, 0x7d, 0xbe, 
  0xcb, 0xef, 0x7f, 0x3e, 0xe0, 0xc2, 0x3b, 0xbe, 0xea, 0x56, 0x86, 0xbe, 
  0xaa, 0xef, 0x48, 0x3e, 0x4e, 0x4b, 0x44, 0x3e, 0x2f, 0x20, 0x3e, 0x3e, 
  0x80, 0x0e, 0x54, 0xbd, 0x75, 0xd4, 0x88, 0x3e, 0x98, 0x78, 0x2c, 0x3e, 
  0x53, 0xf8, 0x93, 0x3e, 0xf2, 0x08, 0x69, 0x3e, 0x40, 0xb2, 0xd6, 0x3c, 
  0xa4, 0xcc, 0x7e, 0x3e, 0x8d, 0x89, 0xee, 0x3d, 0xa0, 0x74, 0x83, 0xbd, 
  0x4b, 0x69, 0x97, 0xbe, 0x83, 0x57, 0x78, 0xbc, 0xee, 0xd2, 0xb5, 0xbd, 
  0x2f, 0x73, 0x4e, 0x3e, 0xdd, 0x90, 0x6b, 0x3e, 0x6d, 0xcd, 0x7b, 0xbe, 
  0x16, 0x89, 0x3b, 0x3e, 0x12, 0xc0, 0xa3, 0xbd, 0x42, 0x82, 0x62, 0xbe, 
  0xfc, 0xff, 0xc1, 0x3d, 0xbc, 0x42, 0x61, 0xbe, 0x88, 0x48, 0xb8, 0x3d, 
  0x44, 0xfd, 0x5a, 0xbe, 0xd4, 0xe9, 0x3a, 0xbe, 0x3c, 0x1b, 0xce, 0x3d, 
  0x5c, 0xaa, 0x9a, 0x3d, 0x00, 0xaa, 0x30, 0xbb, 0x20, 0x36, 0xf6, 0x3d, 
  0x52, 0xe5, 0x52, 0xbe, 0x85, 0xa4, 0x96, 0x3e, 0x78, 0x7d, 0xae, 0x3d, 
  0xe6, 0x41, 0x17, 0x3e, 0xcc, 0xf8, 0x10, 0x3e, 0x54, 0xec, 0xa0, 0x3d, 
  0x00, 0x0a, 0x19, 0xbc, 0x36, 0xc2, 0x81, 0xbe, 0xa9, 0x35, 0x29, 0xbe, 
  0x80, 0x75, 0xe5, 0x3c, 0x8c, 0x1f, 0x13, 0x3e, 0x29, 0x20, 0x93, 0x3e, 
  0xe8, 0xf0, 0x25, 0x3e, 0x87, 0x90, 0x89, 0xbe, 0xda, 0x64, 0x72, 0xbe, 
  0xd8, 0x54, 0x36, 0x3e, 0x70, 0x01, 0xbf, 0x3d, 0xba, 0xf3, 0xdf, 0xbd, 
  0x45, 0x52, 0x96, 0x3e, 0xa6, 0x50, 0x47, 0x3e, 0xac, 0x24, 0x50, 0xbe, 
  0x87, 0x56, 0x8d, 0x3e, 0xca, 0x36, 0x30, 0xbe, 0xa2, 0x22, 0x39, 0xbe, 
  0xb1, 0xe7, 0x0f, 0xbd, 0x8c, 0x54, 0xbc, 0xbb, 0xc6, 0x23, 0x9c, 0x3e, 
  0xcf, 0x8c, 0x85, 0x3e, 0x91, 0xdf, 0x89, 0x3e, 0x18, 0x07, 0x75, 0xbd, 
  0xe4, 0x13, 0x58, 0xbe, 0xda, 0x1c, 0x80, 0xbd, 0x08, 0x64, 0x28, 0x3d, 
  0x9c, 0x80, 0x2c, 0xbe, 0xe9, 0x73, 0x91, 0xbe, 0x5f, 0xf7, 0x98, 0x3e, 
  0xdf, 0x26, 0xa3, 0x3e, 0x40, 0xc2, 0xa3, 0xbc, 0x9d, 0xf6, 0x74, 0xbe, 
  0x57, 0x43, 0x88, 0x3e, 0x0c, 0x74, 0xbd, 0x3d, 0xa6, 0xe5, 0x8d, 0xbe, 
  0x71, 0x4d, 0x9c, 0xbe, 0x32, 0x67, 0x2e, 0xbe, 0xb8, 0x69, 0xa1, 0x3d, 
  0x40, 0x87, 0xab, 0xbc, 0xda, 0xbf, 0xd0, 0xbd, 0x54, 0x7f, 0x98, 0x3c, 
  0xac, 0xed, 0x7f, 0xbe, 0x29, 0x08, 0x08, 0x3e, 0x78, 0x64, 0x07, 0x3e, 
  0x52, 0xcb, 0x1b, 0xbe, 0x7c, 0x1b, 0x37, 0xbe, 0x6c, 0x0a, 0xf7, 0xbd, 
  0xb7, 0xc7, 0x7a, 0xbe, 0x08, 0x6d, 0xbb, 0x3d, 0xfa, 0x3e, 0x17, 0x3e, 
  0x9c, 0x53, 0xb1, 0xbc, 0x7e, 0xff, 0x28, 0x3e, 0x2c, 0x52, 0x8d, 0x3e, 
  0x79, 0x37, 0x42, 0xbc, 0xd6, 0xb7, 0x66, 0x3e, 0xad, 0x3a, 0x16, 0xbe, 
  0x77, 0x52, 0x23, 0x3e, 0x48, 0x68, 0x54, 0xbe, 0xdb, 0x79, 0x99, 0xbe, 
  0x06, 0x4b, 0xe7, 0xbd, 0x00, 0xb5, 0x00, 0x3c, 0xb8, 0x32, 0xbf, 0x3d, 
  0x40, 0x46, 0x29, 0xbc, 0xba, 0xa6, 0x13, 0x3e, 0x28, 0x71, 0xfa, 0x3d, 
  0xd0, 0x06, 0xee, 0x3d, 0x82, 0xca, 0x67, 0x3e, 0x62, 0xec, 0x58, 0x3e, 
  0xad, 0xbd, 0xf5, 0xbc, 0xed, 0x49, 0x13, 0xbe, 0xc0, 0xd7, 0x23, 0xbd, 
  0xa1, 0x42, 0x73, 0x3d, 0x0b, 0xba, 0xa8, 0x3d, 0x70, 0x0e, 0xc1, 0x3c, 
  0xfe, 0x70, 0x30, 0xbe, 0x0c, 0xb8, 0x4d, 0xbe, 0xbe, 0xf0, 0x2f, 0x3e, 
  0x48, 0x85, 0x70, 0x3d, 0xd2, 0xe6, 0x43, 0x3e, 0x86, 0x36, 0x67, 0x3e, 
  0x08, 0xed, 0x93, 0x3d, 0xd8, 0x7b, 0xcf, 0xbd, 0x80, 0x6f, 0x93, 0xbb, 
  0xc0, 0xa8, 0x5f, 0xbe, 0x9e, 0x18, 0x75, 0x3e, 0x12, 0xf2, 0x97, 0xbe, 
  0xb1, 0xa5, 0x91, 0x3e, 0xcb, 0xcf, 0x8b, 0xbe, 0x52, 0x4a, 0x58, 0x3e, 
  0xa0, 0xfe, 0x8b, 0xbc, 0x16, 0x81, 0x79, 0xbe, 0x95, 0xd8, 0x62, 0xbe, 
  0xcf, 0xc4, 0x2a, 0xbe, 0xb0, 0xfa, 0x38, 0xbd, 0x8a, 0x10, 0xb1, 0xbd, 
  0x90, 0x4d, 0xa0, 0xbd, 0x7e, 0x40, 0x3e, 0x3e, 0xde, 0x01, 0x73, 0xbe, 
  0xa0, 0xaf, 0x22, 0x3e, 0x70, 0x79, 0x3c, 0x3e, 0x18, 0x6a, 0x12, 0xbd, 
  0x7e, 0xaf, 0xef, 0xbd, 0x50, 0x7c, 0x93, 0x3c, 0x80, 0xdf, 0x16, 0xbe, 
  0x36, 0x66, 0xfc, 0xbd, 0x34, 0x58, 0xac, 0x3d, 0x89, 0xfa, 0x12, 0xbe, 
  0x38, 0xf5, 0x34, 0x3d, 0x2a, 0xbd, 0x5e, 0x3e, 0x20, 0x1d, 0x4a, 0x3c, 
  0x8b, 0x64, 0x90, 0x3e, 0xb2, 0xe7, 0x14, 0xbe, 0x51, 0x9d, 0x90, 0xbc, 
  0x88, 0xe4, 0xff, 0x3d, 0x07, 0xce, 0x6e, 0xbd, 0x84, 0x89, 0xf2, 0xbc, 
  0xc9, 0x50, 0xfa, 0x3c, 0xdd, 0xb3, 0x54, 0x3e, 0x59, 0xd1, 0x37, 0xbc, 
  0x79, 0x4d, 0x71, 0xbe, 0x62, 0x2f, 0x1e, 0x3e, 0x62, 0x8e, 0x8a, 0xbe, 
  0xac, 0xf7, 0xfe, 0xbd, 0x60, 0x76, 0xcd, 0xbc, 0x64, 0x1f, 0x92, 0x3d, 
  0x76, 0x69, 0x8e, 0x3e, 0x7a, 0xbf, 0x7d, 0xbe, 0x40, 0x02, 0xc9, 0x3c, 
  0xb3, 0x7b, 0xeb, 0xbc, 0x1c, 0xb3, 0x0d, 0x3e, 0x30, 0x25, 0x84, 0xbe, 
  0x2e, 0x44, 0x29, 0x3e, 0xc2, 0xb1, 0x7d, 0xbd, 0x57, 0x6f, 0x1c, 0xbe, 
  0xc7, 0xef, 0x88, 0xbe, 0xba, 0xa7, 0x52, 0xbe, 0xf9, 0xa4, 0x53, 0xbe, 
  0x77, 0x05, 0x91, 0x3e, 0xf7, 0xd8, 0x68, 0xbe, 0xf8, 0x76, 0x85, 0x3e, 
  0x16, 0x59, 0x3b, 0xbe, 0x7c, 0x08, 0xac, 0xbd, 0x63, 0x92, 0x99, 0x3e, 
  0x49, 0x17, 0x6d, 0xbe, 0x1d, 0x5e, 0xe9, 0x3d, 0x98, 0xf6, 0x50, 0x3e, 
  0x0a, 0xc6, 0x0f, 0x3d, 0x3e, 0xa5, 0x36, 0x3e, 0x87, 0x8c, 0x6e, 0xbe, 
  0x67, 0x18, 0x99, 0xbe, 0x3f, 0xbc, 0xc2, 0xbd, 0x66, 0x7a, 0x70, 0xbe, 
  0x71, 0x97, 0x9a, 0xbe, 0x4c, 0x07, 0xe1, 0xbd, 0xfe, 0x0d, 0x5b, 0x3e, 
  0x00, 0x40, 0x26, 0x39, 0x78, 0x4a, 0x43, 0x3d, 0x94, 0x2e, 0x80, 0x3e, 
  0x53, 0x35, 0x8d, 0x3e, 0x00, 0x94, 0xba, 0xb9, 0x87, 0xeb, 0x5f, 0x3e, 
  0xda, 0x06, 0x42, 0xbe, 0x1e, 0x27, 0x48, 0x3e, 0xda, 0x6f, 0x0a, 0x3e, 
  0x21, 0xa2, 0x2d, 0x3c, 0xba, 0xcf, 0x8d, 0xbe, 0x1c, 0xe8, 0xe1, 0x3d, 
  0x70, 0xbf, 0x0e, 0xbe, 0x6a, 0x60, 0x47, 0x3e, 0x20, 0xbb, 0x33, 0xbd, 
  0xc8, 0x98, 0x5e, 0x3e, 0xe4, 0x38, 0x3a, 0x3e, 0xe0, 0x36, 0xce, 0x3d, 
  0x10, 0xe9, 0xed, 0xbc, 0x2e, 0xcd, 0x53, 0x3e, 0xde, 0x8d, 0xcd, 0xbc, 
  0xd8, 0xcb, 0x11, 0x3e, 0xa7, 0x84, 0x5e, 0x3e, 0x1a, 0x8f, 0x4e, 0xbe, 
  0x9b, 0xb5, 0x2f, 0xbe, 0x6d, 0xbe, 0xe2, 0x3d, 0x9b, 0xc2, 0x07, 0xbd, 
  0xc0, 0xe9, 0xa8, 0xbd, 0x80, 0xcd, 0xc9, 0xbb, 0x30, 0x59, 0x2c, 0xbd, 
  0xa8, 0xd1, 0xde, 0xbd, 0xfe, 0xed, 0x56, 0xbe, 0x50, 0xbb, 0xeb, 0x3c, 
  0x89, 0xd0, 0x8b, 0x3e, 0x3c, 0xab, 0xa1, 0x3e, 0x58, 0x27, 0x43, 0xbd, 
  0x60, 0x4e, 0x1a, 0x3d, 0x63, 0x43, 0x86, 0x3e, 0xc9, 0x82, 0x0b, 0xbe, 
  0xbb, 0x53, 0x6d, 0xbe, 0x6d, 0x8c, 0x29, 0xbe, 0x6e, 0x36, 0xd3, 0x3b, 
  0x99, 0x3c, 0xa3, 0x3e, 0xa4, 0x48, 0x74, 0xbe, 0x76, 0xec, 0xa3, 0x3d, 
  0xea, 0xcd, 0xbd, 0x3e, 0x84, 0x71, 0x1f, 0x3e, 0xbe, 0xfa, 0x75, 0x3e, 
  0x9b, 0x82, 0x87, 0xbd, 0x52, 0x78, 0x45, 0x3e, 0x4e, 0x13, 0x8b, 0xbe, 
  0x4c, 0xb4, 0x75, 0xbd, 0x77, 0x99, 0x65, 0x3d, 0x63, 0x02, 0xe2, 0x3d, 
  0x22, 0xb0, 0x08, 0x3e, 0x96, 0x2f, 0x82, 0x3e, 0x05, 0xaf, 0x97, 0xbd, 
  0x4a, 0x77, 0x4f, 0xbe, 0x39, 0xb5, 0x89, 0xbd, 0x70, 0x78, 0x6b, 0x3e, 
  0xfe, 0x71, 0x34, 0xbe, 0x2c, 0xde, 0xb4, 0xbd, 0xd4, 0xd6, 0x33, 0x3e, 
  0x05, 0x6f, 0x8e, 0xbe, 0xf5, 0x66, 0x14, 0xbe, 0x60, 0xb5, 0x1f, 0xbc, 
  0xee, 0xaf, 0x0e, 0x3e, 0xf3, 0x1e, 0x8a, 0x3e, 0xe0, 0xf4, 0xe6, 0xbc, 
  0xeb, 0x14, 0x86, 0xbe, 0x61, 0x24, 0x93, 0x3e, 0xe2, 0xc9, 0xb4, 0xbd, 
  0xe3, 0xc8, 0x5a, 0xbe, 0xac, 0x3b, 0x8d, 0xbe, 0x90, 0x3f, 0xe9, 0xbc, 
  0x98, 0x3b, 0x75, 0x3d, 0x56, 0x4c, 0x78, 0x3c, 0x7e, 0xa6, 0x86, 0xbe, 
  0x60, 0x2c, 0x38, 0x3c, 0x05, 0x40, 0x0b, 0x3e, 0x67, 0xf6, 0x13, 0x3d, 
  0xc8, 0x06, 0xa9, 0x3d, 0x4e, 0x89, 0xa3, 0xbd, 0x7e, 0xca, 0x69, 0x3e, 
  0x13, 0xcf, 0x4e, 0xbe, 0xc2, 0xf7, 0x5f, 0xbd, 0x41, 0xc3, 0x7d, 0x3d, 
  0xca, 0x50, 0x9b, 0xbe, 0xf5, 0x7b, 0x19, 0x3e, 0xb7, 0x36, 0x62, 0xbe, 
  0xbe, 0x80, 0x55, 0x3e, 0x8f, 0x3e, 0x52, 0xbe, 0x02, 0x32, 0x55, 0x3e, 
  0xe6, 0x08, 0x18, 0xbe, 0x3e, 0x3e, 0x71, 0xbe, 0xc8, 0x8d, 0x59, 0xbe, 
  0x02, 0xaf, 0x46, 0x3e, 0x92, 0x95, 0x1d, 0x3e, 0xd5, 0x51, 0x5f, 0xbe, 
  0xce, 0xdc, 0x73, 0x3e, 0x08, 0xb7, 0xc5, 0xbd, 0x7b, 0x15, 0x09, 0x3e, 
  0xae, 0xf9, 0x88, 0xbe, 0x35, 0x9b, 0x95, 0xbe, 0x50, 0xe5, 0x31, 0x3d, 
  0x9e, 0x29, 0x57, 0xbc, 0xf8, 0xaa, 0x3e, 0x3c, 0x9b, 0xc7, 0x97, 0xbe, 
  0xd7, 0x31, 0xfa, 0xbd, 0x05, 0xae, 0xa5, 0x3e, 0x6c, 0xff, 0x89, 0xbe, 
  0x4d, 0x6d, 0x5c, 0x3e, 0xd1, 0xb3, 0x32, 0xbb, 0x5b, 0xce, 0x22, 0xbe, 
  0xf4, 0x51, 0xc9, 0xbd, 0x40, 0x31, 0xde, 0x3d, 0x53, 0x24, 0xf4, 0x3d, 
  0x46, 0x36, 0x98, 0x3e, 0x29, 0x76, 0x58, 0x3e, 0x6d, 0xe9, 0xc4, 0xbd, 
  0xdf, 0x18, 0x6e, 0xbe, 0x6f, 0x17, 0x5b, 0x3d, 0x40, 0xf5, 0x83, 0x3e, 
  0xe9, 0xd3, 0x6d, 0x3d, 0xa0, 0x78, 0x2d, 0x3c, 0xd9, 0xf1, 0xaa, 0xbe, 
  0xd8, 0x42, 0xe9, 0x3d, 0x87, 0x62, 0x81, 0xbe, 0x9e, 0xa7, 0xab, 0xbd, 
  0x98, 0xc8, 0x0b, 0x3e, 0xd5, 0xcb, 0x69, 0xbe, 0xb6, 0x3d, 0x0c, 0x3e, 
  0x30, 0xbd, 0x92, 0xbd, 0xeb, 0xde, 0x5c, 0x3e, 0x44, 0x82, 0xc6, 0x3d, 
  0xb0, 0x60, 0x73, 0x3d, 0xa0, 0x0f, 0x0f, 0x3d, 0x4a, 0x4a, 0x55, 0xbe, 
  0xfe, 0x8f, 0xd6, 0x3c, 0xa8, 0x99, 0x54, 0xbe, 0xb0, 0x48, 0x72, 0x3e, 
  0xbf, 0x87, 0xa6, 0xbe, 0x12, 0x08, 0x5a, 0x3e, 0x2d, 0xf5, 0xc3, 0x3d, 
  0x75, 0xdf, 0x88, 0xbd, 0x69, 0x1f, 0x0d, 0xbe, 0x44, 0xea, 0x82, 0x3d, 
  0x34, 0x56, 0x30, 0x3e, 0xdf, 0x41, 0xde, 0x3d, 0x3f, 0xfd, 0x16, 0x3d, 
  0xe9, 0xb2, 0x41, 0x3e, 0xf1, 0x74, 0x81, 0xbe, 0xa1, 0xd1, 0x3c, 0xbe, 
  0xe9, 0xee, 0xa0, 0x3a, 0xa0, 0x3e, 0x65, 0x3e, 0xa2, 0xd8, 0x7e, 0x3e, 
  0xbf, 0xb7, 0x8b, 0xbe, 0x6d, 0xe1, 0x9c, 0x3e, 0x80, 0x57, 0x4b, 0xbb, 
  0x30, 0x94, 0x91, 0x3d, 0x12, 0xe1, 0xf8, 0xbd, 0x40, 0x71, 0xb9, 0x3c, 
  0xf4, 0x75, 0xcf, 0xbd, 0xf0, 0x4e, 0x5a, 0x3d, 0x82, 0xc2, 0x2f, 0x3e, 
  0xe6, 0x02, 0x03, 0x3e, 0xbf, 0x8b, 0x19, 0xbe, 0xf6, 0x6b, 0xc7, 0xbd, 
  0xd3, 0xc6, 0x80, 0x3e, 0x6a, 0x57, 0x0c, 0xbe, 0xb1, 0xe8, 0x47, 0xbe, 
  0x64, 0x0d, 0x49, 0xbe, 0x5b, 0xbc, 0x20, 0x3a, 0xbf, 0x40, 0x8d, 0xbd, 
  0xc4, 0xe8, 0x91, 0x3d, 0x03, 0xe1, 0x5d, 0x3e, 0xb9, 0xd5, 0x38, 0xbe, 
  0xf9, 0x93, 0x8f, 0x3e, 0x18, 0x60, 0x29, 0xbd, 0xd6, 0x43, 0x4e, 0x3e, 
  0xf9, 0xfe, 0x8e, 0xbe, 0x48, 0x05, 0x5b, 0x3e, 0xa2, 0xf9, 0xcf, 0x3d, 
  0xee, 0x3b, 0x92, 0xbe, 0x1f, 0x24, 0x83, 0x3e, 0xab, 0x7b, 0x81, 0x3e, 
  0xa0, 0xfa, 0x09, 0xbe, 0x0c, 0xf7, 0x61, 0x3e, 0xda, 0xc4, 0x0a, 0x3e, 
  0x98, 0xe6, 0x03, 0x3c, 0xc6, 0x58, 0x27, 0x3e, 0x60, 0xc7, 0xb1, 0xbc, 
  0x34, 0xce, 0x99, 0x3d, 0x91, 0x27, 0x2c, 0xbe, 0xec, 0x07, 0x6d, 0x3d, 
  0xe8, 0xa3, 0x68, 0x3d, 0xf4, 0xf2, 0x2e, 0x3e, 0x7f, 0x01, 0x57, 0x3e, 
  0x26, 0xdd, 0x24, 0x3e, 0x2e, 0xed, 0x8a, 0xbd, 0x65, 0x22, 0x37, 0xbe, 
  0xfb, 0x11, 0xb4, 0xbd, 0xbe, 0x59, 0x88, 0x3e, 0x80, 0xb0, 0xe9, 0xbb, 
  0x6f, 0x9f, 0xce, 0x3d, 0xce, 0x82, 0x44, 0xbd, 0x8a, 0x2f, 0x39, 0x3e, 
  0xe9, 0x95, 0xb1, 0xbd, 0x12, 0xe3, 0x62, 0xbe, 0xb0, 0x5f, 0x14, 0x3d, 
  0xe2, 0x06, 0x99, 0xbd, 0xdc, 0xd7, 0x2f, 0x3e, 0xf2, 0xea, 0x98, 0xbd, 
  0xc0, 0x1c, 0xd5, 0x3c, 0x14, 0x20, 0xd0, 0xbd, 0x90, 0x53, 0xce, 0x3c, 
  0x00, 0xe3, 0x1d, 0xbb, 0x5b, 0x5f, 0x8d, 0xbe, 0x25, 0xd4, 0x8f, 0x3e, 
  0xf4, 0xfa, 0xa1, 0xbd, 0xaa, 0x1d, 0x4c, 0x3e, 0xbd, 0xd0, 0x98, 0x3e, 
  0xcc, 0x7d, 0x7b, 0xbe, 0x66, 0x87, 0x5c, 0x3e, 0xf8, 0x8b, 0x78, 0xbe, 
  0xf4, 0xf3, 0x0a, 0x3e, 0xd2, 0xce, 0x8d, 0xbd, 0xe8, 0x88, 0x78, 0xbe, 
  0x99, 0x3a, 0x87, 0x3e, 0xdc, 0x53, 0xe7, 0xbd, 0x40, 0x7a, 0x7b, 0xbd, 
  0xb8, 0x9b, 0xb7, 0xbd, 0x6d, 0x7b, 0x4f, 0xbe, 0xc4, 0x89, 0x12, 0xbe, 
  0xa3, 0x98, 0x83, 0xbe, 0x20, 0x05, 0x8b, 0x3c, 0xe8, 0x94, 0xc7, 0x3d, 
  0x06, 0xcf, 0x35, 0x3e, 0x36, 0x3d, 0x1b, 0xbe, 0x24, 0xca, 0x91, 0xbe, 
  0xb6, 0x48, 0x30, 0x3e, 0x00, 0x49, 0xd3, 0xbc, 0xbe, 0x2b, 0x59, 0x3e, 
  0x6e, 0xfd, 0x24, 0x3e, 0x5a, 0xeb, 0x6e, 0x3e, 0x31, 0xa1, 0x89, 0x3e, 
  0x51, 0xf9, 0x84, 0xbe, 0x38, 0xad, 0x79, 0xbd, 0x92, 0xe7, 0x29, 0xbe, 
  0xa0, 0xe0, 0x91, 0xbe, 0x38, 0xab, 0x85, 0x3d, 0x70, 0x4a, 0x13, 0x3d, 
  0x5e, 0x2b, 0x53, 0x3e, 0x4c, 0xc4, 0x34, 0x3e, 0x9c, 0x44, 0x3b, 0x3e, 
  0xb6, 0x68, 0xc0, 0xbd, 0x00, 0xf7, 0xd2, 0x3d, 0x90, 0x66, 0xcd, 0xbc, 
  0xd8, 0x9b, 0x48, 0x3d, 0xec, 0x88, 0xaf, 0xbd, 0x9c, 0x14, 0x8e, 0xbe, 
  0xc0, 0x18, 0x05, 0xbc, 0x2e, 0xc0, 0x7b, 0x3e, 0x9a, 0xfb, 0x45, 0x3e, 
  0x56, 0x5e, 0x9d, 0xbd, 0x6a, 0xa1, 0x86, 0xbe, 0x14, 0x52, 0x70, 0xbd, 
  0xd0, 0x61, 0xa2, 0x3c, 0xc8, 0xf9, 0x5b, 0x3d, 0x06, 0xf5, 0x4d, 0x3e, 
  0x3c, 0x3f, 0x6f, 0xbe, 0xcc, 0x95, 0xc4, 0x3d, 0x24, 0x66, 0x86, 0x3d, 
  0xb4, 0xa1, 0x53, 0xbe, 0x31, 0x1d, 0x41, 0xbe, 0x20, 0x1f, 0x5a, 0xbc, 
  0x06, 0xbe, 0x59, 0x3e, 0x0a, 0x8b, 0xda, 0xbd, 0x48, 0x79, 0x6a, 0x3d, 
  0xd3, 0x46, 0x8d, 0xbe, 0xf3, 0x77, 0x14, 0xbe, 0x02, 0xec, 0x85, 0xbe, 
  0xe8, 0xcf, 0x48, 0x3d, 0x56, 0x43, 0x04, 0xbe, 0x16, 0xc6, 0x76, 0x3e, 
  0x07, 0x76, 0x91, 0x3e, 0x06, 0x60, 0x04, 0xbe, 0xc8, 0x1e, 0x4a, 0x3d, 
  0xf2, 0xf1, 0x42, 0xbe, 0x2b, 0xf2, 0x66, 0xbe, 0xc4, 0xff, 0xf1, 0x3d, 
  0x9a, 0xd0, 0x15, 0x3e, 0x22, 0xb0, 0x3c, 0xbe, 0x00, 0x3f, 0x2d, 0xbe, 
  0x98, 0xc3, 0x10, 0x3e, 0xc0, 0x91, 0x01, 0x3c, 0xe8, 0xe5, 0x47, 0xbd, 
  0x80, 0x16, 0x4d, 0xbb, 0x38, 0x6a, 0x71, 0xbe, 0x0c, 0xb1, 0x19, 0xbe, 
  0xdd, 0x48, 0x00, 0xbe, 0x20, 0x59, 0x55, 0xbd, 0x79, 0xb6, 0x9a, 0xbe, 
  0x68, 0x77, 0x58, 0xbd, 0xca, 0x2a, 0x65, 0x3e, 0xa0, 0xde, 0x57, 0x3d, 
  0x68, 0x33, 0x0e, 0x3d, 0x49, 0x45, 0x2e, 0xbe, 0x27, 0x4e, 0x9e, 0xbe, 
  0xe4, 0xa2, 0xf6, 0x3c, 0xf5, 0x11, 0xc2, 0x3d, 0xdb, 0xaa, 0x83, 0x3e, 
  0x88, 0x4c, 0x56, 0x3e, 0xb1, 0x8d, 0x6e, 0x3e, 0x21, 0x4d, 0xd6, 0x3d, 
  0x9a, 0x4c, 0x26, 0x3e, 0xe8, 0x49, 0x94, 0xbe, 0xf8, 0xa9, 0x0d, 0x3d, 
  0x40, 0xcb, 0xb1, 0x3b, 0xb0, 0xb1, 0x17, 0xbd, 0xec, 0xa7, 0xe1, 0x3d, 
  0x48, 0x75, 0x84, 0x3d, 0x35, 0x86, 0x56, 0xbe, 0xf6, 0xa6, 0x96, 0xbe, 
  0x68, 0x3c, 0x17, 0x3e, 0x55, 0xb7, 0x82, 0x3d, 0x4d, 0x54, 0x1e, 0xbe, 
  0xc6, 0xd9, 0x23, 0x3e, 0xa4, 0x1b, 0x89, 0xbe, 0xbe, 0x1d, 0xd9, 0x3d, 
  0x69, 0x1d, 0xe6, 0xbd, 0xe8, 0xdb, 0x6d, 0xbe, 0xc4, 0xfb, 0xd1, 0xbd, 
  0xb5, 0x47, 0x8e, 0xbd, 0x90, 0xdc, 0xc4, 0x3d, 0x0f, 0x4d, 0x72, 0x3e, 
  0xc0, 0x06, 0x12, 0x3e, 0x2c, 0x67, 0xed, 0x3d, 0xc8, 0x3c, 0x30, 0x3d, 
  0x88, 0xba, 0x79, 0x3d, 0x27, 0x6a, 0x49, 0x3e, 0x9c, 0x36, 0x0e, 0x3e, 
  0x81, 0xb3, 0x87, 0x3d, 0x2c, 0x36, 0x97, 0xbd, 0xd8, 0xed, 0x8e, 0xbd, 
  0xb9, 0x5c, 0xff, 0xbd, 0x59, 0x7e, 0x0b, 0x3e, 0xc1, 0x5a, 0x58, 0x3e, 
  0x33, 0x1a, 0x92, 0xbe, 0x5c, 0x5c, 0x80, 0xbe, 0x93, 0x38, 0x26, 0xbe, 
  0x70, 0x9d, 0x0b, 0x3d, 0xb0, 0x1e, 0xf2, 0x3d, 0xe0, 0x10, 0x8e, 0xbd, 
  0xfa, 0x0e, 0x21, 0xbe, 0x28, 0x92, 0x5f, 0x3d, 0x1c, 0xf6, 0x51, 0xbe, 
  0x38, 0xa8, 0x90, 0xbd, 0xb5, 0x96, 0x24, 0xbe, 0x8d, 0xd7, 0x91, 0x3e, 
  0x14, 0x56, 0x03, 0x3e, 0x67, 0x99, 0xe3, 0x3d, 0x8f, 0x74, 0x3f, 0xbc, 
  0x52, 0xa8, 0xa1, 0xbd, 0x60, 0x02, 0x08, 0x3e, 0xa0, 0x3e, 0x37, 0xbe, 
  0xca, 0x68, 0x61, 0x3e, 0x3a, 0x85, 0x59, 0x3e, 0x77, 0x5f, 0x4f, 0xbe, 
  0x8c, 0x86, 0xd9, 0x3d, 0xb2, 0xb3, 0x51, 0x3e, 0x28, 0xdb, 0x22, 0x3d, 
  0x79, 0xb1, 0x47, 0x3e, 0x4c, 0x52, 0x64, 0xbe, 0x85, 0x56, 0x8a, 0xbe, 
  0x63, 0xe4, 0xd4, 0xbb, 0xd4, 0x54, 0x2b, 0x3d, 0xa9, 0xea, 0xa9, 0x3e, 
  0x8f, 0x67, 0x3a, 0x3e, 0xa2, 0x6f, 0x80, 0xbd, 0xe1, 0xb4, 0x8d, 0xbe, 
  0x64, 0x88, 0xdb, 0xbd, 0x7e, 0x9c, 0x2a, 0x3e, 0x80, 0x38, 0x9b, 0x3d, 
  0x96, 0xd2, 0x41, 0x3e, 0x6b, 0xbe, 0x94, 0xbe, 0xa4, 0xf8, 0x3b, 0xbe, 
  0x50, 0x5b, 0xcb, 0x3d, 0x6e, 0x01, 0x30, 0x3e, 0x64, 0x65, 0x87, 0x3e, 
  0x13, 0xc8, 0x92, 0xbe, 0x68, 0x17, 0x18, 0x3e, 0x00, 0x92, 0xf9, 0xbb, 
  0xe4, 0x88, 0xd9, 0x3d, 0x71, 0xb5, 0xa0, 0x3e, 0xb0, 0xc8, 0x81, 0xbd, 
  0x8e, 0x8d, 0x8c, 0xbc, 0xd8, 0x60, 0xf8, 0x3d, 0x30, 0xf5, 0x50, 0x3d, 
  0xa5, 0x8e, 0x81, 0x3d, 0xb8, 0x63, 0x11, 0xbe, 0x39, 0x6a, 0x87, 0x3e, 
  0x63, 0xfe, 0x4c, 0xbe, 0xc5, 0x0e, 0x38, 0xbe, 0x73, 0x03, 0xa5, 0x3e, 
  0x9d, 0x52, 0x6b, 0x3e, 0xac, 0x15, 0x7b, 0xbe, 0x85, 0x20, 0x29, 0x3e, 
  0xc8, 0xd2, 0x64, 0x3e, 0xe1, 0x99, 0xa1, 0x3e, 0x42, 0x7a, 0x98, 0x3e, 
  0xba, 0xe5, 0x6f, 0xbe, 0xc0, 0x16, 0xf5, 0x3c, 0x58, 0xfd, 0x0b, 0xbc, 
  0x1e, 0x55, 0x86, 0xbd, 0x58, 0x2f, 0x2e, 0xbd, 0x3a, 0x59, 0x84, 0xbd, 
  0xb0, 0xc1, 0xa4, 0xbd, 0x0c, 0x1c, 0x7b, 0xbe, 0x09, 0x86, 0x2d, 0xbe, 
  0x7d, 0xfd, 0x88, 0xbe, 0x41, 0x58, 0xa1, 0x3c, 0xb8, 0x59, 0x1e, 0x3e, 
  0x04, 0xb4, 0xf4, 0xbd, 0x80, 0x6f, 0x5b, 0x3b, 0xb9, 0x2d, 0xa3, 0x3e, 
  0x69, 0xf9, 0x85, 0x3e, 0xf9, 0x7b, 0x9b, 0x3e, 0x3c, 0x4f, 0x61, 0x3e, 
  0xb1, 0x68, 0xa7, 0x3c, 0x99, 0xf1, 0x8d, 0x3e, 0xe1, 0xf1, 0x8d, 0xbe, 
  0x7f, 0x19, 0x1e, 0xbe, 0x28, 0xce, 0x1f, 0x3d, 0x4a, 0x50, 0x94, 0xbe, 
  0x3e, 0x91, 0x23, 0xbe, 0x66, 0x73, 0x26, 0x3e, 0xa8, 0x34, 0x3e, 0x3d, 
  0x72, 0x30, 0x7f, 0x3e, 0xfa, 0x0d, 0x28, 0x3e, 0xc7, 0xc3, 0x92, 0xbe, 
  0x9c, 0x7d, 0xe6, 0xbd, 0x94, 0x17, 0xb9, 0x3d, 0xa1, 0xb2, 0x09, 0xbe, 
  0xff, 0xfd, 0x88, 0xbe, 0xda, 0x34, 0x48, 0x3e, 0x32, 0x17, 0x48, 0x3e, 
  0xee, 0x7c, 0x50, 0xbe, 0xe0, 0x85, 0xf1, 0x3c, 0x99, 0x13, 0x61, 0xbe, 
  0xa0, 0x93, 0x0c, 0xbc, 0xf0, 0xad, 0x47, 0x3d, 0x4c, 0x30, 0x3c, 0x3e, 
  0x38, 0x3e, 0x4e, 0x3d, 0x46, 0xf0, 0x75, 0x3e, 0xad, 0xfe, 0x81, 0x3e, 
  0x58, 0x15, 0x8d, 0x3d, 0x24, 0x43, 0xe4, 0x3d, 0x10, 0x02, 0x89, 0x3c, 
  0xf5, 0x4e, 0x97, 0x3e, 0x80, 0x28, 0x04, 0xbb, 0xeb, 0x48, 0x2a, 0xbe, 
  0x94, 0x02, 0x04, 0x3e, 0xa6, 0xcc, 0x29, 0xbe, 0x29, 0x08, 0x90, 0xbe, 
  0xb8, 0xce, 0x23, 0x3d, 0x36, 0xfe, 0x96, 0xbe, 0xd1, 0xfd, 0x8c, 0x3e, 
  0x58, 0x29, 0x82, 0x3e, 0x46, 0x33, 0x46, 0x3e, 0xa2, 0xf4, 0x3c, 0x3e, 
  0xee, 0xb2, 0x7e, 0xbe, 0xfb, 0xc2, 0xa2, 0x3c, 0xfd, 0x41, 0x88, 0x3e, 
  0x53, 0xe4, 0x6c, 0xbe, 0x0b, 0xf4, 0x09, 0xbe, 0x84, 0xac, 0xe8, 0x3d, 
  0x0e, 0xbc, 0x09, 0xbe, 0x9e, 0x1c, 0x75, 0xbe, 0xe0, 0xc7, 0x11, 0x3c, 
  0xa0, 0xbd, 0xd6, 0x3d, 0x7a, 0xd1, 0x4c, 0x3e, 0xde, 0xed, 0x27, 0x3e, 
  0x1a, 0x2b, 0x8a, 0xbe, 0xbe, 0xa8, 0x7f, 0xbe, 0xac, 0xf1, 0x88, 0x3e, 
  0x18, 0x3d, 0x7e, 0xbd, 0x80, 0x7d, 0xea, 0x3c, 0xf6, 0x86, 0x56, 0x3e, 
  0x83, 0x08, 0x8f, 0x3d, 0xd3, 0x86, 0x94, 0xbe, 0xaf, 0x9a, 0x81, 0xbe, 
  0x18, 0x29, 0x51, 0x3d, 0x8b, 0xde, 0x1b, 0x3e, 0x6a, 0x33, 0x68, 0xbe, 
  0x5b, 0x0b, 0xbf, 0x3d, 0xbb, 0xdf, 0xfd, 0xbd, 0x94, 0x07, 0x1a, 0x3e, 
  0x04, 0x28, 0x4c, 0xbe, 0x66, 0x96, 0xb7, 0xbd, 0xc2, 0x16, 0x81, 0xbe, 
  0x78, 0x53, 0xa1, 0xbd, 0x64, 0xe6, 0x33, 0xbe, 0x98, 0x4c, 0x06, 0x3d, 
  0x00, 0x88, 0xc3, 0xbb, 0x38, 0xe2, 0x50, 0xbe, 0x30, 0xfb, 0x29, 0x3e, 
  0xf4, 0xf9, 0x8a, 0x3d, 0x6e, 0xc8, 0xb4, 0xbd, 0xcc, 0x6b, 0xf8, 0xbd, 
  0x46, 0x91, 0x95, 0xbd, 0xe2, 0x1b, 0x61, 0x3e, 0x40, 0x89, 0x65, 0xbe, 
  0xa0, 0x0d, 0x05, 0x3d, 0xb6, 0x7a, 0x8d, 0xbe, 0x80, 0x29, 0xfb, 0xbd, 
  0x88, 0x9a, 0xa4, 0x3d, 0xc0, 0x2e, 0x4e, 0xbd, 0xf8, 0xd9, 0x5f, 0xbe, 
  0x56, 0x6e, 0x75, 0x3e, 0x26, 0x26, 0x39, 0x3e, 0x84, 0x99, 0x96, 0x3d, 
  0xdc, 0x53, 0x99, 0xbe, 0x2c, 0x24, 0xfa, 0xbd, 0x48, 0x28, 0x0e, 0xbe, 
  0x42, 0x94, 0x4c, 0x3e, 0xac, 0x2a, 0x38, 0x3e, 0x74, 0x9e, 0x9e, 0xbd, 
  0x2e, 0xe7, 0x73, 0xbe, 0x00, 0x0a, 0xf7, 0xbd, 0x9c, 0x08, 0x74, 0xbe, 
  0x80, 0x69, 0x0e, 0x3e, 0xf5, 0xcf, 0xc3, 0x3d, 0x59, 0x61, 0xa1, 0xbd, 
  0xd8, 0xdf, 0x63, 0xbe, 0x05, 0x98, 0x74, 0x3d, 0xa0, 0x97, 0x58, 0x3e, 
  0x3c, 0x0e, 0x8d, 0x3e, 0xfe, 0xe1, 0x4a, 0xbe, 0xc4, 0x8e, 0xf8, 0xba, 
  0xc0, 0x7d, 0xcb, 0x3c, 0x91, 0xac, 0x48, 0xbe, 0xf0, 0x22, 0xb2, 0x3c, 
  0xc2, 0x6c, 0x1c, 0x3e, 0x98, 0x5b, 0x20, 0x3e, 0xaa, 0x83, 0xb1, 0xbd, 
  0x9b, 0xdd, 0x00, 0xbe, 0xd5, 0xc2, 0x2d, 0xbe, 0x6f, 0xb3, 0x8c, 0x3e, 
  0x6b, 0x1d, 0x21, 0x3e, 0x50, 0x34, 0xea, 0x3d, 0x7e, 0x39, 0x24, 0x3e, 
  0x18, 0x87, 0x3e, 0x3d, 0x9b, 0x56, 0x41, 0xbe, 0xbd, 0x9b, 0x40, 0x3e, 
  0x86, 0x2b, 0x76, 0x3e, 0xcb, 0xf2, 0xe0, 0xbd, 0xf5, 0x05, 0x84, 0xbe, 
  0xb8, 0x50, 0x2e, 0x3d, 0x01, 0xc3, 0xb1, 0xbc, 0x40, 0x3b, 0x84, 0x3e, 
  0x40, 0x7a, 0xb3, 0x3b, 0xaa, 0xce, 0x54, 0x3e, 0xee, 0x79, 0x5a, 0xbe, 
  0x20, 0x4a, 0x21, 0xbc, 0x88, 0x1c, 0x2b, 0xbe, 0x19, 0xd6, 0x8e, 0x3e, 
  0x78, 0xb9, 0x3b, 0x3d, 0x4d, 0x02, 0x1a, 0xbe, 0x3a, 0x93, 0x68, 0x3e, 
  0x58, 0xc2, 0x30, 0xbd, 0x40, 0xc6, 0x73, 0x3c, 0x95, 0xf0, 0x08, 0xbe, 
  0x33, 0x1c, 0x13, 0xbe, 0xae, 0xc6, 0xfa, 0xbd, 0xcd, 0xd9, 0x37, 0xbe, 
  0x16, 0x21, 0x59, 0x3e, 0x8c, 0x7b, 0x2b, 0xbe, 0x26, 0xc4, 0xbc, 0xbd, 
  0x6e, 0x77, 0x62, 0x3e, 0x89, 0x8a, 0x03, 0xbe, 0xe0, 0x1d, 0xee, 0xbc, 
  0xfb, 0xab, 0x42, 0xbe, 0xc3, 0x50, 0x69, 0xbe, 0x47, 0x85, 0x30, 0xbe, 
  0x10, 0xee, 0x50, 0xbd, 0x02, 0xe5, 0x70, 0xbe, 0x20, 0xd5, 0x14, 0x3d, 
  0x94, 0xfe, 0x88, 0xbe, 0x6a, 0x29, 0x61, 0xbe, 0x7c, 0x1f, 0x89, 0x3d, 
  0xa2, 0xc8, 0xfa, 0xbd, 0x38, 0x4f, 0xa8, 0xbd, 0x48, 0x32, 0xa4, 0x3d, 
  0x62, 0xd4, 0x20, 0x3e, 0x1d, 0x19, 0x24, 0xbe, 0x81, 0x92, 0x06, 0xbd, 
  0x9e, 0x54, 0x85, 0x3e, 0x00, 0x71, 0x93, 0xbc, 0x24, 0xdc, 0x7d, 0x3d, 
  0xe5, 0x63, 0xa6, 0x3e, 0x1f, 0xae, 0x70, 0x3e, 0xf4, 0xda, 0x99, 0x3e, 
  0x16, 0x15, 0xa3, 0x3e, 0x91, 0x0c, 0x7b, 0xbe, 0xbe, 0xfc, 0x7a, 0x3e, 
  0x30, 0xfc, 0x54, 0xbe, 0x23, 0x13, 0x83, 0x3e, 0x52, 0x82, 0x16, 0xbe, 
  0xc6, 0x7b, 0x68, 0xbe, 0x5c, 0x6c, 0x7c, 0xbe, 0x66, 0xb3, 0x17, 0xbe, 
  0xa2, 0xc9, 0x39, 0x3e, 0x2a, 0x7d, 0x68, 0xbe, 0x10, 0x9d, 0xa8, 0xbd, 
  0x3f, 0xc2, 0x26, 0xbe, 0x94, 0x12, 0x3e, 0xbe, 0xf3, 0x15, 0x97, 0x3c, 
  0xe5, 0xe8, 0x4f, 0xbe, 0xac, 0x74, 0x3c, 0x3e, 0x19, 0x89, 0x27, 0xbd, 
  0x2a, 0x63, 0x9f, 0xbd, 0xa0, 0xd5, 0x0d, 0xbd, 0xf4, 0x4a, 0x3f, 0xbd, 
  0x98, 0xec, 0x87, 0x3e, 0x18, 0xca, 0x3d, 0x3e, 0x88, 0xec, 0xcc, 0xbd, 
  0x3c, 0x47, 0xc8, 0x3d, 0x8c, 0x13, 0x20, 0x3e, 0x80, 0x47, 0x3a, 0x3d, 
  0x40, 0x9d, 0xbb, 0x3d, 0xde, 0x7d, 0xa8, 0xbd, 0xd6, 0x8f, 0x88, 0xbe, 
  0x78, 0xbc, 0x25, 0xbd, 0x57, 0xf3, 0x6e, 0xbe, 0x78, 0x35, 0x11, 0x3d, 
  0x16, 0xaa, 0x6a, 0x3e, 0xc8, 0xcd, 0x7b, 0x3d, 0x20, 0xab, 0xc4, 0x3c, 
  0xf2, 0xf8, 0x73, 0x3e, 0x63, 0xc5, 0x94, 0x3e, 0x04, 0x26, 0xf3, 0xbd, 
  0xc0, 0x7b, 0xa7, 0x3b, 0x38, 0x81, 0x6e, 0x3d, 0xb0, 0x4c, 0x6e, 0x3d, 
  0xc0, 0x25, 0x84, 0xbd, 0x38, 0x1d, 0x08, 0x3d, 0xaa, 0x9c, 0x21, 0x3e, 
  0x8c, 0xb8, 0x3a, 0x3e, 0xcf, 0xe1, 0x87, 0x3e, 0x8f, 0x46, 0x82, 0xbe, 
  0x18, 0xe5, 0x59, 0xbd, 0x0e, 0xf3, 0x4f, 0x3e, 0x56, 0x73, 0x0c, 0x3e, 
  0x64, 0xc9, 0x3c, 0xbe, 0x52, 0x9c, 0x36, 0xbe, 0x50, 0x1e, 0x9a, 0x3d, 
  0xc6, 0x0b, 0x3b, 0xbe, 0x03, 0x31, 0x2d, 0xbe, 0x1f, 0xfc, 0x68, 0xbe, 
  0x7c, 0xc8, 0x80, 0x3d, 0xc4, 0xcd, 0xfe, 0x3d, 0xc0, 0x41, 0x6e, 0xbd, 
  0xc4, 0x73, 0x81, 0x3d, 0x53, 0x91, 0x94, 0xbe, 0xb0, 0xe4, 0x93, 0x3d, 
  0xdd, 0x0b, 0x90, 0xbe, 0x9b, 0x1a, 0x88, 0x3e, 0x52, 0x6f, 0xab, 0xbd, 
  0xe2, 0x31, 0x34, 0xbe, 0xc8, 0x7c, 0xa7, 0x3d, 0xfa, 0xda, 0x00, 0x3e, 
  0x0c, 0x23, 0x91, 0xbe, 0x62, 0xb8, 0x53, 0x3e, 0x34, 0x60, 0xc2, 0x3d, 
  0xe8, 0x47, 0x37, 0xbd, 0xb0, 0xfb, 0x7a, 0xbe, 0x0b, 0x02, 0x83, 0x3e, 
  0x60, 0x63, 0x1d, 0x3c, 0xe8, 0x5a, 0x2e, 0x3e, 0xbb, 0x60, 0x84, 0x3e, 
  0x34, 0x38, 0x7b, 0xbd, 0x92, 0x5a, 0x12, 0x3e, 0x80, 0x19, 0xc1, 0x3d, 
  0x70, 0xd2, 0x37, 0xbd, 0x0b, 0xf6, 0x65, 0xbe, 0x2c, 0x8e, 0xe9, 0xbd, 
  0xe8, 0x11, 0xd7, 0xbd, 0x90, 0x3c, 0x32, 0x3e, 0xa4, 0xf2, 0x20, 0xbe, 
  0x00, 0xf0, 0xf8, 0x38, 0x48, 0xe3, 0x2c, 0x3d, 0x5e, 0x96, 0x6d, 0x3e, 
  0x43, 0x52, 0x7b, 0xbe, 0x80, 0xea, 0x8d, 0x3c, 0x80, 0x50, 0xf7, 0x3d, 
  0x2d, 0xce, 0x21, 0xbe, 0xdc, 0x8a, 0xe3, 0x3d, 0xe4, 0x7b, 0x93, 0xbe, 
  0x5c, 0x1b, 0xa1, 0x3d, 0xa2, 0xe7, 0x33, 0xbe, 0xea, 0x98, 0x32, 0xbe, 
  0xb8, 0x0d, 0x42, 0x3e, 0x23, 0x6d, 0x14, 0xbe, 0x94, 0xa2, 0xf5, 0x3d, 
  0xad, 0x3b, 0x8c, 0x3e, 0x18, 0xb3, 0x32, 0xbe, 0x20, 0x44, 0x60, 0xbd, 
  0x16, 0xc2, 0x37, 0x3e, 0xf0, 0x95, 0x05, 0x3d, 0x08, 0x16, 0xce, 0x3d, 
  0x68, 0x25, 0x16, 0xbd, 0x68, 0x67, 0x12, 0xbd, 0xce, 0x2b, 0x48, 0xbe, 
  0xb7, 0xbe, 0x89, 0x3e, 0x96, 0x86, 0x6c, 0xbe, 0x00, 0xcc, 0xdc, 0xb9, 
  0x23, 0xbe, 0x0a, 0xbe, 0xd3, 0xee, 0x2d, 0xbe, 0x70, 0x03, 0x43, 0xbd, 
  0x43, 0x4e, 0x8a, 0x3e, 0x30, 0xc4, 0xee, 0xbd, 0x64, 0x89, 0x71, 0xbe, 
  0x68, 0x87, 0xc0, 0x3d, 0x27, 0x39, 0x08, 0x3e, 0xb0, 0xdb, 0x5e, 0x3e, 
  0x00, 0x11, 0x39, 0x3e, 0xce, 0xd4, 0x8d, 0xbe, 0x70, 0x56, 0x51, 0x3e, 
  0x59, 0xa3, 0xb9, 0xbd, 0x5c, 0x36, 0x71, 0xbe, 0x6d, 0x6a, 0x1c, 0xbe, 
  0x42, 0x3e, 0x8e, 0xbe, 0x3d, 0x90, 0x39, 0xbe, 0x80, 0xcb, 0xaa, 0x3b, 
  0x6a, 0x4d, 0x4a, 0x3e, 0x97, 0x47, 0x9a, 0x3e, 0x5e, 0xc9, 0x53, 0x3e, 
  0xf2, 0xb5, 0x61, 0xbe, 0xc8, 0xdf, 0x8a, 0xbe, 0xaa, 0xa4, 0xa3, 0xbd, 
  0x8a, 0x97, 0x6c, 0xbd, 0x63, 0xf3, 0x8e, 0x3e, 0xb2, 0xbf, 0x03, 0xbe, 
  0xa5, 0xc5, 0x96, 0x3e, 0x09, 0x58, 0x73, 0xbe, 0x7d, 0x8b, 0x7f, 0xbe, 
  0x35, 0x45, 0x5a, 0xbe, 0x9d, 0xdf, 0x8d, 0x3e, 0x63, 0x60, 0x93, 0xbd, 
  0x38, 0xb0, 0xdc, 0x3d, 0xec, 0x96, 0x4b, 0x3e, 0x26, 0x34, 0x64, 0xbc, 
  0x7a, 0x6f, 0xe1, 0xbd, 0xf8, 0x85, 0x94, 0x3d, 0xc9, 0xab, 0x02, 0xbe, 
  0x18, 0xac, 0x0e, 0x3e, 0x2a, 0xa3, 0xa1, 0x3e, 0xa3, 0xbc, 0xdb, 0x3d, 
  0xa6, 0xdd, 0x8e, 0xbd, 0x08, 0x56, 0xd2, 0xbb, 0x4b, 0x1f, 0xdf, 0xbb, 
  0x92, 0x65, 0x44, 0x3e, 0xdd, 0xe0, 0x34, 0xbc, 0x45, 0x8e, 0x86, 0x3e, 
  0x2f, 0x8e, 0x85, 0xbe, 0x2c, 0xf5, 0xe6, 0x3d, 0x00, 0x02, 0xfc, 0x3b, 
  0x50, 0xfb, 0xa6, 0xbd, 0x97, 0xb5, 0x88, 0x3e, 0x32, 0x4b, 0x15, 0x3e, 
  0x98, 0x7a, 0xbc, 0x3d, 0x88, 0x63, 0x99, 0xbe, 0x61, 0xe9, 0x8c, 0x3e, 
  0xac, 0x2f, 0x4a, 0xbe, 0x42, 0x6a, 0x97, 0xbd, 0x6c, 0x47, 0x14, 0x3e, 
  0x3c, 0x49, 0x4a, 0x3e, 0x15, 0x0f, 0x94, 0x3b, 0x57, 0x4d, 0x91, 0xbe, 
  0xe5, 0xb3, 0x81, 0x3e, 0x0b, 0x32, 0xa6, 0xbd, 0x76, 0xb8, 0xe5, 0xbd, 
  0x1d, 0x26, 0x3a, 0xbe, 0xa4, 0x19, 0x00, 0xbe, 0x00, 0x85, 0xa9, 0xbd, 
  0x80, 0x5a, 0x07, 0x3e, 0x56, 0x94, 0x09, 0x3e, 0xfe, 0x23, 0x5e, 0xbe, 
  0x38, 0x5d, 0x8e, 0x3e, 0x3d, 0xd7, 0x97, 0x3d, 0xad, 0x39, 0x3e, 0x3d, 
  0xcc, 0xd1, 0x2e, 0xbc, 0x46, 0x13, 0x3c, 0x3e, 0xb5, 0x10, 0x2f, 0x3d, 
  0x15, 0x6e, 0x89, 0x3e, 0xf9, 0x5f, 0x16, 0xbe, 0x5f, 0x7a, 0x8e, 0x3e, 
  0xf8, 0xad, 0x18, 0x3d, 0xfe, 0xe8, 0x63, 0xbe, 0xfd, 0x9c, 0x43, 0xbe, 
  0x84, 0x81, 0x10, 0x3e, 0x06, 0xf3, 0x12, 0xbc, 0x3d, 0x72, 0x62, 0xbe, 
  0x16, 0xb9, 0x4b, 0xbe, 0x89, 0xa8, 0xfb, 0xbd, 0x56, 0x85, 0x73, 0xbe, 
  0x30, 0x8c, 0x98, 0xbc, 0xa9, 0xb2, 0x93, 0x3e, 0x37, 0x11, 0x48, 0xbe, 
  0x6c, 0xb3, 0x34, 0x3e, 0xb0, 0x4a, 0x8d, 0x3c, 0x32, 0x8d, 0x74, 0x3e, 
  0x90, 0x03, 0xe9, 0xba, 0x72, 0xf5, 0x74, 0x3e, 0x72, 0xc3, 0x24, 0x3e, 
  0x8d, 0xdb, 0x43, 0x3d, 0x60, 0x0a, 0x18, 0x3e, 0xe6, 0x61, 0x32, 0x3e, 
  0xb2, 0x3a, 0x7c, 0x3e, 0x5a, 0xfc, 0xff, 0xff, 0x04, 0x00, 0x00, 0x00, 
  0x80, 0x02, 0x00, 0x00, 0x88, 0x91, 0xdf, 0x3d, 0xf0, 0xf3, 0x7a, 0xbd, 
  0x87, 0xfe, 0x05, 0x3e, 0xde, 0xb5, 0x0c, 0x3e, 0x03, 0xfd, 0x52, 0x3d, 
  0x10, 0xcd, 0x97, 0xbe, 0xba, 0xcd, 0xa1, 0xbe, 0x1b, 0x02, 0x3f, 0xbe, 
  0xc2, 0xac, 0xf5, 0x3d, 0x60, 0x98, 0xe9, 0x3d, 0x86, 0xe3, 0x4e, 0xbe, 
  0x00, 0xaf, 0xc0, 0x3e, 0x90, 0x21, 0x7f, 0x3e, 0xfa, 0xd9, 0xc8, 0xbe, 
  0x14, 0x71, 0xb6, 0x3e, 0x15, 0x22, 0xa9, 0x3e, 0x6f, 0xdf, 0xb7, 0x3e, 
  0x65, 0x24, 0x15, 0x3e, 0x71, 0x87, 0xc6, 0xbe, 0xc9, 0xd3, 0x97, 0x3e, 
  0x61, 0x6f, 0x94, 0xbe, 0x73, 0xe5, 0x90, 0x3d, 0xe2, 0xc8, 0xaa, 0x3e, 
  0xd9, 0xa4, 0x48, 0x3e, 0xbc, 0xbc, 0xba, 0x3e, 0x89, 0x81, 0xcb, 0x3e, 
  0x89, 0xfb, 0xa9, 0xbe, 0x00, 0x7a, 0xa5, 0xbc, 0xf1, 0x31, 0x96, 0x3e, 
  0x3d, 0xe3, 0x69, 0x3d, 0xc4, 0x1d, 0x01, 0xbe, 0x5b, 0x80, 0x6d, 0xbe, 
  0xea, 0x60, 0x61, 0xbe, 0x25, 0xce, 0x99, 0xbb, 0x22, 0xff, 0xc0, 0x3e, 
  0xb0, 0x60, 0x09, 0xbe, 0xc0, 0x2b, 0x0e, 0xbe, 0x64, 0xd1, 0x01, 0x3e, 
  0xb5, 0xb0, 0x44, 0xbe, 0xa9, 0x13, 0x94, 0x3e, 0x60, 0xd5, 0xf1, 0x3d, 
  0x44, 0x42, 0x19, 0x3e, 0xa7, 0x16, 0x5e, 0xbe, 0x5b, 0xd1, 0x30, 0xbe, 
  0xc7, 0xd6, 0x47, 0xbe, 0x88, 0x36, 0xb4, 0x3d, 0x71, 0x59, 0x80, 0xbe, 
  0xca, 0xcb, 0x15, 0x3e, 0xa5, 0xee, 0x3c, 0x3e, 0xf0, 0x9c, 0xdb, 0xbd, 
  0x54, 0xaa, 0x3b, 0x3e, 0x8e, 0x47, 0x87, 0x3e, 0x98, 0x70, 0x5c, 0xbd, 
  0xb0, 0xb8, 0x1f, 0x3e, 0xd5, 0x8a, 0xcc, 0xbe, 0xe8, 0x5f, 0x75, 0x3e, 
  0x80, 0x23, 0x9e, 0x3b, 0xce, 0x9d, 0x9e, 0x3e, 0x88, 0xc8, 0x11, 0xbd, 
  0xcc, 0xe3, 0xc7, 0xbd, 0xfe, 0x71, 0x1a, 0xbe, 0x48, 0x53, 0x64, 0xbe, 
  0x6c, 0x45, 0xb8, 0x3e, 0xe8, 0x16, 0x2d, 0xbd, 0x73, 0x36, 0x84, 0xbe, 
  0x42, 0x9c, 0x14, 0xbe, 0x10, 0x5a, 0xa2, 0x3e, 0xb3, 0xbd, 0xc0, 0xbe, 
  0x38, 0xa8, 0x20, 0xbd, 0xf9, 0x94, 0x5e, 0xbe, 0x4b, 0x6b, 0x72, 0xbd, 
  0x64, 0x48, 0x37, 0x3c, 0xe9, 0x52, 0x07, 0xbd, 0x5f, 0x21, 0x7e, 0x3d, 
  0xc9, 0xbc, 0xd5, 0x3d, 0xbd, 0xa7, 0xc9, 0xbe, 0xea, 0x90, 0xbd, 0x3e, 
  0xf0, 0x52, 0x8c, 0xbd, 0x39, 0xb9, 0x22, 0xbe, 0x16, 0x3b, 0x45, 0xbe, 
  0x30, 0x71, 0x24, 0xbd, 0xdb, 0x64, 0xa3, 0xbe, 0x6c, 0x03, 0x7c, 0x3e, 
  0xd0, 0x51, 0xca, 0x3d, 0xe8, 0xe4, 0x60, 0xbe, 0xc7, 0x8a, 0x04, 0xbe, 
  0xae, 0x30, 0x89, 0xbe, 0x0f, 0xc6, 0xb2, 0xbb, 0xcc, 0x5a, 0x06, 0xbe, 
  0x5a, 0x3d, 0x93, 0x3e, 0x97, 0xd3, 0x6e, 0xbe, 0xd8, 0x0b, 0x17, 0x3d, 
  0x20, 0x02, 0x37, 0xbc, 0x98, 0x09, 0xbe, 0xbe, 0x5b, 0x35, 0x70, 0xbe, 
  0xb4, 0x8c, 0x92, 0xbd, 0x74, 0x0a, 0xa8, 0xbd, 0x9c, 0xc0, 0x4a, 0x3e, 
  0x05, 0xa9, 0xca, 0xbe, 0xa8, 0x8e, 0xda, 0x3d, 0x34, 0x03, 0x28, 0xbe, 
  0xb0, 0x0e, 0x75, 0x3e, 0xe4, 0xb6, 0x8b, 0x3d, 0x8e, 0x5c, 0x02, 0xbe, 
  0x66, 0x5a, 0x99, 0xbe, 0xdb, 0x53, 0x1a, 0x3e, 0xd1, 0xc0, 0xbb, 0xbe, 
  0x87, 0xcc, 0x93, 0xbe, 0xea, 0xb7, 0xee, 0x3d, 0x17, 0x94, 0xbb, 0x3c, 
  0x69, 0x5e, 0x94, 0xbe, 0xf3, 0xab, 0x85, 0x3e, 0x44, 0x8c, 0x84, 0x3e, 
  0xe2, 0x23, 0x43, 0x3d, 0x43, 0x5b, 0x40, 0x3d, 0x10, 0xc2, 0x26, 0xbd, 
  0x84, 0x13, 0x71, 0x3e, 0x80, 0x1a, 0x4f, 0xbb, 0x00, 0xa5, 0xd6, 0x3d, 
  0x56, 0xe3, 0xc8, 0xbe, 0x90, 0x07, 0xa2, 0x3e, 0x8e, 0x60, 0x91, 0x3d, 
  0xbc, 0x05, 0x3e, 0xbe, 0x9f, 0xf1, 0x16, 0x3e, 0x9f, 0xb1, 0xf2, 0xbc, 
  0x01, 0x72, 0x22, 0x3e, 0xb1, 0x1d, 0x25, 0xbe, 0xf9, 0x5e, 0xb0, 0xbe, 
  0x95, 0x3e, 0xb4, 0x3e, 0x08, 0xcd, 0x85, 0xbe, 0x5e, 0x3a, 0xbc, 0x3e, 
  0xbe, 0x57, 0x26, 0xbe, 0x80, 0x9f, 0x58, 0xbb, 0xa4, 0xb4, 0x9c, 0xbd, 
  0x1d, 0xa0, 0x3d, 0xbe, 0xc4, 0x40, 0x98, 0x3e, 0xea, 0x2e, 0x9d, 0xbe, 
  0xb9, 0x64, 0x38, 0x3e, 0x2e, 0x58, 0x03, 0x3e, 0xef, 0x67, 0x60, 0x3e, 
  0xce, 0x2f, 0x57, 0xbe, 0xd8, 0xf3, 0xd7, 0xbd, 0xd3, 0xc7, 0xc5, 0xbe, 
  0xac, 0xa7, 0x40, 0x3e, 0xa7, 0x1b, 0x5e, 0x3c, 0x8c, 0xa5, 0xad, 0x3d, 
  0xcf, 0x1b, 0x82, 0xbe, 0x04, 0x84, 0x4f, 0x3e, 0x22, 0x7a, 0xcb, 0xbe, 
  0x70, 0xee, 0x34, 0xbd, 0x14, 0xf9, 0x29, 0x3e, 0xec, 0xd1, 0xec, 0xbd, 
  0x8a, 0x57, 0xc9, 0x3e, 0xe8, 0x95, 0x0a, 0xbd, 0xb9, 0xda, 0x6f, 0xbe, 
  0x48, 0xaa, 0xe1, 0x3d, 0x20, 0x2c, 0x10, 0x3c, 0xb0, 0xcb, 0xd0, 0x3d, 
  0xc0, 0xf2, 0xd8, 0x3d, 0xb8, 0x3c, 0x06, 0xbe, 0xe6, 0xfe, 0xff, 0xff, 
  0x04, 0x00, 0x00, 0x00, 0x80, 0x00, 0x00, 0x00, 0xab, 0xe3, 0xdd, 0x3c, 
  0x80, 0x83, 0x02, 0x3d, 0xea, 0xc7, 0xa7, 0xbc, 0x29, 0x68, 0x96, 0xbc, 
  0x02, 0x75, 0xad, 0x3c, 0x10, 0x59, 0xc7, 0x3c, 0xc9, 0xc9, 0xd6, 0x3c, 
  0x5b, 0x7b, 0xbd, 0x3c, 0x00, 0x00, 0x00, 0x00, 0xde, 0xfb, 0xd2, 0xbc, 
  0x00, 0x00, 0x00, 0x00, 0x00, 0x00, 0x00, 0x00, 0x00, 0x00, 0x00, 0x00, 
  0x00, 0x00, 0x00, 0x00, 0x9e, 0x3a, 0xcc, 0xbc, 0x00, 0x00, 0x00, 0x00, 
  0x00, 0x00, 0x00, 0x00, 0xe4, 0x1a, 0xdb, 0x3c, 0x00, 0x00, 0x00, 0x00, 
  0x00, 0x00, 0x00, 0x00, 0x00, 0x00, 0x00, 0x00, 0x5d, 0x7d, 0xe6, 0xbc, 
  0x51, 0x86, 0xc1, 0x3c, 0x00, 0x00, 0x00, 0x00, 0xbe, 0x44, 0xd0, 0x3c, 
  0x12, 0x03, 0xae, 0xbb, 0x00, 0x00, 0x00, 0x00, 0x24, 0xfa, 0xbc, 0xbc, 
  0xdf, 0x3e, 0xc5, 0xbc, 0x00, 0x00, 0x00, 0x00, 0x00, 0x00, 0x00, 0x00, 
  0x00, 0x00, 0x00, 0x00, 0x72, 0xff, 0xff, 0xff, 0x04, 0x00, 0x00, 0x00, 
  0x80, 0x00, 0x00, 0x00, 0x09, 0x84, 0xbd, 0xbc, 0x00, 0x00, 0x00, 0x00, 
  0x66, 0xe3, 0xc6, 0x3c, 0x10, 0xc5, 0xc6, 0x3c, 0x00, 0x00, 0x00, 0x00, 
  0x33, 0xe4, 0xae, 0xbc, 0x36, 0x45, 0xc5, 0xbc, 0x96, 0x26, 0xcf, 0x3c, 
  0x63, 0x4d, 0x30, 0xbc, 0x0e, 0xdf, 0xc9, 0x3c, 0x25, 0x0f, 0xf8, 0x3c, 
  0x70, 0x50, 0xcf, 0x3c, 0xe3, 0x03, 0xc5, 0xbc, 0x00, 0x00, 0x00, 0x00, 
  0x00, 0x00, 0x00, 0x00, 0x00, 0x00, 0x00, 0x00, 0xca, 0xca, 0xc5, 0xbc, 
  0x7c, 0xb4, 0x0a, 0x3d, 0xcd, 0xfb, 0xc6, 0x3c, 0x24, 0xa0, 0xc7, 0x3c, 
  0x00, 0x00, 0x00, 0x00, 0xc3, 0x1c, 0xc4, 0xbc, 0x00, 0x00, 0x00, 0x00, 
  0xb7, 0x47, 0xc9, 0x3c, 0x00, 0x00, 0x00, 0x00, 0xbf, 0x02, 0xc7, 0x3c, 
  0x00, 0x00, 0x00, 0x00, 0x00, 0x00, 0x00, 0x00, 0x00, 0x00, 0x00, 0x00, 
  0x15, 0xdf, 0x04, 0x3c, 0x18, 0xd2, 0xc6, 0x3c, 0x6e, 0x09, 0xc7, 0x3c, 
  0x00, 0x00, 0x06, 0x00, 0x08, 0x00, 0x04, 0x00, 0x06, 0x00, 0x00, 0x00, 
  0x04, 0x00, 0x00, 0x00, 0x04, 0x00, 0x00, 0x00, 0x5c, 0x4f, 0xc6, 0xbc, 
  0xe8, 0xfa, 0xff, 0xff, 0xec, 0xfa, 0xff, 0xff, 0x0f, 0x00, 0x00, 0x00, 
  0x4d, 0x4c, 0x49, 0x52, 0x20, 0x43, 0x6f, 0x6e, 0x76, 0x65, 0x72, 0x74, 
  0x65, 0x64, 0x2e, 0x00, 0x01, 0x00, 0x00, 0x00, 0x14, 0x00, 0x00, 0x00, 
  0x00, 0x00, 0x0e, 0x00, 0x18, 0x00, 0x14, 0x00, 0x10, 0x00, 0x0c, 0x00, 
  0x08, 0x00, 0x04, 0x00, 0x0e, 0x00, 0x00, 0x00, 0x14, 0x00, 0x00, 0x00, 
  0x1c, 0x00, 0x00, 0x00, 0xd8, 0x00, 0x00, 0x00, 0xdc, 0x00, 0x00, 0x00, 
  0xe0, 0x00, 0x00, 0x00, 0x04, 0x00, 0x00, 0x00, 0x6d, 0x61, 0x69, 0x6e, 
  0x00, 0x00, 0x00, 0x00, 0x03, 0x00, 0x00, 0x00, 0x80, 0x00, 0x00, 0x00, 
  0x38, 0x00, 0x00, 0x00, 0x04, 0x00, 0x00, 0x00, 0x9a, 0xff, 0xff, 0xff, 
  0x10, 0x00, 0x00, 0x00, 0x00, 0x00, 0x00, 0x08, 0x0c, 0x00, 0x00, 0x00, 
  0x10, 0x00, 0x00, 0x00, 0x64, 0xfb, 0xff, 0xff, 0x01, 0x00, 0x00, 0x00, 
  0x09, 0x00, 0x00, 0x00, 0x03, 0x00, 0x00, 0x00, 0x08, 0x00, 0x00, 0x00, 
  0x06, 0x00, 0x00, 0x00, 0x01, 0x00, 0x00, 0x00, 0xca, 0xff, 0xff, 0xff, 
  0x10, 0x00, 0x00, 0x00, 0x00, 0x00, 0x00, 0x08, 0x10, 0x00, 0x00, 0x00, 
  0x14, 0x00, 0x00, 0x00, 0xba, 0xff, 0xff, 0xff, 0x00, 0x00, 0x00, 0x01, 
  0x01, 0x00, 0x00, 0x00, 0x08, 0x00, 0x00, 0x00, 0x03, 0x00, 0x00, 0x00, 
  0x07, 0x00, 0x00, 0x00, 0x05, 0x00, 0x00, 0x00, 0x02, 0x00, 0x00, 0x00, 
  0x00, 0x00, 0x0e, 0x00, 0x16, 0x00, 0x00, 0x00, 0x10, 0x00, 0x0c, 0x00, 
  0x0b, 0x00, 0x04, 0x00, 0x0e, 0x00, 0x00, 0x00, 0x18, 0x00, 0x00, 0x00, 
  0x00, 0x00, 0x00, 0x08, 0x18, 0x00, 0x00, 0x00, 0x1c, 0x00, 0x00, 0x00, 
  0x00, 0x00, 0x06, 0x00, 0x08, 0x00, 0x07, 0x00, 0x06, 0x00, 0x00, 0x00, 
  0x00, 0x00, 0x00, 0x01, 0x01, 0x00, 0x00, 0x00, 0x07, 0x00, 0x00, 0x00, 
  0x03, 0x00, 0x00, 0x00, 0x00, 0x00, 0x00, 0x00, 0x04, 0x00, 0x00, 0x00, 
  0x03, 0x00, 0x00, 0x00, 0x01, 0x00, 0x00, 0x00, 0x09, 0x00, 0x00, 0x00, 
  0x01, 0x00, 0x00, 0x00, 0x00, 0x00, 0x00, 0x00, 0x0a, 0x00, 0x00, 0x00, 
  0xc4, 0x03, 0x00, 0x00, 0x50, 0x03, 0x00, 0x00, 0xdc, 0x02, 0x00, 0x00, 
  0x80, 0x02, 0x00, 0x00, 0x30, 0x02, 0x00, 0x00, 0xe0, 0x01, 0x00, 0x00, 
  0x90, 0x01, 0x00, 0x00, 0xf8, 0x00, 0x00, 0x00, 0x60, 0x00, 0x00, 0x00, 
  0x04, 0x00, 0x00, 0x00, 0x7a, 0xfc, 0xff, 0xff, 0x00, 0x00, 0x00, 0x01, 
  0x14, 0x00, 0x00, 0x00, 0x1c, 0x00, 0x00, 0x00, 0x1c, 0x00, 0x00, 0x00, 
  0x0a, 0x00, 0x00, 0x00, 0x34, 0x00, 0x00, 0x00, 0x02, 0x00, 0x00, 0x00, 
  0xff, 0xff, 0xff, 0xff, 0x01, 0x00, 0x00, 0x00, 0x64, 0xfc, 0xff, 0xff, 
  0x19, 0x00, 0x00, 0x00, 0x53, 0x74, 0x61, 0x74, 0x65, 0x66, 0x75, 0x6c, 
  0x50, 0x61, 0x72, 0x74, 0x69, 0x74, 0x69, 0x6f, 0x6e, 0x65, 0x64, 0x43, 
  0x61, 0x6c, 0x6c, 0x3a, 0x30, 0x00, 0x00, 0x00, 0x02, 0x00, 0x00, 0x00, 
  0x01, 0x00, 0x00, 0x00, 0x01, 0x00, 0x00, 0x00, 0xd2, 0xfc, 0xff, 0xff, 
  0x00, 0x00, 0x00, 0x01, 0x14, 0x00, 0x00, 0x00, 0x1c, 0x00, 0x00, 0x00, 
  0x1c, 0x00, 0x00, 0x00, 0x09, 0x00, 0x00, 0x00, 0x70, 0x00, 0x00, 0x00, 
  0x02, 0x00, 0x00, 0x00, 0xff, 0xff, 0xff, 0xff, 0x20, 0x00, 0x00, 0x00, 
  0xbc, 0xfc, 0xff, 0xff, 0x55, 0x00, 0x00, 0x00, 0x65, 0x73, 0x70, 0x33, 
  0x32, 0x5f, 0x63, 0x72, 0x69, 0x74, 0x69, 0x63, 0x2f, 0x64, 0x65, 0x6e, 
  0x73, 0x65, 0x5f, 0x36, 0x37, 0x2f, 0x4d, 0x61, 0x74, 0x4d, 0x75, 0x6c, 
  0x3b, 0x65, 0x73, 0x70, 0x33, 0x32, 0x5f, 0x63, 0x72, 0x69, 0x74, 0x69, 
  0x63, 0x2f, 0x64, 0x65, 0x6e, 0x73, 0x65, 0x5f, 0x36, 0x37, 0x2f, 0x52, 
  0x65, 0x6c, 0x75, 0x3b, 0x65, 0x73, 0x70, 0x33, 0x32, 0x5f, 0x63, 0x72, 
  0x69, 0x74, 0x69, 0x63, 0x2f, 0x64, 0x65, 0x6e, 0x73, 0x65, 0x5f, 0x36, 
  0x37, 0x2f, 0x42, 0x69, 0x61, 0x73, 0x41, 0x64, 0x64, 0x00, 0x00, 0x00, 
  0x02, 0x00, 0x00, 0x00, 0x01, 0x00, 0x00, 0x00, 0x20, 0x00, 0x00, 0x00, 
  0x66, 0xfd, 0xff, 0xff, 0x00, 0x00, 0x00, 0x01, 0x14, 0x00, 0x00, 0x00, 
  0x1c, 0x00, 0x00, 0x00, 0x1c, 0x00, 0x00, 0x00, 0x08, 0x00, 0x00, 0x00, 
  0x70, 0x00, 0x00, 0x00, 0x02, 0x00, 0x00, 0x00, 0xff, 0xff, 0xff, 0xff, 
  0x20, 0x00, 0x00, 0x00, 0x50, 0xfd, 0xff, 0xff, 0x55, 0x00, 0x00, 0x00, 
  0x65, 0x73, 0x70, 0x33, 0x32, 0x5f, 0x63, 0x72, 0x69, 0x74, 0x69, 0x63, 
  0x2f, 0x64, 0x65, 0x6e, 0x73, 0x65, 0x5f, 0x36, 0x36, 0x2f, 0x4d, 0x61, 
  0x74, 0x4d, 0x75, 0x6c, 0x3b, 0x65, 0x73, 0x70, 0x33, 0x32, 0x5f, 0x63, 
  0x72, 0x69, 0x74, 0x69, 0x63, 0x2f, 0x64, 0x65, 0x6e, 0x73, 0x65, 0x5f, 
  0x36, 0x36, 0x2f, 0x52, 0x65, 0x6c, 0x75, 0x3b, 0x65, 0x73, 0x70, 0x33, 
  0x32, 0x5f, 0x63, 0x72, 0x69, 0x74, 0x69, 0x63, 0x2f, 0x64, 0x65, 0x6e, 
  0x73, 0x65, 0x5f, 0x36, 0x36, 0x2f, 0x42, 0x69, 0x61, 0x73, 0x41, 0x64, 
  0x64, 0x00, 0x00, 0x00, 0x02, 0x00, 0x00, 0x00, 0x01, 0x00, 0x00, 0x00, 
  0x20, 0x00, 0x00, 0x00, 0x6a, 0xfe, 0xff, 0xff, 0x00, 0x00, 0x00, 0x01, 
  0x10, 0x00, 0x00, 0x00, 0x10, 0x00, 0x00, 0x00, 0x07, 0x00, 0x00, 0x00, 
  0x2c, 0x00, 0x00, 0x00, 0xd4, 0xfd, 0xff, 0xff, 0x1c, 0x00, 0x00, 0x00, 
  0x65, 0x73, 0x70, 0x33, 0x32, 0x5f, 0x63, 0x72, 0x69, 0x74, 0x69, 0x63, 
  0x2f, 0x64, 0x65, 0x6e, 0x73, 0x65, 0x5f, 0x36, 0x38, 0x2f, 0x4d, 0x61, 
  0x74, 0x4d, 0x75, 0x6c, 0x00, 0x00, 0x00, 0x00, 0x02, 0x00, 0x00, 0x00, 
  0x01, 0x00, 0x00, 0x00, 0x20, 0x00, 0x00, 0x00, 0xb6, 0xfe, 0xff, 0xff, 
  0x00, 0x00, 0x00, 0x01, 0x10, 0x00, 0x00, 0x00, 0x10, 0x00, 0x00, 0x00, 
  0x06, 0x00, 0x00, 0x00, 0x2c, 0x00, 0x00, 0x00, 0x20, 0xfe, 0xff, 0xff, 
  0x1c, 0x00, 0x00, 0x00, 0x65, 0x73, 0x70, 0x33, 0x32, 0x5f, 0x63, 0x72, 
  0x69, 0x74, 0x69, 0x63, 0x2f, 0x64, 0x65, 0x6e, 0x73, 0x65, 0x5f, 0x36, 
  0x37, 0x2f, 0x4d, 0x61, 0x74, 0x4d, 0x75, 0x6c, 0x00, 0x00, 0x00, 0x00, 
  0x02, 0x00, 0x00, 0x00, 0x20, 0x00, 0x00, 0x00, 0x20, 0x00, 0x00, 0x00, 
  0x02, 0xff, 0xff, 0xff, 0x00, 0x00, 0x00, 0x01, 0x10, 0x00, 0x00, 0x00, 
  0x10, 0x00, 0x00, 0x00, 0x05, 0x00, 0x00, 0x00, 0x2c, 0x00, 0x00, 0x00, 
  0x6c, 0xfe, 0xff, 0xff, 0x1c, 0x00, 0x00, 0x00, 0x65, 0x73, 0x70, 0x33, 
  0x32, 0x5f, 0x63, 0x72, 0x69, 0x74, 0x69, 0x63, 0x2f, 0x64, 0x65, 0x6e, 
  0x73, 0x65, 0x5f, 0x36, 0x36, 0x2f, 0x4d, 0x61, 0x74, 0x4d, 0x75, 0x6c, 
  0x00, 0x00, 0x00, 0x00, 0x02, 0x00, 0x00, 0x00, 0x20, 0x00, 0x00, 0x00, 
  0x05, 0x00, 0x00, 0x00, 0x4e, 0xff, 0xff, 0xff, 0x00, 0x00, 0x00, 0x01, 
  0x10, 0x00, 0x00, 0x00, 0x10, 0x00, 0x00, 0x00, 0x04, 0x00, 0x00, 0x00, 
  0x3c, 0x00, 0x00, 0x00, 0xb8, 0xfe, 0xff, 0xff, 0x2c, 0x00, 0x00, 0x00, 
  0x65, 0x73, 0x70, 0x33, 0x32, 0x5f, 0x63, 0x72, 0x69, 0x74, 0x69, 0x63, 
  0x2f, 0x64, 0x65, 0x6e, 0x73, 0x65, 0x5f, 0x36, 0x36, 0x2f, 0x42, 0x69, 
  0x61, 0x73, 0x41, 0x64, 0x64, 0x2f, 0x52, 0x65, 0x61, 0x64, 0x56, 0x61, 
  0x72, 0x69, 0x61, 0x62, 0x6c, 0x65, 0x4f, 0x70, 0x00, 0x00, 0x00, 0x00, 
  0x01, 0x00, 0x00, 0x00, 0x20, 0x00, 0x00, 0x00, 0xa6, 0xff, 0xff, 0xff, 
  0x00, 0x00, 0x00, 0x01, 0x10, 0x00, 0x00, 0x00, 0x10, 0x00, 0x00, 0x00, 
  0x03, 0x00, 0x00, 0x00, 0x3c, 0x00, 0x00, 0x00, 0x10, 0xff, 0xff, 0xff, 
  0x2c, 0x00, 0x00, 0x00, 0x65, 0x73, 0x70, 0x33, 0x32, 0x5f, 0x63, 0x72, 
  0x69, 0x74, 0x69, 0x63, 0x2f, 0x64, 0x65, 0x6e, 0x73, 0x65, 0x5f, 0x36, 
  0x37, 0x2f, 0x42, 0x69, 0x61, 0x73, 0x41, 0x64, 0x64, 0x2f, 0x52, 0x65, 
  0x61, 0x64, 0x56, 0x61, 0x72, 0x69, 0x61, 0x62, 0x6c, 0x65, 0x4f, 0x70, 
  0x00, 0x00, 0x00, 0x00, 0x01, 0x00, 0x00, 0x00, 0x20, 0x00, 0x00, 0x00, 
  0x00, 0x00, 0x16, 0x00, 0x18, 0x00, 0x14, 0x00, 0x00, 0x00, 0x10, 0x00, 
  0x0c, 0x00, 0x08, 0x00, 0x00, 0x00, 0x00, 0x00, 0x00, 0x00, 0x07, 0x00, 
  0x16, 0x00, 0x00, 0x00, 0x00, 0x00, 0x00, 0x01, 0x10, 0x00, 0x00, 0x00, 
  0x10, 0x00, 0x00, 0x00, 0x02, 0x00, 0x00, 0x00, 0x3c, 0x00, 0x00, 0x00, 
  0x80, 0xff, 0xff, 0xff, 0x2c, 0x00, 0x00, 0x00, 0x65, 0x73, 0x70, 0x33, 
  0x32, 0x5f, 0x63, 0x72, 0x69, 0x74, 0x69, 0x63, 0x2f, 0x64, 0x65, 0x6e, 
  0x73, 0x65, 0x5f, 0x36, 0x38, 0x2f, 0x42, 0x69, 0x61, 0x73, 0x41, 0x64, 
  0x64, 0x2f, 0x52, 0x65, 0x61, 0x64, 0x56, 0x61, 0x72, 0x69, 0x61, 0x62, 
  0x6c, 0x65, 0x4f, 0x70, 0x00, 0x00, 0x00, 0x00, 0x01, 0x00, 0x00, 0x00, 
  0x01, 0x00, 0x00, 0x00, 0x00, 0x00, 0x16, 0x00, 0x1c, 0x00, 0x18, 0x00, 
  0x00, 0x00, 0x14, 0x00, 0x10, 0x00, 0x0c, 0x00, 0x00, 0x00, 0x00, 0x00, 
  0x08, 0x00, 0x07, 0x00, 0x16, 0x00, 0x00, 0x00, 0x00, 0x00, 0x00, 0x01, 
  0x14, 0x00, 0x00, 0x00, 0x20, 0x00, 0x00, 0x00, 0x20, 0x00, 0x00, 0x00, 
  0x01, 0x00, 0x00, 0x00, 0x40, 0x00, 0x00, 0x00, 0x02, 0x00, 0x00, 0x00, 
  0xff, 0xff, 0xff, 0xff, 0x05, 0x00, 0x00, 0x00, 0x04, 0x00, 0x04, 0x00, 
  0x04, 0x00, 0x00, 0x00, 0x20, 0x00, 0x00, 0x00, 0x73, 0x65, 0x72, 0x76, 
  0x69, 0x6e, 0x67, 0x5f, 0x64, 0x65, 0x66, 0x61, 0x75, 0x6c, 0x74, 0x5f, 
  0x64, 0x65, 0x6e, 0x73, 0x65, 0x5f, 0x36, 0x36, 0x5f, 0x69, 0x6e, 0x70, 
  0x75, 0x74, 0x3a, 0x30, 0x00, 0x00, 0x00, 0x00, 0x02, 0x00, 0x00, 0x00, 
  0x01, 0x00, 0x00, 0x00, 0x05, 0x00, 0x00, 0x00, 0x01, 0x00, 0x00, 0x00, 
  0x10, 0x00, 0x00, 0x00, 0x0c, 0x00, 0x0c, 0x00, 0x0b, 0x00, 0x00, 0x00, 
  0x00, 0x00, 0x04, 0x00, 0x0c, 0x00, 0x00, 0x00, 0x09, 0x00, 0x00, 0x00, 
  0x00, 0x00, 0x00, 0x09, 
};

const unsigned int critic_model_len = 7072;
