#include "ppo_policy_actor.h"

const uint8_t actor_model[] = {

  0x1c, 0x00, 0x00, 0x00, 0x54, 0x46, 0x4c, 0x33, 0x14, 0x00, 0x20, 0x00, 
  0x1c, 0x00, 0x18, 0x00, 0x14, 0x00, 0x10, 0x00, 0x0c, 0x00, 0x00, 0x00, 
  0x08, 0x00, 0x04, 0x00, 0x14, 0x00, 0x00, 0x00, 0x1c, 0x00, 0x00, 0x00, 
  0x8c, 0x00, 0x00, 0x00, 0xe4, 0x00, 0x00, 0x00, 0x50, 0x16, 0x00, 0x00, 
  0x60, 0x16, 0x00, 0x00, 0x1c, 0x1b, 0x00, 0x00, 0x03, 0x00, 0x00, 0x00, 
  0x01, 0x00, 0x00, 0x00, 0x04, 0x00, 0x00, 0x00, 0x62, 0xe9, 0xff, 0xff, 
  0x0c, 0x00, 0x00, 0x00, 0x1c, 0x00, 0x00, 0x00, 0x3c, 0x00, 0x00, 0x00, 
  0x0f, 0x00, 0x00, 0x00, 0x73, 0x65, 0x72, 0x76, 0x69, 0x6e, 0x67, 0x5f, 
  0x64, 0x65, 0x66, 0x61, 0x75, 0x6c, 0x74, 0x00, 0x01, 0x00, 0x00, 0x00, 
  0x04, 0x00, 0x00, 0x00, 0x90, 0xff, 0xff, 0xff, 0x07, 0x00, 0x00, 0x00, 
  0x04, 0x00, 0x00, 0x00, 0x08, 0x00, 0x00, 0x00, 0x64, 0x65, 0x6e, 0x73, 
  0x65, 0x5f, 0x36, 0x35, 0x00, 0x00, 0x00, 0x00, 0x01, 0x00, 0x00, 0x00, 
  0x04, 0x00, 0x00, 0x00, 0xb2, 0xec, 0xff, 0xff, 0x04, 0x00, 0x00, 0x00, 
  0x0e, 0x00, 0x00, 0x00, 0x64, 0x65, 0x6e, 0x73, 0x65, 0x5f, 0x36, 0x33, 
  0x5f, 0x69, 0x6e, 0x70, 0x75, 0x74, 0x00, 0x00, 0x02, 0x00, 0x00, 0x00, 
  0x34, 0x00, 0x00, 0x00, 0x04, 0x00, 0x00, 0x00, 0xdc, 0xff, 0xff, 0xff, 
  0x0a, 0x00, 0x00, 0x00, 0x04, 0x00, 0x00, 0x00, 0x13, 0x00, 0x00, 0x00, 
  0x43, 0x4f, 0x4e, 0x56, 0x45, 0x52, 0x53, 0x49, 0x4f, 0x4e, 0x5f, 0x4d, 
  0x45, 0x54, 0x41, 0x44, 0x41, 0x54, 0x41, 0x00, 0x08, 0x00, 0x0c, 0x00, 
  0x08, 0x00, 0x04, 0x00, 0x08, 0x00, 0x00, 0x00, 0x09, 0x00, 0x00, 0x00, 
  0x04, 0x00, 0x00, 0x00, 0x13, 0x00, 0x00, 0x00, 0x6d, 0x69, 0x6e, 0x5f, 
  0x72, 0x75, 0x6e, 0x74, 0x69, 0x6d, 0x65, 0x5f, 0x76, 0x65, 0x72, 0x73, 
  0x69, 0x6f, 0x6e, 0x00, 0x0b, 0x00, 0x00, 0x00, 0x68, 0x15, 0x00, 0x00, 
  0x60, 0x15, 0x00, 0x00, 0xd0, 0x12, 0x00, 0x00, 0xb8, 0x02, 0x00, 0x00, 
  0xa8, 0x00, 0x00, 0x00, 0xa0, 0x00, 0x00, 0x00, 0x98, 0x00, 0x00, 0x00, 
  0x90, 0x00, 0x00, 0x00, 0x88, 0x00, 0x00, 0x00, 0x68, 0x00, 0x00, 0x00, 
  0x04, 0x00, 0x00, 0x00, 0x5a, 0xed, 0xff, 0xff, 0x04, 0x00, 0x00, 0x00, 
  0x54, 0x00, 0x00, 0x00, 0x0c, 0x00, 0x00, 0x00, 0x08, 0x00, 0x0e, 0x00, 
  0x08, 0x00, 0x04, 0x00, 0x08, 0x00, 0x00, 0x00, 0x10, 0x00, 0x00, 0x00, 
  0x24, 0x00, 0x00, 0x00, 0x00, 0x00, 0x06, 0x00, 0x08, 0x00, 0x04, 0x00, 
  0x06, 0x00, 0x00, 0x00, 0x04, 0x00, 0x00, 0x00, 0x00, 0x00, 0x00, 0x00, 
  0x00, 0x00, 0x0a, 0x00, 0x10, 0x00, 0x0c, 0x00, 0x08, 0x00, 0x04, 0x00, 
  0x0a, 0x00, 0x00, 0x00, 0x02, 0x00, 0x00, 0x00, 0x02, 0x00, 0x00, 0x00, 
  0x04, 0x00, 0x00, 0x00, 0x06, 0x00, 0x00, 0x00, 0x32, 0x2e, 0x31, 0x33, 
  0x2e, 0x30, 0x00, 0x00, 0xba, 0xed, 0xff, 0xff, 0x04, 0x00, 0x00, 0x00, 
  0x10, 0x00, 0x00, 0x00, 0x31, 0x2e, 0x31, 0x34, 0x2e, 0x30, 0x00, 0x00, 
  0x00, 0x00, 0x00, 0x00, 0x00, 0x00, 0x00, 0x00, 0xa4, 0xe6, 0xff, 0xff, 
  0xa8, 0xe6, 0xff, 0xff, 0xac, 0xe6, 0xff, 0xff, 0xb0, 0xe6, 0xff, 0xff, 
  0xe6, 0xed, 0xff, 0xff, 0x04, 0x00, 0x00, 0x00, 0x00, 0x02, 0x00, 0x00, 
  0x78, 0xff, 0x46, 0x3e, 0x14, 0xdf, 0xc5, 0x3e, 0xb4, 0x79, 0x81, 0xbe, 
  0x5a, 0x22, 0xc5, 0x3e, 0xc0, 0xdd, 0x9d, 0x3e, 0x40, 0x9f, 0xf2, 0x3d, 
  0x4c, 0x96, 0x59, 0x3e, 0x38, 0xac, 0x7b, 0xbd, 0x04, 0xf5, 0xc2, 0x3e, 
  0x42, 0x74, 0xc5, 0xbe, 0x7f, 0x7b, 0xb6, 0xbe, 0xcc, 0x60, 0x01, 0x3e, 
  0xb8, 0x0b, 0xc5, 0x3e, 0x18, 0xb5, 0xa4, 0x3e, 0x74, 0xec, 0x11, 0xbe, 
  0xa0, 0xe8, 0xf2, 0x3d, 0xa2, 0x44, 0x8e, 0x3e, 0xec, 0xdc, 0x87, 0x3d, 
  0x80, 0x44, 0x51, 0xbd, 0x41, 0xa2, 0x5b, 0xbe, 0x42, 0xac, 0x09, 0xbe, 
  0xf0, 0xe0, 0xa2, 0xbe, 0xf8, 0xb5, 0xd0, 0x3e, 0xa4, 0x97, 0xb3, 0xbd, 
  0x11, 0x72, 0xb2, 0xbe, 0xc0, 0x02, 0x06, 0x3c, 0x06, 0x1f, 0xcb, 0x3e, 
  0xaa, 0x6b, 0x96, 0x3e, 0xae, 0x1e, 0x8a, 0x3e, 0xfe, 0xef, 0xa7, 0xbe, 
  0x55, 0xa1, 0x38, 0xbe, 0x54, 0x58, 0x95, 0x3e, 0x03, 0x28, 0x3e, 0xbe, 
  0x1a, 0xb9, 0x97, 0x3e, 0x80, 0xf5, 0xa7, 0xbb, 0xbc, 0xb8, 0x09, 0xbe, 
  0x34, 0xd2, 0x3e, 0x3e, 0x00, 0xf7, 0x76, 0xbb, 0x20, 0x52, 0x76, 0x3d, 
  0x03, 0x6e, 0x8d, 0xbe, 0x44, 0xb7, 0x3d, 0x3e, 0x58, 0xea, 0x42, 0x3d, 
  0x54, 0xbf, 0x97, 0xbe, 0xa4, 0x1c, 0x05, 0xbe, 0xb6, 0x21, 0x34, 0xbe, 
  0x27, 0x98, 0x47, 0xbe, 0x21, 0x3a, 0xc7, 0xbe, 0xd4, 0xf0, 0x97, 0xbe, 
  0x30, 0xd6, 0x3c, 0x3e, 0x70, 0x86, 0xb8, 0x3c, 0xa2, 0xd7, 0xa0, 0x3e, 
  0xe0, 0xb4, 0xaf, 0xbe, 0xd7, 0x5f, 0xa3, 0xbe, 0x40, 0xab, 0x04, 0x3e, 
  0x70, 0x0e, 0x14, 0x3e, 0xee, 0x8e, 0xcc, 0x3e, 0x20, 0xcc, 0x73, 0xbc, 
  0x6e, 0x6c, 0xc3, 0x3e, 0xdb, 0x5c, 0xb5, 0xbe, 0x36, 0xcf, 0x92, 0xbe, 
  0x1e, 0x25, 0x9f, 0x3e, 0x30, 0xa7, 0xd3, 0x3d, 0xa0, 0x0b, 0x88, 0x3e, 
  0x18, 0x86, 0xe2, 0xbd, 0x38, 0x5a, 0x22, 0x3d, 0x48, 0x02, 0x33, 0xbd, 
  0x9e, 0xf3, 0xa2, 0x3e, 0x1e, 0x5a, 0xae, 0x3e, 0x8f, 0x7f, 0xab, 0xbe, 
  0xf4, 0x5d, 0xda, 0xbd, 0x2a, 0x37, 0x77, 0xbe, 0xcc, 0xb8, 0x39, 0x3e, 
  0x67, 0x6e, 0x2f, 0xbe, 0xec, 0x64, 0xaa, 0xbd, 0x40, 0x2e, 0x55, 0xbc, 
  0x2c, 0x62, 0x5f, 0x3e, 0xe0, 0x7c, 0xca, 0x3d, 0x03, 0x8a, 0xb2, 0xbe, 
  0xd0, 0x6a, 0x63, 0xbe, 0xae, 0x9c, 0x44, 0xbe, 0x14, 0x4e, 0x2b, 0x3e, 
  0xd6, 0xf4, 0x89, 0xbe, 0x20, 0x56, 0x67, 0xbd, 0xef, 0x4f, 0x99, 0xbe, 
  0x50, 0xc2, 0x45, 0x3e, 0xb0, 0x35, 0xfa, 0x3d, 0x40, 0x66, 0xf6, 0x3d, 
  0x90, 0x90, 0xa8, 0x3d, 0x58, 0x1e, 0x84, 0x3d, 0x90, 0xbb, 0xfe, 0x3c, 
  0x54, 0x5c, 0x73, 0x3e, 0x24, 0x90, 0x3e, 0xbe, 0x39, 0x6a, 0x6d, 0xbe, 
  0xc8, 0x84, 0xa2, 0xbd, 0x98, 0x5e, 0x29, 0x3e, 0x80, 0x37, 0xc2, 0x3d, 
  0xa0, 0xb5, 0x0e, 0xbd, 0x79, 0x7e, 0x42, 0xbe, 0xe8, 0x4b, 0x72, 0x3d, 
  0xe8, 0xa6, 0x9c, 0x3e, 0x3a, 0x13, 0xc4, 0xbe, 0x12, 0x15, 0xb9, 0x3e, 
  0x40, 0xae, 0xa6, 0x3e, 0xb2, 0x36, 0xc3, 0xbe, 0x2e, 0xe5, 0x8e, 0x3e, 
  0x9c, 0x37, 0x84, 0xbd, 0xb4, 0xe8, 0x65, 0x3e, 0xe4, 0x35, 0xa4, 0xbe, 
  0xc0, 0xae, 0x58, 0xbc, 0x6d, 0x62, 0x97, 0xbe, 0xa8, 0x5a, 0xca, 0x3e, 
  0xee, 0x38, 0x9d, 0x3e, 0xec, 0x0e, 0x77, 0x3e, 0xfd, 0x12, 0x2c, 0xbe, 
  0xa6, 0x49, 0x9f, 0x3e, 0x12, 0xe6, 0xb7, 0xbe, 0x53, 0xef, 0x31, 0xbe, 
  0x2a, 0x2b, 0x79, 0xbe, 0x54, 0x23, 0xba, 0xbe, 0xc0, 0x57, 0x1c, 0x3d, 
  0x8c, 0x26, 0x54, 0xbe, 0xc7, 0xc5, 0x9d, 0xbe, 0xce, 0x29, 0x84, 0x3e, 
  0xd6, 0x0d, 0xc2, 0x3e, 0xf4, 0xf0, 0x08, 0x3e, 0x54, 0x3c, 0xfc, 0xbd, 
  0x72, 0x53, 0xb4, 0x3e, 0x4c, 0x6b, 0xa2, 0xbe, 0xf2, 0xef, 0xff, 0xff, 
  0x04, 0x00, 0x00, 0x00, 0x00, 0x10, 0x00, 0x00, 0xc8, 0x78, 0xbf, 0x3d, 
  0x48, 0xbe, 0x10, 0x3d, 0x7c, 0xd6, 0xcf, 0x3d, 0x70, 0x3c, 0x9e, 0x3d, 
  0x5f, 0xb4, 0x91, 0xbe, 0xe3, 0x31, 0x8b, 0xbe, 0x10, 0x92, 0x2a, 0xbd, 
  0xc0, 0x75, 0x68, 0x3d, 0x48, 0x86, 0x7b, 0xbd, 0xc5, 0x8e, 0x5c, 0xbe, 
  0x22, 0xda, 0x17, 0x3e, 0x38, 0xd5, 0xdb, 0xbd, 0x78, 0x92, 0x2f, 0xbd, 
  0xee, 0x27, 0x67, 0x3e, 0x49, 0xe8, 0x84, 0x3e, 0x6f, 0xaf, 0x0d, 0xbe, 
  0x04, 0x7d, 0xd9, 0xbd, 0x40, 0xa4, 0x46, 0xbd, 0x53, 0xc5, 0x8e, 0x3e, 
  0x1c, 0x7a, 0x0e, 0x3e, 0x72, 0xf2, 0x0b, 0x3e, 0xad, 0x6b, 0x84, 0xbe, 
  0x36, 0x4b, 0x89, 0xbe, 0x3f, 0x69, 0x8e, 0x3e, 0x71, 0x5a, 0x48, 0xbe, 
  0x83, 0x2d, 0x81, 0x3e, 0x32, 0x1b, 0xaf, 0xbd, 0x40, 0x67, 0xda, 0x3d, 
  0xff, 0x2f, 0x9b, 0x3e, 0x7b, 0x3b, 0x89, 0x3e, 0xe0, 0x9d, 0x62, 0x3d, 
  0x90, 0x69, 0x89, 0xbc, 0x85, 0x72, 0x8f, 0x3e, 0xc6, 0x2c, 0x1b, 0xbe, 
  0x10, 0x4f, 0x4b, 0xbd, 0x6d, 0x98, 0x9a, 0xbe, 0x6a, 0xda, 0x50, 0xbe, 
  0x2e, 0x42, 0x4c, 0xbe, 0x36, 0x82, 0x86, 0xbe, 0x1d, 0x54, 0x0d, 0xbe, 
  0x60, 0x2f, 0x50, 0x3d, 0xd0, 0x8c, 0xb8, 0xbc, 0x48, 0x60, 0x0a, 0x3d, 
  0xc0, 0x12, 0x74, 0x3d, 0x70, 0x37, 0x8b, 0xbc, 0x5c, 0xa0, 0xa5, 0x3d, 
  0x21, 0x19, 0x86, 0x3e, 0x0a, 0xd1, 0x45, 0xbe, 0x8a, 0x3d, 0x84, 0xbe, 
  0x1a, 0x8e, 0x6c, 0x3e, 0x36, 0xd8, 0x03, 0x3e, 0x76, 0x37, 0x07, 0x3e, 
  0x14, 0x16, 0x60, 0xbe, 0x10, 0x1c, 0x59, 0x3d, 0x7e, 0xf7, 0x44, 0x3e, 
  0x20, 0x41, 0x3a, 0x3c, 0x48, 0x07, 0x80, 0x3d, 0xa0, 0x81, 0xda, 0x3d, 
  0x53, 0x5f, 0x7e, 0xbe, 0xf2, 0xa4, 0x77, 0x3e, 0xf5, 0x94, 0x9b, 0x3e, 
  0x9c, 0x9c, 0xde, 0x3d, 0x08, 0xc5, 0x2b, 0xbe, 0x2a, 0x64, 0x56, 0x3e, 
  0x86, 0xe4, 0x96, 0xbe, 0x47, 0x56, 0x8c, 0x3e, 0xbf, 0x6e, 0x9c, 0xbe, 
  0xb8, 0x12, 0x69, 0xbe, 0x54, 0x05, 0x6b, 0xbe, 0x17, 0x6b, 0x9b, 0x3e, 
  0xc0, 0x6b, 0x58, 0xbc, 0xfe, 0x54, 0x09, 0xbe, 0x98, 0x9b, 0x33, 0xbd, 
  0x1e, 0x3b, 0x5d, 0x3e, 0x00, 0xeb, 0xc2, 0xba, 0xae, 0x87, 0x3c, 0x3e, 
  0x72, 0x0c, 0x65, 0x3e, 0x3f, 0xe9, 0x90, 0xbe, 0x23, 0xc0, 0x8a, 0xbe, 
  0x26, 0x02, 0x87, 0xbd, 0xd9, 0xd4, 0x8e, 0x3e, 0x80, 0x98, 0x0f, 0xbb, 
  0xc0, 0xae, 0x79, 0xbe, 0x0e, 0x68, 0x65, 0x3e, 0x04, 0x94, 0x80, 0x3d, 
  0xa6, 0x2a, 0x17, 0xbe, 0x20, 0x37, 0x2b, 0x3c, 0x55, 0xf9, 0x29, 0xbe, 
  0x99, 0x0d, 0x95, 0xbe, 0xfe, 0xa9, 0x99, 0xbe, 0x64, 0x2c, 0x5e, 0xbe, 
  0x86, 0xba, 0x42, 0xbe, 0xa8, 0xbf, 0x71, 0x3d, 0x02, 0x52, 0x5a, 0x3e, 
  0x00, 0xbe, 0x82, 0x3a, 0xed, 0xdb, 0x71, 0xbe, 0x48, 0xfe, 0x35, 0x3d, 
  0x58, 0xec, 0x3c, 0x3d, 0xa0, 0xe8, 0x4e, 0x3c, 0x35, 0xae, 0x90, 0x3e, 
  0xd6, 0x45, 0xda, 0xbd, 0xc0, 0x49, 0x39, 0x3c, 0xd2, 0x9b, 0xef, 0xbd, 
  0xc0, 0x29, 0x86, 0x3d, 0x8a, 0xc8, 0x50, 0xbe, 0xb4, 0x4a, 0x84, 0xbe, 
  0x22, 0x8a, 0x9e, 0xbd, 0x5e, 0x6c, 0x75, 0x3e, 0x78, 0xce, 0x44, 0x3e, 
  0x70, 0x7d, 0x06, 0x3e, 0xe2, 0x26, 0xc4, 0xbd, 0xb2, 0xdb, 0x6d, 0xbe, 
  0x24, 0xe7, 0x8b, 0xbd, 0x48, 0x7b, 0x44, 0x3e, 0x74, 0x12, 0x37, 0x3e, 
  0x27, 0xad, 0x97, 0x3e, 0x25, 0x6f, 0x8e, 0x3e, 0x5d, 0xef, 0x83, 0x3e, 
  0x80, 0xfb, 0xe7, 0x3d, 0xb8, 0x54, 0x23, 0xbd, 0xb0, 0x9f, 0xdd, 0x3c, 
  0xc0, 0x32, 0x8a, 0x3c, 0x48, 0x35, 0x0a, 0xbd, 0x76, 0xad, 0x5a, 0x3e, 
  0xb0, 0x7b, 0x20, 0x3e, 0x60, 0x39, 0x1e, 0x3e, 0xe8, 0x92, 0x1b, 0xbe, 
  0x2c, 0xf8, 0x56, 0xbe, 0x7a, 0x41, 0x63, 0x3e, 0x81, 0xae, 0x8b, 0xbe, 
  0x60, 0x62, 0xaa, 0xbc, 0x2e, 0xd2, 0x20, 0x3e, 0xc0, 0xef, 0xb7, 0x3b, 
  0x41, 0x9d, 0x8d, 0x3e, 0x00, 0x39, 0x77, 0x3d, 0x80, 0xa3, 0x75, 0x3b, 
  0x0d, 0xb1, 0x96, 0x3e, 0x36, 0x2e, 0x9f, 0xbd, 0x0e, 0x91, 0xc8, 0xbd, 
  0xc8, 0xce, 0x39, 0xbd, 0x5c, 0xa6, 0xca, 0xbd, 0x90, 0x3e, 0xf5, 0x3c, 
  0x9d, 0x85, 0x84, 0x3e, 0x2c, 0xad, 0x01, 0xbe, 0xdf, 0x23, 0x8f, 0xbe, 
  0x80, 0x9f, 0x27, 0x3e, 0x39, 0x74, 0x85, 0xbe, 0xa7, 0x29, 0x81, 0xbe, 
  0x07, 0x5a, 0x2a, 0xbe, 0xc0, 0x77, 0x8b, 0xbb, 0x09, 0xec, 0x7c, 0xbe, 
  0x40, 0xaf, 0xdb, 0xbd, 0x32, 0xab, 0x25, 0x3e, 0xee, 0xf5, 0x50, 0xbe, 
  0xb6, 0x01, 0xf5, 0xbd, 0x42, 0x93, 0xe5, 0xbd, 0xc0, 0x82, 0x45, 0x3e, 
  0xca, 0xca, 0xaf, 0xbd, 0x00, 0x4d, 0xa7, 0x3c, 0x5c, 0x25, 0xe3, 0x3d, 
  0x42, 0x71, 0xfe, 0xbd, 0xa6, 0xef, 0xaf, 0xbd, 0xc2, 0x29, 0x58, 0x3e, 
  0x7e, 0x59, 0x7c, 0x3e, 0xb8, 0xcd, 0x1e, 0x3d, 0x5c, 0x34, 0x9e, 0x3d, 
  0x29, 0x2c, 0x7b, 0xbe, 0x26, 0x3e, 0x6f, 0x3e, 0x2e, 0xc5, 0x48, 0x3e, 
  0xa0, 0xb3, 0xa7, 0xbc, 0x0a, 0x27, 0x4a, 0x3e, 0x3e, 0xed, 0xa4, 0xbd, 
  0x50, 0x19, 0x96, 0xbc, 0x7a, 0xd3, 0x0e, 0xbe, 0xea, 0xdd, 0x7b, 0x3e, 
  0x50, 0x9e, 0x27, 0x3e, 0x50, 0xe9, 0x63, 0xbd, 0x9d, 0x6b, 0x0b, 0xbe, 
  0xe4, 0x74, 0x96, 0xbd, 0x60, 0x42, 0xdf, 0x3c, 0x66, 0x0b, 0x6e, 0x3e, 
  0x18, 0x3b, 0x02, 0xbd, 0xb0, 0x7f, 0xe0, 0xbd, 0x73, 0xab, 0x1e, 0xbe, 
  0x04, 0xed, 0xb0, 0x3d, 0x9a, 0xe3, 0x2e, 0xbe, 0x94, 0xb4, 0xc1, 0x3d, 
  0x6e, 0x79, 0x4b, 0x3e, 0x0e, 0x87, 0x3f, 0x3e, 0xe8, 0xa8, 0xe7, 0x3d, 
  0x36, 0xd8, 0x82, 0xbe, 0x07, 0x4d, 0x01, 0xbe, 0x3c, 0x05, 0x8f, 0xbe, 
  0x20, 0x79, 0xfd, 0xbc, 0x56, 0xff, 0xff, 0xbd, 0xcc, 0x53, 0x80, 0x3d, 
  0x3a, 0xb3, 0x6f, 0x3e, 0x30, 0xce, 0x06, 0xbd, 0xd8, 0x01, 0xe3, 0x3d, 
  0x73, 0x02, 0x80, 0x3e, 0x60, 0x9a, 0xab, 0xbd, 0x7c, 0x29, 0x8a, 0x3d, 
  0x96, 0x6b, 0xf2, 0xbd, 0xf2, 0xff, 0x62, 0xbe, 0x08, 0xd2, 0x51, 0x3d, 
  0xa2, 0x20, 0x4c, 0x3e, 0x76, 0xda, 0x48, 0x3e, 0x64, 0xf6, 0xb0, 0x3d, 
  0x45, 0xa8, 0x97, 0xbe, 0xca, 0x87, 0x64, 0xbe, 0x24, 0x54, 0x06, 0xbe, 
  0x18, 0x9f, 0x5e, 0xbe, 0x82, 0xb9, 0x02, 0x3e, 0xba, 0x6d, 0x77, 0x3e, 
  0x64, 0x79, 0x24, 0xbe, 0xc0, 0x3c, 0xc2, 0x3b, 0xec, 0xe4, 0xff, 0x3d, 
  0x30, 0xfa, 0x52, 0xbd, 0xd0, 0x03, 0x2e, 0xbd, 0x7d, 0x96, 0x83, 0x3e, 
  0xae, 0x13, 0x54, 0x3e, 0xba, 0x09, 0x58, 0x3e, 0x12, 0x02, 0x07, 0x3e, 
  0x19, 0xee, 0x90, 0xbe, 0xcd, 0x27, 0x9c, 0x3e, 0x00, 0x6c, 0xaf, 0x3c, 
  0x3e, 0xa1, 0x59, 0x3e, 0xb0, 0x86, 0x22, 0x3e, 0x14, 0xcb, 0x79, 0xbd, 
  0xa0, 0xb6, 0xb7, 0xbd, 0xb0, 0x9c, 0xe3, 0x3d, 0xac, 0x24, 0x24, 0x3e, 
  0x20, 0xfd, 0x05, 0x3c, 0x54, 0x78, 0x9e, 0x3d, 0xe4, 0x38, 0xf0, 0x3d, 
  0x48, 0xe1, 0xe0, 0x3d, 0xec, 0xbc, 0xf2, 0x3d, 0x7d, 0x63, 0x88, 0x3e, 
  0x5a, 0xcb, 0x05, 0x3e, 0xed, 0x9f, 0x92, 0x3e, 0xed, 0x34, 0x04, 0xbe, 
  0x90, 0xa0, 0x47, 0x3d, 0x78, 0x72, 0xb7, 0x3d, 0xfe, 0x72, 0x7c, 0x3e, 
  0xb4, 0xb4, 0x17, 0x3e, 0x4d, 0xe4, 0x2f, 0xbe, 0x13, 0xd6, 0x96, 0x3e, 
  0xae, 0x4c, 0x8e, 0xbe, 0x17, 0x26, 0x24, 0xbe, 0x2e, 0xad, 0x72, 0x3e, 
  0x1f, 0x08, 0x88, 0xbe, 0x9c, 0xf1, 0x0f, 0x3e, 0x22, 0xfa, 0x74, 0x3e, 
  0xa6, 0x94, 0x64, 0xbe, 0x28, 0xc4, 0x71, 0xbe, 0xbc, 0x8d, 0xf3, 0x3d, 
  0x4b, 0xd5, 0x99, 0x3e, 0xb0, 0x0d, 0x7c, 0xbe, 0xb7, 0x7c, 0x85, 0x3e, 
  0x40, 0xc8, 0x4d, 0xbd, 0x70, 0xd3, 0xe4, 0xbd, 0xf0, 0xab, 0x0e, 0x3e, 
  0xa0, 0xd6, 0x7c, 0xbd, 0x1c, 0x14, 0xcd, 0x3d, 0xa6, 0xeb, 0x6a, 0x3e, 
  0xa4, 0xbb, 0x03, 0x3e, 0xf8, 0x99, 0xcf, 0xbd, 0x06, 0x19, 0x6b, 0x3e, 
  0x58, 0x26, 0xed, 0x3d, 0x46, 0x1c, 0x0d, 0xbe, 0x00, 0x6a, 0x3a, 0x3b, 
  0xe4, 0x39, 0xe1, 0xbd, 0x38, 0x2f, 0x0d, 0x3d, 0xc2, 0xe6, 0x93, 0xbe, 
  0xf8, 0x48, 0x55, 0x3d, 0x2a, 0x16, 0x22, 0x3e, 0x84, 0xaa, 0xfa, 0x3d, 
  0x3b, 0x14, 0x7e, 0xbe, 0x68, 0x14, 0x0f, 0xbe, 0x03, 0x32, 0x6d, 0xbe, 
  0x4d, 0xda, 0x2e, 0xbe, 0xc8, 0xd6, 0x43, 0x3e, 0x9e, 0x36, 0xfa, 0xbd, 
  0x42, 0xec, 0x87, 0xbe, 0x7a, 0xd9, 0x89, 0xbe, 0xd5, 0x67, 0x6c, 0xbe, 
  0x44, 0xa7, 0xbe, 0x3d, 0x3e, 0x5e, 0x08, 0xbe, 0x68, 0xd5, 0xd3, 0xbd, 
  0x86, 0xe0, 0x47, 0x3e, 0x43, 0x0b, 0x2a, 0xbe, 0x03, 0x44, 0x98, 0x3e, 
  0xc4, 0x79, 0x72, 0xbe, 0xfc, 0x3c, 0x4b, 0xbe, 0xc0, 0x12, 0xc8, 0x3d, 
  0x64, 0x3e, 0xdf, 0xbd, 0x80, 0xbf, 0xbd, 0x3c, 0x9f, 0x36, 0x22, 0xbe, 
  0x32, 0x13, 0x1c, 0x3e, 0xdc, 0x7f, 0x28, 0xbe, 0x1c, 0x56, 0x1f, 0x3e, 
  0x59, 0x80, 0x55, 0xbe, 0xea, 0x8b, 0x37, 0x3e, 0x68, 0x95, 0xaf, 0x3d, 
  0x6a, 0x4e, 0x70, 0x3e, 0xb8, 0x10, 0xc4, 0x3d, 0x08, 0x22, 0x3b, 0xbe, 
  0xfa, 0x88, 0x84, 0xbe, 0xa0, 0xbc, 0x0e, 0x3c, 0x4c, 0x83, 0xd9, 0xbd, 
  0xc0, 0x1b, 0xad, 0x3d, 0x08, 0x2e, 0x86, 0x3d, 0xa8, 0xc3, 0x71, 0x3d, 
  0xac, 0x85, 0x9c, 0x3d, 0x2a, 0x51, 0x8a, 0xbe, 0xfa, 0xaa, 0x17, 0x3e, 
  0xb4, 0x04, 0x8e, 0xbd, 0x7c, 0xa1, 0x97, 0x3d, 0x30, 0x8a, 0xd0, 0x3c, 
  0xbc, 0x32, 0x3b, 0x3e, 0x84, 0xfb, 0xe5, 0x3d, 0x90, 0xb3, 0x4e, 0xbe, 
  0x9e, 0x18, 0xa6, 0xbd, 0x94, 0x47, 0xe4, 0x3d, 0x70, 0x57, 0x37, 0x3d, 
  0x00, 0xeb, 0x86, 0xbb, 0xb1, 0x1c, 0x85, 0xbe, 0x6d, 0x7d, 0x9c, 0xbe, 
  0xea, 0xcf, 0x3c, 0x3e, 0xaa, 0xd5, 0x78, 0xbe, 0xd0, 0x5f, 0x8b, 0x3d, 
  0x16, 0xaf, 0x74, 0x3e, 0xc0, 0xfe, 0xad, 0xbb, 0xa2, 0x2d, 0x80, 0xbe, 
  0x29, 0x3a, 0x31, 0xbe, 0x96, 0x2c, 0x74, 0xbe, 0xf8, 0xf0, 0xa9, 0x3d, 
  0xb0, 0xd1, 0x21, 0x3d, 0xc7, 0xc8, 0x89, 0xbe, 0xae, 0xe6, 0xfe, 0xbd, 
  0x40, 0x28, 0xcb, 0x3d, 0xca, 0xac, 0x78, 0x3e, 0xc9, 0xdb, 0x80, 0x3e, 
  0xae, 0xc2, 0x39, 0x3e, 0xe8, 0x15, 0x84, 0xbe, 0xaa, 0xc8, 0x7a, 0x3e, 
  0x64, 0xa0, 0x88, 0xbe, 0x26, 0x62, 0x63, 0x3e, 0x72, 0x62, 0x39, 0x3e, 
  0x7c, 0xbe, 0x42, 0xbe, 0x46, 0x64, 0x57, 0x3e, 0x4a, 0x4f, 0x59, 0x3e, 
  0x77, 0xb4, 0x8b, 0xbe, 0x5a, 0x3c, 0x5d, 0x3e, 0x0f, 0x42, 0x70, 0xbe, 
  0x13, 0xe1, 0x13, 0xbe, 0xd0, 0x48, 0xe6, 0x3c, 0x68, 0xa1, 0x24, 0x3e, 
  0x50, 0x54, 0xc4, 0x3d, 0x3f, 0xfa, 0x8b, 0xbe, 0x7b, 0x36, 0x25, 0xbe, 
  0xf4, 0x8a, 0x18, 0xbe, 0xce, 0xc1, 0xda, 0xbd, 0x0a, 0x30, 0x35, 0x3e, 
  0xef, 0x41, 0x88, 0x3e, 0x68, 0xf0, 0x02, 0x3e, 0x6c, 0xf2, 0xbc, 0xbd, 
  0xf6, 0x25, 0xb8, 0xbd, 0x22, 0xa0, 0x1f, 0x3e, 0x7b, 0x07, 0x88, 0x3e, 
  0x10, 0x01, 0xce, 0xbc, 0x00, 0xb0, 0x7b, 0xbc, 0x00, 0xf5, 0xc5, 0xba, 
  0xde, 0xca, 0x3e, 0xbe, 0xa6, 0xaa, 0x35, 0x3e, 0xd0, 0xb9, 0x84, 0x3c, 
  0x56, 0x5c, 0x81, 0xbe, 0xfe, 0x08, 0x21, 0x3e, 0x38, 0xac, 0x6b, 0xbe, 
  0x00, 0x7e, 0x9c, 0xbe, 0x80, 0x2d, 0xa7, 0x3c, 0x90, 0x94, 0xd1, 0xbc, 
  0x70, 0x3b, 0xe2, 0x3c, 0x96, 0x11, 0x4b, 0x3e, 0x58, 0x6e, 0x14, 0xbe, 
  0x3e, 0xab, 0x6b, 0xbe, 0x31, 0xe5, 0x83, 0x3e, 0x34, 0xb0, 0xea, 0x3d, 
  0x12, 0x27, 0x2e, 0x3e, 0xba, 0x3b, 0x59, 0xbe, 0x87, 0x19, 0x93, 0x3e, 
  0xa0, 0x6c, 0x0b, 0xbe, 0xe2, 0x2a, 0xdd, 0xbd, 0x82, 0x2c, 0xe2, 0xbd, 
  0x48, 0x9a, 0x35, 0x3e, 0xa1, 0x58, 0x87, 0x3e, 0x2a, 0x2e, 0x6b, 0xbe, 
  0xa0, 0x8b, 0xbd, 0x3d, 0x84, 0xe5, 0x91, 0x3d, 0xf0, 0x41, 0xa4, 0x3c, 
  0x67, 0x4e, 0x92, 0x3e, 0xb0, 0xec, 0xb2, 0xbc, 0x8a, 0x59, 0x88, 0xbd, 
  0x24, 0x83, 0x42, 0x3e, 0xae, 0x24, 0x9f, 0xbd, 0xa8, 0x2e, 0x24, 0x3d, 
  0xca, 0x61, 0x46, 0x3e, 0xa0, 0xff, 0xa4, 0xbc, 0xa8, 0xa7, 0x5a, 0x3d, 
  0x17, 0x0f, 0x8a, 0x3e, 0x38, 0xa6, 0x47, 0x3d, 0xf8, 0x1b, 0xbc, 0x3d, 
  0xc6, 0xbc, 0x92, 0xbe, 0x7b, 0xed, 0x21, 0xbe, 0x60, 0x22, 0xae, 0x3d, 
  0x30, 0x75, 0x99, 0xbe, 0xb1, 0xc8, 0x6b, 0xbe, 0xaa, 0x74, 0x69, 0x3e, 
  0x60, 0x25, 0x81, 0x3d, 0x1c, 0x04, 0x66, 0xbe, 0x3c, 0x81, 0xb7, 0xbd, 
  0x6a, 0x93, 0x94, 0xbd, 0xc0, 0x87, 0x9c, 0xbe, 0xe6, 0x0f, 0x64, 0xbe, 
  0x42, 0x6e, 0x47, 0xbe, 0x8a, 0x45, 0x7c, 0x3e, 0x2a, 0xce, 0x4e, 0x3e, 
  0x9e, 0xa3, 0x78, 0xbe, 0x30, 0x6f, 0xc6, 0x3c, 0xec, 0x90, 0x29, 0xbe, 
  0xd5, 0xeb, 0x82, 0x3e, 0x00, 0xb0, 0xb9, 0x3b, 0x77, 0x18, 0x8d, 0x3e, 
  0x3e, 0x6c, 0xfe, 0xbd, 0xf2, 0xb8, 0x43, 0xbe, 0xb7, 0xea, 0x94, 0x3e, 
  0x2e, 0xb1, 0x19, 0xbe, 0x2c, 0x87, 0x2a, 0x3e, 0x20, 0x9d, 0x51, 0xbe, 
  0x40, 0x2f, 0xf0, 0xbc, 0x99, 0xec, 0x93, 0xbe, 0x8c, 0x77, 0x8d, 0x3d, 
  0x28, 0x97, 0x8b, 0xbe, 0x19, 0xf2, 0x8b, 0x3e, 0xfa, 0xab, 0x7d, 0x3e, 
  0x42, 0xcf, 0x24, 0xbe, 0x43, 0x61, 0x8a, 0x3e, 0x98, 0xdf, 0xbc, 0x3d, 
  0xee, 0x77, 0x7b, 0x3e, 0x05, 0xe9, 0x00, 0xbe, 0xfe, 0xe6, 0x88, 0xbd, 
  0x04, 0x81, 0x25, 0xbe, 0xd1, 0x95, 0x98, 0x3e, 0x78, 0x66, 0xff, 0x3d, 
  0x82, 0xd5, 0x90, 0xbe, 0x0e, 0x38, 0xbb, 0xbd, 0x01, 0x4f, 0x91, 0x3e, 
  0xbc, 0x30, 0x79, 0xbe, 0x8c, 0x79, 0x80, 0xbe, 0x7f, 0x32, 0x94, 0x3e, 
  0xca, 0xab, 0x52, 0x3e, 0xc0, 0x1a, 0x67, 0xbd, 0x79, 0x19, 0x82, 0x3e, 
  0x00, 0x64, 0x52, 0xba, 0x55, 0xe6, 0x9a, 0x3e, 0x34, 0x38, 0x59, 0xbe, 
  0xac, 0xc7, 0xdb, 0x3d, 0x10, 0x65, 0xfe, 0xbc, 0x5a, 0x4d, 0x7c, 0xbe, 
  0x6a, 0x7d, 0x64, 0xbe, 0x8c, 0x35, 0xdb, 0xbd, 0x34, 0x92, 0x9e, 0x3d, 
  0xfe, 0x16, 0x41, 0xbe, 0xe0, 0x9d, 0x66, 0xbc, 0x36, 0x2b, 0x6b, 0x3e, 
  0x78, 0x2c, 0xfa, 0x3d, 0x72, 0xc7, 0x35, 0x3e, 0xd7, 0x6a, 0x8f, 0xbe, 
  0xc3, 0xfc, 0x86, 0xbe, 0x7e, 0x87, 0x48, 0x3e, 0x5a, 0x0d, 0x43, 0x3e, 
  0x02, 0xa6, 0x76, 0x3e, 0x2c, 0x07, 0xd1, 0x3d, 0x76, 0xff, 0xc3, 0xbd, 
  0x46, 0xf1, 0x70, 0xbe, 0x78, 0x3a, 0xaf, 0x3d, 0x9c, 0x56, 0x83, 0x3d, 
  0xb0, 0x08, 0x49, 0xbd, 0x40, 0x87, 0x0d, 0x3e, 0x2f, 0x58, 0x9c, 0x3e, 
  0xf9, 0xd1, 0x9b, 0x3e, 0xba, 0x29, 0x71, 0xbe, 0x74, 0xe7, 0x1f, 0x3e, 
  0x20, 0xde, 0x1f, 0x3c, 0xa6, 0xe9, 0x68, 0x3e, 0x10, 0xdb, 0x36, 0xbd, 
  0x1a, 0xe7, 0x4f, 0x3e, 0xd8, 0x0a, 0xc5, 0x3d, 0x14, 0x14, 0xf8, 0xbd, 
  0x3b, 0xea, 0x40, 0xbe, 0x64, 0x19, 0x1b, 0x3e, 0xbc, 0xc4, 0x41, 0x3e, 
  0xd8, 0x67, 0x51, 0xbd, 0x28, 0xf8, 0x0f, 0x3e, 0x70, 0x20, 0x97, 0xbe, 
  0x07, 0xe8, 0x8b, 0xbe, 0x36, 0x4e, 0x55, 0x3e, 0xc0, 0xfe, 0xc3, 0x3c, 
  0x9e, 0xde, 0x76, 0x3e, 0x79, 0x05, 0x91, 0xbe, 0xb8, 0xcf, 0x92, 0xbe, 
  0xb6, 0x30, 0x66, 0x3e, 0x58, 0x7f, 0x31, 0x3d, 0x88, 0x1e, 0x53, 0x3d, 
  0x18, 0xfa, 0x40, 0xbe, 0x40, 0x82, 0xdc, 0xbb, 0x50, 0xe7, 0xaf, 0x3d, 
  0xce, 0x5a, 0x80, 0xbe, 0x78, 0x12, 0x72, 0xbe, 0x3c, 0xc5, 0xe7, 0x3d, 
  0x70, 0x5f, 0x1c, 0x3e, 0x80, 0x12, 0xeb, 0x3b, 0x28, 0xe2, 0x92, 0xbd, 
  0xc6, 0x75, 0x6d, 0x3e, 0x96, 0x3c, 0x25, 0xbe, 0x00, 0x21, 0xe4, 0x3a, 
  0x6d, 0x68, 0x38, 0xbe, 0x00, 0xb1, 0x64, 0x3c, 0x01, 0x38, 0x90, 0x3e, 
  0xba, 0xb3, 0x9c, 0xbe, 0x42, 0xfc, 0x3e, 0x3e, 0x64, 0xd5, 0x10, 0x3e, 
  0x8e, 0xb2, 0xa6, 0xbd, 0x40, 0x8d, 0xe3, 0x3b, 0x69, 0xa8, 0x0f, 0xbe, 
  0xe0, 0xfc, 0xbf, 0x3c, 0x98, 0x72, 0x3d, 0x3d, 0x72, 0x3c, 0x1b, 0xbe, 
  0x3a, 0x46, 0xbc, 0xbd, 0x42, 0x09, 0x5d, 0x3e, 0x20, 0x4a, 0x6f, 0x3c, 
  0xb4, 0x1d, 0xb1, 0x3d, 0x11, 0x71, 0x87, 0x3e, 0xbe, 0x55, 0x80, 0xbe, 
  0x87, 0x19, 0x88, 0x3e, 0x80, 0x9a, 0x94, 0x3b, 0xdf, 0x9c, 0x41, 0xbe, 
  0xdb, 0x2c, 0x8c, 0x3e, 0x70, 0x08, 0x1c, 0xbd, 0xd8, 0x28, 0xef, 0xbd, 
  0x9a, 0x0a, 0x48, 0xbe, 0x8c, 0x1e, 0x2d, 0x3e, 0x1a, 0xf7, 0x95, 0xbe, 
  0x10, 0xe7, 0xed, 0x3c, 0xe4, 0x37, 0x11, 0x3e, 0x3a, 0x0d, 0x87, 0xbe, 
  0xd3, 0xb2, 0x99, 0xbe, 0xe0, 0x50, 0x59, 0xbd, 0x08, 0x53, 0x15, 0x3d, 
  0xb0, 0xdb, 0x53, 0x3d, 0x5d, 0xda, 0x82, 0xbe, 0x2c, 0x6b, 0x33, 0x3e, 
  0xe4, 0x40, 0x91, 0xbe, 0xab, 0x18, 0x12, 0xbe, 0x10, 0x87, 0xac, 0x3d, 
  0x28, 0x51, 0x3a, 0xbd, 0xd0, 0x68, 0x8c, 0xbd, 0x46, 0x19, 0xb6, 0xbd, 
  0xf0, 0x8e, 0xac, 0x3d, 0x00, 0xff, 0xa1, 0x3b, 0xea, 0xef, 0x7c, 0x3e, 
  0x1e, 0x26, 0x7e, 0x3e, 0xb8, 0x57, 0xc0, 0xbd, 0xcf, 0x4c, 0x85, 0x3e, 
  0x40, 0xbc, 0x63, 0xbc, 0xbe, 0xe9, 0x87, 0xbd, 0x20, 0x95, 0x07, 0xbd, 
  0xd0, 0x28, 0x2e, 0x3e, 0xec, 0x27, 0xdf, 0x3d, 0xc8, 0xce, 0x16, 0x3d, 
  0x76, 0x14, 0x82, 0xbe, 0xfe, 0x22, 0x53, 0x3e, 0x10, 0xe6, 0xf2, 0xbd, 
  0xb4, 0xda, 0xc1, 0x3d, 0x32, 0xc6, 0xff, 0xbd, 0xab, 0xc9, 0x37, 0xbe, 
  0xb0, 0xa1, 0x42, 0xbd, 0xdf, 0x33, 0x96, 0x3e, 0x48, 0x08, 0xc5, 0x3d, 
  0x72, 0xa6, 0xa1, 0xbd, 0x00, 0x17, 0xf3, 0xbc, 0xd2, 0x5c, 0x62, 0x3e, 
  0xd0, 0xc0, 0xc5, 0x3c, 0x30, 0x15, 0x14, 0x3e, 0x80, 0x1c, 0x1e, 0x3e, 
  0xa2, 0x25, 0x7a, 0x3e, 0xda, 0xc0, 0xe2, 0xbd, 0x28, 0xad, 0x97, 0xbd, 
  0x58, 0x43, 0x33, 0x3d, 0x40, 0x17, 0x6c, 0xbe, 0xf7, 0x97, 0x44, 0xbe, 
  0xdb, 0xae, 0x09, 0xbe, 0x81, 0x94, 0x85, 0x3e, 0x84, 0x23, 0x0c, 0x3e, 
  0x44, 0x42, 0x23, 0xbe, 0xdc, 0x71, 0x85, 0xbe, 0xb0, 0x7d, 0xa2, 0xbc, 
  0xcf, 0xcd, 0x7f, 0xbe, 0xf5, 0x57, 0x8a, 0xbe, 0x64, 0xf7, 0x36, 0x3e, 
  0x6c, 0x0e, 0xac, 0xbd, 0xce, 0x52, 0x0e, 0x3e, 0x60, 0xba, 0x82, 0xbe, 
  0x56, 0x6d, 0x7f, 0x3e, 0x54, 0xec, 0x17, 0x3e, 0x9c, 0x53, 0x3e, 0x3e, 
  0xf8, 0x87, 0x9a, 0xbe, 0xdf, 0xe3, 0x49, 0xbe, 0x1a, 0x99, 0x5a, 0xbe, 
  0xda, 0x84, 0x0f, 0x3e, 0xde, 0xcf, 0x7b, 0x3e, 0x1d, 0xad, 0x33, 0xbe, 
  0xfa, 0x4d, 0xfb, 0xbd, 0xc0, 0x1f, 0x88, 0xbb, 0x43, 0xb3, 0x94, 0xbe, 
  0x0a, 0x2d, 0x4e, 0x3e, 0x4c, 0xb8, 0x45, 0xbe, 0x10, 0xfc, 0xc1, 0xbc, 
  0xbc, 0xfe, 0xa4, 0xbd, 0x99, 0xac, 0x9b, 0xbe, 0x2e, 0x44, 0x9c, 0xbe, 
  0xe4, 0x07, 0x24, 0x3e, 0xae, 0x0a, 0xfa, 0xbd, 0xbe, 0xc8, 0x61, 0x3e, 
  0xe8, 0xbf, 0x5e, 0x3d, 0xe8, 0x5e, 0x61, 0xbd, 0x5e, 0xd8, 0x53, 0x3e, 
  0x40, 0x11, 0x2b, 0xbc, 0x9a, 0x81, 0x50, 0x3e, 0xce, 0x1f, 0xbc, 0xbd, 
  0x0f, 0x67, 0x91, 0x3e, 0x94, 0xd1, 0x71, 0xbd, 0x33, 0x3e, 0x9b, 0x3e, 
  0x80, 0x3d, 0x57, 0xbb, 0x40, 0xbb, 0x78, 0x3d, 0x22, 0xd0, 0x31, 0x3e, 
  0x99, 0x51, 0x8e, 0x3e, 0xc8, 0xca, 0x70, 0x3d, 0x00, 0xa9, 0xce, 0xbc, 
  0x24, 0xe1, 0xab, 0x3d, 0xfe, 0x3c, 0xe5, 0xbd, 0x5c, 0x4d, 0x83, 0x3d, 
  0x6a, 0x48, 0xc0, 0xbd, 0x30, 0x21, 0x35, 0x3e, 0xa8, 0xa0, 0x66, 0x3d, 
  0x3e, 0x9c, 0x94, 0xbe, 0x24, 0x93, 0xab, 0xbd, 0xc0, 0x31, 0x9c, 0xbc, 
  0xd6, 0x69, 0x36, 0x3e, 0x8d, 0xcd, 0x9a, 0xbe, 0x76, 0x5c, 0x99, 0xbd, 
  0x68, 0xd3, 0x89, 0xbe, 0x28, 0x99, 0x0d, 0xbe, 0x40, 0x2b, 0xb5, 0xbd, 
  0x1f, 0xe5, 0x89, 0x3e, 0x4c, 0x8f, 0x10, 0x3e, 0xe8, 0x96, 0x02, 0x3e, 
  0x60, 0xe7, 0x4f, 0xbe, 0x93, 0x5d, 0x6c, 0xbe, 0xb2, 0x4e, 0x52, 0x3e, 
  0x35, 0x3f, 0x10, 0xbe, 0x38, 0xff, 0x9b, 0xbd, 0xef, 0x6f, 0x4c, 0xbe, 
  0x2c, 0x62, 0x1e, 0x3e, 0xee, 0xcb, 0x7e, 0x3e, 0x88, 0x9f, 0x4b, 0x3d, 
  0xc6, 0xda, 0x18, 0xbe, 0x1e, 0xdb, 0x83, 0xbd, 0xcd, 0x70, 0x41, 0xbe, 
  0xf0, 0x13, 0xd2, 0x3c, 0xa2, 0x80, 0x82, 0xbd, 0x02, 0x0a, 0x76, 0x3e, 
  0xe9, 0x0e, 0x18, 0xbe, 0x27, 0x0c, 0x8a, 0x3e, 0x8c, 0x11, 0x5b, 0xbe, 
  0xd7, 0x8b, 0x88, 0x3e, 0x8e, 0x19, 0x50, 0xbe, 0x00, 0x80, 0x72, 0x37, 
  0x52, 0x88, 0x82, 0xbd, 0x93, 0x69, 0x3e, 0xbe, 0xce, 0xf5, 0x76, 0x3e, 
  0x90, 0xf0, 0xdd, 0x3d, 0xb0, 0x36, 0xe2, 0x3d, 0x95, 0x5a, 0x96, 0x3e, 
  0x52, 0xc1, 0x58, 0x3e, 0x13, 0xee, 0x9b, 0xbe, 0x62, 0xc8, 0x96, 0xbe, 
  0xfc, 0x7e, 0x32, 0xbe, 0x0a, 0x75, 0xf6, 0xbd, 0x80, 0x66, 0x27, 0xbd, 
  0x60, 0x01, 0x73, 0xbc, 0x80, 0x6a, 0xdb, 0x3c, 0x68, 0x5b, 0x32, 0xbd, 
  0xac, 0xd0, 0x85, 0xbe, 0xb6, 0x9a, 0x15, 0x3e, 0xb9, 0xf5, 0x8b, 0x3e, 
  0xc0, 0xf2, 0x2f, 0xbd, 0xe0, 0x48, 0x0a, 0x3d, 0x18, 0x7e, 0x8c, 0x3d, 
  0xa1, 0x51, 0x95, 0x3e, 0x1c, 0x36, 0x98, 0xbe, 0x80, 0xe8, 0xb0, 0x3b, 
  0xba, 0x3e, 0x1d, 0x3e, 0x91, 0x8e, 0x70, 0xbe, 0xe7, 0x1d, 0x11, 0xbe, 
  0x08, 0x3a, 0x8c, 0x3d, 0x84, 0x4a, 0xcc, 0x3d, 0x18, 0x80, 0x49, 0xbe, 
  0x7c, 0x81, 0x0b, 0xbe, 0x94, 0x89, 0x1a, 0x3e, 0xea, 0x93, 0x05, 0x3e, 
  0xf0, 0x3f, 0x09, 0x3d, 0x8a, 0xfe, 0x96, 0xbe, 0x18, 0xa0, 0x53, 0xbe, 
  0xd9, 0xfd, 0x98, 0x3e, 0xa3, 0x58, 0x9c, 0x3e, 0x58, 0x85, 0x05, 0x3d, 
  0xe0, 0x2d, 0x94, 0x3d, 0xb4, 0xc8, 0xa1, 0x3d, 0x9c, 0x77, 0xb5, 0x3d, 
  0x48, 0x74, 0x05, 0x3e, 0x84, 0x32, 0x21, 0xbe, 0xc0, 0xf0, 0x35, 0x3c, 
  0xeb, 0x57, 0x7c, 0xbe, 0x40, 0x39, 0xe6, 0xbb, 0xc9, 0x5f, 0x39, 0xbe, 
  0xa4, 0xd7, 0x15, 0xbe, 0x68, 0x6d, 0x04, 0xbd, 0x4a, 0x0a, 0x54, 0x3e, 
  0xc9, 0x4b, 0x8c, 0x3e, 0x80, 0x22, 0x73, 0x3c, 0x49, 0xa1, 0x97, 0xbe, 
  0xed, 0xc1, 0x1b, 0xbe, 0xa3, 0xfc, 0x84, 0x3e, 0xa8, 0xea, 0x46, 0xbe, 
  0xa8, 0x49, 0x07, 0x3d, 0x66, 0x8a, 0x03, 0x3e, 0xd0, 0xfe, 0x51, 0xbd, 
  0x00, 0x7a, 0x0d, 0xbb, 0x54, 0x35, 0x32, 0x3e, 0x8e, 0x63, 0x3d, 0xbe, 
  0x21, 0x3f, 0x8d, 0x3e, 0x1f, 0x5c, 0x8b, 0xbe, 0x30, 0xce, 0x0b, 0xbd, 
  0x04, 0xf3, 0xbe, 0x3d, 0xc4, 0x6d, 0x2d, 0x3e, 0x60, 0x22, 0xcc, 0x3d, 
  0x74, 0xab, 0x85, 0x3d, 0xb2, 0x5c, 0x3e, 0xbe, 0x06, 0xb6, 0x60, 0x3e, 
  0xe8, 0x0c, 0x33, 0xbd, 0x88, 0x3c, 0x93, 0xbe, 0x2c, 0xcb, 0xcd, 0x3d, 
  0x60, 0x13, 0x19, 0x3e, 0x40, 0x7c, 0x88, 0x3b, 0x50, 0x4c, 0x33, 0xbd, 
  0xbc, 0x0d, 0x96, 0x3d, 0x22, 0x02, 0xe9, 0xbd, 0xb8, 0x92, 0x13, 0xbd, 
  0x7f, 0xb8, 0x0e, 0xbe, 0x0a, 0xa5, 0x5c, 0x3e, 0x88, 0xa4, 0x5f, 0xbd, 
  0x23, 0x6a, 0x20, 0xbe, 0x3c, 0x37, 0xe3, 0xbd, 0x28, 0x37, 0x88, 0xbe, 
  0xc0, 0x8f, 0xe9, 0xbc, 0xc0, 0xad, 0x20, 0x3d, 0x68, 0xfc, 0xb0, 0x3d, 
  0x56, 0x47, 0x00, 0xbe, 0xd8, 0x66, 0x29, 0x3d, 0xca, 0xe0, 0x26, 0x3e, 
  0x3c, 0xeb, 0x22, 0x3e, 0x76, 0x6b, 0x63, 0x3e, 0xcc, 0xab, 0x6d, 0xbe, 
  0x33, 0x41, 0x93, 0xbe, 0x10, 0x45, 0x5d, 0x3d, 0x3f, 0x82, 0x18, 0xbe, 
  0xab, 0x89, 0x99, 0x3e, 0xe8, 0xb9, 0xb2, 0xbd, 0x9f, 0x9f, 0x97, 0xbe, 
  0x00, 0xa8, 0xd1, 0x3d, 0xa6, 0x1b, 0x62, 0x3e, 0x67, 0x72, 0x97, 0x3e, 
  0xd8, 0x4d, 0x0a, 0xbe, 0xf0, 0x20, 0x65, 0x3d, 0x74, 0x06, 0x8c, 0x3d, 
  0x3a, 0xe1, 0xa0, 0xbd, 0x3a, 0xce, 0x3d, 0x3e, 0xe8, 0x01, 0x5b, 0x3d, 
  0xf2, 0x8f, 0x68, 0x3e, 0x20, 0x8c, 0xeb, 0xbd, 0xe0, 0x09, 0x22, 0xbd, 
  0xe0, 0x4a, 0x1d, 0x3c, 0xde, 0x18, 0x15, 0xbe, 0x80, 0xca, 0x3d, 0x3c, 
  0x86, 0xc8, 0x84, 0xbd, 0x72, 0x98, 0x5a, 0x3e, 0xce, 0x4c, 0x15, 0xbe, 
  0x5a, 0x8e, 0x34, 0xbe, 0x39, 0xd2, 0x3d, 0xbe, 0x08, 0x72, 0x64, 0xbe, 
  0x36, 0x87, 0x75, 0xbe, 0xd2, 0x9d, 0x16, 0xbe, 0xaa, 0x1b, 0xb4, 0xbd, 
  0xad, 0x29, 0x88, 0xbe, 0x06, 0x55, 0x52, 0x3e, 0x18, 0x3f, 0x96, 0xbe, 
  0xdc, 0xd6, 0x99, 0x3d, 0x5d, 0x99, 0x89, 0x3e, 0x7b, 0x08, 0x96, 0x3e, 
  0x30, 0x01, 0x93, 0xbe, 0xa7, 0x9d, 0x96, 0x3e, 0xac, 0xf1, 0x78, 0xbd, 
  0xc8, 0x70, 0x19, 0xbd, 0xa8, 0xfc, 0x7f, 0x3d, 0x0c, 0x33, 0xc7, 0x3d, 
  0x80, 0x3c, 0x6b, 0x3b, 0x20, 0xf0, 0x76, 0xbe, 0xfe, 0x79, 0x89, 0xbe, 
  0x8e, 0x7c, 0xc9, 0xbd, 0xe8, 0xbe, 0x2d, 0xbe, 0x21, 0x7f, 0x89, 0xbe, 
  0xf9, 0x0a, 0x91, 0xbe, 0xfa, 0xe7, 0x5b, 0xbe, 0xeb, 0xef, 0x46, 0xbe, 
  0x73, 0x2e, 0x8f, 0x3e, 0xa8, 0x21, 0x06, 0x3e, 0x0f, 0x8e, 0x8f, 0xbe, 
  0x1a, 0x29, 0x08, 0xbe, 0x20, 0x54, 0x1c, 0xbc, 0x96, 0xbe, 0x1c, 0xbe, 
  0x40, 0xc0, 0xd6, 0x3b, 0xe5, 0x1e, 0x95, 0x3e, 0x20, 0x67, 0x88, 0x3d, 
  0x14, 0x1a, 0x3c, 0x3e, 0x02, 0xc1, 0x6c, 0xbe, 0x10, 0xf0, 0xd5, 0x3d, 
  0xa0, 0xee, 0x39, 0xbd, 0x17, 0xee, 0x9b, 0x3e, 0x3d, 0x5e, 0x8c, 0x3e, 
  0xa8, 0x07, 0xf2, 0xbd, 0xa0, 0x22, 0x5d, 0x3d, 0x11, 0x04, 0x2a, 0xbe, 
  0x22, 0x90, 0x79, 0x3e, 0x7d, 0x9d, 0x34, 0xbe, 0x15, 0xc4, 0x13, 0xbe, 
  0x43, 0xf1, 0x98, 0x3e, 0xf2, 0x17, 0x4e, 0xbe, 0x25, 0xc3, 0x8d, 0x3e, 
  0x18, 0xa9, 0x3a, 0xbd, 0xf6, 0xc9, 0x49, 0xbe, 0xb0, 0x11, 0x14, 0x3d, 
  0xd0, 0x4c, 0xda, 0xbc, 0x61, 0xf1, 0x86, 0x3e, 0x00, 0x0e, 0x86, 0xbb, 
  0xda, 0x4b, 0x75, 0x3e, 0xbe, 0x0c, 0x62, 0x3e, 0x66, 0x2a, 0x79, 0x3e, 
  0x52, 0x49, 0x45, 0xbe, 0x84, 0xb1, 0x03, 0x3e, 0xa4, 0xfe, 0x6f, 0xbd, 
  0x8c, 0x74, 0x37, 0x3e, 0x68, 0x4b, 0x2a, 0xbd, 0xe8, 0x1d, 0xe0, 0x3d, 
  0x1c, 0xb1, 0x80, 0x3d, 0xc1, 0x24, 0x9c, 0xbe, 0xb8, 0x25, 0x71, 0x3d, 
  0x32, 0x70, 0x9f, 0xbd, 0xe0, 0x37, 0x3c, 0xbc, 0x4a, 0xc4, 0x77, 0x3e, 
  0x35, 0x1a, 0x95, 0xbe, 0x8e, 0xe8, 0x33, 0x3e, 0x5a, 0x91, 0x51, 0x3e, 
  0x78, 0x20, 0xf3, 0xbd, 0x97, 0xa2, 0x8c, 0x3e, 0x5d, 0x70, 0x04, 0xbe, 
  0x20, 0xdd, 0x0e, 0x3e, 0x46, 0xb4, 0x41, 0xbe, 0x99, 0xc1, 0x79, 0xbe, 
  0xb2, 0xe8, 0x55, 0x3e, 0x60, 0xc1, 0x97, 0xbc, 0xa4, 0x00, 0xcb, 0x3d, 
  0xf6, 0xe8, 0xa4, 0xbd, 0xa5, 0x88, 0x82, 0x3e, 0xd6, 0xb7, 0x39, 0x3e, 
  0x28, 0xd6, 0x3e, 0x3e, 0xe0, 0xaf, 0x8f, 0x3d, 0xa3, 0x40, 0x82, 0x3e, 
  0x75, 0x7b, 0x24, 0xbe, 0x89, 0x8c, 0x06, 0xbe, 0x08, 0x46, 0x35, 0xbd, 
  0x22, 0xe6, 0xcf, 0xbd, 0xa0, 0x57, 0x2e, 0x3d, 0x20, 0xc3, 0x2a, 0xbc, 
  0xc0, 0xd4, 0x90, 0xbb, 0x90, 0x64, 0x8d, 0x3c, 0xe4, 0xc4, 0xc2, 0x3d, 
  0x4d, 0xb2, 0x1e, 0xbe, 0x37, 0x8f, 0x0a, 0xbe, 0x04, 0xad, 0xbf, 0x3d, 
  0x54, 0x28, 0x41, 0x3e, 0x52, 0x52, 0x54, 0x3e, 0x3f, 0xa0, 0x8f, 0x3e, 
  0x30, 0xb4, 0x2b, 0x3e, 0xbc, 0x11, 0x97, 0xbd, 0xc4, 0x48, 0x9e, 0xbd, 
  0x5a, 0xa1, 0x93, 0xbe, 0x49, 0x18, 0x93, 0x3e, 0x5e, 0x3a, 0x5f, 0xbe, 
  0xcb, 0xd8, 0x96, 0x3e, 0x76, 0xb0, 0x46, 0xbe, 0x28, 0xc9, 0x9c, 0x3d, 
  0x70, 0x4b, 0xce, 0x3c, 0x8a, 0x94, 0xc4, 0xbd, 0xbe, 0x5f, 0x42, 0x3e, 
  0x40, 0x8e, 0xb4, 0x3d, 0x00, 0xbd, 0x3e, 0xbc, 0xc0, 0x2e, 0x14, 0xbe, 
  0xb1, 0xb6, 0x32, 0xbe, 0x0a, 0xc3, 0x63, 0x3e, 0x04, 0x94, 0x74, 0xbd, 
  0x90, 0x9a, 0x4f, 0xbe, 0x80, 0x35, 0x1f, 0x3e, 0x80, 0xb4, 0x45, 0xbb, 
  0x6f, 0x47, 0x80, 0x3e, 0x48, 0x16, 0xa6, 0x3d, 0x78, 0x24, 0x2c, 0xbd, 
  0x48, 0x89, 0x7a, 0xbd, 0xc0, 0xd7, 0x5e, 0x3c, 0x30, 0x37, 0x23, 0xbe, 
  0xa0, 0x11, 0x42, 0xbe, 0x50, 0xbf, 0x75, 0xbd, 0xe8, 0x53, 0x41, 0xbe, 
  0x50, 0x05, 0x3c, 0x3d, 0x26, 0x18, 0x25, 0xbe, 0x07, 0xa7, 0x83, 0xbe, 
  0xfe, 0x83, 0xbf, 0xbd, 0x8e, 0x96, 0x3d, 0xbe, 0xe0, 0x57, 0x16, 0x3e, 
  0xea, 0xc3, 0x79, 0x3e, 0x9a, 0xd6, 0x65, 0xbe, 0x98, 0x7f, 0xb0, 0xbd, 
  0x58, 0xa9, 0x45, 0xbd, 0x00, 0x4c, 0xd4, 0x39, 0xe2, 0xa7, 0xd1, 0xbd, 
  0x74, 0x16, 0xbf, 0xbd, 0xa0, 0xca, 0x43, 0x3c, 0x3b, 0x98, 0x93, 0x3e, 
  0xda, 0xe7, 0x1d, 0x3e, 0x60, 0x7f, 0xb8, 0x3c, 0xbc, 0x83, 0x38, 0x3e, 
  0xdd, 0xef, 0x9b, 0xbe, 0xfc, 0xfa, 0x11, 0xbe, 0x9a, 0x56, 0x49, 0x3e, 
  0xf9, 0x24, 0x8f, 0x3e, 0x9f, 0x12, 0x16, 0xbe, 0xae, 0x1c, 0x00, 0xbe, 
  0x56, 0xdd, 0x82, 0xbe, 0x62, 0xe6, 0x61, 0x3e, 0x8a, 0x21, 0x47, 0x3e, 
  0x10, 0x98, 0xd0, 0x3d, 0x6e, 0x6f, 0x06, 0xbe, 0x68, 0xd8, 0x8f, 0xbd, 
  0x8a, 0xff, 0x58, 0xbe, 0x7e, 0x7b, 0x01, 0xbe, 0x04, 0x36, 0x60, 0xbe, 
  0xd8, 0x8f, 0x2d, 0x3d, 0xe0, 0xf5, 0xb5, 0xbd, 0x9d, 0x51, 0x0a, 0xbe, 
  0x4c, 0x73, 0x76, 0xbe, 0xc8, 0xfc, 0x3b, 0x3e, 0x65, 0x06, 0x9a, 0x3e, 
  0x94, 0x25, 0xb0, 0xbd, 0x00, 0xe5, 0x0e, 0xbd, 0xa2, 0x12, 0x4b, 0x3e, 
  0x8a, 0xb2, 0x64, 0xbe, 0x78, 0x2d, 0x25, 0x3e, 0x1b, 0xd8, 0x08, 0xbe, 
  0x30, 0x5c, 0xf1, 0x3d, 0x08, 0x9f, 0x2e, 0x3d, 0x02, 0x49, 0x01, 0x3e, 
  0x9d, 0x4e, 0x76, 0xbe, 0x3f, 0x55, 0x82, 0xbe, 0x4b, 0x77, 0x86, 0xbe, 
  0xc8, 0x24, 0x7a, 0xbd, 0x5e, 0x6c, 0x68, 0x3e, 0xc8, 0x02, 0x1c, 0xbd, 
  0x09, 0x35, 0x91, 0xbe, 0xda, 0xac, 0x3d, 0xbe, 0x10, 0xe3, 0x8f, 0xbe, 
  0xed, 0x01, 0x95, 0xbe, 0x7d, 0x00, 0x97, 0xbe, 0x4b, 0x61, 0x31, 0xbe, 
  0xe0, 0xdf, 0xd0, 0xbc, 0xf0, 0x2e, 0x3f, 0xbd, 0x54, 0x7f, 0xed, 0x3d, 
  0xa7, 0x8d, 0x84, 0x3e, 0xdc, 0x20, 0x65, 0xbe, 0x9a, 0x46, 0x54, 0xbe, 
  0xcc, 0x6a, 0xa7, 0xbd, 0xc5, 0x2d, 0x81, 0x3e, 0xe0, 0x31, 0xc4, 0xbc, 
  0xca, 0x17, 0x9a, 0xbe, 0xea, 0x85, 0x1d, 0x3e, 0x09, 0xa6, 0x9c, 0xbe, 
  0x28, 0x54, 0xfd, 0x3d, 0xb4, 0x8a, 0x93, 0xbe, 0x71, 0xe9, 0x7f, 0xbe, 
  0xed, 0xc2, 0x93, 0x3e, 0x1d, 0x8b, 0x5c, 0xbe, 0xd0, 0x30, 0x87, 0x3c, 
  0xf6, 0x31, 0xba, 0xbd, 0x85, 0x61, 0x87, 0x3e, 0x4c, 0x6c, 0xf8, 0x3d, 
  0x00, 0x00, 0x06, 0x00, 0x08, 0x00, 0x04, 0x00, 0x06, 0x00, 0x00, 0x00, 
  0x04, 0x00, 0x00, 0x00, 0x80, 0x02, 0x00, 0x00, 0x02, 0x8e, 0x9f, 0xbe, 
  0x98, 0x7e, 0x8d, 0x3e, 0x01, 0x7d, 0xbb, 0xbe, 0x4d, 0x5f, 0x51, 0xbe, 
  0x80, 0x81, 0x13, 0xbb, 0x40, 0xb9, 0x33, 0xbd, 0x14, 0x79, 0x97, 0xbd, 
  0x4c, 0xcf, 0x59, 0x3e, 0x68, 0x60, 0x9b, 0x3e, 0xd4, 0x8a, 0x15, 0x3e, 
  0x42, 0x63, 0x8e, 0x3e, 0x54, 0x58, 0xa9, 0x3d, 0x28, 0x82, 0xb9, 0xbd, 
  0x68, 0x33, 0x30, 0x3e, 0x08, 0xb6, 0xc7, 0x3d, 0x84, 0x2e, 0xb2, 0x3d, 
  0x07, 0x4c, 0x35, 0xbe, 0x70, 0x70, 0x94, 0x3e, 0x20, 0xf3, 0xb8, 0x3c, 
  0xd0, 0x16, 0xa0, 0x3e, 0x26, 0xf1, 0x6d, 0xbe, 0xbe, 0xec, 0x9a, 0xbe, 
  0xb4, 0xf4, 0xb9, 0xbe, 0xc0, 0xc7, 0x3b, 0x3d, 0x10, 0x44, 0xae, 0x3d, 
  0xc0, 0x58, 0xa1, 0xbe, 0x38, 0x9a, 0xa0, 0xbd, 0x68, 0x5b, 0x07, 0x3e, 
  0x34, 0x03, 0xbd, 0x3e, 0x00, 0x27, 0x04, 0x3b, 0x9a, 0x3a, 0x79, 0xbe, 
  0xd0, 0xac, 0x08, 0x3e, 0x00, 0xa1, 0xe2, 0xba, 0x5e, 0xe3, 0x01, 0xbe, 
  0x4b, 0x97, 0x2a, 0xbe, 0xac, 0x46, 0x83, 0xbe, 0x76, 0xa1, 0xac, 0xbe, 
  0xc0, 0xdc, 0x64, 0x3e, 0x28, 0x6f, 0x52, 0x3d, 0xa0, 0xc9, 0xaa, 0x3c, 
  0x91, 0xcf, 0x4e, 0xbe, 0xc0, 0xb7, 0xdd, 0x3b, 0x34, 0x33, 0x92, 0x3d, 
  0xc4, 0xa4, 0x87, 0x3e, 0x62, 0x52, 0x87, 0x3e, 0x2c, 0x79, 0xcb, 0xbd, 
  0x5f, 0x58, 0x38, 0xbe, 0xb0, 0xba, 0xbf, 0x3e, 0xf0, 0x3c, 0x95, 0x3c, 
  0x04, 0x4d, 0x54, 0x3e, 0x27, 0xb1, 0xbb, 0xbe, 0x60, 0x0d, 0x10, 0x3e, 
  0xca, 0xd2, 0xcb, 0x3e, 0xc6, 0x03, 0x89, 0x3e, 0xe1, 0xbd, 0xa0, 0xbe, 
  0xd8, 0x7c, 0x4a, 0x3e, 0x90, 0xcb, 0x7b, 0xbd, 0xbc, 0xcd, 0x18, 0x3e, 
  0x8a, 0xbd, 0xa8, 0xbe, 0x65, 0x50, 0x24, 0xbe, 0x34, 0x10, 0xd1, 0xbd, 
  0x44, 0xea, 0x41, 0x3e, 0x68, 0xbe, 0xb1, 0x3e, 0xcc, 0x18, 0xab, 0xbe, 
  0xfc, 0x24, 0x75, 0x3e, 0xc5, 0x93, 0xae, 0xbe, 0xc4, 0xe4, 0x14, 0x3e, 
  0x20, 0xcc, 0x76, 0x3d, 0xda, 0x74, 0xa7, 0xbe, 0x64, 0x7e, 0x31, 0x3e, 
  0xc8, 0x39, 0xf2, 0x3d, 0x10, 0xf5, 0x1f, 0x3e, 0x14, 0xe3, 0x0c, 0x3e, 
  0xb4, 0x64, 0x2c, 0x3e, 0xae, 0x43, 0xbc, 0x3e, 0x78, 0x60, 0xcf, 0x3d, 
  0x88, 0xd8, 0x1c, 0xbe, 0xec, 0x2a, 0x65, 0x3e, 0x12, 0xac, 0x2f, 0xbe, 
  0x06, 0x4f, 0x31, 0xbe, 0x46, 0x9f, 0x0e, 0xbe, 0x40, 0x7c, 0x76, 0x3e, 
  0x99, 0x49, 0x32, 0xbe, 0x64, 0x3a, 0x81, 0x3e, 0x60, 0x05, 0x5e, 0x3c, 
  0xc0, 0x54, 0x1f, 0xbd, 0x20, 0x8d, 0x22, 0x3c, 0xd4, 0x18, 0x29, 0x3e, 
  0xfb, 0x5d, 0xca, 0xbe, 0xf6, 0x34, 0x88, 0x3e, 0xc2, 0x04, 0x0d, 0xbe, 
  0xbc, 0xa5, 0x24, 0x3e, 0xaf, 0x37, 0x7d, 0xbe, 0x60, 0xbc, 0x49, 0xbe, 
  0xbc, 0x6d, 0x81, 0xbd, 0x1c, 0xb5, 0xa7, 0x3e, 0x2c, 0xb3, 0x49, 0x3e, 
  0xec, 0x0b, 0x99, 0x3d, 0x74, 0x17, 0xe2, 0xbd, 0x64, 0x6a, 0x50, 0x3e, 
  0xb0, 0xe9, 0x8f, 0x3d, 0x8e, 0x2f, 0x5d, 0xbe, 0xa0, 0x43, 0xf2, 0x3c, 
  0xae, 0x59, 0xba, 0xbe, 0xb2, 0x27, 0xcb, 0x3e, 0x64, 0x55, 0xbf, 0x3e, 
  0xc0, 0x3c, 0x91, 0x3d, 0x04, 0xe1, 0x14, 0xbe, 0xdc, 0xef, 0xa8, 0x3e, 
  0xb2, 0x3a, 0xbc, 0xbe, 0x58, 0x3f, 0xd7, 0x3d, 0xce, 0xeb, 0xb7, 0x3e, 
  0x85, 0x61, 0xc8, 0xbe, 0x60, 0x6a, 0x8f, 0xbc, 0xd4, 0xdc, 0xa9, 0xbd, 
  0x20, 0x5c, 0x52, 0xbd, 0xe5, 0x41, 0xc2, 0xbe, 0xbc, 0xc0, 0x03, 0xbe, 
  0x2e, 0xc1, 0x8b, 0x3e, 0x8c, 0x83, 0x47, 0x3e, 0x98, 0x59, 0xee, 0x3d, 
  0xce, 0x96, 0x17, 0xbe, 0xb0, 0x72, 0xe0, 0x3d, 0xc4, 0xb7, 0xc4, 0xbd, 
  0xf8, 0x8a, 0x51, 0x3e, 0x50, 0xf5, 0xcc, 0xbd, 0x4e, 0x71, 0x91, 0xbe, 
  0xe0, 0x29, 0x89, 0x3d, 0xf9, 0xe4, 0xbb, 0xbe, 0x08, 0x74, 0x30, 0x3e, 
  0xfc, 0xe8, 0xa3, 0x3d, 0x80, 0xf0, 0xba, 0x3e, 0xe0, 0x5c, 0x4d, 0xbc, 
  0x96, 0x95, 0x80, 0xbe, 0x50, 0x00, 0x3b, 0xbd, 0x90, 0x92, 0x20, 0xbe, 
  0x90, 0xec, 0xd0, 0xbd, 0xfe, 0xd4, 0xc6, 0x3e, 0x90, 0x4a, 0x9d, 0x3c, 
  0x84, 0xf5, 0x8d, 0x3e, 0xb6, 0x95, 0xb0, 0x3e, 0xc8, 0xc7, 0x27, 0x3e, 
  0xf0, 0xd5, 0x62, 0x3d, 0x40, 0xe9, 0xa1, 0xbc, 0x46, 0x34, 0x7c, 0xbe, 
  0xc0, 0xa6, 0x9f, 0xbe, 0xa8, 0x86, 0xb6, 0xbd, 0xe6, 0x09, 0x14, 0xbe, 
  0xbc, 0x3a, 0xb7, 0xbe, 0xd2, 0x2a, 0x98, 0x3e, 0x92, 0x43, 0x37, 0xbe, 
  0xb5, 0x8c, 0x43, 0xbe, 0x08, 0xd3, 0xf8, 0xbd, 0x98, 0xdc, 0xa8, 0xbe, 
  0x40, 0x4b, 0x8a, 0x3e, 0xe0, 0x2d, 0x9c, 0xbe, 0x96, 0xbb, 0xc6, 0x3e, 
  0xa0, 0xec, 0xab, 0x3e, 0x24, 0x8b, 0x89, 0xbe, 0x78, 0x70, 0x0b, 0x3d, 
  0x60, 0xfb, 0xff, 0xff, 0x64, 0xfb, 0xff, 0xff, 0x0f, 0x00, 0x00, 0x00, 
  0x4d, 0x4c, 0x49, 0x52, 0x20, 0x43, 0x6f, 0x6e, 0x76, 0x65, 0x72, 0x74, 
  0x65, 0x64, 0x2e, 0x00, 0x01, 0x00, 0x00, 0x00, 0x14, 0x00, 0x00, 0x00, 
  0x00, 0x00, 0x0e, 0x00, 0x18, 0x00, 0x14, 0x00, 0x10, 0x00, 0x0c, 0x00, 
  0x08, 0x00, 0x04, 0x00, 0x0e, 0x00, 0x00, 0x00, 0x14, 0x00, 0x00, 0x00, 
  0x1c, 0x00, 0x00, 0x00, 0x08, 0x01, 0x00, 0x00, 0x0c, 0x01, 0x00, 0x00, 
  0x10, 0x01, 0x00, 0x00, 0x04, 0x00, 0x00, 0x00, 0x6d, 0x61, 0x69, 0x6e, 
  0x00, 0x00, 0x00, 0x00, 0x04, 0x00, 0x00, 0x00, 0xb0, 0x00, 0x00, 0x00, 
  0x68, 0x00, 0x00, 0x00, 0x34, 0x00, 0x00, 0x00, 0x10, 0x00, 0x00, 0x00, 
  0x00, 0x00, 0x0a, 0x00, 0x10, 0x00, 0x0c, 0x00, 0x08, 0x00, 0x04, 0x00, 
  0x0a, 0x00, 0x00, 0x00, 0x0c, 0x00, 0x00, 0x00, 0x10, 0x00, 0x00, 0x00, 
  0x01, 0x00, 0x00, 0x00, 0x01, 0x00, 0x00, 0x00, 0x07, 0x00, 0x00, 0x00, 
  0x01, 0x00, 0x00, 0x00, 0x06, 0x00, 0x00, 0x00, 0x9a, 0xff, 0xff, 0xff, 
  0x10, 0x00, 0x00, 0x00, 0x00, 0x00, 0x00, 0x08, 0x0c, 0x00, 0x00, 0x00, 
  0x10, 0x00, 0x00, 0x00, 0x0c, 0xfc, 0xff, 0xff, 0x01, 0x00, 0x00, 0x00, 
  0x06, 0x00, 0x00, 0x00, 0x03, 0x00, 0x00, 0x00, 0x05, 0x00, 0x00, 0x00, 
  0x03, 0x00, 0x00, 0x00, 0xff, 0xff, 0xff, 0xff, 0xca, 0xff, 0xff, 0xff, 
  0x10, 0x00, 0x00, 0x00, 0x00, 0x00, 0x00, 0x08, 0x10, 0x00, 0x00, 0x00, 
  0x14, 0x00, 0x00, 0x00, 0xba, 0xff, 0xff, 0xff, 0x00, 0x00, 0x00, 0x01, 
  0x01, 0x00, 0x00, 0x00, 0x05, 0x00, 0x00, 0x00, 0x03, 0x00, 0x00, 0x00, 
  0x04, 0x00, 0x00, 0x00, 0x02, 0x00, 0x00, 0x00, 0xff, 0xff, 0xff, 0xff, 
  0x00, 0x00, 0x0e, 0x00, 0x16, 0x00, 0x00, 0x00, 0x10, 0x00, 0x0c, 0x00, 
  0x0b, 0x00, 0x04, 0x00, 0x0e, 0x00, 0x00, 0x00, 0x18, 0x00, 0x00, 0x00, 
  0x00, 0x00, 0x00, 0x08, 0x18, 0x00, 0x00, 0x00, 0x1c, 0x00, 0x00, 0x00, 
  0x00, 0x00, 0x06, 0x00, 0x08, 0x00, 0x07, 0x00, 0x06, 0x00, 0x00, 0x00, 
  0x00, 0x00, 0x00, 0x01, 0x01, 0x00, 0x00, 0x00, 0x04, 0x00, 0x00, 0x00, 
  0x03, 0x00, 0x00, 0x00, 0x00, 0x00, 0x00, 0x00, 0x01, 0x00, 0x00, 0x00, 
  0xff, 0xff, 0xff, 0xff, 0x01, 0x00, 0x00, 0x00, 0x07, 0x00, 0x00, 0x00, 
  0x01, 0x00, 0x00, 0x00, 0x00, 0x00, 0x00, 0x00, 0x08, 0x00, 0x00, 0x00, 
  0x1c, 0x03, 0x00, 0x00, 0xb4, 0x02, 0x00, 0x00, 0x50, 0x02, 0x00, 0x00, 
  0x04, 0x02, 0x00, 0x00, 0x70, 0x01, 0x00, 0x00, 0xdc, 0x00, 0x00, 0x00, 
  0x60, 0x00, 0x00, 0x00, 0x04, 0x00, 0x00, 0x00, 0x1a, 0xfd, 0xff, 0xff, 
  0x00, 0x00, 0x00, 0x01, 0x14, 0x00, 0x00, 0x00, 0x1c, 0x00, 0x00, 0x00, 
  0x1c, 0x00, 0x00, 0x00, 0x08, 0x00, 0x00, 0x00, 0x34, 0x00, 0x00, 0x00, 
  0x02, 0x00, 0x00, 0x00, 0xff, 0xff, 0xff, 0xff, 0x04, 0x00, 0x00, 0x00, 
  0x04, 0xfd, 0xff, 0xff, 0x19, 0x00, 0x00, 0x00, 0x53, 0x74, 0x61, 0x74, 
  0x65, 0x66, 0x75, 0x6c, 0x50, 0x61, 0x72, 0x74, 0x69, 0x74, 0x69, 0x6f, 
  0x6e, 0x65, 0x64, 0x43, 0x61, 0x6c, 0x6c, 0x3a, 0x30, 0x00, 0x00, 0x00, 
  0x02, 0x00, 0x00, 0x00, 0x01, 0x00, 0x00, 0x00, 0x04, 0x00, 0x00, 0x00, 
  0x72, 0xfd, 0xff, 0xff, 0x00, 0x00, 0x00, 0x01, 0x14, 0x00, 0x00, 0x00, 
  0x1c, 0x00, 0x00, 0x00, 0x1c, 0x00, 0x00, 0x00, 0x07, 0x00, 0x00, 0x00, 
  0x54, 0x00, 0x00, 0x00, 0x02, 0x00, 0x00, 0x00, 0xff, 0xff, 0xff, 0xff, 
  0x04, 0x00, 0x00, 0x00, 0x5c, 0xfd, 0xff, 0xff, 0x38, 0x00, 0x00, 0x00, 
  0x65, 0x73, 0x70, 0x33, 0x32, 0x5f, 0x61, 0x63, 0x74, 0x6f, 0x72, 0x2f, 
  0x64, 0x65, 0x6e, 0x73, 0x65, 0x5f, 0x36, 0x35, 0x2f, 0x4d, 0x61, 0x74, 
  0x4d, 0x75, 0x6c, 0x3b, 0x65, 0x73, 0x70, 0x33, 0x32, 0x5f, 0x61, 0x63, 
  0x74, 0x6f, 0x72, 0x2f, 0x64, 0x65, 0x6e, 0x73, 0x65, 0x5f, 0x36, 0x35, 
  0x2f, 0x42, 0x69, 0x61, 0x73, 0x41, 0x64, 0x64, 0x00, 0x00, 0x00, 0x00, 
  0x02, 0x00, 0x00, 0x00, 0x01, 0x00, 0x00, 0x00, 0x04, 0x00, 0x00, 0x00, 
  0xea, 0xfd, 0xff, 0xff, 0x00, 0x00, 0x00, 0x01, 0x14, 0x00, 0x00, 0x00, 
  0x1c, 0x00, 0x00, 0x00, 0x1c, 0x00, 0x00, 0x00, 0x06, 0x00, 0x00, 0x00, 
  0x6c, 0x00, 0x00, 0x00, 0x02, 0x00, 0x00, 0x00, 0xff, 0xff, 0xff, 0xff, 
  0x20, 0x00, 0x00, 0x00, 0xd4, 0xfd, 0xff, 0xff, 0x52, 0x00, 0x00, 0x00, 
  0x65, 0x73, 0x70, 0x33, 0x32, 0x5f, 0x61, 0x63, 0x74, 0x6f, 0x72, 0x2f, 
  0x64, 0x65, 0x6e, 0x73, 0x65, 0x5f, 0x36, 0x34, 0x2f, 0x4d, 0x61, 0x74, 
  0x4d, 0x75, 0x6c, 0x3b, 0x65, 0x73, 0x70, 0x33, 0x32, 0x5f, 0x61, 0x63, 
  0x74, 0x6f, 0x72, 0x2f, 0x64, 0x65, 0x6e, 0x73, 0x65, 0x5f, 0x36, 0x34, 
  0x2f, 0x52, 0x65, 0x6c, 0x75, 0x3b, 0x65, 0x73, 0x70, 0x33, 0x32, 0x5f, 
  0x61, 0x63, 0x74, 0x6f, 0x72, 0x2f, 0x64, 0x65, 0x6e, 0x73, 0x65, 0x5f, 
  0x36, 0x34, 0x2f, 0x42, 0x69, 0x61, 0x73, 0x41, 0x64, 0x64, 0x00, 0x00, 
  0x02, 0x00, 0x00, 0x00, 0x01, 0x00, 0x00, 0x00, 0x20, 0x00, 0x00, 0x00, 
  0x7a, 0xfe, 0xff, 0xff, 0x00, 0x00, 0x00, 0x01, 0x14, 0x00, 0x00, 0x00, 
  0x1c, 0x00, 0x00, 0x00, 0x1c, 0x00, 0x00, 0x00, 0x05, 0x00, 0x00, 0x00, 
  0x6c, 0x00, 0x00, 0x00, 0x02, 0x00, 0x00, 0x00, 0xff, 0xff, 0xff, 0xff, 
  0x20, 0x00, 0x00, 0x00, 0x64, 0xfe, 0xff, 0xff, 0x52, 0x00, 0x00, 0x00, 
  0x65, 0x73, 0x70, 0x33, 0x32, 0x5f, 0x61, 0x63, 0x74, 0x6f, 0x72, 0x2f, 
  0x64, 0x65, 0x6e, 0x73, 0x65, 0x5f, 0x36, 0x33, 0x2f, 0x4d, 0x61, 0x74, 
  0x4d, 0x75, 0x6c, 0x3b, 0x65, 0x73, 0x70, 0x33, 0x32, 0x5f, 0x61, 0x63, 
  0x74, 0x6f, 0x72, 0x2f, 0x64, 0x65, 0x6e, 0x73, 0x65, 0x5f, 0x36, 0x33, 
  0x2f, 0x52, 0x65, 0x6c, 0x75, 0x3b, 0x65, 0x73, 0x70, 0x33, 0x32, 0x5f, 
  0x61, 0x63, 0x74, 0x6f, 0x72, 0x2f, 0x64, 0x65, 0x6e, 0x73, 0x65, 0x5f, 
  0x36, 0x33, 0x2f, 0x42, 0x69, 0x61, 0x73, 0x41, 0x64, 0x64, 0x00, 0x00, 
  0x02, 0x00, 0x00, 0x00, 0x01, 0x00, 0x00, 0x00, 0x20, 0x00, 0x00, 0x00, 
  0x6e, 0xff, 0xff, 0xff, 0x00, 0x00, 0x00, 0x01, 0x10, 0x00, 0x00, 0x00, 
  0x10, 0x00, 0x00, 0x00, 0x04, 0x00, 0x00, 0x00, 0x28, 0x00, 0x00, 0x00, 
  0xe4, 0xfe, 0xff, 0xff, 0x1b, 0x00, 0x00, 0x00, 0x65, 0x73, 0x70, 0x33, 
  0x32, 0x5f, 0x61, 0x63, 0x74, 0x6f, 0x72, 0x2f, 0x64, 0x65, 0x6e, 0x73, 
  0x65, 0x5f, 0x36, 0x35, 0x2f, 0x4d, 0x61, 0x74, 0x4d, 0x75, 0x6c, 0x00, 
  0x02, 0x00, 0x00, 0x00, 0x04, 0x00, 0x00, 0x00, 0x20, 0x00, 0x00, 0x00, 
  0xb6, 0xff, 0xff, 0xff, 0x00, 0x00, 0x00, 0x01, 0x10, 0x00, 0x00, 0x00, 
  0x10, 0x00, 0x00, 0x00, 0x03, 0x00, 0x00, 0x00, 0x28, 0x00, 0x00, 0x00, 
  0x2c, 0xff, 0xff, 0xff, 0x1b, 0x00, 0x00, 0x00, 0x65, 0x73, 0x70, 0x33, 
  0x32, 0x5f, 0x61, 0x63, 0x74, 0x6f, 0x72, 0x2f, 0x64, 0x65, 0x6e, 0x73, 
  0x65, 0x5f, 0x36, 0x34, 0x2f, 0x4d, 0x61, 0x74, 0x4d, 0x75, 0x6c, 0x00, 
  0x02, 0x00, 0x00, 0x00, 0x20, 0x00, 0x00, 0x00, 0x20, 0x00, 0x00, 0x00, 
  0x00, 0x00, 0x16, 0x00, 0x18, 0x00, 0x14, 0x00, 0x00, 0x00, 0x10, 0x00, 
  0x0c, 0x00, 0x08, 0x00, 0x00, 0x00, 0x00, 0x00, 0x00, 0x00, 0x07, 0x00, 
  0x16, 0x00, 0x00, 0x00, 0x00, 0x00, 0x00, 0x01, 0x10, 0x00, 0x00, 0x00, 
  0x10, 0x00, 0x00, 0x00, 0x02, 0x00, 0x00, 0x00, 0x2c, 0x00, 0x00, 0x00, 
  0x8c, 0xff, 0xff, 0xff, 0x1c, 0x00, 0x00, 0x00, 0x65, 0x73, 0x70, 0x33, 
  0x32, 0x5f, 0x61, 0x63, 0x74, 0x6f, 0x72, 0x2f, 0x64, 0x65, 0x6e, 0x73, 
  0x65, 0x5f, 0x36, 0x33, 0x2f, 0x4d, 0x61, 0x74, 0x4d, 0x75, 0x6c, 0x31, 
  0x00, 0x00, 0x00, 0x00, 0x02, 0x00, 0x00, 0x00, 0x20, 0x00, 0x00, 0x00, 
  0x05, 0x00, 0x00, 0x00, 0x00, 0x00, 0x16, 0x00, 0x1c, 0x00, 0x18, 0x00, 
  0x00, 0x00, 0x14, 0x00, 0x10, 0x00, 0x0c, 0x00, 0x00, 0x00, 0x00, 0x00, 
  0x08, 0x00, 0x07, 0x00, 0x16, 0x00, 0x00, 0x00, 0x00, 0x00, 0x00, 0x01, 
  0x14, 0x00, 0x00, 0x00, 0x20, 0x00, 0x00, 0x00, 0x20, 0x00, 0x00, 0x00, 
  0x01, 0x00, 0x00, 0x00, 0x40, 0x00, 0x00, 0x00, 0x02, 0x00, 0x00, 0x00, 
  0xff, 0xff, 0xff, 0xff, 0x05, 0x00, 0x00, 0x00, 0x04, 0x00, 0x04, 0x00, 
  0x04, 0x00, 0x00, 0x00, 0x20, 0x00, 0x00, 0x00, 0x73, 0x65, 0x72, 0x76, 
  0x69, 0x6e, 0x67, 0x5f, 0x64, 0x65, 0x66, 0x61, 0x75, 0x6c, 0x74, 0x5f, 
  0x64, 0x65, 0x6e, 0x73, 0x65, 0x5f, 0x36, 0x33, 0x5f, 0x69, 0x6e, 0x70, 
  0x75, 0x74, 0x3a, 0x30, 0x00, 0x00, 0x00, 0x00, 0x02, 0x00, 0x00, 0x00, 
  0x01, 0x00, 0x00, 0x00, 0x05, 0x00, 0x00, 0x00, 0x02, 0x00, 0x00, 0x00, 
  0x20, 0x00, 0x00, 0x00, 0x04, 0x00, 0x00, 0x00, 0xf4, 0xff, 0xff, 0xff, 
  0x1c, 0x00, 0x00, 0x00, 0x00, 0x00, 0x00, 0x1c, 0x0c, 0x00, 0x0c, 0x00, 
  0x0b, 0x00, 0x00, 0x00, 0x00, 0x00, 0x04, 0x00, 0x0c, 0x00, 0x00, 0x00, 
  0x09, 0x00, 0x00, 0x00, 0x00, 0x00, 0x00, 0x09, 
};

const unsigned int actor_model_len = 7040;
