#include "ppo_policy_actor.h"

const uint8_t actor_model[] = {

  0x1c, 0x00, 0x00, 0x00, 0x54, 0x46, 0x4c, 0x33, 0x14, 0x00, 0x20, 0x00, 
  0x1c, 0x00, 0x18, 0x00, 0x14, 0x00, 0x10, 0x00, 0x0c, 0x00, 0x00, 0x00, 
  0x08, 0x00, 0x04, 0x00, 0x14, 0x00, 0x00, 0x00, 0x1c, 0x00, 0x00, 0x00, 
  0x8c, 0x00, 0x00, 0x00, 0xe4, 0x00, 0x00, 0x00, 0x50, 0x16, 0x00, 0x00, 
  0x60, 0x16, 0x00, 0x00, 0x1c, 0x1b, 0x00, 0x00, 0x03, 0x00, 0x00, 0x00, 
  0x01, 0x00, 0x00, 0x00, 0x04, 0x00, 0x00, 0x00, 0x62, 0xe9, 0xff, 0xff, 
  0x0c, 0x00, 0x00, 0x00, 0x1c, 0x00, 0x00, 0x00, 0x3c, 0x00, 0x00, 0x00, 
  0x0f, 0x00, 0x00, 0x00, 0x73, 0x65, 0x72, 0x76, 0x69, 0x6e, 0x67, 0x5f, 
  0x64, 0x65, 0x66, 0x61, 0x75, 0x6c, 0x74, 0x00, 0x01, 0x00, 0x00, 0x00, 
  0x04, 0x00, 0x00, 0x00, 0x90, 0xff, 0xff, 0xff, 0x07, 0x00, 0x00, 0x00, 
  0x04, 0x00, 0x00, 0x00, 0x08, 0x00, 0x00, 0x00, 0x64, 0x65, 0x6e, 0x73, 
  0x65, 0x5f, 0x36, 0x35, 0x00, 0x00, 0x00, 0x00, 0x01, 0x00, 0x00, 0x00, 
  0x04, 0x00, 0x00, 0x00, 0xb2, 0xec, 0xff, 0xff, 0x04, 0x00, 0x00, 0x00, 
  0x0e, 0x00, 0x00, 0x00, 0x64, 0x65, 0x6e, 0x73, 0x65, 0x5f, 0x36, 0x33, 
  0x5f, 0x69, 0x6e, 0x70, 0x75, 0x74, 0x00, 0x00, 0x02, 0x00, 0x00, 0x00, 
  0x34, 0x00, 0x00, 0x00, 0x04, 0x00, 0x00, 0x00, 0xdc, 0xff, 0xff, 0xff, 
  0x0a, 0x00, 0x00, 0x00, 0x04, 0x00, 0x00, 0x00, 0x13, 0x00, 0x00, 0x00, 
  0x43, 0x4f, 0x4e, 0x56, 0x45, 0x52, 0x53, 0x49, 0x4f, 0x4e, 0x5f, 0x4d, 
  0x45, 0x54, 0x41, 0x44, 0x41, 0x54, 0x41, 0x00, 0x08, 0x00, 0x0c, 0x00, 
  0x08, 0x00, 0x04, 0x00, 0x08, 0x00, 0x00, 0x00, 0x09, 0x00, 0x00, 0x00, 
  0x04, 0x00, 0x00, 0x00, 0x13, 0x00, 0x00, 0x00, 0x6d, 0x69, 0x6e, 0x5f, 
  0x72, 0x75, 0x6e, 0x74, 0x69, 0x6d, 0x65, 0x5f, 0x76, 0x65, 0x72, 0x73, 
  0x69, 0x6f, 0x6e, 0x00, 0x0b, 0x00, 0x00, 0x00, 0x68, 0x15, 0x00, 0x00, 
  0x60, 0x15, 0x00, 0x00, 0xd0, 0x12, 0x00, 0x00, 0xb8, 0x02, 0x00, 0x00, 
  0xa8, 0x00, 0x00, 0x00, 0xa0, 0x00, 0x00, 0x00, 0x98, 0x00, 0x00, 0x00, 
  0x90, 0x00, 0x00, 0x00, 0x88, 0x00, 0x00, 0x00, 0x68, 0x00, 0x00, 0x00, 
  0x04, 0x00, 0x00, 0x00, 0x5a, 0xed, 0xff, 0xff, 0x04, 0x00, 0x00, 0x00, 
  0x54, 0x00, 0x00, 0x00, 0x0c, 0x00, 0x00, 0x00, 0x08, 0x00, 0x0e, 0x00, 
  0x08, 0x00, 0x04, 0x00, 0x08, 0x00, 0x00, 0x00, 0x10, 0x00, 0x00, 0x00, 
  0x24, 0x00, 0x00, 0x00, 0x00, 0x00, 0x06, 0x00, 0x08, 0x00, 0x04, 0x00, 
  0x06, 0x00, 0x00, 0x00, 0x04, 0x00, 0x00, 0x00, 0x00, 0x00, 0x00, 0x00, 
  0x00, 0x00, 0x0a, 0x00, 0x10, 0x00, 0x0c, 0x00, 0x08, 0x00, 0x04, 0x00, 
  0x0a, 0x00, 0x00, 0x00, 0x02, 0x00, 0x00, 0x00, 0x02, 0x00, 0x00, 0x00, 
  0x04, 0x00, 0x00, 0x00, 0x06, 0x00, 0x00, 0x00, 0x32, 0x2e, 0x31, 0x33, 
  0x2e, 0x30, 0x00, 0x00, 0xba, 0xed, 0xff, 0xff, 0x04, 0x00, 0x00, 0x00, 
  0x10, 0x00, 0x00, 0x00, 0x31, 0x2e, 0x31, 0x34, 0x2e, 0x30, 0x00, 0x00, 
  0x00, 0x00, 0x00, 0x00, 0x00, 0x00, 0x00, 0x00, 0xa4, 0xe6, 0xff, 0xff, 
  0xa8, 0xe6, 0xff, 0xff, 0xac, 0xe6, 0xff, 0xff, 0xb0, 0xe6, 0xff, 0xff, 
  0xe6, 0xed, 0xff, 0xff, 0x04, 0x00, 0x00, 0x00, 0x00, 0x02, 0x00, 0x00, 
  0x40, 0x19, 0xaa, 0x3d, 0x20, 0x55, 0x50, 0xbc, 0xd0, 0x47, 0xc6, 0x3d, 
  0x78, 0x47, 0x7f, 0x3d, 0x62, 0xa8, 0x3e, 0xbe, 0xbe, 0xd0, 0xc9, 0xbe, 
  0xaa, 0xbd, 0xb9, 0x3e, 0x20, 0x7a, 0x87, 0xbc, 0xa4, 0xb7, 0x7d, 0x3e, 
  0x80, 0x62, 0xc9, 0xbb, 0xdc, 0xf2, 0xc2, 0x3e, 0xa4, 0x3a, 0xb4, 0xbd, 
  0xe0, 0x5d, 0x2c, 0x3c, 0xf1, 0x10, 0xce, 0xbe, 0xee, 0x71, 0x9e, 0x3e, 
  0xd0, 0xca, 0x5e, 0xbe, 0x0c, 0x20, 0x11, 0x3e, 0x78, 0xda, 0xaf, 0x3e, 
  0xfa, 0x3a, 0xcb, 0x3e, 0x74, 0x2a, 0xcf, 0x3e, 0x44, 0xcb, 0x3e, 0x3e, 
  0x28, 0x3d, 0xc2, 0xbd, 0x10, 0x80, 0x2e, 0xbd, 0x18, 0x04, 0x8c, 0x3d, 
  0x08, 0x4d, 0x6f, 0xbd, 0x9c, 0x76, 0x95, 0xbd, 0x72, 0xfa, 0x18, 0xbe, 
  0xcc, 0x76, 0x9b, 0x3d, 0x86, 0x87, 0x86, 0xbe, 0xe0, 0x53, 0x39, 0x3d, 
  0x00, 0x66, 0x68, 0x3a, 0xa8, 0x65, 0x3f, 0xbd, 0xd8, 0x9d, 0x61, 0x3d, 
  0x76, 0x7f, 0xce, 0x3e, 0x88, 0x42, 0x96, 0x3e, 0x1d, 0xe6, 0x91, 0xbe, 
  0x70, 0x81, 0x85, 0x3e, 0x4e, 0xee, 0x20, 0xbe, 0xc0, 0x15, 0xdb, 0x3c, 
  0x44, 0x5c, 0x61, 0x3e, 0xf8, 0xcc, 0x88, 0xbd, 0x5c, 0x36, 0x61, 0x3e, 
  0x40, 0x33, 0xa9, 0xbb, 0xbc, 0x7b, 0xa3, 0xbd, 0x6f, 0xe6, 0x23, 0xbe, 
  0x4e, 0x33, 0x14, 0xbe, 0xd0, 0x54, 0x51, 0xbd, 0xe8, 0x93, 0x8a, 0x3d, 
  0x88, 0x29, 0x3c, 0x3e, 0x56, 0x2d, 0xb7, 0x3e, 0xaf, 0xfc, 0x9e, 0xbe, 
  0x0c, 0x91, 0x9b, 0x3e, 0x34, 0xf5, 0x93, 0xbe, 0xf0, 0xb9, 0x39, 0x3d, 
  0xf8, 0x6f, 0x99, 0xbe, 0x25, 0xa6, 0x84, 0xbe, 0x3c, 0x77, 0x78, 0x3e, 
  0x3a, 0x68, 0x9c, 0x3e, 0x6c, 0xe7, 0x8f, 0x3e, 0x04, 0xd8, 0xd8, 0xbd, 
  0x04, 0x46, 0x6f, 0x3e, 0x28, 0x3f, 0x3c, 0x3e, 0x9a, 0x95, 0x82, 0x3e, 
  0xf0, 0xcf, 0x3a, 0xbd, 0x80, 0x80, 0x12, 0xbc, 0x20, 0xaf, 0x68, 0x3e, 
  0x44, 0x8b, 0x1a, 0x3e, 0x3c, 0xbc, 0x9e, 0xbe, 0x90, 0x3e, 0xc0, 0xbc, 
  0xe0, 0xd6, 0x70, 0xbd, 0xf4, 0x47, 0x12, 0xbe, 0xc8, 0x5b, 0x57, 0x3d, 
  0x94, 0x5d, 0x80, 0x3e, 0x84, 0x1e, 0x1d, 0x3e, 0x2b, 0x91, 0xa1, 0xbe, 
  0xa4, 0xcb, 0xa0, 0xbe, 0x2a, 0x5e, 0x3c, 0xbe, 0x0c, 0xa0, 0x17, 0xbe, 
  0xab, 0x41, 0x95, 0xbe, 0x4e, 0x10, 0x84, 0x3e, 0x1c, 0x49, 0x18, 0x3e, 
  0xd5, 0xda, 0x73, 0xbe, 0xd7, 0x00, 0xc0, 0xbe, 0xc0, 0x33, 0x31, 0xbc, 
  0xcb, 0x4f, 0x62, 0xbe, 0x14, 0x8e, 0xa4, 0x3d, 0xa8, 0x0d, 0x26, 0x3d, 
  0xe0, 0xe1, 0xc4, 0xbe, 0xe8, 0xab, 0x8f, 0x3d, 0x88, 0x52, 0xbd, 0x3d, 
  0x2c, 0x04, 0xa1, 0x3d, 0xa8, 0x70, 0xf0, 0x3d, 0x00, 0x00, 0xe8, 0x36, 
  0xc0, 0xa9, 0xa7, 0x3d, 0xe8, 0x0c, 0x55, 0x3e, 0xb0, 0x9a, 0xd6, 0xbd, 
  0xd9, 0x72, 0xb1, 0xbe, 0xac, 0x43, 0x9b, 0xbd, 0x92, 0x7c, 0x87, 0xbe, 
  0x28, 0x8c, 0x00, 0x3e, 0x30, 0x12, 0x5f, 0xbd, 0x08, 0x4a, 0x6d, 0xbd, 
  0x13, 0x07, 0x94, 0xbe, 0x7a, 0xa8, 0x0a, 0xbe, 0x00, 0xfc, 0x8a, 0x3a, 
  0xf8, 0x2d, 0xb3, 0x3d, 0xf6, 0x68, 0xc8, 0x3e, 0x0f, 0x35, 0x57, 0xbe, 
  0xe8, 0xeb, 0x03, 0x3e, 0x3d, 0x82, 0x7d, 0xbe, 0x74, 0xea, 0xa2, 0xbe, 
  0x64, 0xeb, 0x69, 0x3e, 0x88, 0xcd, 0xa5, 0x3d, 0xd8, 0xed, 0xfd, 0xbd, 
  0xe7, 0x71, 0x96, 0xbe, 0x94, 0xc7, 0x66, 0xbe, 0xc4, 0x6e, 0x83, 0x3e, 
  0xb2, 0x86, 0xa9, 0xbe, 0x94, 0xe2, 0xb4, 0x3d, 0xb8, 0x6c, 0x4b, 0x3e, 
  0x80, 0x6c, 0x3b, 0x3d, 0xce, 0x79, 0x70, 0xbe, 0x53, 0x40, 0xa9, 0xbe, 
  0x00, 0x79, 0x7e, 0x3c, 0x56, 0x98, 0xc1, 0xbe, 0x50, 0x55, 0x1e, 0xbe, 
  0x38, 0xc5, 0xce, 0x3d, 0xa2, 0xb8, 0xac, 0x3e, 0xf2, 0xef, 0xff, 0xff, 
  0x04, 0x00, 0x00, 0x00, 0x00, 0x10, 0x00, 0x00, 0xd8, 0xa4, 0xdb, 0x3d, 
  0x8c, 0x0a, 0x48, 0xbe, 0x6c, 0xf2, 0x31, 0x3e, 0x16, 0x6b, 0x6e, 0xbe, 
  0x08, 0xbb, 0x60, 0xbe, 0x28, 0x8c, 0xc8, 0x3d, 0x90, 0x65, 0xa7, 0x3d, 
  0x10, 0x5c, 0x9c, 0x3c, 0xfa, 0x59, 0x4f, 0xbe, 0x9c, 0x4b, 0x14, 0xbe, 
  0x90, 0x09, 0x90, 0x3c, 0x9c, 0x2a, 0x41, 0xbe, 0x2c, 0xd8, 0x69, 0xbe, 
  0x24, 0xad, 0xac, 0x3d, 0x56, 0x3d, 0x81, 0xbe, 0x80, 0x15, 0x1d, 0xbb, 
  0xa8, 0x55, 0xee, 0xbd, 0xd6, 0xa4, 0x1d, 0xbe, 0x75, 0x6b, 0x03, 0xbe, 
  0xec, 0x1e, 0x21, 0x3e, 0x28, 0x01, 0x1d, 0x3d, 0x9c, 0xbc, 0xc0, 0x3d, 
  0x29, 0xf3, 0x13, 0xbe, 0x88, 0x9a, 0x36, 0xbd, 0x3f, 0xb8, 0x57, 0xbe, 
  0xe9, 0x7b, 0x90, 0x3e, 0xbe, 0xd8, 0x5f, 0xbe, 0x53, 0xf9, 0x9b, 0xbe, 
  0x98, 0xcf, 0x7e, 0x3d, 0x24, 0xd0, 0x11, 0xbe, 0x60, 0xe4, 0x0b, 0x3d, 
  0x59, 0x7e, 0x8f, 0xbe, 0xc7, 0xa1, 0x82, 0x3e, 0x04, 0xfe, 0xa1, 0x3d, 
  0x00, 0xec, 0x38, 0x3d, 0x06, 0xb8, 0x62, 0x3e, 0x14, 0x83, 0xe9, 0x3d, 
  0xee, 0x85, 0xfb, 0xbd, 0x03, 0x29, 0x5f, 0xbe, 0x3f, 0x3f, 0x72, 0xbe, 
  0xf9, 0xf7, 0x93, 0xbe, 0x66, 0x37, 0x08, 0xbe, 0x9c, 0xd5, 0xbd, 0x3d, 
  0x02, 0xb3, 0x88, 0xbe, 0xd0, 0xd1, 0xea, 0xbd, 0x78, 0x76, 0x45, 0x3e, 
  0xc0, 0xdd, 0x12, 0x3d, 0xdc, 0xe5, 0x22, 0x3e, 0xa2, 0x3f, 0x7c, 0x3e, 
  0xd0, 0x65, 0x28, 0x3e, 0x53, 0xdd, 0x41, 0xbe, 0xb8, 0xbb, 0x72, 0x3d, 
  0x5e, 0x3d, 0x88, 0xbe, 0xba, 0x03, 0x45, 0x3e, 0x3f, 0x30, 0x91, 0x3e, 
  0xdb, 0x92, 0x12, 0xbe, 0x84, 0x09, 0x6b, 0xbe, 0xee, 0x97, 0x70, 0x3e, 
  0xf8, 0x4b, 0x6f, 0x3d, 0x2d, 0xcd, 0x99, 0xbe, 0xd8, 0xfe, 0xe5, 0xbd, 
  0x2c, 0x85, 0xd9, 0xbd, 0x60, 0x6e, 0xfe, 0xbc, 0xb8, 0x34, 0x15, 0x3d, 
  0xc0, 0x48, 0x12, 0x3c, 0x88, 0x09, 0xb9, 0x3d, 0x87, 0x5d, 0x37, 0xbe, 
  0x8f, 0x83, 0x34, 0xbe, 0xcc, 0xaf, 0xcc, 0x3d, 0xf0, 0x00, 0x76, 0xbe, 
  0x5c, 0xc1, 0xd0, 0x3d, 0x10, 0x60, 0x2b, 0xbd, 0x7c, 0xf5, 0xb0, 0x3d, 
  0x95, 0xc2, 0x94, 0x3e, 0xed, 0x0c, 0x91, 0xbe, 0x00, 0x54, 0xa6, 0x39, 
  0x30, 0xd7, 0xca, 0xbc, 0xb2, 0x29, 0x70, 0x3e, 0x8c, 0x9a, 0x3a, 0x3e, 
  0xf4, 0x07, 0x4f, 0xbe, 0x7d, 0x99, 0x9c, 0xbe, 0x20, 0xdb, 0x6a, 0x3d, 
  0x9e, 0x9a, 0x41, 0x3e, 0x7b, 0x8a, 0x8f, 0x3e, 0x40, 0x35, 0x97, 0xbe, 
  0xd8, 0xef, 0xa0, 0xbd, 0x9f, 0x01, 0x1b, 0xbe, 0x00, 0x25, 0x45, 0x3c, 
  0x22, 0x4c, 0x2a, 0x3e, 0xb0, 0xe2, 0x39, 0x3d, 0x10, 0xe8, 0x3e, 0xbd, 
  0xaf, 0xc8, 0x88, 0xbe, 0x15, 0x6b, 0x83, 0x3e, 0x80, 0xbb, 0xbc, 0x3d, 
  0xc0, 0x61, 0x79, 0x3d, 0xe0, 0x8c, 0x19, 0x3e, 0xfc, 0x5c, 0x95, 0xbe, 
  0x8b, 0xae, 0x8e, 0xbe, 0x21, 0xcf, 0x94, 0x3e, 0x9e, 0xe1, 0x4f, 0xbe, 
  0x80, 0xd9, 0x32, 0xbe, 0x7e, 0x9f, 0x0d, 0xbe, 0x2a, 0x91, 0x68, 0xbe, 
  0x2c, 0xb5, 0xf9, 0x3d, 0x90, 0x4c, 0x8c, 0xbd, 0xac, 0xe0, 0x8b, 0xbd, 
  0xb0, 0x4c, 0x07, 0x3e, 0xb2, 0x10, 0xd0, 0xbd, 0x20, 0x89, 0x4f, 0x3d, 
  0x0c, 0x5e, 0x2a, 0xbe, 0xe0, 0xc5, 0xc1, 0x3d, 0xc4, 0xbd, 0x07, 0x3e, 
  0xd0, 0x5f, 0x64, 0xbe, 0x55, 0x72, 0x5c, 0xbe, 0x76, 0x9c, 0x4d, 0x3e, 
  0xf6, 0x39, 0x8c, 0xbe, 0x37, 0xde, 0x76, 0xbe, 0x16, 0xea, 0x43, 0x3e, 
  0x46, 0x3e, 0x58, 0x3e, 0xdf, 0xe2, 0x8c, 0x3e, 0x36, 0x2a, 0x6e, 0x3e, 
  0x74, 0xb0, 0xff, 0x3d, 0xf6, 0x18, 0x50, 0xbe, 0xeb, 0x14, 0x46, 0xbe, 
  0x36, 0xf0, 0x77, 0x3e, 0xb0, 0xbe, 0x99, 0xbc, 0xf9, 0x6c, 0x91, 0xbe, 
  0x80, 0x35, 0xfd, 0xbb, 0xa8, 0x6c, 0xde, 0x3d, 0x40, 0xa8, 0xc3, 0xbc, 
  0xe2, 0x89, 0x76, 0xbe, 0x38, 0xc9, 0x5f, 0x3d, 0x98, 0x01, 0x01, 0x3e, 
  0x00, 0x4a, 0x86, 0xbb, 0x93, 0x6d, 0x85, 0x3e, 0xa0, 0x5e, 0x1c, 0xbd, 
  0x81, 0x58, 0x38, 0xbe, 0xd2, 0x15, 0x83, 0xbe, 0x49, 0x24, 0x97, 0xbe, 
  0x2e, 0x26, 0x1a, 0xbe, 0x54, 0x49, 0x44, 0x3e, 0x29, 0xbb, 0x07, 0xbe, 
  0xfc, 0x44, 0xb2, 0x3d, 0xe6, 0x9c, 0x59, 0x3e, 0x1d, 0xf4, 0x8c, 0x3e, 
  0xf4, 0x7d, 0x7f, 0xbe, 0xc6, 0x04, 0xe2, 0xbd, 0x4a, 0xd9, 0x32, 0xbe, 
  0x36, 0xe3, 0x2f, 0x3e, 0x0a, 0x0c, 0x50, 0x3e, 0xec, 0x86, 0x8b, 0x3d, 
  0xe6, 0x00, 0x4b, 0x3e, 0x7a, 0x05, 0x1e, 0xbe, 0x00, 0x53, 0xb9, 0xbb, 
  0xa0, 0x2c, 0xa4, 0x3c, 0x00, 0x33, 0x83, 0x3a, 0xc3, 0xc1, 0x91, 0x3e, 
  0x88, 0xf7, 0x42, 0x3e, 0x44, 0x7d, 0xcf, 0xbd, 0xea, 0x4d, 0x8d, 0xbd, 
  0x61, 0x4b, 0x14, 0xbe, 0x02, 0xe2, 0xc8, 0xbd, 0x60, 0xc6, 0x67, 0xbe, 
  0x14, 0x12, 0x84, 0x3d, 0x14, 0x0d, 0x95, 0xbd, 0x3e, 0x8e, 0x2b, 0xbe, 
  0x07, 0xb5, 0x19, 0xbe, 0xb3, 0x3a, 0x39, 0xbe, 0x01, 0x11, 0x97, 0x3e, 
  0xb2, 0x32, 0x2b, 0x3e, 0x08, 0xf2, 0x5c, 0xbe, 0x90, 0x42, 0x19, 0xbd, 
  0x3e, 0x48, 0x99, 0xbe, 0x16, 0x23, 0x2c, 0xbe, 0x98, 0xce, 0x95, 0xbd, 
  0x96, 0xf9, 0x6d, 0xbe, 0xe0, 0x89, 0x1d, 0xbe, 0x6a, 0xe8, 0x10, 0xbe, 
  0x80, 0xc2, 0x38, 0xbb, 0xb0, 0xf7, 0x64, 0xbd, 0x80, 0x70, 0xd8, 0x3d, 
  0x0d, 0x4b, 0x1f, 0xbe, 0xd0, 0x5b, 0x85, 0xbe, 0x08, 0x78, 0x39, 0xbe, 
  0x36, 0x78, 0x74, 0x3e, 0x0c, 0x3b, 0xf5, 0x3d, 0x00, 0xf5, 0x9e, 0xba, 
  0xc8, 0xc0, 0x2c, 0x3d, 0xfa, 0x15, 0xb5, 0xbd, 0x18, 0x7d, 0x29, 0x3e, 
  0x33, 0x96, 0x23, 0xbe, 0x98, 0x8b, 0xd8, 0xbd, 0xc9, 0x8e, 0x24, 0xbe, 
  0x3b, 0x82, 0x69, 0xbe, 0xf8, 0x08, 0x1b, 0xbe, 0x36, 0x09, 0x61, 0x3e, 
  0x55, 0x2c, 0x80, 0xbe, 0x05, 0x09, 0x81, 0x3e, 0x60, 0xe7, 0xdd, 0x3d, 
  0x4c, 0xab, 0x35, 0xbe, 0xca, 0x9d, 0x39, 0xbe, 0x40, 0xa8, 0xd2, 0x3c, 
  0x98, 0xdc, 0x1d, 0x3d, 0x9d, 0xc2, 0x92, 0x3e, 0xa2, 0xa8, 0xad, 0xbd, 
  0x40, 0xd7, 0xc3, 0xbc, 0x8e, 0x4c, 0x3d, 0xbe, 0x1e, 0xaa, 0x19, 0xbe, 
  0x50, 0xaa, 0x82, 0x3d, 0x80, 0x36, 0xc2, 0x3c, 0xb2, 0x5a, 0x3f, 0x3e, 
  0x1c, 0xaf, 0x20, 0x3e, 0xc0, 0xa3, 0x1f, 0x3d, 0xa8, 0x93, 0x15, 0xbd, 
  0xf0, 0x22, 0x02, 0xbe, 0xa0, 0x87, 0x4b, 0x3d, 0x36, 0x2c, 0x6e, 0x3e, 
  0x1e, 0xea, 0x14, 0x3e, 0x80, 0x6c, 0x18, 0xbb, 0xc6, 0xcc, 0x32, 0xbe, 
  0x2a, 0xca, 0x4c, 0x3e, 0x22, 0x98, 0x7d, 0x3e, 0x30, 0x55, 0x94, 0x3c, 
  0x8c, 0xd8, 0x82, 0xbd, 0xe6, 0xd7, 0x8a, 0xbe, 0xe6, 0x2d, 0x8f, 0xbe, 
  0xe0, 0x89, 0x6a, 0x3c, 0x0c, 0x33, 0xbf, 0x3d, 0x28, 0x51, 0xc6, 0x3d, 
  0xe8, 0x15, 0x52, 0xbd, 0x7e, 0x50, 0x53, 0x3e, 0x5e, 0xcb, 0x9a, 0xbe, 
  0xcc, 0xbf, 0x95, 0xbe, 0x18, 0xd5, 0x43, 0xbe, 0x56, 0xcc, 0x0e, 0x3e, 
  0x87, 0x55, 0x84, 0x3e, 0xa0, 0x12, 0x47, 0xbd, 0x98, 0x0b, 0xc8, 0x3d, 
  0x10, 0xaa, 0xf7, 0xbd, 0x02, 0xd7, 0x09, 0x3e, 0x0e, 0xa6, 0x6b, 0xbe, 
  0xb6, 0x09, 0x11, 0xbe, 0xe6, 0x09, 0x8d, 0xbd, 0x00, 0xe8, 0x8b, 0x3a, 
  0x70, 0x12, 0x69, 0xbd, 0x97, 0x98, 0x64, 0xbe, 0x20, 0xb3, 0x25, 0xbd, 
  0xa8, 0xd5, 0x3d, 0xbd, 0x8a, 0x39, 0x40, 0x3e, 0xf2, 0x83, 0x70, 0xbe, 
  0xe2, 0x83, 0x5e, 0xbe, 0xbe, 0x5c, 0x66, 0x3e, 0xed, 0xe8, 0x06, 0xbe, 
  0xbe, 0x87, 0xce, 0xbd, 0x5e, 0x5d, 0x14, 0x3e, 0x29, 0xa3, 0x31, 0xbe, 
  0xb8, 0xf4, 0x96, 0x3d, 0xd3, 0xd4, 0x07, 0xbe, 0x4d, 0x19, 0x16, 0xbe, 
  0x00, 0xef, 0xfe, 0x3b, 0x65, 0x2d, 0x89, 0x3e, 0x80, 0x12, 0x30, 0x3b, 
  0x61, 0x59, 0x02, 0xbe, 0x48, 0x9d, 0xc5, 0x3d, 0xe8, 0x46, 0x65, 0x3d, 
  0x8c, 0xe9, 0xd4, 0xbd, 0xee, 0x45, 0x4c, 0xbe, 0xc7, 0xb0, 0x4b, 0xbe, 
  0x5e, 0x18, 0x71, 0xbe, 0xa8, 0x23, 0x02, 0xbd, 0xae, 0xb1, 0x48, 0x3e, 
  0xc4, 0x6b, 0x3f, 0xbe, 0xb4, 0x37, 0x1f, 0x3e, 0x70, 0xec, 0xb1, 0x3c, 
  0x76, 0x1b, 0x16, 0xbe, 0xea, 0x00, 0x06, 0x3e, 0x3d, 0x66, 0x90, 0x3e, 
  0x56, 0x79, 0x63, 0x3e, 0x86, 0x6f, 0xfd, 0xbd, 0xac, 0xa6, 0x86, 0x3d, 
  0x34, 0xb8, 0x77, 0xbe, 0xbc, 0x17, 0x6b, 0xbd, 0xc8, 0xd0, 0x47, 0xbd, 
  0x4e, 0xb6, 0x78, 0x3e, 0xde, 0x66, 0x2a, 0x3e, 0xb6, 0x84, 0x5b, 0x3e, 
  0x09, 0xa4, 0x87, 0x3e, 0x5e, 0x7e, 0x22, 0xbe, 0x28, 0x3b, 0x7e, 0xbe, 
  0xf7, 0x54, 0x93, 0x3e, 0xe0, 0x4d, 0x24, 0xbd, 0x7a, 0x25, 0xfe, 0xbd, 
  0xfd, 0x00, 0x9b, 0x3e, 0x79, 0xa6, 0x84, 0x3e, 0xda, 0x32, 0xda, 0xbd, 
  0xaf, 0xe7, 0x8d, 0x3e, 0x32, 0x60, 0xd1, 0xbd, 0xf0, 0x98, 0x12, 0x3e, 
  0xd0, 0x96, 0x29, 0x3e, 0xe0, 0xd1, 0xed, 0x3d, 0x95, 0x0e, 0x8c, 0x3e, 
  0x1c, 0xf9, 0x8a, 0xbe, 0x50, 0xe2, 0x99, 0xbe, 0xf4, 0x9c, 0x89, 0x3d, 
  0xf8, 0xd3, 0xd4, 0x3d, 0xc0, 0x34, 0xa9, 0x3c, 0xf2, 0x08, 0xa0, 0xbd, 
  0xba, 0x25, 0x00, 0x3e, 0xe4, 0x51, 0x98, 0xbd, 0x1e, 0x0c, 0xaf, 0xbd, 
  0xed, 0xdf, 0x6f, 0xbe, 0x80, 0x62, 0x70, 0xbb, 0xd9, 0x50, 0x8b, 0x3e, 
  0x81, 0x2e, 0x82, 0x3e, 0x8f, 0x36, 0x98, 0x3e, 0x86, 0xe2, 0x70, 0x3e, 
  0x38, 0xd2, 0x89, 0xbd, 0xcb, 0xb3, 0x35, 0xbe, 0x2f, 0xa1, 0x8c, 0x3e, 
  0xa0, 0x54, 0x13, 0x3c, 0x5a, 0x66, 0xa2, 0xbd, 0x72, 0x5c, 0x59, 0x3e, 
  0xe0, 0xd7, 0x21, 0x3c, 0x68, 0xf6, 0x55, 0xbd, 0xb6, 0x11, 0x5c, 0xbe, 
  0x40, 0x51, 0x19, 0x3e, 0xa9, 0x01, 0x04, 0xbe, 0xe6, 0x07, 0x19, 0x3e, 
  0xfa, 0x0c, 0x2b, 0x3e, 0xf2, 0x3a, 0x58, 0x3e, 0xc8, 0x15, 0x92, 0xbd, 
  0x98, 0xb7, 0x5f, 0xbd, 0xf8, 0x99, 0xbc, 0xbd, 0x5d, 0x7d, 0x10, 0xbe, 
  0x28, 0x25, 0x62, 0xbe, 0x00, 0xfc, 0x79, 0x3a, 0xf4, 0x8a, 0x31, 0x3e, 
  0x7c, 0xb2, 0x8b, 0xbe, 0x9c, 0x33, 0x3c, 0x3e, 0x74, 0x86, 0x0e, 0xbe, 
  0xc8, 0x0c, 0x22, 0x3d, 0x40, 0xc8, 0x27, 0x3d, 0xb0, 0x68, 0xe0, 0x3d, 
  0x5e, 0xf1, 0x6c, 0x3e, 0x91, 0x33, 0x98, 0xbe, 0x38, 0x7b, 0x54, 0xbd, 
  0xd6, 0x99, 0xf0, 0xbd, 0xe0, 0x10, 0x97, 0x3c, 0x86, 0xf1, 0x42, 0xbe, 
  0x8a, 0x59, 0x59, 0xbe, 0xf4, 0x01, 0xe7, 0xbd, 0x94, 0x7a, 0x89, 0x3d, 
  0x10, 0x08, 0xe6, 0x3d, 0x00, 0x0a, 0x85, 0x3c, 0x80, 0x26, 0x5b, 0x3d, 
  0xfb, 0xa4, 0x4c, 0xbe, 0x12, 0x5c, 0x82, 0xbe, 0x80, 0x90, 0x3e, 0xbd, 
  0xee, 0x23, 0x71, 0x3e, 0x31, 0x1e, 0x98, 0xbe, 0x53, 0x61, 0x87, 0xbe, 
  0xa7, 0xe3, 0x80, 0xbe, 0x83, 0x6e, 0x84, 0x3e, 0x8d, 0xa0, 0x8b, 0x3e, 
  0x2e, 0x30, 0x08, 0x3e, 0xe9, 0x74, 0x81, 0xbe, 0xf1, 0x1f, 0x4a, 0xbe, 
  0x9a, 0x8f, 0x97, 0xbe, 0xa8, 0x5b, 0x11, 0x3e, 0xa0, 0xaa, 0x54, 0x3c, 
  0xe3, 0xea, 0x7e, 0xbe, 0xb2, 0xad, 0x9a, 0xbe, 0x8d, 0x70, 0x90, 0x3e, 
  0xae, 0x43, 0x88, 0xbd, 0x94, 0x44, 0x7f, 0xbe, 0x46, 0x3f, 0x4a, 0x3e, 
  0xe6, 0xe2, 0x19, 0x3e, 0x5f, 0xdc, 0x7d, 0xbe, 0x10, 0xad, 0xb8, 0x3d, 
  0x20, 0x8e, 0xe0, 0x3d, 0x06, 0x48, 0x15, 0x3e, 0x67, 0x57, 0x8a, 0xbe, 
  0x50, 0xa5, 0x8f, 0xbe, 0x00, 0x87, 0xb2, 0x3a, 0xa6, 0x8c, 0x13, 0x3e, 
  0x68, 0x02, 0xee, 0xbd, 0x60, 0x26, 0xc5, 0xbc, 0x62, 0xad, 0x2f, 0x3e, 
  0xe4, 0x9e, 0xe1, 0x3d, 0xa3, 0xec, 0x9b, 0x3e, 0xa2, 0x9e, 0x52, 0x3e, 
  0x68, 0xaf, 0x59, 0xbe, 0xa2, 0x5d, 0xff, 0xbd, 0x6c, 0x55, 0xbc, 0x3d, 
  0x9e, 0x4c, 0x32, 0x3e, 0x9b, 0x3e, 0x15, 0xbe, 0x3e, 0x86, 0xe8, 0xbd, 
  0x40, 0x82, 0x18, 0x3d, 0xe4, 0xc2, 0x37, 0x3e, 0x56, 0xc6, 0x3b, 0xbe, 
  0x36, 0xda, 0x10, 0x3e, 0x12, 0xa0, 0xcd, 0xbd, 0x45, 0xd7, 0x93, 0xbe, 
  0x26, 0x86, 0x78, 0x3e, 0x2e, 0x83, 0xf8, 0xbd, 0x91, 0x8f, 0x87, 0x3e, 
  0xc0, 0x26, 0xd5, 0xbb, 0xd0, 0x76, 0x81, 0x3c, 0x96, 0x4e, 0x62, 0x3e, 
  0x10, 0x3e, 0x74, 0xbe, 0xe0, 0x10, 0x43, 0x3c, 0x10, 0x88, 0x57, 0x3d, 
  0x94, 0x3d, 0x8a, 0xbd, 0xa8, 0xbd, 0x45, 0xbe, 0xe0, 0x75, 0xce, 0x3c, 
  0x4a, 0xd8, 0x07, 0xbe, 0x48, 0xa5, 0x9f, 0x3d, 0xc0, 0x2a, 0x27, 0xbc, 
  0x5b, 0x59, 0x8c, 0xbe, 0x00, 0xaa, 0xb4, 0x3d, 0x83, 0xfe, 0x8a, 0x3e, 
  0xf1, 0xb2, 0x94, 0x3e, 0xa5, 0x79, 0x8a, 0x3e, 0x1b, 0xbd, 0x89, 0x3e, 
  0x5c, 0xc7, 0x8a, 0xbd, 0x30, 0x61, 0x74, 0xbd, 0x30, 0xb1, 0x8a, 0xbc, 
  0x5f, 0xd5, 0x90, 0x3e, 0x5d, 0x1a, 0x60, 0xbe, 0x9a, 0xd2, 0x12, 0x3e, 
  0x23, 0x5a, 0x4c, 0xbe, 0x94, 0x77, 0x96, 0xbe, 0x98, 0x09, 0x17, 0x3d, 
  0x18, 0x3c, 0x83, 0xbe, 0x30, 0x23, 0x1f, 0xbe, 0xf2, 0x55, 0x7a, 0x3e, 
  0x2e, 0xb9, 0x5f, 0x3e, 0x82, 0x50, 0x3e, 0xbe, 0xcc, 0x66, 0x02, 0x3e, 
  0x28, 0x06, 0xd3, 0x3d, 0x42, 0xdb, 0x50, 0x3e, 0xd0, 0xda, 0x8f, 0x3d, 
  0x7d, 0x66, 0x2c, 0xbe, 0x38, 0x0c, 0x92, 0xbe, 0xdf, 0x8b, 0x82, 0x3e, 
  0x80, 0x36, 0x14, 0x3b, 0x08, 0x9b, 0xb7, 0xbd, 0x00, 0xe1, 0xaa, 0x3a, 
  0x3e, 0xb0, 0x00, 0x3e, 0xc4, 0xdd, 0x00, 0x3e, 0x5e, 0x15, 0x43, 0xbe, 
  0xfd, 0x29, 0x1c, 0xbe, 0xa8, 0x57, 0x55, 0x3d, 0x45, 0xd0, 0x1c, 0xbe, 
  0x5c, 0x66, 0x81, 0x3d, 0x4a, 0x57, 0x78, 0x3e, 0xb0, 0x9a, 0xdd, 0x3d, 
  0xc0, 0xf0, 0x5a, 0xbe, 0x00, 0x62, 0xf2, 0x3a, 0xc8, 0x36, 0x64, 0x3d, 
  0xe2, 0x58, 0x4b, 0xbe, 0x4c, 0x86, 0x82, 0x3d, 0xd8, 0xf9, 0x7d, 0xbe, 
  0xa4, 0xf1, 0x6c, 0xbd, 0x1c, 0xec, 0x94, 0xbe, 0x68, 0xd3, 0x88, 0xbe, 
  0x70, 0x13, 0xe9, 0x3c, 0xd6, 0x6f, 0x16, 0x3e, 0x33, 0x17, 0x85, 0xbe, 
  0x4d, 0x79, 0x06, 0xbe, 0x40, 0xb6, 0x6c, 0x3d, 0xc0, 0xb6, 0x4c, 0x3d, 
  0x80, 0x9b, 0x95, 0x3d, 0x0a, 0x5d, 0x5d, 0x3e, 0x9a, 0x7f, 0x12, 0xbe, 
  0x26, 0xb8, 0x63, 0x3e, 0x75, 0x5b, 0x9b, 0x3e, 0x58, 0x90, 0x3e, 0x3e, 
  0x94, 0xbb, 0x4a, 0xbe, 0x18, 0x3d, 0xe4, 0xbd, 0xa2, 0x1f, 0x93, 0xbe, 
  0x74, 0xfe, 0x9a, 0xbe, 0x06, 0x1d, 0x58, 0x3e, 0x96, 0xdb, 0x43, 0xbe, 
  0x3a, 0x06, 0x0f, 0xbe, 0xe0, 0x80, 0xb8, 0xbc, 0xe9, 0x02, 0x81, 0x3e, 
  0x10, 0x12, 0x0a, 0x3e, 0x70, 0x01, 0xb5, 0x3c, 0x98, 0x16, 0x27, 0xbd, 
  0xba, 0xbf, 0x51, 0x3e, 0x2a, 0x15, 0x08, 0x3e, 0x48, 0xa3, 0x3d, 0x3e, 
  0x71, 0xaf, 0x81, 0x3e, 0x3c, 0xb3, 0x14, 0xbe, 0xe5, 0xfc, 0x97, 0x3e, 
  0x40, 0x56, 0xdd, 0xbb, 0xb0, 0x81, 0x62, 0x3d, 0x56, 0xf4, 0xea, 0xbd, 
  0xa0, 0x36, 0xf9, 0xbc, 0xcf, 0xd5, 0x66, 0xbe, 0xba, 0xb6, 0x17, 0xbe, 
  0x00, 0xb5, 0xa1, 0xbc, 0x19, 0x8d, 0x86, 0xbe, 0xa2, 0x74, 0x60, 0xbe, 
  0x27, 0x7c, 0x9c, 0xbe, 0xf4, 0x37, 0xe2, 0x3d, 0x0a, 0xc7, 0x47, 0x3e, 
  0x7b, 0xb5, 0x96, 0x3e, 0xf0, 0x73, 0x2e, 0xbd, 0x22, 0x62, 0x5b, 0xbe, 
  0x45, 0xc7, 0x74, 0xbe, 0x20, 0xbc, 0x08, 0x3c, 0xe4, 0xc6, 0xf1, 0x3d, 
  0xaf, 0x66, 0x36, 0xbe, 0x24, 0xdb, 0xde, 0xbd, 0x20, 0x2d, 0x99, 0xbc, 
  0xdd, 0xbc, 0x81, 0xbe, 0xda, 0xd3, 0x28, 0x3e, 0x5a, 0x8b, 0x7f, 0x3e, 
  0xb0, 0xe2, 0x83, 0xbc, 0x76, 0xe5, 0xff, 0xbd, 0x39, 0xcf, 0x47, 0xbe, 
  0x76, 0xf9, 0xe2, 0xbd, 0x3e, 0x5f, 0x55, 0x3e, 0xf4, 0xad, 0xcc, 0x3d, 
  0x8a, 0x90, 0x48, 0x3e, 0xd6, 0x45, 0x9c, 0xbd, 0xac, 0x91, 0x2f, 0x3e, 
  0x82, 0xc7, 0x4c, 0x3e, 0x6c, 0x26, 0xb1, 0x3d, 0xb2, 0xc3, 0x65, 0x3e, 
  0xee, 0x8a, 0xea, 0xbd, 0xf0, 0x52, 0xe3, 0xbd, 0xb3, 0x7e, 0x86, 0x3e, 
  0x9a, 0x86, 0x62, 0x3e, 0x30, 0x9c, 0x3f, 0x3d, 0xdb, 0xb4, 0x95, 0x3e, 
  0x91, 0xa6, 0x96, 0x3e, 0x9f, 0x42, 0x0b, 0xbe, 0xfa, 0x12, 0xac, 0xbd, 
  0x02, 0xf9, 0x92, 0xbe, 0x10, 0x1b, 0xc4, 0xbd, 0xf6, 0x83, 0x32, 0x3e, 
  0xa4, 0x64, 0xa8, 0x3d, 0x96, 0xd4, 0x55, 0x3e, 0x20, 0xcb, 0x8d, 0xbe, 
  0xd4, 0xc8, 0x2a, 0x3e, 0x2a, 0xec, 0x27, 0xbe, 0x7f, 0x37, 0x91, 0x3e, 
  0x70, 0x2c, 0x6a, 0x3d, 0x80, 0xd9, 0xeb, 0x3b, 0x58, 0x12, 0x47, 0xbe, 
  0x60, 0x5d, 0x99, 0x3d, 0x60, 0xfe, 0x8f, 0xbc, 0xcb, 0xde, 0x9a, 0x3e, 
  0x00, 0x02, 0xae, 0x3a, 0x0f, 0x77, 0x82, 0x3e, 0x16, 0x63, 0xbc, 0xbd, 
  0xda, 0xfa, 0x8c, 0xbe, 0x34, 0x97, 0x90, 0x3d, 0xca, 0xac, 0x07, 0x3e, 
  0xf5, 0x59, 0x83, 0xbe, 0x20, 0x7d, 0x68, 0xbc, 0xf2, 0x8b, 0x7a, 0x3e, 
  0x04, 0x97, 0xbb, 0x3d, 0xda, 0x39, 0x64, 0x3e, 0x98, 0xe7, 0x94, 0xbe, 
  0xc0, 0xaa, 0x05, 0xbd, 0x60, 0x29, 0x42, 0xbc, 0x74, 0xe7, 0x88, 0x3d, 
  0xd8, 0x66, 0x24, 0x3e, 0x3a, 0xbb, 0x45, 0x3e, 0x0e, 0x43, 0x4c, 0x3e, 
  0x61, 0xa3, 0x8f, 0xbe, 0xe0, 0xb0, 0x66, 0xbc, 0x60, 0xe8, 0x3e, 0xbe, 
  0xf0, 0xea, 0x17, 0x3d, 0xe1, 0x5a, 0x14, 0xbe, 0x0a, 0xf3, 0xcc, 0xbd, 
  0xee, 0x02, 0x2f, 0xbe, 0x44, 0x7b, 0xe5, 0xbd, 0x88, 0xea, 0x2e, 0x3e, 
  0xe4, 0x7d, 0xc5, 0x3d, 0xb0, 0xcb, 0x56, 0x3d, 0x40, 0x87, 0x1a, 0xbc, 
  0x6a, 0x9a, 0x7a, 0xbe, 0x27, 0xa0, 0x27, 0xbe, 0xcd, 0x1e, 0x95, 0x3e, 
  0x8e, 0x06, 0x56, 0xbe, 0xf2, 0x3b, 0x7a, 0x3e, 0x68, 0x58, 0x91, 0x3d, 
  0xfe, 0x1a, 0x6a, 0x3e, 0x6b, 0x7d, 0x89, 0x3e, 0x56, 0x1e, 0x1a, 0xbe, 
  0x40, 0xe9, 0x80, 0xbd, 0xa5, 0x39, 0x97, 0x3e, 0xa0, 0xc7, 0xfe, 0xbc, 
  0x62, 0xdd, 0x8f, 0xbe, 0x82, 0x7e, 0x84, 0xbe, 0x28, 0xf1, 0x6d, 0x3d, 
  0xae, 0x3c, 0x57, 0x3e, 0xc7, 0x4e, 0x9b, 0x3e, 0xd2, 0xa1, 0x9a, 0xbd, 
  0x91, 0x87, 0x7a, 0xbe, 0x48, 0xa1, 0x12, 0x3e, 0xfb, 0xe5, 0x89, 0xbe, 
  0xda, 0x63, 0x8d, 0xbe, 0x6f, 0x04, 0x87, 0xbe, 0x6e, 0x5c, 0x40, 0xbe, 
  0xfc, 0x18, 0x32, 0xbe, 0x5c, 0x2c, 0x80, 0xbe, 0xb4, 0xf7, 0x2f, 0x3e, 
  0x82, 0x35, 0x2b, 0xbe, 0xb2, 0xd1, 0x60, 0x3e, 0x83, 0x18, 0x6e, 0xbe, 
  0xb0, 0x39, 0x56, 0xbe, 0x38, 0x55, 0x5d, 0xbd, 0xb6, 0x18, 0xb3, 0xbd, 
  0x80, 0x6f, 0x5e, 0xbe, 0x0f, 0x4e, 0x89, 0x3e, 0x70, 0x9f, 0xa5, 0xbc, 
  0xb0, 0xd4, 0x9b, 0xbc, 0x14, 0x20, 0xfa, 0x3d, 0x08, 0x5b, 0x3c, 0xbe, 
  0x35, 0x61, 0x97, 0xbe, 0x80, 0x2e, 0x13, 0xbd, 0x50, 0xfe, 0x8d, 0x3d, 
  0x31, 0x97, 0x85, 0x3e, 0x16, 0x5b, 0x0c, 0x3e, 0xaa, 0x00, 0x02, 0x3e, 
  0xa4, 0x8c, 0x6b, 0xbe, 0xc0, 0x66, 0x81, 0x3d, 0x54, 0x22, 0x96, 0x3d, 
  0x50, 0xe1, 0x3a, 0x3e, 0xdd, 0xec, 0x43, 0xbe, 0xf8, 0x58, 0x2f, 0xbe, 
  0xe0, 0x72, 0x96, 0xbc, 0x06, 0x7c, 0xc2, 0xbd, 0xa0, 0x48, 0x2d, 0x3e, 
  0x20, 0x6d, 0x60, 0xbc, 0xb8, 0xdf, 0x4c, 0xbd, 0x9c, 0x07, 0x7d, 0xbd, 
  0x58, 0x69, 0x6c, 0xbe, 0x7c, 0x0b, 0x84, 0xbe, 0x46, 0x98, 0x9a, 0xbe, 
  0x40, 0x01, 0x94, 0x3d, 0x7e, 0xa6, 0x8b, 0xbd, 0x10, 0xd6, 0xc4, 0x3d, 
  0x8a, 0x21, 0x49, 0x3e, 0x9f, 0x2a, 0x1e, 0xbe, 0x40, 0x96, 0x8c, 0xbb, 
  0x71, 0xbe, 0x92, 0x3e, 0x88, 0x62, 0x9c, 0x3d, 0x46, 0x2e, 0x96, 0xbd, 
  0x7c, 0xd5, 0xcb, 0xbd, 0x73, 0xfe, 0x91, 0x3e, 0x0f, 0x38, 0x8c, 0x3e, 
  0x81, 0x9b, 0x94, 0x3e, 0x86, 0x88, 0x4e, 0x3e, 0x54, 0xa1, 0xc4, 0x3d, 
  0x75, 0x33, 0x8c, 0xbe, 0x80, 0xca, 0xb5, 0xbc, 0xd0, 0x06, 0x22, 0x3d, 
  0x90, 0x50, 0x9b, 0xbc, 0x40, 0x44, 0x5e, 0xbe, 0xa0, 0x9a, 0xe3, 0xbd, 
  0xf5, 0x57, 0x39, 0xbe, 0x14, 0x06, 0xfd, 0xbd, 0x8c, 0xdb, 0x30, 0xbe, 
  0x0f, 0x05, 0x87, 0x3e, 0x4c, 0x95, 0xf9, 0x3d, 0xea, 0xbd, 0x46, 0xbe, 
  0x02, 0xa6, 0x7a, 0x3e, 0x3e, 0x24, 0xa5, 0xbd, 0x81, 0x17, 0x98, 0x3e, 
  0x96, 0x25, 0x7a, 0x3e, 0xf8, 0x53, 0x8d, 0xbe, 0xab, 0x93, 0x9c, 0x3e, 
  0x60, 0xfe, 0xdb, 0xbc, 0x78, 0xff, 0x27, 0xbd, 0x8a, 0xb7, 0xb3, 0xbd, 
  0x12, 0xa0, 0x04, 0x3e, 0xf5, 0x7c, 0x7f, 0xbe, 0x93, 0x04, 0x91, 0x3e, 
  0x7c, 0x4b, 0x56, 0xbe, 0x00, 0x9a, 0xa7, 0x3b, 0xee, 0xda, 0x56, 0x3e, 
  0xb6, 0x34, 0x19, 0x3e, 0xc0, 0x1f, 0x96, 0xbe, 0xb6, 0x44, 0xd4, 0xbd, 
  0x30, 0x14, 0x71, 0x3d, 0xd0, 0x0b, 0x22, 0xbe, 0x38, 0x4c, 0xab, 0x3d, 
  0x34, 0xb2, 0x33, 0x3e, 0xf4, 0x26, 0xbb, 0xbd, 0x10, 0x1b, 0xa1, 0x3d, 
  0xda, 0x1d, 0xea, 0xbd, 0xb0, 0x7c, 0x58, 0x3d, 0xaa, 0x2f, 0x70, 0x3e, 
  0x10, 0xd5, 0xff, 0x3c, 0xc0, 0x9e, 0xf9, 0xbd, 0xc0, 0x56, 0xe9, 0x3d, 
  0xd0, 0x33, 0x8f, 0xbe, 0xe4, 0xa1, 0xa8, 0x3d, 0x50, 0xa3, 0x93, 0x3c, 
  0x36, 0x65, 0x0e, 0x3e, 0xcc, 0x6a, 0xff, 0x3d, 0x9b, 0xc2, 0x88, 0x3e, 
  0x4c, 0x1f, 0x26, 0x3e, 0xe2, 0xb8, 0xc6, 0xbd, 0x12, 0xc6, 0x87, 0xbe, 
  0xce, 0x96, 0x73, 0xbe, 0x70, 0x8b, 0x49, 0xbd, 0xd3, 0xfd, 0x8f, 0x3e, 
  0x53, 0x41, 0x97, 0xbe, 0x62, 0x52, 0x1a, 0x3e, 0x2f, 0x91, 0x8a, 0x3e, 
  0x5e, 0x25, 0xb6, 0xbd, 0x4d, 0x3a, 0x2a, 0xbe, 0xe6, 0x2b, 0xd7, 0xbd, 
  0xd4, 0x74, 0x6c, 0xbe, 0x58, 0x30, 0x77, 0xbd, 0x1e, 0x04, 0x4f, 0x3e, 
  0x3c, 0x71, 0x03, 0xbe, 0x1f, 0x6b, 0x38, 0xbe, 0x90, 0xdc, 0xca, 0xbc, 
  0xb4, 0xa9, 0x59, 0xbe, 0x18, 0xf4, 0x8e, 0xbe, 0xe0, 0xb5, 0x07, 0x3d, 
  0x0f, 0x0f, 0x57, 0xbe, 0x34, 0x18, 0x66, 0xbe, 0x41, 0x37, 0x54, 0xbe, 
  0xf4, 0x2b, 0xdd, 0x3d, 0x00, 0xc6, 0xf3, 0xbd, 0x84, 0x06, 0x2e, 0xbe, 
  0xb0, 0xe4, 0x57, 0x3d, 0x76, 0x69, 0x91, 0xbe, 0xae, 0x21, 0x96, 0xbd, 
  0x99, 0xdc, 0x8f, 0xbe, 0xc8, 0xa4, 0x1d, 0xbe, 0x70, 0x2f, 0x7a, 0x3d, 
  0x4c, 0x66, 0xd7, 0x3d, 0x40, 0x1c, 0xe0, 0x3d, 0xf6, 0x8c, 0xdb, 0xbd, 
  0x90, 0xa6, 0x40, 0xbe, 0xbc, 0xdb, 0x8e, 0xbe, 0x35, 0x85, 0x9a, 0x3e, 
  0x18, 0xaf, 0x78, 0x3d, 0x40, 0x34, 0xd4, 0x3b, 0x2c, 0x7a, 0x07, 0x3e, 
  0x84, 0xc3, 0x40, 0xbe, 0x7c, 0xf5, 0x86, 0x3d, 0xed, 0xf3, 0x82, 0x3e, 
  0x69, 0xc3, 0x37, 0xbe, 0x5a, 0xa4, 0x3d, 0x3e, 0x4e, 0x63, 0x05, 0x3e, 
  0x46, 0x9d, 0x5e, 0xbe, 0x90, 0xa6, 0x1a, 0xbd, 0x60, 0xc9, 0xf0, 0x3d, 
  0x24, 0x92, 0x0c, 0x3e, 0xa9, 0xdd, 0x97, 0x3e, 0x5a, 0xf1, 0x01, 0x3e, 
  0x6a, 0x30, 0x40, 0x3e, 0xc0, 0xf5, 0x93, 0xbb, 0x10, 0x07, 0x8b, 0xbc, 
  0x8c, 0x17, 0x22, 0x3e, 0x60, 0xf6, 0xe4, 0xbd, 0x90, 0xb4, 0x4e, 0x3d, 
  0xc4, 0xde, 0x1d, 0xbe, 0xee, 0xe5, 0x4e, 0x3e, 0xad, 0x1c, 0x94, 0x3e, 
  0x3f, 0x5d, 0x1b, 0xbe, 0xdc, 0x1b, 0x66, 0xbe, 0x28, 0x89, 0x56, 0x3d, 
  0x70, 0x9a, 0x54, 0xbd, 0x8e, 0x82, 0x1e, 0xbe, 0xc8, 0x58, 0xf8, 0x3d, 
  0x09, 0x7d, 0x6c, 0xbe, 0x8c, 0xc2, 0x93, 0x3d, 0x30, 0xb7, 0x40, 0x3d, 
  0xd3, 0xf5, 0x8a, 0x3e, 0x72, 0xeb, 0x22, 0x3e, 0x0d, 0x47, 0x87, 0x3e, 
  0x80, 0xc7, 0xcd, 0x3c, 0x98, 0x73, 0xc9, 0x3d, 0x00, 0xc1, 0x8f, 0xba, 
  0xea, 0x5a, 0xe8, 0xbd, 0x08, 0x97, 0x12, 0x3d, 0xaa, 0x58, 0x14, 0x3e, 
  0xf3, 0x53, 0x6c, 0xbe, 0x51, 0x40, 0x8a, 0x3e, 0x0a, 0x83, 0x59, 0x3e, 
  0x46, 0xec, 0x5c, 0xbe, 0xb7, 0x80, 0x8e, 0x3e, 0x7a, 0x76, 0x5b, 0xbe, 
  0x40, 0xe8, 0xe4, 0x3b, 0x88, 0x78, 0x45, 0xbe, 0xee, 0xce, 0x6d, 0x3e, 
  0xa0, 0xcd, 0x89, 0x3d, 0x86, 0x8b, 0x4a, 0x3e, 0x57, 0x22, 0x9a, 0x3e, 
  0x5c, 0xe5, 0x95, 0x3d, 0x1b, 0x99, 0x88, 0x3e, 0x6c, 0x1e, 0x7f, 0xbe, 
  0x26, 0xb0, 0xd1, 0xbd, 0x7a, 0x3e, 0x77, 0x3e, 0x0a, 0x23, 0x90, 0xbe, 
  0xac, 0x98, 0xe3, 0x3d, 0xda, 0x27, 0x60, 0xbe, 0x0a, 0x1a, 0x17, 0x3e, 
  0x5d, 0x3a, 0x21, 0xbe, 0x18, 0xf0, 0x97, 0x3d, 0x9d, 0x39, 0x00, 0xbe, 
  0x88, 0x1c, 0xff, 0x3d, 0x6f, 0x3e, 0x30, 0xbe, 0x18, 0xce, 0x00, 0x3e, 
  0xb2, 0x16, 0x7c, 0x3e, 0xb4, 0xe4, 0x70, 0xbe, 0x48, 0xf7, 0x75, 0xbd, 
  0xd5, 0x90, 0x8e, 0x3e, 0x92, 0x17, 0x4d, 0xbe, 0x80, 0xaa, 0x9c, 0xbe, 
  0xc2, 0x2d, 0x4f, 0x3e, 0x06, 0xbc, 0x5e, 0x3e, 0x92, 0x61, 0x15, 0x3e, 
  0xec, 0x50, 0x73, 0xbe, 0x1e, 0x4a, 0x27, 0x3e, 0x58, 0x47, 0x0c, 0x3d, 
  0x60, 0x11, 0xcf, 0x3d, 0x8e, 0xfa, 0x3c, 0x3e, 0x82, 0xb7, 0x4f, 0x3e, 
  0x8a, 0xa9, 0x8d, 0xbd, 0x58, 0xef, 0x41, 0x3d, 0xac, 0x83, 0xe8, 0xbd, 
  0x90, 0x54, 0xd7, 0x3c, 0x4e, 0x33, 0xf8, 0xbd, 0xe3, 0xf7, 0x8a, 0x3e, 
  0xe6, 0xcf, 0x67, 0x3e, 0xe4, 0x77, 0xab, 0x3d, 0x04, 0xb2, 0x26, 0xbe, 
  0x9a, 0x64, 0x3e, 0xbe, 0x90, 0x70, 0xd7, 0xbd, 0x6d, 0xe1, 0x8a, 0xbe, 
  0x42, 0xf7, 0x6c, 0x3e, 0x3c, 0x39, 0x02, 0x3e, 0xc6, 0x73, 0x6e, 0xbe, 
  0x70, 0x85, 0x04, 0x3e, 0x14, 0x1a, 0xc9, 0x3d, 0xa0, 0xbf, 0xb0, 0x3d, 
  0xe8, 0x96, 0xc7, 0xbd, 0x2f, 0x9a, 0x2d, 0xbe, 0x63, 0x25, 0x94, 0x3e, 
  0xe8, 0x07, 0x48, 0xbe, 0x80, 0x29, 0x2f, 0xbd, 0x50, 0x4b, 0x15, 0x3e, 
  0xc0, 0xe0, 0x83, 0xbb, 0x9c, 0xac, 0x0c, 0xbe, 0x60, 0xa4, 0x8f, 0x3c, 
  0x86, 0xba, 0x16, 0x3e, 0x83, 0xf4, 0x48, 0xbe, 0x2e, 0xb6, 0x91, 0xbe, 
  0xf8, 0xe6, 0x04, 0xbd, 0xc0, 0x5a, 0xdf, 0x3d, 0x7a, 0xc3, 0x4a, 0x3e, 
  0x60, 0xf8, 0x3e, 0xbd, 0x12, 0x20, 0x90, 0xbe, 0xc6, 0x66, 0x79, 0x3e, 
  0x74, 0x10, 0x9b, 0xbe, 0x41, 0x98, 0x99, 0x3e, 0x96, 0x09, 0x46, 0xbe, 
  0x5a, 0xb3, 0x4c, 0x3e, 0xcf, 0xb2, 0x83, 0x3e, 0x22, 0xd3, 0x46, 0x3e, 
  0x74, 0x96, 0x72, 0xbd, 0x0c, 0x07, 0xad, 0x3d, 0xf2, 0xd7, 0xd0, 0xbd, 
  0x8d, 0xf6, 0x36, 0xbe, 0xb6, 0xf4, 0x64, 0xbe, 0x18, 0x6d, 0x3a, 0xbd, 
  0x24, 0x47, 0x17, 0x3e, 0x86, 0xbb, 0x46, 0xbe, 0xe8, 0xc3, 0x33, 0x3e, 
  0x4c, 0x35, 0xce, 0x3d, 0x70, 0x3c, 0x51, 0x3d, 0xca, 0xca, 0x23, 0x3e, 
  0x30, 0x66, 0x9a, 0xbc, 0xbe, 0x05, 0x57, 0x3e, 0xc8, 0x56, 0x70, 0xbe, 
  0x20, 0x4d, 0xf3, 0x3d, 0xfa, 0xbd, 0x4a, 0x3e, 0xdf, 0xd7, 0x45, 0xbe, 
  0x70, 0x15, 0xc9, 0x3d, 0x9e, 0x41, 0x0a, 0xbe, 0x0e, 0xdb, 0x72, 0x3e, 
  0x00, 0x53, 0xb6, 0xbc, 0x5e, 0x83, 0x70, 0x3e, 0x80, 0x90, 0x10, 0xbd, 
  0x3c, 0x5e, 0x37, 0xbe, 0x92, 0x7c, 0x77, 0x3e, 0x4a, 0x8e, 0x58, 0x3e, 
  0x56, 0x2f, 0xb8, 0xbd, 0xbc, 0x4c, 0x8d, 0xbe, 0xce, 0x82, 0x31, 0x3e, 
  0xda, 0x3f, 0x5e, 0xbe, 0x4e, 0x29, 0x37, 0x3e, 0x2c, 0xbc, 0xe1, 0xbd, 
  0x14, 0xd7, 0x74, 0xbd, 0xc2, 0x86, 0x0e, 0xbe, 0x0a, 0x94, 0x5e, 0x3e, 
  0x49, 0xab, 0x49, 0xbe, 0x91, 0x60, 0x35, 0xbe, 0xde, 0xd7, 0x5b, 0x3e, 
  0x60, 0x1b, 0x4c, 0x3d, 0x86, 0x9c, 0x8a, 0xbe, 0x40, 0x9a, 0x02, 0x3d, 
  0x78, 0x9d, 0x17, 0x3e, 0xd7, 0xea, 0x51, 0xbe, 0xf8, 0x4a, 0x54, 0xbd, 
  0x31, 0xf3, 0x31, 0xbe, 0x70, 0x66, 0xf8, 0xbd, 0x68, 0xb5, 0x3f, 0xbe, 
  0x50, 0x00, 0x81, 0x3c, 0x8f, 0xe6, 0x84, 0x3e, 0x7f, 0x31, 0x80, 0x3e, 
  0xaf, 0x02, 0x7e, 0xbe, 0x1c, 0x9b, 0x3d, 0xbe, 0x8e, 0x9e, 0x91, 0xbd, 
  0xa0, 0x7e, 0x21, 0xbe, 0x69, 0xba, 0x8d, 0x3e, 0x54, 0xfc, 0xf9, 0x3d, 
  0x94, 0x0e, 0xd6, 0x3d, 0x0e, 0x2a, 0x32, 0xbe, 0x18, 0xab, 0x17, 0xbe, 
  0x99, 0x7e, 0x91, 0xbe, 0x80, 0x1f, 0x0f, 0x3b, 0x40, 0xef, 0x37, 0x3e, 
  0x9a, 0xa8, 0x37, 0x3e, 0xd0, 0x0c, 0x57, 0x3d, 0x5f, 0xd1, 0x89, 0x3e, 
  0x3a, 0x1f, 0x76, 0x3e, 0x80, 0xc9, 0x4c, 0x3d, 0xcc, 0xce, 0x7a, 0xbd, 
  0xf8, 0x69, 0xb7, 0x3d, 0xe3, 0x84, 0x82, 0x3e, 0x42, 0xe8, 0x12, 0x3e, 
  0x80, 0xb3, 0x4a, 0xbc, 0x50, 0x8b, 0xe6, 0x3d, 0x00, 0x72, 0x0c, 0x3d, 
  0x20, 0xb6, 0x65, 0xbd, 0x08, 0xd4, 0x2d, 0x3d, 0x89, 0x0f, 0x88, 0x3e, 
  0x55, 0xa2, 0x34, 0xbe, 0x28, 0x77, 0x17, 0x3e, 0xe8, 0xa8, 0xcc, 0x3d, 
  0x98, 0x71, 0x3c, 0x3e, 0x2c, 0xf6, 0x08, 0x3e, 0x60, 0x6d, 0x2a, 0x3e, 
  0xdc, 0x75, 0xce, 0x3d, 0xe0, 0x6e, 0x57, 0xbe, 0x64, 0x0b, 0xc7, 0x3d, 
  0xa8, 0x72, 0x92, 0xbe, 0x3a, 0xa5, 0x7f, 0x3e, 0x4c, 0xa9, 0x34, 0xbe, 
  0x60, 0x41, 0x92, 0xbc, 0x3c, 0x04, 0xcb, 0x3d, 0x33, 0xc8, 0x30, 0xbe, 
  0x90, 0xcb, 0x0d, 0x3e, 0x58, 0x23, 0x15, 0x3d, 0xf6, 0x34, 0x11, 0xbe, 
  0x94, 0x1f, 0x96, 0x3d, 0xf4, 0xec, 0x03, 0x3e, 0x40, 0x03, 0xe9, 0xbb, 
  0x3f, 0x37, 0x86, 0x3e, 0x16, 0x35, 0x4c, 0xbe, 0x82, 0x28, 0x6c, 0x3e, 
  0x40, 0x59, 0x8c, 0xbe, 0x5a, 0x61, 0x4a, 0xbe, 0xf0, 0xc9, 0x39, 0x3e, 
  0x7c, 0xee, 0xea, 0x3d, 0x38, 0x0b, 0x2b, 0xbd, 0x9e, 0x6f, 0x4d, 0x3e, 
  0x9e, 0xac, 0x7b, 0x3e, 0x72, 0x92, 0x70, 0x3e, 0x15, 0x3e, 0x7a, 0xbe, 
  0x1a, 0x84, 0x57, 0x3e, 0x60, 0xfd, 0x76, 0x3d, 0x10, 0x70, 0xd8, 0xbc, 
  0xe8, 0x03, 0x66, 0x3d, 0xb8, 0xe2, 0x71, 0x3d, 0xc0, 0xec, 0x46, 0x3d, 
  0x86, 0x73, 0x53, 0x3e, 0xc0, 0x0a, 0xcc, 0x3c, 0xe0, 0x4e, 0x95, 0x3d, 
  0xfa, 0x05, 0x56, 0xbe, 0xf3, 0x37, 0x9b, 0xbe, 0xbc, 0x4e, 0x09, 0x3e, 
  0x15, 0xbd, 0x9c, 0xbe, 0x80, 0xee, 0x38, 0xbb, 0x09, 0xbe, 0x0d, 0xbe, 
  0x93, 0xdc, 0x6b, 0xbe, 0x80, 0x65, 0x39, 0xbb, 0x00, 0xe4, 0x65, 0x3a, 
  0x60, 0xb6, 0xa1, 0x3d, 0xa8, 0x57, 0x2a, 0xbe, 0x97, 0x5f, 0x9c, 0xbe, 
  0x60, 0xea, 0xc7, 0xbd, 0xc0, 0x12, 0x9f, 0xbb, 0x89, 0xfa, 0x93, 0x3e, 
  0x33, 0x6a, 0x90, 0x3e, 0x11, 0x5d, 0x9a, 0xbe, 0x80, 0x92, 0xd2, 0x3b, 
  0x40, 0x0b, 0x10, 0x3e, 0x68, 0x1c, 0x69, 0xbe, 0x38, 0xdb, 0xa0, 0xbd, 
  0xf4, 0x10, 0xa1, 0x3d, 0x08, 0x3b, 0x2d, 0x3d, 0xc8, 0x34, 0x77, 0x3d, 
  0x00, 0x50, 0xbe, 0x38, 0x20, 0x27, 0xb5, 0x3c, 0x10, 0x6a, 0x67, 0xbd, 
  0x76, 0xef, 0x7c, 0x3e, 0x34, 0x55, 0x22, 0xbe, 0x7c, 0x3f, 0xf9, 0xbd, 
  0x00, 0x00, 0x06, 0x00, 0x08, 0x00, 0x04, 0x00, 0x06, 0x00, 0x00, 0x00, 
  0x04, 0x00, 0x00, 0x00, 0x80, 0x02, 0x00, 0x00, 0x9d, 0x4d, 0xb0, 0xbe, 
  0x28, 0x15, 0x43, 0x3e, 0xe0, 0xa9, 0xc7, 0x3c, 0x42, 0x5d, 0x91, 0xbe, 
  0x40, 0x8d, 0x81, 0x3d, 0x59, 0x5e, 0x49, 0xbe, 0xc2, 0xf0, 0x96, 0x3e, 
  0x72, 0x9a, 0x5b, 0xbe, 0x7c, 0xb7, 0xc4, 0x3e, 0xd4, 0x69, 0x03, 0xbe, 
  0x60, 0x07, 0xda, 0xbc, 0x94, 0x28, 0x0e, 0x3e, 0x60, 0x3d, 0x87, 0x3c, 
  0xc5, 0xa8, 0x4f, 0xbe, 0x70, 0x3a, 0x85, 0xbe, 0x84, 0xab, 0xf3, 0xbd, 
  0xb6, 0x4d, 0xcb, 0x3e, 0x23, 0x41, 0x6a, 0xbe, 0xac, 0x2b, 0xa5, 0x3e, 
  0xf2, 0x74, 0x8b, 0x3e, 0xc8, 0xf3, 0x3e, 0x3d, 0x80, 0xe5, 0x32, 0xbc, 
  0x0c, 0x6b, 0x84, 0x3d, 0x40, 0xca, 0xbb, 0xbb, 0xc2, 0x78, 0x09, 0xbe, 
  0xbc, 0x75, 0x92, 0x3e, 0xfc, 0x1f, 0x9e, 0x3e, 0x40, 0x3e, 0xe6, 0xbc, 
  0xb8, 0xdc, 0x00, 0x3e, 0x10, 0x97, 0x84, 0x3e, 0xb4, 0x8f, 0x45, 0x3e, 
  0x5c, 0x6f, 0x7b, 0x3e, 0x4c, 0xcf, 0x93, 0x3e, 0x54, 0x66, 0x47, 0x3e, 
  0x10, 0x90, 0xf6, 0x3d, 0x80, 0x51, 0x42, 0x3b, 0x08, 0x97, 0x27, 0xbe, 
  0x0e, 0xa4, 0xa2, 0x3e, 0x5e, 0x87, 0x8b, 0x3e, 0x5a, 0x7d, 0xc8, 0x3e, 
  0xe6, 0x05, 0x8a, 0xbe, 0x8c, 0x0a, 0xcd, 0x3e, 0x78, 0x99, 0xb1, 0x3e, 
  0xb8, 0x82, 0xb6, 0x3e, 0x60, 0x73, 0xc8, 0x3e, 0x06, 0xa0, 0xb8, 0xbe, 
  0x56, 0xe4, 0x18, 0xbe, 0x0c, 0x5e, 0xb8, 0xbe, 0x4c, 0x61, 0x87, 0xbe, 
  0xb4, 0xe8, 0x9a, 0x3e, 0xd6, 0xb1, 0x90, 0x3e, 0x12, 0xce, 0xc8, 0x3e, 
  0x91, 0xe5, 0xb1, 0xbe, 0xa0, 0x4c, 0xa8, 0xbc, 0x50, 0x49, 0x90, 0xbe, 
  0xd8, 0xa0, 0x31, 0xbe, 0xa8, 0x9f, 0x83, 0xbe, 0x87, 0x35, 0xb2, 0xbe, 
  0xe8, 0x3c, 0x91, 0xbe, 0x78, 0xae, 0x21, 0x3e, 0xf4, 0xde, 0xe7, 0xbd, 
  0x02, 0x18, 0x87, 0xbe, 0x5f, 0x8b, 0x65, 0xbe, 0x60, 0xe7, 0x52, 0xbe, 
  0xd4, 0x71, 0xaa, 0x3e, 0xc6, 0xbd, 0xc2, 0xbe, 0x90, 0xc0, 0x25, 0x3e, 
  0x80, 0x9b, 0x86, 0x3d, 0xc2, 0xab, 0x18, 0xbe, 0xe2, 0xbe, 0xb3, 0xbe, 
  0x40, 0x2b, 0xf0, 0x3c, 0x7a, 0xf0, 0xbe, 0x3e, 0xf4, 0x91, 0x6c, 0x3e, 
  0x7b, 0xd8, 0xa3, 0xbe, 0xca, 0x87, 0x8e, 0x3e, 0xd8, 0xa0, 0x06, 0x3d, 
  0x80, 0xc5, 0x4f, 0x3d, 0x34, 0xa4, 0x4e, 0x3e, 0x60, 0x0d, 0xff, 0xbc, 
  0x70, 0x04, 0x95, 0xbe, 0x1a, 0x40, 0x8f, 0xbe, 0xe0, 0xc6, 0x64, 0x3e, 
  0x63, 0x13, 0x9f, 0xbe, 0x6e, 0x01, 0x9e, 0xbe, 0x40, 0xd8, 0x72, 0x3c, 
  0xdc, 0xca, 0xc2, 0x3d, 0x60, 0x84, 0x68, 0xbd, 0xf8, 0x5e, 0xc5, 0xbd, 
  0x40, 0xfd, 0x46, 0x3d, 0x1c, 0x3e, 0x9b, 0xbe, 0x60, 0x42, 0x5c, 0x3c, 
  0x80, 0x03, 0xe8, 0x3d, 0x46, 0xd4, 0xc3, 0x3e, 0x26, 0xd7, 0x80, 0x3e, 
  0xb0, 0xda, 0x7e, 0x3e, 0x0f, 0x7d, 0x8e, 0xbe, 0x88, 0x37, 0x67, 0x3d, 
  0x30, 0xa1, 0xf3, 0x3d, 0x30, 0x48, 0xba, 0x3d, 0x10, 0x48, 0xa5, 0x3e, 
  0x14, 0xfe, 0xf0, 0xbd, 0xa0, 0xad, 0xc7, 0xbd, 0xf0, 0x6f, 0x22, 0x3e, 
  0x6c, 0x56, 0x95, 0x3e, 0xc4, 0x30, 0x80, 0xbd, 0xf8, 0x0a, 0x4a, 0x3e, 
  0x0c, 0xda, 0xbb, 0x3e, 0x54, 0x1a, 0x32, 0x3e, 0xec, 0xcd, 0x91, 0x3e, 
  0x20, 0x06, 0x64, 0x3c, 0x00, 0x37, 0xa4, 0x3e, 0x14, 0xaf, 0x8e, 0x3e, 
  0x7e, 0x1e, 0x55, 0xbe, 0xc4, 0x51, 0xa7, 0x3e, 0xa0, 0xef, 0xad, 0x3e, 
  0x80, 0xd5, 0xa3, 0xbd, 0x1c, 0xcb, 0x89, 0x3e, 0x60, 0x3e, 0x0e, 0x3c, 
  0xf0, 0x78, 0x3c, 0x3d, 0x50, 0xc3, 0xe0, 0x3c, 0xe0, 0x2e, 0x29, 0xbc, 
  0x00, 0x0a, 0x2c, 0xbb, 0xe0, 0x1e, 0x93, 0xbd, 0x1a, 0xa6, 0xba, 0xbe, 
  0x72, 0x81, 0xb6, 0xbe, 0x42, 0x97, 0xab, 0x3e, 0x0c, 0x87, 0xb9, 0x3d, 
  0x60, 0xb4, 0xc5, 0x3e, 0x22, 0xed, 0x91, 0x3e, 0x80, 0xb0, 0x5f, 0x3e, 
  0x66, 0x1f, 0x87, 0x3e, 0x16, 0x62, 0xad, 0xbe, 0x00, 0x83, 0x5a, 0xbc, 
  0xce, 0x39, 0x3f, 0xbe, 0x7e, 0x11, 0x8d, 0x3e, 0x9f, 0x2d, 0x3d, 0xbe, 
  0xf0, 0xa5, 0x22, 0x3e, 0x80, 0xef, 0xa3, 0xbc, 0xc7, 0x56, 0x8c, 0xbe, 
  0x1a, 0x28, 0x0e, 0xbe, 0xf8, 0x22, 0x93, 0xbe, 0xb8, 0xba, 0x2e, 0x3d, 
  0xad, 0xca, 0x95, 0xbe, 0xa8, 0x57, 0xa5, 0x3e, 0xf5, 0x64, 0xa3, 0xbe, 
  0x86, 0xd1, 0x97, 0xbe, 0x88, 0x66, 0xa1, 0x3d, 0xa4, 0x77, 0x29, 0x3e, 
  0x82, 0xeb, 0x8e, 0x3e, 0x00, 0xfe, 0xec, 0x3c, 0x54, 0x36, 0x00, 0xbe, 
  0x08, 0xc6, 0x6a, 0x3d, 0x40, 0xca, 0xad, 0xbd, 0xa4, 0xab, 0x67, 0x3e, 
  0x88, 0xe0, 0x0e, 0x3e, 0xc2, 0x17, 0x8e, 0x3e, 0x6a, 0x62, 0x97, 0x3e, 
  0x80, 0xca, 0xaf, 0x3b, 0x9c, 0x9b, 0xb8, 0x3e, 0x88, 0xbf, 0x34, 0x3e, 
  0x60, 0xfb, 0xff, 0xff, 0x64, 0xfb, 0xff, 0xff, 0x0f, 0x00, 0x00, 0x00, 
  0x4d, 0x4c, 0x49, 0x52, 0x20, 0x43, 0x6f, 0x6e, 0x76, 0x65, 0x72, 0x74, 
  0x65, 0x64, 0x2e, 0x00, 0x01, 0x00, 0x00, 0x00, 0x14, 0x00, 0x00, 0x00, 
  0x00, 0x00, 0x0e, 0x00, 0x18, 0x00, 0x14, 0x00, 0x10, 0x00, 0x0c, 0x00, 
  0x08, 0x00, 0x04, 0x00, 0x0e, 0x00, 0x00, 0x00, 0x14, 0x00, 0x00, 0x00, 
  0x1c, 0x00, 0x00, 0x00, 0x08, 0x01, 0x00, 0x00, 0x0c, 0x01, 0x00, 0x00, 
  0x10, 0x01, 0x00, 0x00, 0x04, 0x00, 0x00, 0x00, 0x6d, 0x61, 0x69, 0x6e, 
  0x00, 0x00, 0x00, 0x00, 0x04, 0x00, 0x00, 0x00, 0xb0, 0x00, 0x00, 0x00, 
  0x68, 0x00, 0x00, 0x00, 0x34, 0x00, 0x00, 0x00, 0x10, 0x00, 0x00, 0x00, 
  0x00, 0x00, 0x0a, 0x00, 0x10, 0x00, 0x0c, 0x00, 0x08, 0x00, 0x04, 0x00, 
  0x0a, 0x00, 0x00, 0x00, 0x0c, 0x00, 0x00, 0x00, 0x10, 0x00, 0x00, 0x00, 
  0x01, 0x00, 0x00, 0x00, 0x01, 0x00, 0x00, 0x00, 0x07, 0x00, 0x00, 0x00, 
  0x01, 0x00, 0x00, 0x00, 0x06, 0x00, 0x00, 0x00, 0x9a, 0xff, 0xff, 0xff, 
  0x10, 0x00, 0x00, 0x00, 0x00, 0x00, 0x00, 0x08, 0x0c, 0x00, 0x00, 0x00, 
  0x10, 0x00, 0x00, 0x00, 0x0c, 0xfc, 0xff, 0xff, 0x01, 0x00, 0x00, 0x00, 
  0x06, 0x00, 0x00, 0x00, 0x03, 0x00, 0x00, 0x00, 0x05, 0x00, 0x00, 0x00, 
  0x03, 0x00, 0x00, 0x00, 0xff, 0xff, 0xff, 0xff, 0xca, 0xff, 0xff, 0xff, 
  0x10, 0x00, 0x00, 0x00, 0x00, 0x00, 0x00, 0x08, 0x10, 0x00, 0x00, 0x00, 
  0x14, 0x00, 0x00, 0x00, 0xba, 0xff, 0xff, 0xff, 0x00, 0x00, 0x00, 0x01, 
  0x01, 0x00, 0x00, 0x00, 0x05, 0x00, 0x00, 0x00, 0x03, 0x00, 0x00, 0x00, 
  0x04, 0x00, 0x00, 0x00, 0x02, 0x00, 0x00, 0x00, 0xff, 0xff, 0xff, 0xff, 
  0x00, 0x00, 0x0e, 0x00, 0x16, 0x00, 0x00, 0x00, 0x10, 0x00, 0x0c, 0x00, 
  0x0b, 0x00, 0x04, 0x00, 0x0e, 0x00, 0x00, 0x00, 0x18, 0x00, 0x00, 0x00, 
  0x00, 0x00, 0x00, 0x08, 0x18, 0x00, 0x00, 0x00, 0x1c, 0x00, 0x00, 0x00, 
  0x00, 0x00, 0x06, 0x00, 0x08, 0x00, 0x07, 0x00, 0x06, 0x00, 0x00, 0x00, 
  0x00, 0x00, 0x00, 0x01, 0x01, 0x00, 0x00, 0x00, 0x04, 0x00, 0x00, 0x00, 
  0x03, 0x00, 0x00, 0x00, 0x00, 0x00, 0x00, 0x00, 0x01, 0x00, 0x00, 0x00, 
  0xff, 0xff, 0xff, 0xff, 0x01, 0x00, 0x00, 0x00, 0x07, 0x00, 0x00, 0x00, 
  0x01, 0x00, 0x00, 0x00, 0x00, 0x00, 0x00, 0x00, 0x08, 0x00, 0x00, 0x00, 
  0x1c, 0x03, 0x00, 0x00, 0xb4, 0x02, 0x00, 0x00, 0x50, 0x02, 0x00, 0x00, 
  0x04, 0x02, 0x00, 0x00, 0x70, 0x01, 0x00, 0x00, 0xdc, 0x00, 0x00, 0x00, 
  0x60, 0x00, 0x00, 0x00, 0x04, 0x00, 0x00, 0x00, 0x1a, 0xfd, 0xff, 0xff, 
  0x00, 0x00, 0x00, 0x01, 0x14, 0x00, 0x00, 0x00, 0x1c, 0x00, 0x00, 0x00, 
  0x1c, 0x00, 0x00, 0x00, 0x08, 0x00, 0x00, 0x00, 0x34, 0x00, 0x00, 0x00, 
  0x02, 0x00, 0x00, 0x00, 0xff, 0xff, 0xff, 0xff, 0x04, 0x00, 0x00, 0x00, 
  0x04, 0xfd, 0xff, 0xff, 0x19, 0x00, 0x00, 0x00, 0x53, 0x74, 0x61, 0x74, 
  0x65, 0x66, 0x75, 0x6c, 0x50, 0x61, 0x72, 0x74, 0x69, 0x74, 0x69, 0x6f, 
  0x6e, 0x65, 0x64, 0x43, 0x61, 0x6c, 0x6c, 0x3a, 0x30, 0x00, 0x00, 0x00, 
  0x02, 0x00, 0x00, 0x00, 0x01, 0x00, 0x00, 0x00, 0x04, 0x00, 0x00, 0x00, 
  0x72, 0xfd, 0xff, 0xff, 0x00, 0x00, 0x00, 0x01, 0x14, 0x00, 0x00, 0x00, 
  0x1c, 0x00, 0x00, 0x00, 0x1c, 0x00, 0x00, 0x00, 0x07, 0x00, 0x00, 0x00, 
  0x54, 0x00, 0x00, 0x00, 0x02, 0x00, 0x00, 0x00, 0xff, 0xff, 0xff, 0xff, 
  0x04, 0x00, 0x00, 0x00, 0x5c, 0xfd, 0xff, 0xff, 0x38, 0x00, 0x00, 0x00, 
  0x65, 0x73, 0x70, 0x33, 0x32, 0x5f, 0x61, 0x63, 0x74, 0x6f, 0x72, 0x2f, 
  0x64, 0x65, 0x6e, 0x73, 0x65, 0x5f, 0x36, 0x35, 0x2f, 0x4d, 0x61, 0x74, 
  0x4d, 0x75, 0x6c, 0x3b, 0x65, 0x73, 0x70, 0x33, 0x32, 0x5f, 0x61, 0x63, 
  0x74, 0x6f, 0x72, 0x2f, 0x64, 0x65, 0x6e, 0x73, 0x65, 0x5f, 0x36, 0x35, 
  0x2f, 0x42, 0x69, 0x61, 0x73, 0x41, 0x64, 0x64, 0x00, 0x00, 0x00, 0x00, 
  0x02, 0x00, 0x00, 0x00, 0x01, 0x00, 0x00, 0x00, 0x04, 0x00, 0x00, 0x00, 
  0xea, 0xfd, 0xff, 0xff, 0x00, 0x00, 0x00, 0x01, 0x14, 0x00, 0x00, 0x00, 
  0x1c, 0x00, 0x00, 0x00, 0x1c, 0x00, 0x00, 0x00, 0x06, 0x00, 0x00, 0x00, 
  0x6c, 0x00, 0x00, 0x00, 0x02, 0x00, 0x00, 0x00, 0xff, 0xff, 0xff, 0xff, 
  0x20, 0x00, 0x00, 0x00, 0xd4, 0xfd, 0xff, 0xff, 0x52, 0x00, 0x00, 0x00, 
  0x65, 0x73, 0x70, 0x33, 0x32, 0x5f, 0x61, 0x63, 0x74, 0x6f, 0x72, 0x2f, 
  0x64, 0x65, 0x6e, 0x73, 0x65, 0x5f, 0x36, 0x34, 0x2f, 0x4d, 0x61, 0x74, 
  0x4d, 0x75, 0x6c, 0x3b, 0x65, 0x73, 0x70, 0x33, 0x32, 0x5f, 0x61, 0x63, 
  0x74, 0x6f, 0x72, 0x2f, 0x64, 0x65, 0x6e, 0x73, 0x65, 0x5f, 0x36, 0x34, 
  0x2f, 0x52, 0x65, 0x6c, 0x75, 0x3b, 0x65, 0x73, 0x70, 0x33, 0x32, 0x5f, 
  0x61, 0x63, 0x74, 0x6f, 0x72, 0x2f, 0x64, 0x65, 0x6e, 0x73, 0x65, 0x5f, 
  0x36, 0x34, 0x2f, 0x42, 0x69, 0x61, 0x73, 0x41, 0x64, 0x64, 0x00, 0x00, 
  0x02, 0x00, 0x00, 0x00, 0x01, 0x00, 0x00, 0x00, 0x20, 0x00, 0x00, 0x00, 
  0x7a, 0xfe, 0xff, 0xff, 0x00, 0x00, 0x00, 0x01, 0x14, 0x00, 0x00, 0x00, 
  0x1c, 0x00, 0x00, 0x00, 0x1c, 0x00, 0x00, 0x00, 0x05, 0x00, 0x00, 0x00, 
  0x6c, 0x00, 0x00, 0x00, 0x02, 0x00, 0x00, 0x00, 0xff, 0xff, 0xff, 0xff, 
  0x20, 0x00, 0x00, 0x00, 0x64, 0xfe, 0xff, 0xff, 0x52, 0x00, 0x00, 0x00, 
  0x65, 0x73, 0x70, 0x33, 0x32, 0x5f, 0x61, 0x63, 0x74, 0x6f, 0x72, 0x2f, 
  0x64, 0x65, 0x6e, 0x73, 0x65, 0x5f, 0x36, 0x33, 0x2f, 0x4d, 0x61, 0x74, 
  0x4d, 0x75, 0x6c, 0x3b, 0x65, 0x73, 0x70, 0x33, 0x32, 0x5f, 0x61, 0x63, 
  0x74, 0x6f, 0x72, 0x2f, 0x64, 0x65, 0x6e, 0x73, 0x65, 0x5f, 0x36, 0x33, 
  0x2f, 0x52, 0x65, 0x6c, 0x75, 0x3b, 0x65, 0x73, 0x70, 0x33, 0x32, 0x5f, 
  0x61, 0x63, 0x74, 0x6f, 0x72, 0x2f, 0x64, 0x65, 0x6e, 0x73, 0x65, 0x5f, 
  0x36, 0x33, 0x2f, 0x42, 0x69, 0x61, 0x73, 0x41, 0x64, 0x64, 0x00, 0x00, 
  0x02, 0x00, 0x00, 0x00, 0x01, 0x00, 0x00, 0x00, 0x20, 0x00, 0x00, 0x00, 
  0x6e, 0xff, 0xff, 0xff, 0x00, 0x00, 0x00, 0x01, 0x10, 0x00, 0x00, 0x00, 
  0x10, 0x00, 0x00, 0x00, 0x04, 0x00, 0x00, 0x00, 0x28, 0x00, 0x00, 0x00, 
  0xe4, 0xfe, 0xff, 0xff, 0x1b, 0x00, 0x00, 0x00, 0x65, 0x73, 0x70, 0x33, 
  0x32, 0x5f, 0x61, 0x63, 0x74, 0x6f, 0x72, 0x2f, 0x64, 0x65, 0x6e, 0x73, 
  0x65, 0x5f, 0x36, 0x35, 0x2f, 0x4d, 0x61, 0x74, 0x4d, 0x75, 0x6c, 0x00, 
  0x02, 0x00, 0x00, 0x00, 0x04, 0x00, 0x00, 0x00, 0x20, 0x00, 0x00, 0x00, 
  0xb6, 0xff, 0xff, 0xff, 0x00, 0x00, 0x00, 0x01, 0x10, 0x00, 0x00, 0x00, 
  0x10, 0x00, 0x00, 0x00, 0x03, 0x00, 0x00, 0x00, 0x28, 0x00, 0x00, 0x00, 
  0x2c, 0xff, 0xff, 0xff, 0x1b, 0x00, 0x00, 0x00, 0x65, 0x73, 0x70, 0x33, 
  0x32, 0x5f, 0x61, 0x63, 0x74, 0x6f, 0x72, 0x2f, 0x64, 0x65, 0x6e, 0x73, 
  0x65, 0x5f, 0x36, 0x34, 0x2f, 0x4d, 0x61, 0x74, 0x4d, 0x75, 0x6c, 0x00, 
  0x02, 0x00, 0x00, 0x00, 0x20, 0x00, 0x00, 0x00, 0x20, 0x00, 0x00, 0x00, 
  0x00, 0x00, 0x16, 0x00, 0x18, 0x00, 0x14, 0x00, 0x00, 0x00, 0x10, 0x00, 
  0x0c, 0x00, 0x08, 0x00, 0x00, 0x00, 0x00, 0x00, 0x00, 0x00, 0x07, 0x00, 
  0x16, 0x00, 0x00, 0x00, 0x00, 0x00, 0x00, 0x01, 0x10, 0x00, 0x00, 0x00, 
  0x10, 0x00, 0x00, 0x00, 0x02, 0x00, 0x00, 0x00, 0x2c, 0x00, 0x00, 0x00, 
  0x8c, 0xff, 0xff, 0xff, 0x1c, 0x00, 0x00, 0x00, 0x65, 0x73, 0x70, 0x33, 
  0x32, 0x5f, 0x61, 0x63, 0x74, 0x6f, 0x72, 0x2f, 0x64, 0x65, 0x6e, 0x73, 
  0x65, 0x5f, 0x36, 0x33, 0x2f, 0x4d, 0x61, 0x74, 0x4d, 0x75, 0x6c, 0x31, 
  0x00, 0x00, 0x00, 0x00, 0x02, 0x00, 0x00, 0x00, 0x20, 0x00, 0x00, 0x00, 
  0x05, 0x00, 0x00, 0x00, 0x00, 0x00, 0x16, 0x00, 0x1c, 0x00, 0x18, 0x00, 
  0x00, 0x00, 0x14, 0x00, 0x10, 0x00, 0x0c, 0x00, 0x00, 0x00, 0x00, 0x00, 
  0x08, 0x00, 0x07, 0x00, 0x16, 0x00, 0x00, 0x00, 0x00, 0x00, 0x00, 0x01, 
  0x14, 0x00, 0x00, 0x00, 0x20, 0x00, 0x00, 0x00, 0x20, 0x00, 0x00, 0x00, 
  0x01, 0x00, 0x00, 0x00, 0x40, 0x00, 0x00, 0x00, 0x02, 0x00, 0x00, 0x00, 
  0xff, 0xff, 0xff, 0xff, 0x05, 0x00, 0x00, 0x00, 0x04, 0x00, 0x04, 0x00, 
  0x04, 0x00, 0x00, 0x00, 0x20, 0x00, 0x00, 0x00, 0x73, 0x65, 0x72, 0x76, 
  0x69, 0x6e, 0x67, 0x5f, 0x64, 0x65, 0x66, 0x61, 0x75, 0x6c, 0x74, 0x5f, 
  0x64, 0x65, 0x6e, 0x73, 0x65, 0x5f, 0x36, 0x33, 0x5f, 0x69, 0x6e, 0x70, 
  0x75, 0x74, 0x3a, 0x30, 0x00, 0x00, 0x00, 0x00, 0x02, 0x00, 0x00, 0x00, 
  0x01, 0x00, 0x00, 0x00, 0x05, 0x00, 0x00, 0x00, 0x02, 0x00, 0x00, 0x00, 
  0x20, 0x00, 0x00, 0x00, 0x04, 0x00, 0x00, 0x00, 0xf4, 0xff, 0xff, 0xff, 
  0x1c, 0x00, 0x00, 0x00, 0x00, 0x00, 0x00, 0x1c, 0x0c, 0x00, 0x0c, 0x00, 
  0x0b, 0x00, 0x00, 0x00, 0x00, 0x00, 0x04, 0x00, 0x0c, 0x00, 0x00, 0x00, 
  0x09, 0x00, 0x00, 0x00, 0x00, 0x00, 0x00, 0x09, 
};

const unsigned int actor_model_len = 7040;
