#include "ppo_policy_actor.h"

const uint8_t actor_model[] = {

  0x1c, 0x00, 0x00, 0x00, 0x54, 0x46, 0x4c, 0x33, 0x14, 0x00, 0x20, 0x00, 
  0x1c, 0x00, 0x18, 0x00, 0x14, 0x00, 0x10, 0x00, 0x0c, 0x00, 0x00, 0x00, 
  0x08, 0x00, 0x04, 0x00, 0x14, 0x00, 0x00, 0x00, 0x1c, 0x00, 0x00, 0x00, 
  0x8c, 0x00, 0x00, 0x00, 0xe4, 0x00, 0x00, 0x00, 0xd8, 0x02, 0x00, 0x00, 
  0xe8, 0x02, 0x00, 0x00, 0x8c, 0x06, 0x00, 0x00, 0x03, 0x00, 0x00, 0x00, 
  0x01, 0x00, 0x00, 0x00, 0x04, 0x00, 0x00, 0x00, 0xde, 0xfc, 0xff, 0xff, 
  0x0c, 0x00, 0x00, 0x00, 0x1c, 0x00, 0x00, 0x00, 0x3c, 0x00, 0x00, 0x00, 
  0x0f, 0x00, 0x00, 0x00, 0x73, 0x65, 0x72, 0x76, 0x69, 0x6e, 0x67, 0x5f, 
  0x64, 0x65, 0x66, 0x61, 0x75, 0x6c, 0x74, 0x00, 0x01, 0x00, 0x00, 0x00, 
  0x04, 0x00, 0x00, 0x00, 0x90, 0xff, 0xff, 0xff, 0x05, 0x00, 0x00, 0x00, 
  0x04, 0x00, 0x00, 0x00, 0x08, 0x00, 0x00, 0x00, 0x64, 0x65, 0x6e, 0x73, 
  0x65, 0x5f, 0x31, 0x36, 0x00, 0x00, 0x00, 0x00, 0x01, 0x00, 0x00, 0x00, 
  0x04, 0x00, 0x00, 0x00, 0x4a, 0xfe, 0xff, 0xff, 0x04, 0x00, 0x00, 0x00, 
  0x0e, 0x00, 0x00, 0x00, 0x64, 0x65, 0x6e, 0x73, 0x65, 0x5f, 0x31, 0x35, 
  0x5f, 0x69, 0x6e, 0x70, 0x75, 0x74, 0x00, 0x00, 0x02, 0x00, 0x00, 0x00, 
  0x34, 0x00, 0x00, 0x00, 0x04, 0x00, 0x00, 0x00, 0xdc, 0xff, 0xff, 0xff, 
  0x08, 0x00, 0x00, 0x00, 0x04, 0x00, 0x00, 0x00, 0x13, 0x00, 0x00, 0x00, 
  0x43, 0x4f, 0x4e, 0x56, 0x45, 0x52, 0x53, 0x49, 0x4f, 0x4e, 0x5f, 0x4d, 
  0x45, 0x54, 0x41, 0x44, 0x41, 0x54, 0x41, 0x00, 0x08, 0x00, 0x0c, 0x00, 
  0x08, 0x00, 0x04, 0x00, 0x08, 0x00, 0x00, 0x00, 0x07, 0x00, 0x00, 0x00, 
  0x04, 0x00, 0x00, 0x00, 0x13, 0x00, 0x00, 0x00, 0x6d, 0x69, 0x6e, 0x5f, 
  0x72, 0x75, 0x6e, 0x74, 0x69, 0x6d, 0x65, 0x5f, 0x76, 0x65, 0x72, 0x73, 
  0x69, 0x6f, 0x6e, 0x00, 0x09, 0x00, 0x00, 0x00, 0xf0, 0x01, 0x00, 0x00, 
  0xe8, 0x01, 0x00, 0x00, 0x38, 0x01, 0x00, 0x00, 0xa0, 0x00, 0x00, 0x00, 
  0x98, 0x00, 0x00, 0x00, 0x90, 0x00, 0x00, 0x00, 0x88, 0x00, 0x00, 0x00, 
  0x68, 0x00, 0x00, 0x00, 0x04, 0x00, 0x00, 0x00, 0xea, 0xfe, 0xff, 0xff, 
  0x04, 0x00, 0x00, 0x00, 0x54, 0x00, 0x00, 0x00, 0x0c, 0x00, 0x00, 0x00, 
  0x08, 0x00, 0x0e, 0x00, 0x08, 0x00, 0x04, 0x00, 0x08, 0x00, 0x00, 0x00, 
  0x10, 0x00, 0x00, 0x00, 0x24, 0x00, 0x00, 0x00, 0x00, 0x00, 0x06, 0x00, 
  0x08, 0x00, 0x04, 0x00, 0x06, 0x00, 0x00, 0x00, 0x04, 0x00, 0x00, 0x00, 
  0x00, 0x00, 0x00, 0x00, 0x00, 0x00, 0x0a, 0x00, 0x10, 0x00, 0x0c, 0x00, 
  0x08, 0x00, 0x04, 0x00, 0x0a, 0x00, 0x00, 0x00, 0x02, 0x00, 0x00, 0x00, 
  0x02, 0x00, 0x00, 0x00, 0x04, 0x00, 0x00, 0x00, 0x06, 0x00, 0x00, 0x00, 
  0x32, 0x2e, 0x31, 0x33, 0x2e, 0x30, 0x00, 0x00, 0x4a, 0xff, 0xff, 0xff, 
  0x04, 0x00, 0x00, 0x00, 0x10, 0x00, 0x00, 0x00, 0x31, 0x2e, 0x31, 0x34, 
  0x2e, 0x30, 0x00, 0x00, 0x00, 0x00, 0x00, 0x00, 0x00, 0x00, 0x00, 0x00, 
  0x2c, 0xfb, 0xff, 0xff, 0x30, 0xfb, 0xff, 0xff, 0x34, 0xfb, 0xff, 0xff, 
  0x72, 0xff, 0xff, 0xff, 0x04, 0x00, 0x00, 0x00, 0x80, 0x00, 0x00, 0x00, 
  0xc9, 0x4a, 0x14, 0x3f, 0x43, 0x7f, 0x00, 0x3f, 0x6d, 0xbb, 0x22, 0xbf, 
  0xb1, 0x94, 0x2a, 0x3f, 0xd0, 0x1b, 0xfe, 0xbe, 0xec, 0x66, 0x32, 0xbf, 
  0xdc, 0x62, 0x6f, 0x3e, 0xc0, 0x53, 0x71, 0xbd, 0x1b, 0xaa, 0x00, 0x3f, 
  0x26, 0x0c, 0xf1, 0xbe, 0xf8, 0x2a, 0xb4, 0x3d, 0xfc, 0xdb, 0x15, 0xbe, 
  0xbc, 0x29, 0x04, 0x3e, 0xf0, 0x81, 0xcb, 0x3d, 0x7b, 0xe3, 0x24, 0x3f, 
  0xc2, 0xb8, 0xfc, 0x3e, 0x1c, 0x6e, 0x51, 0xbe, 0x76, 0x81, 0x14, 0xbf, 
  0xaa, 0xe7, 0x98, 0xbe, 0x86, 0x32, 0xc8, 0x3e, 0xb1, 0x47, 0x1e, 0x3f, 
  0x00, 0xae, 0xdc, 0x3c, 0x2b, 0x5d, 0x30, 0x3f, 0x4c, 0xe0, 0x6a, 0xbe, 
  0xa9, 0x29, 0x81, 0xbe, 0x5f, 0xea, 0xff, 0xbe, 0x20, 0x97, 0x51, 0xbe, 
  0x96, 0x9c, 0xca, 0x3e, 0xe0, 0x4d, 0xae, 0x3d, 0x27, 0x84, 0xbb, 0xbe, 
  0xbc, 0x0b, 0x1f, 0x3e, 0xf5, 0x47, 0x03, 0xbf, 0x00, 0x00, 0x06, 0x00, 
  0x08, 0x00, 0x04, 0x00, 0x06, 0x00, 0x00, 0x00, 0x04, 0x00, 0x00, 0x00, 
  0xa0, 0x00, 0x00, 0x00, 0x18, 0x9c, 0x99, 0xbd, 0x60, 0x0d, 0x39, 0xbd, 
  0x93, 0x96, 0xb1, 0xbe, 0x72, 0x26, 0x1b, 0x3f, 0xd0, 0x6c, 0xb1, 0x3d, 
  0x34, 0xbb, 0xa2, 0xbe, 0xe8, 0xc5, 0x2c, 0x3f, 0x33, 0x69, 0x86, 0xbe, 
  0xa9, 0x23, 0x1a, 0xbf, 0xa7, 0xa2, 0x27, 0xbf, 0x98, 0x8a, 0x35, 0x3e, 
  0x90, 0xed, 0xe2, 0xbe, 0x38, 0x07, 0xca, 0xbe, 0x7c, 0xe9, 0xca, 0x3e, 
  0xe9, 0x53, 0x00, 0xbf, 0x8e, 0xf8, 0x2b, 0x3f, 0x36, 0x74, 0x9b, 0xbe, 
  0xec, 0x9f, 0xef, 0x3e, 0xd2, 0x5a, 0xa2, 0x3e, 0x33, 0x1c, 0xf8, 0xbe, 
  0x82, 0x8b, 0x28, 0x3f, 0xfa, 0xf7, 0x16, 0xbf, 0xac, 0x5a, 0xef, 0xbe, 
  0xcc, 0x7e, 0x28, 0xbf, 0xfa, 0x3f, 0x25, 0x3f, 0x28, 0x4e, 0xfb, 0xbe, 
  0x10, 0x2f, 0x70, 0x3d, 0x9c, 0xa9, 0xf3, 0x3e, 0x54, 0xcc, 0x13, 0x3f, 
  0x74, 0x72, 0x32, 0xbe, 0x30, 0xe6, 0xad, 0x3e, 0xb2, 0xab, 0x13, 0xbf, 
  0x10, 0x22, 0x99, 0xbe, 0x3e, 0x9c, 0x1e, 0xbf, 0xb8, 0x61, 0x07, 0xbf, 
  0x58, 0x7c, 0xcf, 0xbd, 0x9c, 0x3a, 0x1c, 0xbf, 0xbd, 0x4d, 0xd5, 0xbe, 
  0xd0, 0xf3, 0x9a, 0xbe, 0x28, 0x11, 0xe2, 0xbd, 0x78, 0xfc, 0xff, 0xff, 
  0x7c, 0xfc, 0xff, 0xff, 0x0f, 0x00, 0x00, 0x00, 0x4d, 0x4c, 0x49, 0x52, 
  0x20, 0x43, 0x6f, 0x6e, 0x76, 0x65, 0x72, 0x74, 0x65, 0x64, 0x2e, 0x00, 
  0x01, 0x00, 0x00, 0x00, 0x14, 0x00, 0x00, 0x00, 0x00, 0x00, 0x0e, 0x00, 
  0x18, 0x00, 0x14, 0x00, 0x10, 0x00, 0x0c, 0x00, 0x08, 0x00, 0x04, 0x00, 
  0x0e, 0x00, 0x00, 0x00, 0x14, 0x00, 0x00, 0x00, 0x1c, 0x00, 0x00, 0x00, 
  0xd0, 0x00, 0x00, 0x00, 0xd4, 0x00, 0x00, 0x00, 0xd8, 0x00, 0x00, 0x00, 
  0x04, 0x00, 0x00, 0x00, 0x6d, 0x61, 0x69, 0x6e, 0x00, 0x00, 0x00, 0x00, 
  0x03, 0x00, 0x00, 0x00, 0x78, 0x00, 0x00, 0x00, 0x34, 0x00, 0x00, 0x00, 
  0x10, 0x00, 0x00, 0x00, 0x00, 0x00, 0x0a, 0x00, 0x10, 0x00, 0x0c, 0x00, 
  0x08, 0x00, 0x04, 0x00, 0x0a, 0x00, 0x00, 0x00, 0x0c, 0x00, 0x00, 0x00, 
  0x10, 0x00, 0x00, 0x00, 0x01, 0x00, 0x00, 0x00, 0x01, 0x00, 0x00, 0x00, 
  0x05, 0x00, 0x00, 0x00, 0x01, 0x00, 0x00, 0x00, 0x04, 0x00, 0x00, 0x00, 
  0xce, 0xff, 0xff, 0xff, 0x10, 0x00, 0x00, 0x00, 0x00, 0x00, 0x00, 0x08, 
  0x0c, 0x00, 0x00, 0x00, 0x10, 0x00, 0x00, 0x00, 0x20, 0xfd, 0xff, 0xff, 
  0x01, 0x00, 0x00, 0x00, 0x04, 0x00, 0x00, 0x00, 0x03, 0x00, 0x00, 0x00, 
  0x03, 0x00, 0x00, 0x00, 0x02, 0x00, 0x00, 0x00, 0xff, 0xff, 0xff, 0xff, 
  0x00, 0x00, 0x0e, 0x00, 0x16, 0x00, 0x00, 0x00, 0x10, 0x00, 0x0c, 0x00, 
  0x0b, 0x00, 0x04, 0x00, 0x0e, 0x00, 0x00, 0x00, 0x18, 0x00, 0x00, 0x00, 
  0x00, 0x00, 0x00, 0x08, 0x18, 0x00, 0x00, 0x00, 0x1c, 0x00, 0x00, 0x00, 
  0x00, 0x00, 0x06, 0x00, 0x08, 0x00, 0x07, 0x00, 0x06, 0x00, 0x00, 0x00, 
  0x00, 0x00, 0x00, 0x01, 0x01, 0x00, 0x00, 0x00, 0x03, 0x00, 0x00, 0x00, 
  0x03, 0x00, 0x00, 0x00, 0x00, 0x00, 0x00, 0x00, 0x01, 0x00, 0x00, 0x00, 
  0xff, 0xff, 0xff, 0xff, 0x01, 0x00, 0x00, 0x00, 0x05, 0x00, 0x00, 0x00, 
  0x01, 0x00, 0x00, 0x00, 0x00, 0x00, 0x00, 0x00, 0x06, 0x00, 0x00, 0x00, 
  0x3c, 0x02, 0x00, 0x00, 0xd4, 0x01, 0x00, 0x00, 0x70, 0x01, 0x00, 0x00, 
  0xdc, 0x00, 0x00, 0x00, 0x60, 0x00, 0x00, 0x00, 0x04, 0x00, 0x00, 0x00, 
  0xf2, 0xfd, 0xff, 0xff, 0x00, 0x00, 0x00, 0x01, 0x14, 0x00, 0x00, 0x00, 
  0x1c, 0x00, 0x00, 0x00, 0x1c, 0x00, 0x00, 0x00, 0x06, 0x00, 0x00, 0x00, 
  0x34, 0x00, 0x00, 0x00, 0x02, 0x00, 0x00, 0x00, 0xff, 0xff, 0xff, 0xff, 
  0x04, 0x00, 0x00, 0x00, 0xdc, 0xfd, 0xff, 0xff, 0x19, 0x00, 0x00, 0x00, 
  0x53, 0x74, 0x61, 0x74, 0x65, 0x66, 0x75, 0x6c, 0x50, 0x61, 0x72, 0x74, 
  0x69, 0x74, 0x69, 0x6f, 0x6e, 0x65, 0x64, 0x43, 0x61, 0x6c, 0x6c, 0x3a, 
  0x30, 0x00, 0x00, 0x00, 0x02, 0x00, 0x00, 0x00, 0x01, 0x00, 0x00, 0x00, 
  0x04, 0x00, 0x00, 0x00, 0x4a, 0xfe, 0xff, 0xff, 0x00, 0x00, 0x00, 0x01, 
  0x14, 0x00, 0x00, 0x00, 0x1c, 0x00, 0x00, 0x00, 0x1c, 0x00, 0x00, 0x00, 
  0x05, 0x00, 0x00, 0x00, 0x54, 0x00, 0x00, 0x00, 0x02, 0x00, 0x00, 0x00, 
  0xff, 0xff, 0xff, 0xff, 0x04, 0x00, 0x00, 0x00, 0x34, 0xfe, 0xff, 0xff, 
  0x38, 0x00, 0x00, 0x00, 0x65, 0x73, 0x70, 0x33, 0x32, 0x5f, 0x61, 0x63, 
  0x74, 0x6f, 0x72, 0x2f, 0x64, 0x65, 0x6e, 0x73, 0x65, 0x5f, 0x31, 0x36, 
  0x2f, 0x4d, 0x61, 0x74, 0x4d, 0x75, 0x6c, 0x3b, 0x65, 0x73, 0x70, 0x33, 
  0x32, 0x5f, 0x61, 0x63, 0x74, 0x6f, 0x72, 0x2f, 0x64, 0x65, 0x6e, 0x73, 
  0x65, 0x5f, 0x31, 0x36, 0x2f, 0x42, 0x69, 0x61, 0x73, 0x41, 0x64, 0x64, 
  0x00, 0x00, 0x00, 0x00, 0x02, 0x00, 0x00, 0x00, 0x01, 0x00, 0x00, 0x00, 
  0x04, 0x00, 0x00, 0x00, 0xc2, 0xfe, 0xff, 0xff, 0x00, 0x00, 0x00, 0x01, 
  0x14, 0x00, 0x00, 0x00, 0x1c, 0x00, 0x00, 0x00, 0x1c, 0x00, 0x00, 0x00, 
  0x04, 0x00, 0x00, 0x00, 0x6c, 0x00, 0x00, 0x00, 0x02, 0x00, 0x00, 0x00, 
  0xff, 0xff, 0xff, 0xff, 0x08, 0x00, 0x00, 0x00, 0xac, 0xfe, 0xff, 0xff, 
  0x52, 0x00, 0x00, 0x00, 0x65, 0x73, 0x70, 0x33, 0x32, 0x5f, 0x61, 0x63, 
  0x74, 0x6f, 0x72, 0x2f, 0x64, 0x65, 0x6e, 0x73, 0x65, 0x5f, 0x31, 0x35, 
  0x2f, 0x4d, 0x61, 0x74, 0x4d, 0x75, 0x6c, 0x3b, 0x65, 0x73, 0x70, 0x33, 
  0x32, 0x5f, 0x61, 0x63, 0x74, 0x6f, 0x72, 0x2f, 0x64, 0x65, 0x6e, 0x73, 
  0x65, 0x5f, 0x31, 0x35, 0x2f, 0x52, 0x65, 0x6c, 0x75, 0x3b, 0x65, 0x73, 
  0x70, 0x33, 0x32, 0x5f, 0x61, 0x63, 0x74, 0x6f, 0x72, 0x2f, 0x64, 0x65, 
  0x6e, 0x73, 0x65, 0x5f, 0x31, 0x35, 0x2f, 0x42, 0x69, 0x61, 0x73, 0x41, 
  0x64, 0x64, 0x00, 0x00, 0x02, 0x00, 0x00, 0x00, 0x01, 0x00, 0x00, 0x00, 
  0x08, 0x00, 0x00, 0x00, 0xb6, 0xff, 0xff, 0xff, 0x00, 0x00, 0x00, 0x01, 
  0x10, 0x00, 0x00, 0x00, 0x10, 0x00, 0x00, 0x00, 0x03, 0x00, 0x00, 0x00, 
  0x28, 0x00, 0x00, 0x00, 0x2c, 0xff, 0xff, 0xff, 0x1b, 0x00, 0x00, 0x00, 
  0x65, 0x73, 0x70, 0x33, 0x32, 0x5f, 0x61, 0x63, 0x74, 0x6f, 0x72, 0x2f, 
  0x64, 0x65, 0x6e, 0x73, 0x65, 0x5f, 0x31, 0x36, 0x2f, 0x4d, 0x61, 0x74, 
  0x4d, 0x75, 0x6c, 0x00, 0x02, 0x00, 0x00, 0x00, 0x04, 0x00, 0x00, 0x00, 
  0x08, 0x00, 0x00, 0x00, 0x00, 0x00, 0x16, 0x00, 0x18, 0x00, 0x14, 0x00, 
  0x00, 0x00, 0x10, 0x00, 0x0c, 0x00, 0x08, 0x00, 0x00, 0x00, 0x00, 0x00, 
  0x00, 0x00, 0x07, 0x00, 0x16, 0x00, 0x00, 0x00, 0x00, 0x00, 0x00, 0x01, 
  0x10, 0x00, 0x00, 0x00, 0x10, 0x00, 0x00, 0x00, 0x02, 0x00, 0x00, 0x00, 
  0x2c, 0x00, 0x00, 0x00, 0x8c, 0xff, 0xff, 0xff, 0x1c, 0x00, 0x00, 0x00, 
  0x65, 0x73, 0x70, 0x33, 0x32, 0x5f, 0x61, 0x63, 0x74, 0x6f, 0x72, 0x2f, 
  0x64, 0x65, 0x6e, 0x73, 0x65, 0x5f, 0x31, 0x35, 0x2f, 0x4d, 0x61, 0x74, 
  0x4d, 0x75, 0x6c, 0x31, 0x00, 0x00, 0x00, 0x00, 0x02, 0x00, 0x00, 0x00, 
  0x08, 0x00, 0x00, 0x00, 0x05, 0x00, 0x00, 0x00, 0x00, 0x00, 0x16, 0x00, 
  0x1c, 0x00, 0x18, 0x00, 0x00, 0x00, 0x14, 0x00, 0x10, 0x00, 0x0c, 0x00, 
  0x00, 0x00, 0x00, 0x00, 0x08, 0x00, 0x07, 0x00, 0x16, 0x00, 0x00, 0x00, 
  0x00, 0x00, 0x00, 0x01, 0x14, 0x00, 0x00, 0x00, 0x20, 0x00, 0x00, 0x00, 
  0x20, 0x00, 0x00, 0x00, 0x01, 0x00, 0x00, 0x00, 0x40, 0x00, 0x00, 0x00, 
  0x02, 0x00, 0x00, 0x00, 0xff, 0xff, 0xff, 0xff, 0x05, 0x00, 0x00, 0x00, 
  0x04, 0x00, 0x04, 0x00, 0x04, 0x00, 0x00, 0x00, 0x20, 0x00, 0x00, 0x00, 
  0x73, 0x65, 0x72, 0x76, 0x69, 0x6e, 0x67, 0x5f, 0x64, 0x65, 0x66, 0x61, 
  0x75, 0x6c, 0x74, 0x5f, 0x64, 0x65, 0x6e, 0x73, 0x65, 0x5f, 0x31, 0x35, 
  0x5f, 0x69, 0x6e, 0x70, 0x75, 0x74, 0x3a, 0x30, 0x00, 0x00, 0x00, 0x00, 
  0x02, 0x00, 0x00, 0x00, 0x01, 0x00, 0x00, 0x00, 0x05, 0x00, 0x00, 0x00, 
  0x02, 0x00, 0x00, 0x00, 0x20, 0x00, 0x00, 0x00, 0x04, 0x00, 0x00, 0x00, 
  0xf4, 0xff, 0xff, 0xff, 0x0e, 0x00, 0x00, 0x00, 0x00, 0x00, 0x00, 0x0e, 
  0x0c, 0x00, 0x0c, 0x00, 0x0b, 0x00, 0x00, 0x00, 0x00, 0x00, 0x04, 0x00, 
  0x0c, 0x00, 0x00, 0x00, 0x09, 0x00, 0x00, 0x00, 0x00, 0x00, 0x00, 0x09, 
};

const unsigned int actor_model_len = 1776;
