#include "ppo_policy_critic_task0.h"

const uint8_t critic_model[] = {

  0x1c, 0x00, 0x00, 0x00, 0x54, 0x46, 0x4c, 0x33, 0x14, 0x00, 0x20, 0x00, 
  0x1c, 0x00, 0x18, 0x00, 0x14, 0x00, 0x10, 0x00, 0x0c, 0x00, 0x00, 0x00, 
  0x08, 0x00, 0x04, 0x00, 0x14, 0x00, 0x00, 0x00, 0x1c, 0x00, 0x00, 0x00, 
  0x98, 0x00, 0x00, 0x00, 0xf0, 0x00, 0x00, 0x00, 0xd4, 0x14, 0x00, 0x00, 
  0xe4, 0x14, 0x00, 0x00, 0x04, 0x19, 0x00, 0x00, 0x03, 0x00, 0x00, 0x00, 
  0x01, 0x00, 0x00, 0x00, 0x10, 0x00, 0x00, 0x00, 0x00, 0x00, 0x0a, 0x00, 
  0x10, 0x00, 0x0c, 0x00, 0x08, 0x00, 0x04, 0x00, 0x0a, 0x00, 0x00, 0x00, 
  0x0c, 0x00, 0x00, 0x00, 0x1c, 0x00, 0x00, 0x00, 0x3c, 0x00, 0x00, 0x00, 
  0x0f, 0x00, 0x00, 0x00, 0x73, 0x65, 0x72, 0x76, 0x69, 0x6e, 0x67, 0x5f, 
  0x64, 0x65, 0x66, 0x61, 0x75, 0x6c, 0x74, 0x00, 0x01, 0x00, 0x00, 0x00, 
  0x04, 0x00, 0x00, 0x00, 0x90, 0xff, 0xff, 0xff, 0x06, 0x00, 0x00, 0x00, 
  0x04, 0x00, 0x00, 0x00, 0x08, 0x00, 0x00, 0x00, 0x64, 0x65, 0x6e, 0x73, 
  0x65, 0x5f, 0x36, 0x38, 0x00, 0x00, 0x00, 0x00, 0x01, 0x00, 0x00, 0x00, 
  0x04, 0x00, 0x00, 0x00, 0x3a, 0xee, 0xff, 0xff, 0x04, 0x00, 0x00, 0x00, 
  0x0e, 0x00, 0x00, 0x00, 0x64, 0x65, 0x6e, 0x73, 0x65, 0x5f, 0x36, 0x36, 
  0x5f, 0x69, 0x6e, 0x70, 0x75, 0x74, 0x00, 0x00, 0x02, 0x00, 0x00, 0x00, 
  0x34, 0x00, 0x00, 0x00, 0x04, 0x00, 0x00, 0x00, 0xdc, 0xff, 0xff, 0xff, 
  0x09, 0x00, 0x00, 0x00, 0x04, 0x00, 0x00, 0x00, 0x13, 0x00, 0x00, 0x00, 
  0x43, 0x4f, 0x4e, 0x56, 0x45, 0x52, 0x53, 0x49, 0x4f, 0x4e, 0x5f, 0x4d, 
  0x45, 0x54, 0x41, 0x44, 0x41, 0x54, 0x41, 0x00, 0x08, 0x00, 0x0c, 0x00, 
  0x08, 0x00, 0x04, 0x00, 0x08, 0x00, 0x00, 0x00, 0x08, 0x00, 0x00, 0x00, 
  0x04, 0x00, 0x00, 0x00, 0x13, 0x00, 0x00, 0x00, 0x6d, 0x69, 0x6e, 0x5f, 
  0x72, 0x75, 0x6e, 0x74, 0x69, 0x6d, 0x65, 0x5f, 0x76, 0x65, 0x72, 0x73, 
  0x69, 0x6f, 0x6e, 0x00, 0x0a, 0x00, 0x00, 0x00, 0xe0, 0x13, 0x00, 0x00, 
  0xd8, 0x13, 0x00, 0x00, 0x48, 0x11, 0x00, 0x00, 0x30, 0x01, 0x00, 0x00, 
  0xa0, 0x00, 0x00, 0x00, 0x98, 0x00, 0x00, 0x00, 0x90, 0x00, 0x00, 0x00, 
  0x88, 0x00, 0x00, 0x00, 0x68, 0x00, 0x00, 0x00, 0x04, 0x00, 0x00, 0x00, 
  0xde, 0xee, 0xff, 0xff, 0x04, 0x00, 0x00, 0x00, 0x54, 0x00, 0x00, 0x00, 
  0x0c, 0x00, 0x00, 0x00, 0x08, 0x00, 0x0e, 0x00, 0x08, 0x00, 0x04, 0x00, 
  0x08, 0x00, 0x00, 0x00, 0x10, 0x00, 0x00, 0x00, 0x24, 0x00, 0x00, 0x00, 
  0x00, 0x00, 0x06, 0x00, 0x08, 0x00, 0x04, 0x00, 0x06, 0x00, 0x00, 0x00, 
  0x04, 0x00, 0x00, 0x00, 0x00, 0x00, 0x00, 0x00, 0x00, 0x00, 0x0a, 0x00, 
  0x10, 0x00, 0x0c, 0x00, 0x08, 0x00, 0x04, 0x00, 0x0a, 0x00, 0x00, 0x00, 
  0x02, 0x00, 0x00, 0x00, 0x02, 0x00, 0x00, 0x00, 0x04, 0x00, 0x00, 0x00, 
  0x06, 0x00, 0x00, 0x00, 0x32, 0x2e, 0x31, 0x33, 0x2e, 0x30, 0x00, 0x00, 
  0x3e, 0xef, 0xff, 0xff, 0x04, 0x00, 0x00, 0x00, 0x10, 0x00, 0x00, 0x00, 
  0x31, 0x2e, 0x35, 0x2e, 0x30, 0x00, 0x00, 0x00, 0x00, 0x00, 0x00, 0x00, 
  0x00, 0x00, 0x00, 0x00, 0xc4, 0xe8, 0xff, 0xff, 0xc8, 0xe8, 0xff, 0xff, 
  0xcc, 0xe8, 0xff, 0xff, 0x66, 0xef, 0xff, 0xff, 0x04, 0x00, 0x00, 0x00, 
  0x80, 0x00, 0x00, 0x00, 0x58, 0x17, 0x1a, 0x3d, 0xcc, 0x29, 0x84, 0x3e, 
  0xba, 0xc9, 0x8d, 0xbe, 0x1e, 0x8c, 0xa3, 0x3e, 0x9e, 0x43, 0x33, 0xbe, 
  0x66, 0x6d, 0x8e, 0x3e, 0x98, 0x15, 0xe4, 0xbd, 0xb0, 0x14, 0xa3, 0x3d, 
  0x3c, 0x49, 0x8b, 0x3e, 0x40, 0x17, 0xdb, 0xbd, 0xd8, 0xaf, 0x86, 0x3e, 
  0xa4, 0xd0, 0xad, 0xbd, 0x2d, 0xf2, 0xcb, 0xbe, 0x58, 0xd0, 0x6c, 0xbe, 
  0x20, 0x1e, 0xda, 0xbc, 0xdc, 0x7c, 0xca, 0x3e, 0xae, 0x39, 0x8a, 0x3e, 
  0xf0, 0x17, 0xe1, 0xbd, 0x00, 0x46, 0x28, 0x3c, 0x34, 0x1d, 0xa6, 0x3e, 
  0x00, 0x60, 0x6e, 0x3d, 0x18, 0xe2, 0x66, 0x3e, 0x31, 0x84, 0x7e, 0xbe, 
  0x86, 0x3a, 0x8b, 0xbe, 0x76, 0x88, 0xa1, 0x3e, 0xbe, 0x5d, 0xb1, 0x3e, 
  0xda, 0x4f, 0xb9, 0x3e, 0xfe, 0xcc, 0x9e, 0x3e, 0x36, 0xcd, 0x7b, 0xbe, 
  0xb0, 0x99, 0x04, 0xbe, 0x18, 0x97, 0x80, 0x3e, 0x12, 0xdb, 0x93, 0xbe, 
  0xf2, 0xef, 0xff, 0xff, 0x04, 0x00, 0x00, 0x00, 0x00, 0x10, 0x00, 0x00, 
  0xed, 0x2b, 0x8c, 0xbe, 0xd0, 0xf5, 0xcb, 0x3c, 0x43, 0x72, 0x0e, 0xbe, 
  0xb7, 0x1b, 0x4e, 0xbe, 0x80, 0xdb, 0x03, 0x3d, 0xde, 0xc4, 0x47, 0xbe, 
  0x8e, 0x94, 0xc2, 0xbd, 0x1a, 0x35, 0x6c, 0x3e, 0xda, 0x2d, 0x29, 0x3e, 
  0x61, 0xa5, 0x8e, 0x3e, 0xf0, 0x6b, 0x41, 0x3e, 0xa5, 0xc7, 0x60, 0xbe, 
  0x40, 0xdf, 0xe2, 0x3c, 0x48, 0x3f, 0x84, 0xbe, 0x3c, 0x67, 0x60, 0xbe, 
  0xc0, 0xfe, 0x6d, 0xbc, 0x1a, 0xf1, 0x98, 0xbd, 0xf6, 0x1d, 0x47, 0x3e, 
  0x24, 0x28, 0x91, 0xbd, 0x46, 0x14, 0x41, 0xbe, 0x43, 0x9c, 0x19, 0xbe, 
  0xba, 0x49, 0xe8, 0xbd, 0xa0, 0x23, 0x2c, 0x3e, 0xb8, 0xb6, 0x84, 0xbe, 
  0x2b, 0x2c, 0x29, 0xbe, 0xfb, 0x1c, 0x3f, 0xbe, 0x11, 0xb1, 0x86, 0x3e, 
  0xae, 0x85, 0x3f, 0xbe, 0xc1, 0x91, 0x43, 0xbe, 0xfc, 0xf2, 0x7d, 0xbd, 
  0x6e, 0x2c, 0x86, 0xbd, 0x3a, 0x64, 0x8a, 0xbe, 0xd9, 0x54, 0x98, 0x3e, 
  0xc4, 0x34, 0xd2, 0xbd, 0x46, 0x90, 0x6b, 0x3e, 0x59, 0x29, 0x93, 0x3e, 
  0xfe, 0xec, 0x7c, 0x3e, 0xce, 0xc9, 0x5e, 0x3e, 0xc0, 0xa8, 0x15, 0xbc, 
  0x26, 0x60, 0x7a, 0x3e, 0x40, 0x72, 0x26, 0xbd, 0x80, 0xfa, 0x0b, 0xbd, 
  0x40, 0x65, 0x5a, 0xbc, 0x40, 0x9a, 0x47, 0xbc, 0xbc, 0x65, 0x2b, 0x3e, 
  0xbe, 0x15, 0x97, 0xbe, 0xd4, 0xd2, 0x0a, 0x3e, 0xce, 0xf0, 0x94, 0xbe, 
  0x89, 0xd9, 0x26, 0xbe, 0xe8, 0x4b, 0x20, 0x3d, 0x3e, 0x03, 0xce, 0xbd, 
  0x82, 0x0c, 0xc3, 0xbd, 0x98, 0xca, 0xfb, 0x3d, 0xc8, 0xe6, 0xf1, 0x3d, 
  0x80, 0x32, 0x28, 0xbd, 0x5e, 0x4b, 0x7c, 0x3e, 0x20, 0x1c, 0x22, 0x3c, 
  0xe4, 0x82, 0x8e, 0xbd, 0x7c, 0x22, 0xbc, 0xbd, 0x74, 0xcf, 0x06, 0x3e, 
  0xa0, 0x30, 0xca, 0xbc, 0xa7, 0x01, 0x26, 0xbe, 0xb8, 0x70, 0xc8, 0xbd, 
  0xbc, 0x4f, 0x99, 0xbe, 0x70, 0xa5, 0x60, 0x3d, 0x1e, 0x85, 0x80, 0xbe, 
  0x6c, 0x8d, 0x2d, 0x3e, 0x8c, 0xc3, 0xcd, 0x3d, 0x0e, 0x68, 0xd2, 0xbd, 
  0xf1, 0x82, 0x89, 0x3e, 0x5c, 0x20, 0x14, 0xbe, 0x76, 0x49, 0x7b, 0x3e, 
  0x90, 0x2f, 0x5a, 0x3d, 0x56, 0x60, 0x65, 0xbe, 0xbc, 0xd1, 0x83, 0x3d, 
  0xc4, 0x50, 0xfb, 0x3d, 0xc8, 0xf5, 0x41, 0x3e, 0xa8, 0x9c, 0x88, 0xbe, 
  0xe4, 0xab, 0x63, 0xbe, 0xd4, 0x7b, 0xa7, 0x3d, 0x5d, 0xaf, 0x8e, 0x3e, 
  0xe2, 0x17, 0x68, 0x3e, 0x68, 0xa6, 0x43, 0x3e, 0x07, 0xbb, 0x98, 0x3e, 
  0x3e, 0xc4, 0x17, 0x3e, 0x6a, 0x7b, 0x16, 0x3e, 0x7e, 0xf2, 0x62, 0xbe, 
  0xd0, 0x6a, 0x37, 0xbd, 0x25, 0x85, 0x8e, 0x3e, 0xed, 0xeb, 0x80, 0x3e, 
  0xf8, 0x38, 0x4d, 0x3d, 0x76, 0xdf, 0x85, 0xbd, 0xa4, 0xb3, 0x86, 0xbe, 
  0x3d, 0x30, 0x86, 0x3e, 0xd0, 0x8c, 0x31, 0x3d, 0xb0, 0xee, 0x17, 0x3d, 
  0x90, 0x26, 0x88, 0xbc, 0x30, 0xbe, 0x00, 0x3d, 0x29, 0xd2, 0x84, 0x3e, 
  0xc0, 0x8d, 0xf9, 0xbc, 0x45, 0xf1, 0x85, 0x3e, 0x56, 0xd5, 0xf2, 0xbd, 
  0x58, 0xdc, 0x2c, 0x3d, 0x34, 0x4a, 0x15, 0x3e, 0x60, 0x42, 0xeb, 0x3d, 
  0x18, 0x2c, 0x0c, 0xbd, 0x10, 0xb9, 0x6a, 0x3d, 0xe0, 0xa6, 0xea, 0x3d, 
  0xc3, 0xba, 0x6f, 0xbe, 0x80, 0xa4, 0x97, 0xbe, 0xa8, 0x9f, 0x97, 0x3d, 
  0x20, 0xc2, 0xf9, 0x3c, 0xec, 0xa7, 0xff, 0x3d, 0x7c, 0x4e, 0xa8, 0xbd, 
  0x00, 0x75, 0xbc, 0x3a, 0xd5, 0xaf, 0x80, 0x3e, 0xbe, 0x18, 0xd5, 0xbd, 
  0x11, 0x1c, 0x9a, 0xbe, 0x0d, 0xfd, 0x93, 0x3e, 0x81, 0x79, 0x98, 0x3e, 
  0xba, 0x4e, 0x6a, 0xbe, 0x50, 0xfc, 0x84, 0xbd, 0x7b, 0x99, 0x67, 0xbe, 
  0x05, 0xa5, 0x86, 0x3e, 0x1e, 0xe5, 0x5e, 0xbe, 0x84, 0x1c, 0xcf, 0x3d, 
  0x46, 0x37, 0x79, 0x3e, 0x8f, 0x12, 0x85, 0xbe, 0xc0, 0x0f, 0x42, 0xbe, 
  0xef, 0x0d, 0x2d, 0xbe, 0x54, 0x81, 0x74, 0xbe, 0xc8, 0x09, 0x98, 0x3d, 
  0x06, 0xba, 0x6a, 0x3e, 0xc0, 0xec, 0xf6, 0xbc, 0xc0, 0x04, 0x32, 0x3d, 
  0xad, 0x4c, 0x7f, 0xbe, 0xe0, 0x7d, 0x62, 0xbe, 0xfa, 0xf9, 0x25, 0x3e, 
  0x50, 0xdd, 0xb4, 0x3c, 0x80, 0x49, 0x7c, 0xbb, 0x7f, 0xad, 0x31, 0xbe, 
  0x58, 0xad, 0x85, 0xbe, 0xdc, 0x07, 0x4d, 0xbe, 0xe0, 0x19, 0xd7, 0x3d, 
  0x26, 0xc2, 0x3f, 0x3e, 0x9f, 0x5c, 0x8e, 0x3e, 0x00, 0x23, 0xef, 0x3c, 
  0x14, 0xe6, 0x3a, 0x3e, 0x20, 0xd0, 0xa5, 0xbd, 0xf0, 0x2b, 0xf4, 0xbc, 
  0xed, 0x52, 0x91, 0x3e, 0x96, 0xea, 0x11, 0x3e, 0xec, 0x76, 0x97, 0x3d, 
  0xe4, 0x0f, 0xdb, 0x3d, 0x9f, 0x6b, 0x6c, 0xbe, 0x82, 0x71, 0x41, 0xbe, 
  0x4e, 0x85, 0x60, 0x3e, 0x93, 0x04, 0x94, 0x3e, 0x0d, 0x85, 0x02, 0xbe, 
  0x01, 0xf6, 0x91, 0x3e, 0xc3, 0x92, 0x86, 0x3e, 0xf6, 0x81, 0x9a, 0xbe, 
  0x90, 0xfa, 0x42, 0xbd, 0x7f, 0xd2, 0x30, 0xbe, 0x2a, 0x74, 0x67, 0x3e, 
  0x9e, 0x23, 0x1e, 0xbe, 0x2e, 0x3f, 0x95, 0xbd, 0x76, 0x46, 0xfa, 0xbd, 
  0x75, 0xa6, 0x52, 0xbe, 0xd4, 0x93, 0x0c, 0xbe, 0xa6, 0x4d, 0xe2, 0xbd, 
  0x63, 0xb1, 0x95, 0x3e, 0xb4, 0xaa, 0x1a, 0x3e, 0x05, 0x53, 0x84, 0x3e, 
  0x5e, 0x4d, 0x8d, 0xbe, 0xe8, 0x59, 0xeb, 0xbd, 0x7e, 0xc6, 0x0d, 0xbe, 
  0xe8, 0xb4, 0xce, 0xbd, 0xe4, 0xab, 0x28, 0x3e, 0xf6, 0xc5, 0xb6, 0xbd, 
  0xc0, 0x4a, 0x8f, 0x3d, 0x94, 0xd2, 0x90, 0xbe, 0xa0, 0xfd, 0xe1, 0x3d, 
  0x3c, 0x11, 0x9f, 0x3d, 0xde, 0x24, 0x45, 0x3e, 0x82, 0x63, 0x46, 0x3e, 
  0x7c, 0xfc, 0xcb, 0x3d, 0xea, 0x8a, 0x9a, 0xbe, 0x80, 0xda, 0x26, 0x3d, 
  0xac, 0xd6, 0x3e, 0xbe, 0x88, 0x00, 0xe3, 0x3d, 0x33, 0x0e, 0x9b, 0x3e, 
  0xea, 0x1e, 0x0f, 0xbe, 0xc0, 0x51, 0x0d, 0xbc, 0x92, 0xf4, 0xb5, 0xbd, 
  0x17, 0xea, 0x80, 0x3e, 0xe0, 0x46, 0x49, 0x3c, 0xe3, 0xf3, 0x8a, 0x3e, 
  0xea, 0xe4, 0xcc, 0xbd, 0x9b, 0x03, 0x91, 0xbe, 0x61, 0x06, 0x88, 0xbe, 
  0x78, 0x7c, 0xa2, 0xbd, 0x75, 0xd1, 0x6b, 0xbe, 0xb0, 0x00, 0x48, 0x3d, 
  0x44, 0x05, 0x97, 0xbe, 0x58, 0x63, 0x74, 0xbd, 0x0c, 0x11, 0xd9, 0x3d, 
  0xcc, 0xa5, 0xe3, 0x3d, 0x68, 0x15, 0xc5, 0x3d, 0x16, 0xcf, 0xac, 0xbd, 
  0x9c, 0x40, 0x67, 0xbe, 0x93, 0xe5, 0x2c, 0xbe, 0x80, 0x54, 0xa8, 0xbc, 
  0x83, 0x88, 0x13, 0xbe, 0xda, 0xa8, 0x51, 0x3e, 0xdf, 0xa1, 0x93, 0x3e, 
  0x9e, 0xb9, 0x3f, 0x3e, 0x10, 0x6a, 0xc5, 0x3d, 0x12, 0xc1, 0x70, 0x3e, 
  0x0e, 0x85, 0xab, 0xbd, 0xe7, 0xce, 0x8f, 0xbe, 0xc8, 0xcd, 0x16, 0xbd, 
  0x10, 0xcd, 0x66, 0x3d, 0x68, 0x43, 0x1e, 0xbd, 0x9a, 0xda, 0xb3, 0xbd, 
  0xe1, 0xcb, 0x3c, 0xbe, 0x18, 0x25, 0x3d, 0x3e, 0x6c, 0x8f, 0x47, 0xbe, 
  0x30, 0x0d, 0xf8, 0x3c, 0xb2, 0x59, 0x2d, 0x3e, 0x15, 0x77, 0x83, 0xbe, 
  0x88, 0x18, 0x8a, 0xbd, 0x40, 0x9c, 0x29, 0xbc, 0xcc, 0xad, 0x3a, 0x3e, 
  0xfe, 0xca, 0x92, 0xbe, 0xc0, 0x2a, 0x65, 0xbc, 0xd2, 0x65, 0x00, 0x3e, 
  0xbd, 0x9a, 0x2b, 0xbe, 0xde, 0xd7, 0x31, 0x3e, 0x2a, 0x92, 0x10, 0xbe, 
  0x08, 0x9d, 0xda, 0x3d, 0x20, 0x93, 0x10, 0x3c, 0xda, 0x74, 0x44, 0x3e, 
  0x80, 0x69, 0x68, 0xbc, 0x09, 0x49, 0x93, 0x3e, 0x31, 0x5c, 0x96, 0x3e, 
  0xad, 0x8c, 0x35, 0xbe, 0xae, 0x61, 0x24, 0xbe, 0xd6, 0x67, 0x7f, 0x3e, 
  0x86, 0x3a, 0x55, 0x3e, 0xd2, 0xf6, 0x66, 0x3e, 0xf1, 0x91, 0x07, 0xbe, 
  0xb2, 0x19, 0x53, 0x3e, 0x40, 0x12, 0x62, 0x3d, 0xfa, 0x20, 0x94, 0xbd, 
  0x90, 0x09, 0xcc, 0x3c, 0xfe, 0x22, 0x4d, 0x3e, 0x64, 0xbe, 0x0c, 0x3e, 
  0x59, 0x0c, 0x83, 0x3e, 0x10, 0x68, 0x57, 0x3d, 0xe7, 0xd4, 0x8f, 0xbe, 
  0x80, 0x0d, 0x75, 0x3d, 0x1e, 0x0c, 0x57, 0x3e, 0xe8, 0xf9, 0x81, 0xbd, 
  0xe0, 0x7d, 0x1d, 0xbe, 0x10, 0x7d, 0xd6, 0xbd, 0x1c, 0x61, 0x0b, 0x3e, 
  0xac, 0x5b, 0x8c, 0xbe, 0xf8, 0x6a, 0x68, 0xbe, 0x9a, 0xcf, 0x3d, 0x3e, 
  0xd9, 0x04, 0x0d, 0xbe, 0x3a, 0x86, 0x59, 0x3e, 0x44, 0xc5, 0x7e, 0xbd, 
  0xc2, 0xe1, 0x2d, 0x3e, 0x50, 0x58, 0x38, 0x3e, 0xbc, 0x35, 0x83, 0x3d, 
  0x12, 0x8d, 0x6e, 0xbe, 0x24, 0xb2, 0xc6, 0x3d, 0x90, 0x1e, 0x7c, 0xbe, 
  0x78, 0x7d, 0x9b, 0x3d, 0x30, 0x44, 0xf5, 0x3d, 0x0d, 0xd3, 0x89, 0x3e, 
  0xb8, 0x0f, 0x1c, 0xbd, 0x18, 0x58, 0x8d, 0x3d, 0x40, 0x1b, 0xcd, 0xbb, 
  0x92, 0xca, 0xc3, 0xbd, 0x71, 0x9d, 0x01, 0xbe, 0x34, 0xc8, 0x8a, 0xbe, 
  0xb8, 0x96, 0x30, 0xbd, 0x64, 0x61, 0x48, 0xbe, 0xca, 0xe7, 0x52, 0x3e, 
  0x5c, 0x88, 0x17, 0x3e, 0x58, 0xe5, 0x0c, 0x3d, 0x00, 0xde, 0x21, 0x3b, 
  0xb8, 0x77, 0x79, 0xbd, 0x4e, 0xe6, 0x7f, 0xbe, 0x44, 0x54, 0x3d, 0xbe, 
  0x22, 0xb9, 0x9e, 0xbd, 0xb4, 0xdd, 0x69, 0xbe, 0x28, 0x35, 0x99, 0x3d, 
  0x8f, 0x85, 0x93, 0x3e, 0xab, 0x6d, 0x81, 0x3e, 0x05, 0xb2, 0x60, 0xbe, 
  0x0e, 0x4d, 0x41, 0x3e, 0x02, 0xb3, 0xb9, 0xbd, 0xc2, 0x25, 0x59, 0x3e, 
  0x0c, 0x06, 0x27, 0x3e, 0xec, 0xf8, 0xb0, 0x3d, 0x46, 0x45, 0x3c, 0xbe, 
  0x0a, 0x7d, 0xe3, 0xbd, 0x90, 0xfe, 0x72, 0x3d, 0xb8, 0x76, 0xb4, 0x3d, 
  0x0e, 0x5f, 0x14, 0x3e, 0x1a, 0x68, 0x27, 0xbe, 0x2c, 0x51, 0x2c, 0x3e, 
  0xc6, 0xe5, 0xc6, 0xbd, 0xa3, 0x75, 0x96, 0x3e, 0x60, 0x89, 0xd9, 0x3d, 
  0xcc, 0xeb, 0xa1, 0x3d, 0x94, 0x72, 0x5c, 0xbe, 0x6d, 0x9a, 0x96, 0xbe, 
  0x58, 0x14, 0x15, 0x3d, 0x00, 0x00, 0xc9, 0xb8, 0xc0, 0x57, 0x72, 0xbc, 
  0x5e, 0xae, 0x76, 0x3e, 0xe6, 0xc4, 0x25, 0x3e, 0xdf, 0xb5, 0x8f, 0x3e, 
  0xe8, 0xa7, 0x62, 0x3d, 0x52, 0xa3, 0x47, 0x3e, 0x80, 0xb9, 0x1f, 0xbb, 
  0xda, 0xad, 0xc9, 0xbd, 0x70, 0xce, 0x4e, 0xbd, 0x24, 0x72, 0xd0, 0x3d, 
  0xe4, 0x3e, 0xe0, 0xbd, 0xf8, 0x3d, 0x54, 0xbd, 0xa4, 0x85, 0xcf, 0x3d, 
  0x3e, 0xcd, 0xce, 0xbd, 0xb9, 0x55, 0x82, 0x3e, 0xea, 0x53, 0x0e, 0xbe, 
  0xfc, 0x22, 0x96, 0xbe, 0xfc, 0x43, 0x70, 0xbd, 0x02, 0xd5, 0x90, 0xbe, 
  0x08, 0x82, 0xb7, 0x3d, 0x53, 0x34, 0x9a, 0x3e, 0x46, 0x36, 0x9a, 0xbd, 
  0xa0, 0x75, 0x1e, 0xbd, 0x2e, 0xba, 0x3a, 0xbe, 0x28, 0x4e, 0xea, 0x3d, 
  0xa4, 0xce, 0xd0, 0x3d, 0x6c, 0xae, 0xe0, 0xbd, 0xc8, 0x0a, 0xf5, 0xbd, 
  0x6b, 0xa8, 0x25, 0xbe, 0x3d, 0xd2, 0x2f, 0xbe, 0xf8, 0xbc, 0xb6, 0x3d, 
  0x50, 0x3b, 0x1a, 0x3d, 0x58, 0x53, 0xd2, 0xbd, 0x8c, 0x9e, 0xba, 0xbd, 
  0x26, 0x17, 0x82, 0xbd, 0x94, 0x5e, 0xd8, 0xbd, 0x9f, 0x4d, 0x86, 0x3e, 
  0xd9, 0xa2, 0x80, 0x3e, 0xc8, 0x8d, 0x65, 0x3d, 0x2d, 0x3b, 0x87, 0xbe, 
  0xdc, 0x76, 0x6c, 0xbd, 0xf3, 0x02, 0x87, 0x3e, 0x84, 0xab, 0xe0, 0xbd, 
  0x3e, 0x41, 0x20, 0xbe, 0xe6, 0x8b, 0x47, 0xbe, 0x3d, 0x3b, 0x94, 0xbe, 
  0x40, 0x3c, 0x99, 0x3c, 0x34, 0xd7, 0xbb, 0x3d, 0x60, 0x8b, 0x55, 0xbc, 
  0x1c, 0xdd, 0x65, 0xbe, 0x76, 0xd5, 0x50, 0x3e, 0xcd, 0x76, 0x97, 0xbe, 
  0x84, 0xbb, 0x88, 0x3d, 0xed, 0x10, 0x8d, 0xbe, 0x7c, 0x7d, 0x85, 0x3d, 
  0x18, 0x18, 0x0e, 0x3e, 0x64, 0x44, 0x64, 0xbe, 0x0a, 0xba, 0x69, 0x3e, 
  0x80, 0xe3, 0x93, 0x3d, 0xbc, 0xf5, 0xd6, 0x3d, 0x4e, 0x4f, 0x5c, 0x3e, 
  0x6e, 0x00, 0x6d, 0x3e, 0x3a, 0x24, 0x5b, 0x3e, 0xff, 0x0c, 0x91, 0x3e, 
  0x9c, 0x7a, 0xcd, 0x3d, 0x9e, 0x26, 0x91, 0xbe, 0x50, 0xb4, 0x1e, 0xbd, 
  0x5e, 0xa1, 0x68, 0x3e, 0xd4, 0xa3, 0x9c, 0x3d, 0x56, 0xbd, 0x57, 0x3e, 
  0x30, 0x3b, 0xf3, 0x3d, 0xf6, 0x4f, 0x69, 0x3e, 0xfa, 0x6f, 0x89, 0xbe, 
  0x54, 0x6d, 0xe4, 0x3d, 0x36, 0x62, 0x5b, 0xbe, 0x9d, 0x13, 0x27, 0xbe, 
  0x38, 0x31, 0x70, 0xbe, 0x1e, 0x46, 0x6b, 0x3e, 0x64, 0x30, 0x7b, 0xbd, 
  0xa8, 0x91, 0x3f, 0xbe, 0x36, 0xc0, 0x61, 0x3e, 0xc0, 0x43, 0x2a, 0xbc, 
  0x50, 0x97, 0x44, 0x3e, 0x15, 0xe2, 0x2b, 0xbe, 0x0c, 0x4b, 0x84, 0xbe, 
  0x7e, 0x07, 0x53, 0x3e, 0x30, 0x63, 0x2f, 0xbe, 0xb0, 0x5d, 0x4f, 0xbe, 
  0xcf, 0xa7, 0x81, 0x3e, 0xc0, 0x32, 0xcb, 0x3d, 0x16, 0x2b, 0x6e, 0x3e, 
  0xba, 0xc8, 0x33, 0x3e, 0xe0, 0x6c, 0x4a, 0xbd, 0xfb, 0x2f, 0x09, 0xbe, 
  0x46, 0x5e, 0x8f, 0xbd, 0x4c, 0x2f, 0x2e, 0xbe, 0xa0, 0x9e, 0xf7, 0xbc, 
  0x40, 0x89, 0x63, 0xbe, 0x42, 0x37, 0xb4, 0xbd, 0xd9, 0x43, 0x96, 0x3e, 
  0xb0, 0xbd, 0xc9, 0x3d, 0xc2, 0x01, 0x74, 0xbe, 0x1b, 0xf6, 0x8c, 0x3e, 
  0xa0, 0xf8, 0xdf, 0xbd, 0xca, 0xe3, 0x83, 0xbe, 0x6a, 0x6c, 0x6f, 0x3e, 
  0x74, 0x9d, 0x8a, 0xbe, 0x2f, 0xc7, 0x26, 0xbe, 0x68, 0x85, 0x74, 0xbd, 
  0xaa, 0x13, 0x32, 0x3e, 0x48, 0x41, 0x25, 0x3d, 0x29, 0x58, 0x8c, 0x3e, 
  0x70, 0x80, 0x20, 0x3d, 0x78, 0xf6, 0x1b, 0x3d, 0x79, 0xc8, 0x8d, 0x3e, 
  0x7d, 0xf9, 0x31, 0xbe, 0xf3, 0xef, 0x8d, 0x3e, 0xf2, 0xc0, 0x71, 0x3e, 
  0x6b, 0x4e, 0x6a, 0xbe, 0xa1, 0x09, 0x93, 0x3e, 0x68, 0x9b, 0x91, 0xbe, 
  0x97, 0x56, 0x8b, 0x3e, 0xb4, 0xc9, 0x16, 0xbe, 0x6b, 0x56, 0x92, 0x3e, 
  0xe4, 0xa2, 0x2d, 0x3e, 0x8e, 0xbe, 0x77, 0x3e, 0xc0, 0x9d, 0xc5, 0xbc, 
  0x00, 0xf6, 0x82, 0xba, 0x3c, 0x53, 0xe2, 0xbd, 0x98, 0xd7, 0x5f, 0xbe, 
  0xd2, 0x7b, 0x89, 0xbe, 0x2f, 0x6c, 0x81, 0xbe, 0x1e, 0x3b, 0x78, 0xbe, 
  0xb0, 0x2a, 0x2e, 0x3d, 0xa0, 0x3f, 0x45, 0xbd, 0xbc, 0x86, 0xd5, 0x3d, 
  0xe2, 0x98, 0x63, 0x3e, 0x70, 0xaf, 0xbe, 0x3c, 0xa2, 0x1d, 0x0d, 0xbe, 
  0x43, 0x80, 0x95, 0x3e, 0xd6, 0xb8, 0xba, 0xbd, 0x0f, 0x1a, 0x98, 0x3e, 
  0x30, 0x94, 0x1a, 0x3d, 0xd8, 0x7a, 0x48, 0x3d, 0x56, 0x29, 0x4c, 0x3e, 
  0x2b, 0xff, 0x2b, 0xbe, 0xa0, 0x21, 0x37, 0xbd, 0xbf, 0x39, 0x9a, 0xbe, 
  0x9f, 0x15, 0x83, 0x3e, 0x36, 0x52, 0x2d, 0xbe, 0x28, 0x3d, 0x63, 0xbd, 
  0xfa, 0xf5, 0x02, 0x3e, 0x28, 0xe4, 0xff, 0x3d, 0x00, 0xa2, 0x8a, 0x3b, 
  0xfa, 0x28, 0x0f, 0x3e, 0x78, 0x10, 0x55, 0x3d, 0x00, 0x36, 0x72, 0xbe, 
  0x0e, 0x69, 0x86, 0xbd, 0xef, 0xb4, 0x8c, 0xbe, 0x94, 0x33, 0xde, 0x3d, 
  0xda, 0xa1, 0x25, 0x3e, 0xb8, 0xc8, 0x1d, 0xbe, 0x10, 0xef, 0xe8, 0x3d, 
  0x00, 0x82, 0x66, 0x3c, 0xe8, 0x8f, 0x8d, 0xbe, 0x6e, 0xba, 0x46, 0x3e, 
  0xa0, 0x2d, 0x66, 0x3d, 0x9e, 0x92, 0x04, 0x3e, 0x30, 0x5b, 0x6d, 0xbd, 
  0x09, 0x3c, 0x4e, 0xbe, 0x80, 0x5d, 0xf5, 0x3c, 0x32, 0xd3, 0x22, 0x3e, 
  0x46, 0x56, 0x58, 0x3e, 0x3e, 0x45, 0x1e, 0x3e, 0x00, 0x10, 0xae, 0xbb, 
  0x30, 0x84, 0xa5, 0xbc, 0x48, 0xa0, 0x82, 0x3d, 0xbe, 0xeb, 0x57, 0xbe, 
  0x28, 0xff, 0x8c, 0xbe, 0x7a, 0xe5, 0x60, 0xbe, 0x70, 0xfa, 0x28, 0x3d, 
  0x04, 0x83, 0x67, 0xbe, 0xc0, 0xd5, 0x55, 0xbc, 0x46, 0xc5, 0x77, 0x3e, 
  0x7e, 0x0d, 0xb3, 0xbd, 0x75, 0xcd, 0x99, 0x3e, 0xb6, 0x70, 0xa1, 0xbd, 
  0x1e, 0xe7, 0x88, 0xbe, 0xd0, 0x0b, 0x31, 0x3e, 0xb6, 0x34, 0x11, 0xbe, 
  0xd8, 0x02, 0x60, 0xbd, 0x6c, 0x70, 0xef, 0x3d, 0xaf, 0x3a, 0x91, 0x3e, 
  0x26, 0xc4, 0x25, 0xbe, 0x9c, 0x25, 0x3b, 0xbe, 0x4a, 0xb5, 0xc3, 0xbd, 
  0x9a, 0x39, 0x5d, 0xbe, 0x8a, 0x6d, 0xad, 0xbd, 0x7c, 0xc4, 0xea, 0x3d, 
  0xe0, 0xd5, 0x12, 0xbc, 0x2c, 0xf8, 0xe7, 0xbd, 0x79, 0x5c, 0x39, 0xbe, 
  0x0a, 0x36, 0x79, 0x3e, 0x37, 0x34, 0x85, 0x3e, 0x40, 0x3f, 0xf1, 0x3d, 
  0xae, 0xa7, 0x87, 0xbd, 0x5c, 0xba, 0xa9, 0x3d, 0xb6, 0x21, 0x1b, 0x3e, 
  0xaa, 0xe4, 0x61, 0xbe, 0x40, 0x5e, 0x9a, 0xbb, 0x12, 0xef, 0xb2, 0xbd, 
  0xe7, 0x1c, 0x8d, 0x3e, 0x40, 0x41, 0x6d, 0x3c, 0xf6, 0xcd, 0xe4, 0xbd, 
  0x70, 0x91, 0xd4, 0x3c, 0x0e, 0xc5, 0x8d, 0xbd, 0xa8, 0xe2, 0x9a, 0xbe, 
  0x95, 0x1f, 0x28, 0xbe, 0x86, 0x1c, 0x71, 0x3e, 0x08, 0x7d, 0x27, 0x3d, 
  0x44, 0x61, 0x80, 0x3d, 0x88, 0xb5, 0x5f, 0xbd, 0x26, 0x30, 0x91, 0xbe, 
  0x18, 0x9b, 0x00, 0xbe, 0xb5, 0xf0, 0x86, 0x3e, 0x28, 0x78, 0xe1, 0x3d, 
  0x60, 0x66, 0x74, 0xbc, 0x79, 0xa8, 0x7b, 0xbe, 0x60, 0x2f, 0x86, 0x3d, 
  0xe0, 0xbb, 0x1d, 0xbc, 0x03, 0x7d, 0x82, 0xbe, 0x30, 0x3b, 0x10, 0xbe, 
  0xe4, 0xe9, 0xc5, 0x3d, 0x8a, 0x6d, 0xdb, 0xbd, 0xa4, 0x6e, 0x04, 0xbe, 
  0xf0, 0xdb, 0x48, 0xbe, 0x46, 0xda, 0x50, 0x3e, 0x60, 0x2c, 0x8d, 0xbc, 
  0x43, 0xa6, 0x80, 0xbe, 0xea, 0x14, 0x25, 0x3e, 0x40, 0x9c, 0x8c, 0xbd, 
  0x06, 0x1f, 0x5f, 0x3e, 0xf4, 0x30, 0x29, 0x3e, 0xbf, 0x84, 0x9a, 0xbe, 
  0x6f, 0x49, 0x20, 0xbe, 0xa0, 0x65, 0x6d, 0x3c, 0x84, 0xbf, 0xea, 0xbd, 
  0x60, 0xde, 0x35, 0xbc, 0xb0, 0x34, 0xe2, 0xbc, 0x98, 0xd4, 0x1c, 0xbd, 
  0x74, 0xc5, 0x05, 0x3e, 0x88, 0x7b, 0x00, 0x3d, 0x42, 0xd8, 0x64, 0xbe, 
  0xb8, 0x1c, 0x8f, 0x3d, 0xac, 0x6a, 0xc5, 0x3d, 0x00, 0x4a, 0x30, 0x3c, 
  0x94, 0x19, 0x17, 0x3e, 0x56, 0x81, 0x7d, 0x3e, 0xf0, 0x1b, 0xfa, 0x3d, 
  0x51, 0x8f, 0x4a, 0xbe, 0xe0, 0x3a, 0x27, 0x3d, 0xc1, 0x12, 0x91, 0xbe, 
  0xc0, 0x83, 0x54, 0xbc, 0xf0, 0x67, 0x56, 0x3d, 0xe6, 0x7b, 0x61, 0x3e, 
  0x86, 0x74, 0xb3, 0xbd, 0x04, 0xa7, 0xca, 0x3d, 0x18, 0x7f, 0x42, 0x3d, 
  0x42, 0xf1, 0x90, 0xbd, 0x39, 0xea, 0x93, 0x3e, 0xf8, 0x01, 0x0d, 0xbd, 
  0xb8, 0xf9, 0xda, 0x3d, 0x00, 0x85, 0xa9, 0xbb, 0xd2, 0xfc, 0x0d, 0x3e, 
  0xc0, 0xd9, 0x6a, 0x3c, 0xda, 0xa3, 0x61, 0xbe, 0x02, 0xf1, 0x4a, 0x3e, 
  0x02, 0x1b, 0x6d, 0x3e, 0x4f, 0xbe, 0x83, 0x3e, 0x58, 0x0c, 0x78, 0xbe, 
  0xda, 0x1b, 0x76, 0x3e, 0x08, 0xf8, 0x5b, 0xbe, 0xa0, 0x20, 0x10, 0x3c, 
  0x40, 0xe0, 0xe9, 0xbb, 0xbc, 0x4a, 0x82, 0x3d, 0xa6, 0xe6, 0x47, 0x3e, 
  0x2e, 0xc2, 0xf0, 0xbd, 0x6c, 0xac, 0x86, 0x3d, 0xb0, 0xb1, 0xde, 0x3d, 
  0x86, 0x8b, 0x4d, 0x3e, 0xaf, 0x7d, 0x86, 0xbe, 0x86, 0x2c, 0x13, 0xbe, 
  0x00, 0x62, 0xae, 0xbb, 0x5c, 0x26, 0x7b, 0xbd, 0x26, 0x84, 0x4b, 0xbe, 
  0xb0, 0x71, 0x68, 0xbe, 0xea, 0x13, 0x4f, 0xbe, 0x7c, 0xa9, 0x49, 0xbe, 
  0x14, 0x9e, 0x2a, 0x3e, 0x38, 0xcf, 0x66, 0x3d, 0x10, 0xd8, 0xe8, 0x3d, 
  0x20, 0x12, 0x0a, 0x3d, 0xc0, 0xc1, 0xd5, 0xbc, 0x77, 0x82, 0x11, 0xbe, 
  0xac, 0x9f, 0xbf, 0x3d, 0x73, 0x76, 0x98, 0xbe, 0x90, 0x87, 0x8b, 0x3c, 
  0x60, 0xda, 0xc6, 0x3c, 0x9f, 0xbc, 0x8d, 0x3e, 0x2e, 0x72, 0x69, 0x3e, 
  0xdc, 0xc4, 0x29, 0x3e, 0xaa, 0x59, 0x54, 0xbe, 0x7e, 0xcc, 0x3a, 0xbe, 
  0x29, 0xba, 0x92, 0xbe, 0x60, 0x7b, 0xde, 0xbc, 0x6f, 0xeb, 0x21, 0xbe, 
  0xd6, 0x95, 0x72, 0x3e, 0xf6, 0x70, 0x8e, 0xbe, 0xa8, 0x9b, 0xde, 0x3d, 
  0x4c, 0x26, 0x4e, 0xbe, 0xf7, 0xa3, 0x91, 0x3e, 0x58, 0x5a, 0x9c, 0x3d, 
  0x4c, 0x01, 0xb0, 0xbd, 0x00, 0xe3, 0x6c, 0xbc, 0x06, 0xf1, 0x72, 0x3e, 
  0x90, 0xc5, 0xf6, 0xbc, 0x9c, 0x26, 0x32, 0xbe, 0x48, 0x55, 0x4d, 0x3d, 
  0xd6, 0xb4, 0xe6, 0xbd, 0x70, 0x08, 0xdc, 0x3c, 0x9e, 0xa7, 0x93, 0xbe, 
  0x94, 0x46, 0x9d, 0x3d, 0x1c, 0x3b, 0x06, 0xbe, 0x73, 0xf0, 0x8f, 0xbe, 
  0x32, 0x65, 0x67, 0x3e, 0x50, 0x0d, 0xa7, 0x3c, 0x62, 0x4b, 0x0d, 0x3e, 
  0xca, 0x56, 0x9c, 0xbd, 0x1a, 0x52, 0x6b, 0x3e, 0x42, 0x0c, 0x15, 0x3e, 
  0xde, 0x81, 0x88, 0xbe, 0x36, 0xfb, 0x81, 0xbe, 0xaa, 0x3e, 0x49, 0xbe, 
  0xc9, 0x0e, 0x84, 0x3e, 0xd0, 0xbe, 0x4e, 0xbd, 0x1a, 0x5c, 0x84, 0xbd, 
  0x14, 0x63, 0x69, 0xbe, 0x4c, 0xc6, 0xdc, 0x3d, 0xb8, 0x08, 0x20, 0xbd, 
  0xd0, 0x01, 0x9e, 0x3c, 0xce, 0xa1, 0x26, 0x3e, 0xa1, 0x2d, 0x90, 0x3e, 
  0x0c, 0xb1, 0xf6, 0x3d, 0x6a, 0x75, 0x58, 0xbe, 0x06, 0x26, 0x23, 0xbe, 
  0xf0, 0x61, 0xb4, 0xbc, 0x42, 0x90, 0x88, 0xbe, 0xb9, 0x36, 0x80, 0xbe, 
  0x98, 0x61, 0xe6, 0x3d, 0x5e, 0x93, 0x8c, 0xbd, 0x37, 0xba, 0x8a, 0x3e, 
  0x0a, 0x68, 0x0a, 0x3e, 0x80, 0x85, 0x56, 0xbd, 0x6a, 0x93, 0x22, 0xbe, 
  0xa0, 0xc5, 0x43, 0x3d, 0xfd, 0xc4, 0x08, 0xbe, 0x16, 0x91, 0x60, 0xbe, 
  0x54, 0xc0, 0xf6, 0x3d, 0x05, 0xcd, 0x2c, 0xbe, 0xe8, 0xd1, 0x68, 0xbd, 
  0x3e, 0xad, 0x69, 0x3e, 0x40, 0xd0, 0x91, 0x3c, 0x8f, 0x73, 0x60, 0xbe, 
  0x3a, 0x62, 0x6e, 0x3e, 0xae, 0x40, 0x36, 0x3e, 0xc1, 0xd7, 0x89, 0xbe, 
  0xe2, 0x4e, 0x95, 0xbe, 0x9e, 0x18, 0x24, 0xbe, 0x15, 0xf1, 0x89, 0x3e, 
  0xb0, 0x3c, 0x0f, 0x3e, 0x38, 0xd6, 0xfa, 0x3d, 0x70, 0xb7, 0xa7, 0x3c, 
  0x4f, 0x9c, 0x81, 0x3e, 0x40, 0x63, 0x15, 0xbc, 0x8b, 0xef, 0x28, 0xbe, 
  0xe0, 0x85, 0x77, 0x3c, 0x78, 0x08, 0x9b, 0xbd, 0x4a, 0xf2, 0xd9, 0xbd, 
  0xbe, 0xb8, 0x74, 0x3e, 0x76, 0x5d, 0xcf, 0xbd, 0xd2, 0xcd, 0x6f, 0xbe, 
  0x7b, 0x2d, 0x04, 0xbe, 0xde, 0x62, 0x4a, 0x3e, 0x00, 0xde, 0xc9, 0xbd, 
  0xe0, 0x11, 0x3d, 0xbc, 0x38, 0xaf, 0x66, 0x3d, 0xac, 0x2e, 0x84, 0x3d, 
  0x73, 0xe5, 0x10, 0xbe, 0xe4, 0xfa, 0x15, 0xbe, 0x2c, 0x85, 0xb6, 0x3d, 
  0x80, 0xfd, 0x53, 0x3b, 0xf8, 0x71, 0xda, 0x3d, 0x32, 0x61, 0x4e, 0x3e, 
  0x78, 0xbe, 0x0e, 0x3e, 0x98, 0x65, 0xe1, 0x3d, 0x76, 0xd1, 0x92, 0xbe, 
  0xc4, 0x08, 0xb8, 0x3d, 0xd8, 0x6e, 0x07, 0xbd, 0x26, 0x9e, 0x70, 0x3e, 
  0xda, 0x37, 0xa6, 0xbd, 0x54, 0x80, 0xb5, 0x3d, 0x78, 0x9a, 0xac, 0x3d, 
  0xc2, 0x15, 0x63, 0x3e, 0x58, 0x5b, 0x50, 0xbe, 0xfe, 0xfc, 0x8d, 0xbe, 
  0x26, 0xbd, 0x5b, 0x3e, 0xd8, 0x4a, 0x70, 0xbe, 0x48, 0x1e, 0x18, 0x3d, 
  0xd0, 0xa0, 0xfb, 0x3c, 0x76, 0x7c, 0x63, 0x3e, 0x60, 0xed, 0x13, 0x3c, 
  0xea, 0x3a, 0x5b, 0x3e, 0xb0, 0xf7, 0x81, 0x3d, 0x10, 0xd9, 0xea, 0x3c, 
  0x90, 0x7c, 0x7c, 0xbe, 0x3e, 0xfa, 0x00, 0xbe, 0xc8, 0xfc, 0xd6, 0xbd, 
  0xd2, 0x11, 0x86, 0xbe, 0x69, 0x9a, 0x86, 0x3e, 0x38, 0xa6, 0x39, 0xbd, 
  0xf0, 0x45, 0x08, 0x3e, 0xc0, 0x07, 0x85, 0x3b, 0xf4, 0xaa, 0xaf, 0x3d, 
  0x5e, 0xd3, 0x5f, 0xbe, 0xf0, 0xb6, 0xea, 0x3d, 0x9c, 0xcd, 0xcc, 0xbd, 
  0xf6, 0xe4, 0x70, 0x3e, 0x98, 0xc2, 0x80, 0xbd, 0x00, 0x54, 0xf8, 0x3a, 
  0x04, 0x38, 0x18, 0x3e, 0x83, 0xf6, 0x88, 0x3e, 0xd0, 0x4e, 0xd0, 0xbd, 
  0xc8, 0x70, 0x2a, 0x3e, 0xf8, 0x28, 0x2a, 0x3d, 0x31, 0x24, 0x87, 0xbe, 
  0xb6, 0x9d, 0x78, 0x3e, 0x00, 0x8b, 0xff, 0x3c, 0x4f, 0x02, 0x99, 0xbe, 
  0xcc, 0x4d, 0x0b, 0xbe, 0xdb, 0x6a, 0x0c, 0xbe, 0xe5, 0xa3, 0x24, 0xbe, 
  0x4e, 0xbd, 0x20, 0x3e, 0x74, 0x65, 0xf1, 0x3d, 0x2e, 0xd7, 0x4a, 0x3e, 
  0xc2, 0x46, 0x5a, 0x3e, 0x83, 0x7f, 0x87, 0x3e, 0x4e, 0xc0, 0xce, 0xbd, 
  0x22, 0x50, 0x15, 0x3e, 0x5a, 0x85, 0x63, 0x3e, 0x40, 0x81, 0x6f, 0xbd, 
  0x7a, 0x8c, 0x6e, 0x3e, 0x15, 0x31, 0x0a, 0xbe, 0xe7, 0xaa, 0x91, 0x3e, 
  0x7b, 0x30, 0x8a, 0x3e, 0x80, 0x2e, 0x8f, 0x3c, 0x30, 0xfd, 0xaf, 0x3c, 
  0x43, 0xf2, 0x9b, 0x3e, 0x08, 0x27, 0x13, 0xbe, 0x22, 0x79, 0x34, 0x3e, 
  0x19, 0xd1, 0x47, 0xbe, 0x36, 0xd8, 0x5a, 0x3e, 0xb6, 0x2a, 0x50, 0x3e, 
  0x18, 0xdc, 0x32, 0xbd, 0x88, 0x01, 0xf6, 0x3d, 0x00, 0x29, 0xb0, 0x3b, 
  0xec, 0x76, 0x9b, 0x3d, 0x80, 0xb5, 0x11, 0x3e, 0x10, 0x0e, 0xec, 0xbd, 
  0xa8, 0x97, 0x78, 0xbd, 0xa2, 0x9d, 0x6d, 0xbe, 0x21, 0x37, 0x99, 0x3e, 
  0x3c, 0x02, 0xe0, 0x3d, 0xac, 0xc2, 0x3e, 0x3e, 0x7a, 0x79, 0x21, 0xbe, 
  0xda, 0xbf, 0x3b, 0xbe, 0x36, 0xd2, 0x68, 0xbe, 0x00, 0x0f, 0x8d, 0xbb, 
  0xb6, 0xe9, 0x66, 0xbe, 0xe8, 0x0c, 0x73, 0xbe, 0x6c, 0x6a, 0x44, 0xbe, 
  0x58, 0x80, 0x53, 0xbe, 0x60, 0x89, 0xa2, 0x3d, 0x8d, 0xa6, 0x84, 0xbe, 
  0x00, 0x86, 0x55, 0x3a, 0x0b, 0xd8, 0x97, 0x3e, 0xb8, 0x06, 0x3e, 0x3e, 
  0xb0, 0x77, 0x9d, 0x3c, 0x8e, 0xc4, 0x6e, 0x3e, 0x61, 0x29, 0x0b, 0xbe, 
  0xa0, 0x82, 0x46, 0x3c, 0x06, 0xc4, 0x5b, 0x3e, 0xf4, 0xe0, 0xd5, 0x3d, 
  0x31, 0x5d, 0x1d, 0xbe, 0x76, 0x04, 0x72, 0x3e, 0xba, 0xc2, 0x4e, 0x3e, 
  0x58, 0x55, 0x89, 0x3d, 0x90, 0xbb, 0xe3, 0x3c, 0x28, 0xd8, 0x76, 0x3d, 
  0x20, 0x57, 0xd2, 0x3c, 0xe0, 0x94, 0xba, 0xbc, 0x48, 0x1c, 0x03, 0xbd, 
  0x02, 0x14, 0x28, 0x3e, 0x1c, 0xf6, 0x19, 0xbe, 0x88, 0x54, 0xde, 0x3d, 
  0x4e, 0x77, 0xb9, 0xbd, 0x80, 0x72, 0x23, 0xbd, 0x10, 0x66, 0xb5, 0x3c, 
  0xec, 0x9c, 0x1e, 0x3e, 0xc0, 0x2a, 0xe1, 0x3c, 0x4a, 0x36, 0x50, 0x3e, 
  0xa4, 0xbf, 0xeb, 0xbd, 0xe8, 0xef, 0x2e, 0x3e, 0x98, 0xee, 0x36, 0x3e, 
  0x1a, 0x44, 0x32, 0xbe, 0x80, 0xa5, 0x5f, 0x3c, 0xd5, 0xc0, 0x92, 0xbe, 
  0x48, 0x42, 0x0d, 0xbd, 0xe7, 0x5d, 0x25, 0xbe, 0x29, 0x60, 0x6e, 0xbe, 
  0xe0, 0xba, 0xe0, 0xbc, 0xf1, 0x3f, 0x8a, 0x3e, 0x54, 0x2e, 0xdc, 0x3d, 
  0x80, 0xe4, 0xda, 0xbc, 0xc8, 0x5a, 0x1a, 0xbd, 0x0f, 0xa6, 0x8d, 0x3e, 
  0xdc, 0x9c, 0x2b, 0x3e, 0xd6, 0x9e, 0x65, 0xbe, 0x30, 0x67, 0x83, 0xbd, 
  0xc8, 0xb4, 0xec, 0xbd, 0x40, 0x1a, 0x64, 0x3c, 0xee, 0x37, 0x51, 0x3e, 
  0x8b, 0x83, 0x29, 0xbe, 0x3c, 0xfc, 0x80, 0xbd, 0xfa, 0x46, 0x3a, 0x3e, 
  0xa4, 0xeb, 0x99, 0xbe, 0x22, 0x2a, 0x82, 0xbe, 0xd8, 0xba, 0xde, 0x3d, 
  0xf8, 0xd1, 0x14, 0x3e, 0x80, 0xed, 0xc7, 0x3b, 0x2a, 0x8f, 0x2d, 0x3e, 
  0xbd, 0x9d, 0x02, 0xbe, 0xdf, 0xad, 0x1f, 0xbe, 0x00, 0xb5, 0xd6, 0xbc, 
  0xb3, 0xa6, 0x14, 0xbe, 0x41, 0x31, 0x51, 0xbe, 0x84, 0xe9, 0xd8, 0xbd, 
  0xa0, 0x6e, 0x35, 0x3d, 0xf2, 0x4e, 0x8d, 0xbe, 0x28, 0xaf, 0xf7, 0x3d, 
  0xf8, 0x4b, 0x62, 0xbd, 0x0b, 0x6b, 0x93, 0x3e, 0xd8, 0x54, 0xb3, 0x3d, 
  0x42, 0x42, 0x3b, 0xbe, 0x44, 0x0a, 0xae, 0x3d, 0x26, 0x4a, 0xfb, 0xbd, 
  0x70, 0x84, 0x96, 0x3c, 0xa4, 0x16, 0x1e, 0x3e, 0x60, 0x25, 0x07, 0xbd, 
  0x80, 0xd2, 0x04, 0x3e, 0x10, 0x4a, 0x6a, 0x3d, 0x7f, 0x84, 0x93, 0x3e, 
  0xef, 0xa3, 0x9b, 0x3e, 0x48, 0x9e, 0x18, 0xbd, 0x11, 0x3f, 0x97, 0x3e, 
  0x48, 0x0f, 0x2e, 0xbe, 0xf0, 0x8e, 0xcf, 0xbc, 0x3e, 0x8d, 0x02, 0x3e, 
  0xf0, 0x2e, 0xba, 0x3d, 0x62, 0x57, 0x67, 0x3e, 0xf8, 0xea, 0x5a, 0xbe, 
  0x04, 0x1b, 0x02, 0xbe, 0xd1, 0x8c, 0x88, 0x3e, 0xa0, 0x33, 0x5c, 0x3c, 
  0x49, 0x26, 0x83, 0x3e, 0xd8, 0x77, 0xe4, 0x3d, 0x9c, 0xed, 0x3b, 0x3e, 
  0xc7, 0xf3, 0x87, 0x3e, 0x0e, 0x9f, 0x2a, 0x3e, 0x15, 0xcd, 0x1f, 0xbe, 
  0x98, 0x56, 0x1c, 0xbd, 0xe2, 0x75, 0x76, 0xbe, 0xbc, 0xa4, 0xd8, 0xbd, 
  0x7c, 0xd9, 0x1f, 0xbe, 0x9d, 0xe1, 0x81, 0xbe, 0x38, 0x4e, 0x02, 0xbd, 
  0x40, 0x4c, 0x9d, 0xbc, 0x9d, 0x33, 0x98, 0x3e, 0x68, 0xcd, 0x27, 0x3d, 
  0xee, 0xea, 0x47, 0xbe, 0xc0, 0x00, 0xc8, 0x3c, 0xdc, 0xc4, 0x98, 0xbd, 
  0x18, 0x70, 0x3f, 0x3e, 0xa0, 0x7a, 0x61, 0x3d, 0x76, 0x81, 0x14, 0xbe, 
  0xc6, 0x57, 0x36, 0xbe, 0x20, 0x07, 0x0c, 0xbd, 0x90, 0x14, 0x95, 0x3c, 
  0x4a, 0xe5, 0x38, 0x3e, 0x74, 0x7d, 0x00, 0x3e, 0x4a, 0x4d, 0x5b, 0x3e, 
  0x4b, 0x26, 0x5d, 0xbe, 0xee, 0x0e, 0x5b, 0x3e, 0xd6, 0x44, 0x40, 0x3e, 
  0x04, 0x56, 0x89, 0xbe, 0x80, 0x9f, 0x7b, 0xbc, 0x32, 0x64, 0x0a, 0xbe, 
  0xa6, 0x7e, 0xc8, 0xbd, 0x30, 0xda, 0x32, 0xbe, 0x4d, 0xa4, 0x9c, 0x3e, 
  0x11, 0x49, 0x97, 0xbe, 0x0a, 0x2d, 0x91, 0xbe, 0x49, 0xa4, 0x8d, 0x3e, 
  0x98, 0x93, 0x9c, 0xbe, 0x95, 0xc3, 0x85, 0xbe, 0x80, 0x01, 0x3e, 0xbd, 
  0x42, 0xd9, 0x90, 0xbd, 0x44, 0x76, 0x9a, 0xbe, 0xc8, 0xe7, 0x1d, 0xbd, 
  0xa6, 0xb3, 0x68, 0x3e, 0x33, 0xb2, 0x8d, 0x3e, 0x01, 0x08, 0x89, 0x3e, 
  0xf6, 0x3b, 0x7b, 0x3e, 0xdc, 0x85, 0x25, 0xbe, 0x4d, 0x51, 0x26, 0xbe, 
  0x6a, 0xbc, 0xe2, 0xbd, 0x44, 0x7d, 0x89, 0xbe, 0x12, 0x6d, 0x6b, 0x3e, 
  0x02, 0xac, 0x8d, 0xbe, 0x3d, 0x2d, 0x8e, 0x3e, 0x24, 0xb9, 0x1d, 0xbe, 
  0xc8, 0x45, 0x26, 0xbe, 0xa0, 0x1d, 0xd5, 0x3c, 0x37, 0xb6, 0x9b, 0xbe, 
  0xf4, 0x81, 0x10, 0x3e, 0x9a, 0x4a, 0x8e, 0xbe, 0x7d, 0x9e, 0x96, 0x3e, 
  0x04, 0xa6, 0x89, 0xbd, 0x96, 0xde, 0x2a, 0xbe, 0x7b, 0xc2, 0x66, 0xbe, 
  0xb8, 0x0a, 0x8f, 0x3d, 0x1e, 0xf9, 0xa5, 0xbd, 0x03, 0xd7, 0x79, 0xbe, 
  0x2b, 0x9c, 0x81, 0xbe, 0x30, 0x67, 0xb9, 0x3d, 0x7e, 0x67, 0x4a, 0x3e, 
  0xb1, 0xb0, 0x85, 0x3e, 0x88, 0xae, 0x5d, 0xbd, 0x92, 0x0e, 0x7f, 0x3e, 
  0xce, 0x80, 0x58, 0x3e, 0x2a, 0xa6, 0x85, 0xbd, 0x6e, 0x95, 0x45, 0xbe, 
  0xfc, 0x39, 0x0c, 0x3e, 0x06, 0x7d, 0x76, 0xbe, 0x38, 0x1f, 0xde, 0xbd, 
  0x3d, 0xb8, 0x9c, 0x3e, 0x50, 0x6f, 0xc8, 0x3c, 0xd2, 0xb8, 0x8a, 0xbd, 
  0xa3, 0x77, 0x30, 0xbe, 0x72, 0xfb, 0x30, 0x3e, 0x80, 0x14, 0x01, 0xbc, 
  0xfa, 0xc3, 0x5b, 0xbe, 0x6c, 0xd4, 0xe7, 0x3d, 0x57, 0x53, 0x9b, 0x3e, 
  0x51, 0x3f, 0x86, 0x3e, 0x80, 0xa0, 0x21, 0xbc, 0x20, 0x62, 0xb3, 0x3c, 
  0xd7, 0x93, 0x91, 0x3e, 0xde, 0x13, 0x48, 0x3e, 0xab, 0xea, 0x36, 0xbe, 
  0xb8, 0x4c, 0x58, 0x3d, 0x66, 0x02, 0x64, 0x3e, 0x88, 0x98, 0x31, 0x3d, 
  0x1d, 0x80, 0x91, 0x3e, 0xb8, 0xf3, 0xcb, 0x3d, 0x35, 0x27, 0x9a, 0x3e, 
  0x27, 0x98, 0x6c, 0xbe, 0x00, 0x18, 0xc1, 0x39, 0x99, 0xfe, 0x83, 0xbe, 
  0x2c, 0xf4, 0xd6, 0xbd, 0x22, 0xbb, 0x60, 0x3e, 0x22, 0xc2, 0x11, 0xbe, 
  0x8b, 0x19, 0x34, 0xbe, 0x33, 0xf5, 0x76, 0xbe, 0xd7, 0xd8, 0x98, 0x3e, 
  0x20, 0x3f, 0x03, 0xbd, 0x78, 0xd7, 0x79, 0xbd, 0x80, 0xb5, 0x90, 0x3b, 
  0xb0, 0x8e, 0xf2, 0x3d, 0xc2, 0xc9, 0x2d, 0xbe, 0xcf, 0x20, 0x8f, 0x3e, 
  0xa2, 0x65, 0x0a, 0xbe, 0x00, 0x00, 0x06, 0x00, 0x08, 0x00, 0x04, 0x00, 
  0x06, 0x00, 0x00, 0x00, 0x04, 0x00, 0x00, 0x00, 0x80, 0x02, 0x00, 0x00, 
  0xd8, 0xf3, 0x00, 0x3e, 0xf8, 0xd3, 0xe3, 0x3d, 0x2c, 0x9d, 0x86, 0x3e, 
  0x40, 0x98, 0x3a, 0x3e, 0x86, 0x6f, 0xb7, 0x3e, 0x04, 0xe0, 0xc4, 0x3e, 
  0x98, 0x59, 0x30, 0xbd, 0x80, 0xc3, 0x69, 0xbd, 0x73, 0xa6, 0x77, 0xbe, 
  0x8c, 0xcb, 0xa3, 0x3e, 0x90, 0x15, 0x77, 0x3e, 0xe8, 0x06, 0x73, 0x3e, 
  0xa4, 0x50, 0x62, 0x3e, 0x4c, 0xec, 0x3b, 0x3e, 0xd4, 0x96, 0x9f, 0x3d, 
  0x58, 0x73, 0x80, 0x3e, 0x04, 0x89, 0xc6, 0xbd, 0xac, 0x9b, 0x90, 0x3d, 
  0xee, 0xcb, 0xc9, 0x3e, 0x30, 0x2f, 0x8b, 0xbe, 0x2c, 0x2f, 0x52, 0x3e, 
  0x28, 0x94, 0xce, 0x3d, 0x72, 0xd5, 0xb2, 0x3e, 0x10, 0x70, 0x9a, 0xbc, 
  0xb0, 0x84, 0xe4, 0x3c, 0x00, 0x62, 0xf2, 0xbd, 0x0a, 0x5a, 0x81, 0x3e, 
  0xd4, 0xa0, 0xc6, 0xbd, 0x98, 0x88, 0xe4, 0x3d, 0xc0, 0x39, 0xb6, 0xbb, 
  0x5c, 0x2c, 0xa7, 0x3d, 0x32, 0xa2, 0x83, 0xbe, 0x0e, 0xaf, 0xb8, 0x3e, 
  0x4f, 0x79, 0x87, 0xbe, 0x23, 0x8b, 0xa4, 0xbe, 0x34, 0x91, 0xc9, 0x3e, 
  0x4a, 0x00, 0x97, 0x3e, 0xa2, 0x1e, 0x3a, 0xbe, 0xa8, 0x18, 0xa9, 0xbd, 
  0xe8, 0x36, 0x2c, 0xbd, 0x5e, 0xbd, 0x05, 0xbe, 0x52, 0x7d, 0xa7, 0x3e, 
  0xca, 0x56, 0xab, 0x3e, 0x7c, 0xb1, 0xc2, 0x3d, 0xb0, 0xa7, 0x9b, 0xbd, 
  0x2c, 0x65, 0x07, 0xbe, 0x94, 0x82, 0x82, 0x3d, 0xec, 0x74, 0x1e, 0x3e, 
  0x38, 0x29, 0x05, 0xbd, 0x96, 0xe8, 0xa3, 0xbe, 0xb6, 0x9f, 0x9c, 0x3e, 
  0xa2, 0x70, 0xc6, 0xbe, 0x46, 0xd5, 0xa7, 0x3e, 0xc0, 0x44, 0x07, 0x3e, 
  0xf6, 0xf5, 0xb7, 0x3e, 0x2c, 0x90, 0x2a, 0x3e, 0x0c, 0x37, 0x36, 0x3e, 
  0x9e, 0xde, 0xc3, 0xbe, 0x60, 0xe2, 0x21, 0x3c, 0xaa, 0x17, 0xca, 0x3e, 
  0x56, 0x89, 0xb7, 0x3e, 0x96, 0x97, 0x7c, 0xbe, 0x18, 0x79, 0x84, 0xbd, 
  0x39, 0xc6, 0x8c, 0xbe, 0xbb, 0x58, 0x61, 0xbe, 0x20, 0xeb, 0xf2, 0xbd, 
  0x7c, 0xe8, 0x7e, 0x3e, 0x40, 0x7f, 0x07, 0x3e, 0x2c, 0x43, 0x85, 0x3e, 
  0xb2, 0xc1, 0x64, 0xbe, 0xe4, 0xa2, 0xbf, 0x3e, 0xe0, 0x4c, 0x80, 0x3e, 
  0x9b, 0x42, 0x8e, 0xbe, 0x9e, 0x77, 0xc3, 0xbe, 0x00, 0xb0, 0x05, 0x39, 
  0x5a, 0x8e, 0x82, 0x3e, 0x08, 0x21, 0x04, 0x3e, 0xd8, 0x7d, 0x7a, 0xbd, 
  0x68, 0x18, 0xe2, 0x3d, 0x82, 0x9f, 0xb2, 0x3e, 0xfe, 0xc0, 0x8a, 0x3e, 
  0xe0, 0xcf, 0xaa, 0x3e, 0xa4, 0x73, 0x82, 0xbd, 0xd0, 0x70, 0x7f, 0xbd, 
  0x1c, 0xc7, 0x9f, 0x3d, 0xb4, 0xfe, 0x84, 0x3e, 0x24, 0xb3, 0x29, 0x3e, 
  0xf0, 0x9d, 0x9c, 0xbd, 0x5c, 0xb5, 0x89, 0x3e, 0x5c, 0xde, 0xa3, 0xbe, 
  0x3c, 0xcc, 0xb7, 0xbd, 0x80, 0xde, 0x34, 0x3c, 0x08, 0xc6, 0xbd, 0xbe, 
  0xec, 0x59, 0x93, 0xbe, 0x8b, 0x5d, 0xaf, 0xbe, 0xb4, 0xd5, 0xb3, 0xbd, 
  0xc5, 0x91, 0x2b, 0xbe, 0x5c, 0x5f, 0x93, 0xbe, 0x8e, 0xb7, 0x4c, 0xbe, 
  0x76, 0x58, 0xa2, 0xbe, 0x1c, 0x90, 0xab, 0xbe, 0x50, 0x6f, 0x67, 0x3e, 
  0x6e, 0x6e, 0xb9, 0xbe, 0x00, 0x5e, 0x95, 0x3c, 0x8c, 0x9d, 0xa1, 0x3e, 
  0xec, 0x71, 0x7f, 0xbe, 0xa0, 0xf8, 0xd4, 0x3d, 0xc8, 0x18, 0xbf, 0x3e, 
  0xf2, 0x86, 0x41, 0xbe, 0xc0, 0x8f, 0x91, 0x3b, 0xd0, 0xed, 0x64, 0x3d, 
  0xad, 0x88, 0x6d, 0xbe, 0x1a, 0xcd, 0xb4, 0xbe, 0x06, 0xfe, 0x5e, 0xbe, 
  0x0e, 0x41, 0x9c, 0x3e, 0xe4, 0x8a, 0x00, 0xbe, 0x4a, 0xaf, 0xab, 0xbe, 
  0xf2, 0x01, 0xa9, 0x3e, 0x2c, 0x8e, 0x8b, 0xbd, 0x4b, 0x2e, 0xa0, 0xbe, 
  0x38, 0xca, 0xbf, 0xbd, 0xf0, 0xe7, 0xd1, 0x3d, 0x50, 0x86, 0xaa, 0xbd, 
  0xe6, 0x73, 0x8c, 0xbe, 0x50, 0x9e, 0x96, 0x3d, 0x56, 0xa2, 0x01, 0xbe, 
  0xd4, 0x22, 0x91, 0xbd, 0xf8, 0x37, 0x4b, 0x3e, 0x82, 0x1e, 0xaa, 0x3e, 
  0x70, 0x07, 0xb4, 0x3d, 0x38, 0x81, 0x6f, 0x3e, 0x94, 0xb0, 0x85, 0x3e, 
  0x90, 0x5e, 0x87, 0x3d, 0x78, 0x08, 0xd3, 0xbd, 0x34, 0x0d, 0xfb, 0xbd, 
  0xf5, 0x79, 0x39, 0xbe, 0xac, 0xfc, 0x6f, 0x3e, 0x1f, 0x31, 0x31, 0xbe, 
  0x14, 0xf2, 0x3e, 0x3e, 0x54, 0xf2, 0xb2, 0xbd, 0x6c, 0x6c, 0xb5, 0x3e, 
  0x04, 0xbf, 0x7f, 0x3e, 0x16, 0x9e, 0xc6, 0x3e, 0xc0, 0x1f, 0xef, 0x3b, 
  0x17, 0x5b, 0xae, 0xbe, 0xec, 0xc5, 0x92, 0x3e, 0x46, 0xd4, 0x3c, 0xbe, 
  0xfc, 0x14, 0x5f, 0x3e, 0x7e, 0x0c, 0x93, 0xbe, 0x06, 0x70, 0x8f, 0xbe, 
  0x30, 0xa1, 0x61, 0x3e, 0xc8, 0x8c, 0x04, 0x3d, 0x40, 0x01, 0xae, 0x3b, 
  0xd8, 0x28, 0x10, 0x3d, 0x3e, 0x0c, 0x85, 0xbe, 0xd6, 0x7f, 0xcd, 0x3e, 
  0xd0, 0xa7, 0xad, 0x3e, 0x4a, 0x10, 0xab, 0xbe, 0xc9, 0xfb, 0x64, 0xbe, 
  0x7d, 0x96, 0x20, 0xbe, 0xfc, 0xfb, 0xff, 0xff, 0x00, 0xfc, 0xff, 0xff, 
  0x0f, 0x00, 0x00, 0x00, 0x4d, 0x4c, 0x49, 0x52, 0x20, 0x43, 0x6f, 0x6e, 
  0x76, 0x65, 0x72, 0x74, 0x65, 0x64, 0x2e, 0x00, 0x01, 0x00, 0x00, 0x00, 
  0x14, 0x00, 0x00, 0x00, 0x00, 0x00, 0x0e, 0x00, 0x18, 0x00, 0x14, 0x00, 
  0x10, 0x00, 0x0c, 0x00, 0x08, 0x00, 0x04, 0x00, 0x0e, 0x00, 0x00, 0x00, 
  0x14, 0x00, 0x00, 0x00, 0x1c, 0x00, 0x00, 0x00, 0xd8, 0x00, 0x00, 0x00, 
  0xdc, 0x00, 0x00, 0x00, 0xe0, 0x00, 0x00, 0x00, 0x04, 0x00, 0x00, 0x00, 
  0x6d, 0x61, 0x69, 0x6e, 0x00, 0x00, 0x00, 0x00, 0x03, 0x00, 0x00, 0x00, 
  0x80, 0x00, 0x00, 0x00, 0x38, 0x00, 0x00, 0x00, 0x04, 0x00, 0x00, 0x00, 
  0x9a, 0xff, 0xff, 0xff, 0x10, 0x00, 0x00, 0x00, 0x00, 0x00, 0x00, 0x08, 
  0x0c, 0x00, 0x00, 0x00, 0x10, 0x00, 0x00, 0x00, 0x78, 0xfc, 0xff, 0xff, 
  0x01, 0x00, 0x00, 0x00, 0x06, 0x00, 0x00, 0x00, 0x03, 0x00, 0x00, 0x00, 
  0x05, 0x00, 0x00, 0x00, 0x03, 0x00, 0x00, 0x00, 0xff, 0xff, 0xff, 0xff, 
  0xca, 0xff, 0xff, 0xff, 0x10, 0x00, 0x00, 0x00, 0x00, 0x00, 0x00, 0x08, 
  0x10, 0x00, 0x00, 0x00, 0x14, 0x00, 0x00, 0x00, 0xba, 0xff, 0xff, 0xff, 
  0x00, 0x00, 0x00, 0x01, 0x01, 0x00, 0x00, 0x00, 0x05, 0x00, 0x00, 0x00, 
  0x03, 0x00, 0x00, 0x00, 0x04, 0x00, 0x00, 0x00, 0x02, 0x00, 0x00, 0x00, 
  0xff, 0xff, 0xff, 0xff, 0x00, 0x00, 0x0e, 0x00, 0x16, 0x00, 0x00, 0x00, 
  0x10, 0x00, 0x0c, 0x00, 0x0b, 0x00, 0x04, 0x00, 0x0e, 0x00, 0x00, 0x00, 
  0x18, 0x00, 0x00, 0x00, 0x00, 0x00, 0x00, 0x08, 0x18, 0x00, 0x00, 0x00, 
  0x1c, 0x00, 0x00, 0x00, 0x00, 0x00, 0x06, 0x00, 0x08, 0x00, 0x07, 0x00, 
  0x06, 0x00, 0x00, 0x00, 0x00, 0x00, 0x00, 0x01, 0x01, 0x00, 0x00, 0x00, 
  0x04, 0x00, 0x00, 0x00, 0x03, 0x00, 0x00, 0x00, 0x00, 0x00, 0x00, 0x00, 
  0x01, 0x00, 0x00, 0x00, 0xff, 0xff, 0xff, 0xff, 0x01, 0x00, 0x00, 0x00, 
  0x06, 0x00, 0x00, 0x00, 0x01, 0x00, 0x00, 0x00, 0x00, 0x00, 0x00, 0x00, 
  0x07, 0x00, 0x00, 0x00, 0xb0, 0x02, 0x00, 0x00, 0x48, 0x02, 0x00, 0x00, 
  0xe0, 0x01, 0x00, 0x00, 0x90, 0x01, 0x00, 0x00, 0xf8, 0x00, 0x00, 0x00, 
  0x60, 0x00, 0x00, 0x00, 0x04, 0x00, 0x00, 0x00, 0x82, 0xfd, 0xff, 0xff, 
  0x00, 0x00, 0x00, 0x01, 0x14, 0x00, 0x00, 0x00, 0x1c, 0x00, 0x00, 0x00, 
  0x1c, 0x00, 0x00, 0x00, 0x07, 0x00, 0x00, 0x00, 0x34, 0x00, 0x00, 0x00, 
  0x02, 0x00, 0x00, 0x00, 0xff, 0xff, 0xff, 0xff, 0x01, 0x00, 0x00, 0x00, 
  0x6c, 0xfd, 0xff, 0xff, 0x19, 0x00, 0x00, 0x00, 0x53, 0x74, 0x61, 0x74, 
  0x65, 0x66, 0x75, 0x6c, 0x50, 0x61, 0x72, 0x74, 0x69, 0x74, 0x69, 0x6f, 
  0x6e, 0x65, 0x64, 0x43, 0x61, 0x6c, 0x6c, 0x3a, 0x30, 0x00, 0x00, 0x00, 
  0x02, 0x00, 0x00, 0x00, 0x01, 0x00, 0x00, 0x00, 0x01, 0x00, 0x00, 0x00, 
  0xda, 0xfd, 0xff, 0xff, 0x00, 0x00, 0x00, 0x01, 0x14, 0x00, 0x00, 0x00, 
  0x1c, 0x00, 0x00, 0x00, 0x1c, 0x00, 0x00, 0x00, 0x06, 0x00, 0x00, 0x00, 
  0x70, 0x00, 0x00, 0x00, 0x02, 0x00, 0x00, 0x00, 0xff, 0xff, 0xff, 0xff, 
  0x20, 0x00, 0x00, 0x00, 0xc4, 0xfd, 0xff, 0xff, 0x55, 0x00, 0x00, 0x00, 
  0x65, 0x73, 0x70, 0x33, 0x32, 0x5f, 0x63, 0x72, 0x69, 0x74, 0x69, 0x63, 
  0x2f, 0x64, 0x65, 0x6e, 0x73, 0x65, 0x5f, 0x36, 0x37, 0x2f, 0x4d, 0x61, 
  0x74, 0x4d, 0x75, 0x6c, 0x3b, 0x65, 0x73, 0x70, 0x33, 0x32, 0x5f, 0x63, 
  0x72, 0x69, 0x74, 0x69, 0x63, 0x2f, 0x64, 0x65, 0x6e, 0x73, 0x65, 0x5f, 
  0x36, 0x37, 0x2f, 0x52, 0x65, 0x6c, 0x75, 0x3b, 0x65, 0x73, 0x70, 0x33, 
  0x32, 0x5f, 0x63, 0x72, 0x69, 0x74, 0x69, 0x63, 0x2f, 0x64, 0x65, 0x6e, 
  0x73, 0x65, 0x5f, 0x36, 0x37, 0x2f, 0x42, 0x69, 0x61, 0x73, 0x41, 0x64, 
  0x64, 0x00, 0x00, 0x00, 0x02, 0x00, 0x00, 0x00, 0x01, 0x00, 0x00, 0x00, 
  0x20, 0x00, 0x00, 0x00, 0x6e, 0xfe, 0xff, 0xff, 0x00, 0x00, 0x00, 0x01, 
  0x14, 0x00, 0x00, 0x00, 0x1c, 0x00, 0x00, 0x00, 0x1c, 0x00, 0x00, 0x00, 
  0x05, 0x00, 0x00, 0x00, 0x70, 0x00, 0x00, 0x00, 0x02, 0x00, 0x00, 0x00, 
  0xff, 0xff, 0xff, 0xff, 0x20, 0x00, 0x00, 0x00, 0x58, 0xfe, 0xff, 0xff, 
  0x55, 0x00, 0x00, 0x00, 0x65, 0x73, 0x70, 0x33, 0x32, 0x5f, 0x63, 0x72, 
  0x69, 0x74, 0x69, 0x63, 0x2f, 0x64, 0x65, 0x6e, 0x73, 0x65, 0x5f, 0x36, 
  0x36, 0x2f, 0x4d, 0x61, 0x74, 0x4d, 0x75, 0x6c, 0x3b, 0x65, 0x73, 0x70, 
  0x33, 0x32, 0x5f, 0x63, 0x72, 0x69, 0x74, 0x69, 0x63, 0x2f, 0x64, 0x65, 
  0x6e, 0x73, 0x65, 0x5f, 0x36, 0x36, 0x2f, 0x52, 0x65, 0x6c, 0x75, 0x3b, 
  0x65, 0x73, 0x70, 0x33, 0x32, 0x5f, 0x63, 0x72, 0x69, 0x74, 0x69, 0x63, 
  0x2f, 0x64, 0x65, 0x6e, 0x73, 0x65, 0x5f, 0x36, 0x36, 0x2f, 0x42, 0x69, 
  0x61, 0x73, 0x41, 0x64, 0x64, 0x00, 0x00, 0x00, 0x02, 0x00, 0x00, 0x00, 
  0x01, 0x00, 0x00, 0x00, 0x20, 0x00, 0x00, 0x00, 0x66, 0xff, 0xff, 0xff, 
  0x00, 0x00, 0x00, 0x01, 0x10, 0x00, 0x00, 0x00, 0x10, 0x00, 0x00, 0x00, 
  0x04, 0x00, 0x00, 0x00, 0x2c, 0x00, 0x00, 0x00, 0xdc, 0xfe, 0xff, 0xff, 
  0x1c, 0x00, 0x00, 0x00, 0x65, 0x73, 0x70, 0x33, 0x32, 0x5f, 0x63, 0x72, 
  0x69, 0x74, 0x69, 0x63, 0x2f, 0x64, 0x65, 0x6e, 0x73, 0x65, 0x5f, 0x36, 
  0x38, 0x2f, 0x4d, 0x61, 0x74, 0x4d, 0x75, 0x6c, 0x00, 0x00, 0x00, 0x00, 
  0x02, 0x00, 0x00, 0x00, 0x01, 0x00, 0x00, 0x00, 0x20, 0x00, 0x00, 0x00, 
  0xb2, 0xff, 0xff, 0xff, 0x00, 0x00, 0x00, 0x01, 0x10, 0x00, 0x00, 0x00, 
  0x10, 0x00, 0x00, 0x00, 0x03, 0x00, 0x00, 0x00, 0x2c, 0x00, 0x00, 0x00, 
  0x28, 0xff, 0xff, 0xff, 0x1c, 0x00, 0x00, 0x00, 0x65, 0x73, 0x70, 0x33, 
  0x32, 0x5f, 0x63, 0x72, 0x69, 0x74, 0x69, 0x63, 0x2f, 0x64, 0x65, 0x6e, 
  0x73, 0x65, 0x5f, 0x36, 0x37, 0x2f, 0x4d, 0x61, 0x74, 0x4d, 0x75, 0x6c, 
  0x00, 0x00, 0x00, 0x00, 0x02, 0x00, 0x00, 0x00, 0x20, 0x00, 0x00, 0x00, 
  0x20, 0x00, 0x00, 0x00, 0x00, 0x00, 0x16, 0x00, 0x18, 0x00, 0x14, 0x00, 
  0x00, 0x00, 0x10, 0x00, 0x0c, 0x00, 0x08, 0x00, 0x00, 0x00, 0x00, 0x00, 
  0x00, 0x00, 0x07, 0x00, 0x16, 0x00, 0x00, 0x00, 0x00, 0x00, 0x00, 0x01, 
  0x10, 0x00, 0x00, 0x00, 0x10, 0x00, 0x00, 0x00, 0x02, 0x00, 0x00, 0x00, 
  0x2c, 0x00, 0x00, 0x00, 0x8c, 0xff, 0xff, 0xff, 0x1d, 0x00, 0x00, 0x00, 
  0x65, 0x73, 0x70, 0x33, 0x32, 0x5f, 0x63, 0x72, 0x69, 0x74, 0x69, 0x63, 
  0x2f, 0x64, 0x65, 0x6e, 0x73, 0x65, 0x5f, 0x36, 0x36, 0x2f, 0x4d, 0x61, 
  0x74, 0x4d, 0x75, 0x6c, 0x31, 0x00, 0x00, 0x00, 0x02, 0x00, 0x00, 0x00, 
  0x20, 0x00, 0x00, 0x00, 0x05, 0x00, 0x00, 0x00, 0x00, 0x00, 0x16, 0x00, 
  0x1c, 0x00, 0x18, 0x00, 0x00, 0x00, 0x14, 0x00, 0x10, 0x00, 0x0c, 0x00, 
  0x00, 0x00, 0x00, 0x00, 0x08, 0x00, 0x07, 0x00, 0x16, 0x00, 0x00, 0x00, 
  0x00, 0x00, 0x00, 0x01, 0x14, 0x00, 0x00, 0x00, 0x20, 0x00, 0x00, 0x00, 
  0x20, 0x00, 0x00, 0x00, 0x01, 0x00, 0x00, 0x00, 0x40, 0x00, 0x00, 0x00, 
  0x02, 0x00, 0x00, 0x00, 0xff, 0xff, 0xff, 0xff, 0x05, 0x00, 0x00, 0x00, 
  0x04, 0x00, 0x04, 0x00, 0x04, 0x00, 0x00, 0x00, 0x20, 0x00, 0x00, 0x00, 
  0x73, 0x65, 0x72, 0x76, 0x69, 0x6e, 0x67, 0x5f, 0x64, 0x65, 0x66, 0x61, 
  0x75, 0x6c, 0x74, 0x5f, 0x64, 0x65, 0x6e, 0x73, 0x65, 0x5f, 0x36, 0x36, 
  0x5f, 0x69, 0x6e, 0x70, 0x75, 0x74, 0x3a, 0x30, 0x00, 0x00, 0x00, 0x00, 
  0x02, 0x00, 0x00, 0x00, 0x01, 0x00, 0x00, 0x00, 0x05, 0x00, 0x00, 0x00, 
  0x01, 0x00, 0x00, 0x00, 0x10, 0x00, 0x00, 0x00, 0x0c, 0x00, 0x0c, 0x00, 
  0x0b, 0x00, 0x00, 0x00, 0x00, 0x00, 0x04, 0x00, 0x0c, 0x00, 0x00, 0x00, 
  0x09, 0x00, 0x00, 0x00, 0x00, 0x00, 0x00, 0x09, 
};

const unsigned int critic_model_len = 6488;
