#include "ppo_policy_actor_task0.h"

const uint8_t actor_model[] = {

  0x1c, 0x00, 0x00, 0x00, 0x54, 0x46, 0x4c, 0x33, 0x14, 0x00, 0x20, 0x00, 
  0x1c, 0x00, 0x18, 0x00, 0x14, 0x00, 0x10, 0x00, 0x0c, 0x00, 0x00, 0x00, 
  0x08, 0x00, 0x04, 0x00, 0x14, 0x00, 0x00, 0x00, 0x1c, 0x00, 0x00, 0x00, 
  0x8c, 0x00, 0x00, 0x00, 0xe4, 0x00, 0x00, 0x00, 0x50, 0x16, 0x00, 0x00, 
  0x60, 0x16, 0x00, 0x00, 0x1c, 0x1b, 0x00, 0x00, 0x03, 0x00, 0x00, 0x00, 
  0x01, 0x00, 0x00, 0x00, 0x04, 0x00, 0x00, 0x00, 0x62, 0xe9, 0xff, 0xff, 
  0x0c, 0x00, 0x00, 0x00, 0x1c, 0x00, 0x00, 0x00, 0x3c, 0x00, 0x00, 0x00, 
  0x0f, 0x00, 0x00, 0x00, 0x73, 0x65, 0x72, 0x76, 0x69, 0x6e, 0x67, 0x5f, 
  0x64, 0x65, 0x66, 0x61, 0x75, 0x6c, 0x74, 0x00, 0x01, 0x00, 0x00, 0x00, 
  0x04, 0x00, 0x00, 0x00, 0x90, 0xff, 0xff, 0xff, 0x07, 0x00, 0x00, 0x00, 
  0x04, 0x00, 0x00, 0x00, 0x08, 0x00, 0x00, 0x00, 0x64, 0x65, 0x6e, 0x73, 
  0x65, 0x5f, 0x36, 0x35, 0x00, 0x00, 0x00, 0x00, 0x01, 0x00, 0x00, 0x00, 
  0x04, 0x00, 0x00, 0x00, 0xb2, 0xec, 0xff, 0xff, 0x04, 0x00, 0x00, 0x00, 
  0x0e, 0x00, 0x00, 0x00, 0x64, 0x65, 0x6e, 0x73, 0x65, 0x5f, 0x36, 0x33, 
  0x5f, 0x69, 0x6e, 0x70, 0x75, 0x74, 0x00, 0x00, 0x02, 0x00, 0x00, 0x00, 
  0x34, 0x00, 0x00, 0x00, 0x04, 0x00, 0x00, 0x00, 0xdc, 0xff, 0xff, 0xff, 
  0x0a, 0x00, 0x00, 0x00, 0x04, 0x00, 0x00, 0x00, 0x13, 0x00, 0x00, 0x00, 
  0x43, 0x4f, 0x4e, 0x56, 0x45, 0x52, 0x53, 0x49, 0x4f, 0x4e, 0x5f, 0x4d, 
  0x45, 0x54, 0x41, 0x44, 0x41, 0x54, 0x41, 0x00, 0x08, 0x00, 0x0c, 0x00, 
  0x08, 0x00, 0x04, 0x00, 0x08, 0x00, 0x00, 0x00, 0x09, 0x00, 0x00, 0x00, 
  0x04, 0x00, 0x00, 0x00, 0x13, 0x00, 0x00, 0x00, 0x6d, 0x69, 0x6e, 0x5f, 
  0x72, 0x75, 0x6e, 0x74, 0x69, 0x6d, 0x65, 0x5f, 0x76, 0x65, 0x72, 0x73, 
  0x69, 0x6f, 0x6e, 0x00, 0x0b, 0x00, 0x00, 0x00, 0x68, 0x15, 0x00, 0x00, 
  0x60, 0x15, 0x00, 0x00, 0xd0, 0x12, 0x00, 0x00, 0xb8, 0x02, 0x00, 0x00, 
  0xa8, 0x00, 0x00, 0x00, 0xa0, 0x00, 0x00, 0x00, 0x98, 0x00, 0x00, 0x00, 
  0x90, 0x00, 0x00, 0x00, 0x88, 0x00, 0x00, 0x00, 0x68, 0x00, 0x00, 0x00, 
  0x04, 0x00, 0x00, 0x00, 0x5a, 0xed, 0xff, 0xff, 0x04, 0x00, 0x00, 0x00, 
  0x54, 0x00, 0x00, 0x00, 0x0c, 0x00, 0x00, 0x00, 0x08, 0x00, 0x0e, 0x00, 
  0x08, 0x00, 0x04, 0x00, 0x08, 0x00, 0x00, 0x00, 0x10, 0x00, 0x00, 0x00, 
  0x24, 0x00, 0x00, 0x00, 0x00, 0x00, 0x06, 0x00, 0x08, 0x00, 0x04, 0x00, 
  0x06, 0x00, 0x00, 0x00, 0x04, 0x00, 0x00, 0x00, 0x00, 0x00, 0x00, 0x00, 
  0x00, 0x00, 0x0a, 0x00, 0x10, 0x00, 0x0c, 0x00, 0x08, 0x00, 0x04, 0x00, 
  0x0a, 0x00, 0x00, 0x00, 0x02, 0x00, 0x00, 0x00, 0x02, 0x00, 0x00, 0x00, 
  0x04, 0x00, 0x00, 0x00, 0x06, 0x00, 0x00, 0x00, 0x32, 0x2e, 0x31, 0x33, 
  0x2e, 0x30, 0x00, 0x00, 0xba, 0xed, 0xff, 0xff, 0x04, 0x00, 0x00, 0x00, 
  0x10, 0x00, 0x00, 0x00, 0x31, 0x2e, 0x31, 0x34, 0x2e, 0x30, 0x00, 0x00, 
  0x00, 0x00, 0x00, 0x00, 0x00, 0x00, 0x00, 0x00, 0xa4, 0xe6, 0xff, 0xff, 
  0xa8, 0xe6, 0xff, 0xff, 0xac, 0xe6, 0xff, 0xff, 0xb0, 0xe6, 0xff, 0xff, 
  0xe6, 0xed, 0xff, 0xff, 0x04, 0x00, 0x00, 0x00, 0x00, 0x02, 0x00, 0x00, 
  0x94, 0x85, 0x59, 0xbe, 0xf0, 0xb4, 0x79, 0x3d, 0x44, 0xcc, 0xcc, 0xbd, 
  0x34, 0x84, 0xc7, 0x3e, 0x20, 0xbf, 0x5d, 0x3d, 0xd0, 0xdb, 0x77, 0xbe, 
  0xa0, 0xff, 0x19, 0xbd, 0x92, 0x22, 0xb8, 0xbe, 0xe0, 0x54, 0xe1, 0x3d, 
  0x0a, 0x3f, 0x70, 0xbe, 0x94, 0xf4, 0x45, 0xbe, 0xee, 0x95, 0x96, 0xbe, 
  0xb8, 0x46, 0x94, 0x3d, 0x06, 0xff, 0x8a, 0x3e, 0xcd, 0x91, 0x87, 0xbe, 
  0xb8, 0x6a, 0x5d, 0xbd, 0x60, 0x72, 0x20, 0x3e, 0x08, 0x67, 0x2f, 0x3e, 
  0x74, 0xc8, 0xad, 0x3d, 0x7b, 0xd9, 0xa9, 0xbe, 0x99, 0x13, 0x48, 0xbe, 
  0xcb, 0xc8, 0x69, 0xbe, 0xd2, 0xf7, 0xb5, 0x3e, 0x98, 0x02, 0x4a, 0x3e, 
  0x80, 0x2f, 0x8f, 0xbd, 0xb0, 0xca, 0x5c, 0x3e, 0x8c, 0x21, 0xa5, 0x3d, 
  0xd0, 0x71, 0xa9, 0x3e, 0x98, 0x40, 0xf4, 0xbd, 0xe8, 0x49, 0xbd, 0xbd, 
  0x52, 0x27, 0x9a, 0x3e, 0xf0, 0x98, 0x5e, 0x3e, 0x70, 0x1b, 0xfb, 0xbd, 
  0xb0, 0x68, 0x5d, 0x3e, 0x9c, 0xca, 0x60, 0x3e, 0x64, 0x0f, 0x5b, 0x3e, 
  0x30, 0xa4, 0x23, 0xbd, 0xc4, 0x70, 0xc1, 0x3e, 0xfb, 0x37, 0x25, 0xbe, 
  0xc6, 0x50, 0xb5, 0xbe, 0x70, 0x9f, 0x79, 0xbe, 0x6c, 0xd1, 0x91, 0xbe, 
  0x44, 0x82, 0x05, 0xbe, 0x64, 0x3f, 0x84, 0x3e, 0x60, 0x70, 0x75, 0xbe, 
  0x3f, 0x13, 0x9d, 0xbe, 0xa8, 0x4e, 0xcd, 0x3d, 0x5c, 0xd5, 0x53, 0xbe, 
  0xcc, 0x99, 0xaf, 0xbd, 0x00, 0x68, 0x19, 0xbb, 0x0e, 0xbd, 0x18, 0xbe, 
  0x4b, 0xce, 0xbb, 0xbe, 0x38, 0x5c, 0xc8, 0xbd, 0xf6, 0xd2, 0xa1, 0xbe, 
  0x34, 0xc9, 0x71, 0xbe, 0x28, 0x48, 0x75, 0x3d, 0x04, 0xad, 0x1f, 0x3e, 
  0x60, 0x1d, 0x7b, 0x3e, 0x08, 0x46, 0x90, 0x3e, 0xc2, 0x89, 0x5b, 0xbe, 
  0x20, 0x92, 0xaf, 0xbe, 0xec, 0xe1, 0xd1, 0xbd, 0x78, 0x6a, 0x08, 0xbd, 
  0x6c, 0xb7, 0x0e, 0x3e, 0x00, 0x98, 0xc5, 0xbc, 0x96, 0x47, 0x71, 0xbe, 
  0x8c, 0xfa, 0xc7, 0xbd, 0xc0, 0x51, 0xee, 0x3d, 0x50, 0x0f, 0x9a, 0xbe, 
  0x60, 0x28, 0x2b, 0x3e, 0xb2, 0x17, 0xb1, 0xbe, 0x1a, 0x9b, 0x86, 0x3e, 
  0x90, 0xb6, 0x1e, 0x3e, 0x78, 0xbd, 0x3e, 0xbd, 0xa8, 0x22, 0xd6, 0xbd, 
  0xca, 0x83, 0xa4, 0x3e, 0xa2, 0x99, 0xc3, 0x3e, 0x80, 0xd4, 0x9f, 0x3c, 
  0xb2, 0x38, 0x1b, 0xbe, 0x38, 0x47, 0x39, 0x3d, 0x80, 0x03, 0xcb, 0xbe, 
  0xe8, 0xf8, 0x7a, 0x3d, 0xac, 0xf5, 0xe1, 0xbd, 0x13, 0x1a, 0x65, 0xbe, 
  0x4a, 0xa4, 0xcf, 0xbe, 0x20, 0xde, 0x02, 0x3c, 0x34, 0x60, 0xcf, 0xbd, 
  0x10, 0x4b, 0xa8, 0xbd, 0x34, 0x1e, 0x4a, 0x3e, 0x24, 0xed, 0x6f, 0x3e, 
  0xc0, 0xab, 0x88, 0xbb, 0x20, 0x7e, 0xc9, 0xbd, 0xbc, 0xe0, 0x1c, 0x3e, 
  0x98, 0x7b, 0x14, 0x3e, 0x98, 0xfd, 0xcb, 0xbe, 0x9b, 0x64, 0xa0, 0xbe, 
  0xe8, 0x53, 0xbb, 0x3e, 0xe0, 0x28, 0x25, 0x3e, 0xb8, 0x66, 0xca, 0xbd, 
  0x6e, 0x3d, 0x0c, 0xbe, 0x00, 0xb2, 0xc4, 0x3e, 0xdc, 0x21, 0x1b, 0x3e, 
  0x80, 0xbb, 0x9c, 0xbb, 0x31, 0x75, 0x25, 0xbe, 0xc0, 0xfc, 0x1c, 0xbc, 
  0x00, 0xbc, 0xbf, 0xbd, 0xcd, 0x15, 0x7b, 0xbe, 0xc6, 0xdd, 0xc2, 0x3e, 
  0x18, 0x72, 0xe4, 0x3d, 0xc6, 0x0b, 0xb3, 0xbe, 0x1c, 0x70, 0x67, 0x3e, 
  0xc0, 0x47, 0xad, 0x3e, 0x79, 0x49, 0xcd, 0xbe, 0x13, 0xe6, 0x5a, 0xbe, 
  0x13, 0x42, 0xb6, 0xbe, 0xb0, 0xb7, 0xc8, 0x3e, 0xc0, 0xee, 0x8d, 0x3e, 
  0xf8, 0xf1, 0xbe, 0x3d, 0x38, 0x2b, 0x74, 0x3d, 0xa0, 0x24, 0xdb, 0x3d, 
  0x85, 0x9d, 0x57, 0xbe, 0x00, 0x9a, 0xa0, 0x3e, 0x9e, 0x57, 0xb3, 0xbe, 
  0x00, 0xb0, 0xcb, 0xbe, 0x44, 0xaa, 0x88, 0x3e, 0x5c, 0x96, 0x39, 0x3e, 
  0x98, 0xbb, 0x14, 0xbd, 0x88, 0x9e, 0x4d, 0x3d, 0xf2, 0xef, 0xff, 0xff, 
  0x04, 0x00, 0x00, 0x00, 0x00, 0x10, 0x00, 0x00, 0xb4, 0x52, 0xd7, 0x3d, 
  0x0f, 0xbb, 0x93, 0x3e, 0x90, 0x2b, 0xc4, 0x3d, 0xc0, 0x98, 0xad, 0x3d, 
  0xf0, 0xe1, 0x2e, 0xbe, 0x61, 0x04, 0x86, 0x3e, 0x02, 0x33, 0x24, 0x3e, 
  0x0e, 0x69, 0x6d, 0x3e, 0x30, 0x15, 0x37, 0x3e, 0x9a, 0xea, 0xd6, 0xbd, 
  0x50, 0x44, 0x15, 0x3e, 0xd6, 0x74, 0xd2, 0xbd, 0x4b, 0xd2, 0x42, 0xbe, 
  0x18, 0xc0, 0x29, 0xbe, 0x7c, 0x35, 0x6c, 0xbd, 0x63, 0x0f, 0x97, 0x3e, 
  0x4f, 0x4b, 0x82, 0x3e, 0x22, 0xc2, 0x75, 0x3e, 0x34, 0xe5, 0xf4, 0xbd, 
  0x2e, 0x05, 0x1b, 0x3e, 0x80, 0x30, 0xd4, 0x3b, 0x5a, 0x0d, 0x76, 0x3e, 
  0xf0, 0x76, 0xe8, 0xbc, 0xc8, 0x70, 0xbc, 0x3d, 0xb7, 0xfa, 0x89, 0xbe, 
  0xc0, 0x4c, 0x4c, 0xbd, 0xf0, 0x2a, 0x2a, 0xbd, 0x78, 0x0e, 0x8e, 0x3d, 
  0xc4, 0xa7, 0x32, 0x3e, 0x20, 0x89, 0x82, 0x3d, 0x2b, 0x5f, 0x2d, 0xbe, 
  0x3a, 0xbe, 0x00, 0x3e, 0x1a, 0x05, 0x75, 0xbe, 0x7c, 0xf7, 0xe3, 0x3d, 
  0x48, 0xc2, 0xc9, 0x3d, 0x94, 0xb7, 0x29, 0xbe, 0xe6, 0xe6, 0x53, 0xbe, 
  0x4c, 0xd3, 0xda, 0x3d, 0x94, 0xbe, 0x80, 0xbd, 0xff, 0x07, 0x8e, 0xbe, 
  0xee, 0x8a, 0xf2, 0xbd, 0x3a, 0x46, 0x88, 0xbe, 0xd8, 0x58, 0xfb, 0x3d, 
  0x6e, 0xf8, 0x91, 0xbe, 0xf2, 0x1a, 0x83, 0xbd, 0xe6, 0xcb, 0x0e, 0x3e, 
  0xfc, 0x05, 0x02, 0xbe, 0x68, 0xb3, 0x2f, 0xbe, 0x0a, 0x9a, 0x79, 0x3e, 
  0x29, 0x5a, 0x94, 0x3e, 0x74, 0xbc, 0x86, 0xbe, 0x40, 0x34, 0xe8, 0x3b, 
  0x86, 0xd2, 0x12, 0xbe, 0xe8, 0xa6, 0x85, 0xbe, 0x28, 0x75, 0xc0, 0xbd, 
  0x9e, 0xfd, 0x5b, 0x3e, 0xec, 0x90, 0x14, 0xbe, 0x68, 0x0b, 0xa5, 0x3d, 
  0x30, 0x00, 0x21, 0xbe, 0x0c, 0xb7, 0xf1, 0xbd, 0xc2, 0x66, 0x3a, 0xbe, 
  0xb0, 0xa2, 0xbf, 0x3d, 0x48, 0x1c, 0xa9, 0xbd, 0x80, 0xea, 0x0e, 0xbd, 
  0x8c, 0x17, 0x00, 0x3e, 0xc6, 0xf7, 0x4d, 0xbe, 0xf2, 0x68, 0x46, 0xbe, 
  0xd0, 0x21, 0x9e, 0xbc, 0x33, 0x9b, 0x78, 0xbe, 0x44, 0x48, 0x09, 0x3e, 
  0x3c, 0x8c, 0x8f, 0x3d, 0x58, 0xa8, 0x62, 0xbd, 0xc0, 0xa9, 0xda, 0x3c, 
  0xaa, 0xd7, 0x99, 0xbd, 0xd0, 0xfa, 0xc0, 0xbc, 0xe3, 0x9a, 0x19, 0xbe, 
  0x88, 0xdd, 0x8a, 0xbe, 0xb0, 0xba, 0x10, 0x3d, 0xd4, 0xb8, 0xe3, 0x3d, 
  0x2f, 0xc6, 0x86, 0x3e, 0x0c, 0x4e, 0xef, 0x3d, 0x5c, 0x73, 0x35, 0xbe, 
  0x40, 0x2f, 0x04, 0xbd, 0xc0, 0xa7, 0x21, 0x3e, 0x34, 0xd6, 0x3f, 0xbe, 
  0x1b, 0xce, 0x81, 0x3e, 0xf9, 0xb7, 0x02, 0xbe, 0xba, 0x41, 0x45, 0x3e, 
  0x14, 0x60, 0x13, 0x3e, 0xdd, 0x8b, 0x91, 0x3e, 0x28, 0x95, 0x8f, 0x3d, 
  0xa4, 0x45, 0xbe, 0x3d, 0xc0, 0x09, 0xdd, 0xbb, 0x50, 0xe7, 0x1a, 0x3d, 
  0xf4, 0xf6, 0x0e, 0x3e, 0xc0, 0x71, 0x6e, 0xbd, 0xa2, 0x0f, 0x06, 0x3e, 
  0xdc, 0xc5, 0xe5, 0x3d, 0x48, 0xd2, 0x38, 0xbd, 0x94, 0xe7, 0x8c, 0xbe, 
  0x71, 0x9a, 0x0d, 0xbe, 0x24, 0x5c, 0xd9, 0xbd, 0x42, 0x72, 0x53, 0x3e, 
  0xff, 0x6a, 0x91, 0x3e, 0x02, 0x43, 0x43, 0xbe, 0x3c, 0x6b, 0x7d, 0xbe, 
  0x00, 0x00, 0x8d, 0xb9, 0x76, 0xf6, 0x6e, 0xbe, 0x50, 0x2a, 0x10, 0x3d, 
  0x68, 0xcd, 0x75, 0x3d, 0xbe, 0x58, 0x1c, 0xbe, 0xde, 0x85, 0x2c, 0x3e, 
  0x90, 0x4d, 0xa5, 0x3c, 0xa0, 0x1e, 0x5e, 0xbd, 0x0b, 0x9e, 0x2e, 0xbe, 
  0x80, 0x2c, 0xb4, 0xbc, 0xc1, 0xcc, 0x19, 0xbe, 0xd0, 0x96, 0x3c, 0x3e, 
  0x00, 0x42, 0x1f, 0x3d, 0x24, 0x89, 0x39, 0x3e, 0xd0, 0x39, 0xdb, 0xbc, 
  0xb0, 0xe5, 0xdb, 0xbc, 0x2c, 0xe1, 0xb2, 0x3d, 0x80, 0x3c, 0xa8, 0x3d, 
  0xc6, 0x9c, 0x18, 0x3e, 0xc8, 0xe8, 0x35, 0xbe, 0x3a, 0x60, 0x73, 0xbe, 
  0x50, 0x5d, 0xaf, 0xbc, 0xa6, 0x34, 0x78, 0x3e, 0x28, 0x62, 0x55, 0x3d, 
  0x40, 0x82, 0xf6, 0x3d, 0x90, 0x1a, 0xd8, 0x3d, 0x7c, 0xbe, 0xc7, 0x3d, 
  0xf4, 0xb3, 0x95, 0x3d, 0x63, 0xd7, 0x89, 0x3e, 0xec, 0x12, 0xdd, 0x3d, 
  0x84, 0xd2, 0x80, 0xbe, 0xc8, 0x1b, 0xe6, 0x3d, 0x82, 0xc8, 0xee, 0xbd, 
  0xc0, 0xb1, 0x07, 0xbd, 0x9e, 0xb1, 0x3b, 0x3e, 0x34, 0xa1, 0xf9, 0xbd, 
  0x40, 0x37, 0x6f, 0x3d, 0x88, 0x45, 0x11, 0x3d, 0xf0, 0xa7, 0x63, 0xbd, 
  0x22, 0x81, 0x27, 0xbe, 0xa0, 0x91, 0x51, 0xbc, 0x00, 0x19, 0x72, 0xbb, 
  0x20, 0x13, 0x91, 0xbd, 0x7c, 0x25, 0xc9, 0xbd, 0x4e, 0xe2, 0x58, 0x3e, 
  0x60, 0x12, 0x2f, 0x3e, 0x10, 0x0f, 0x94, 0xbe, 0xca, 0x02, 0x6d, 0x3e, 
  0x17, 0x2e, 0x8e, 0xbe, 0x70, 0x04, 0xf4, 0x3c, 0xbd, 0x4c, 0x42, 0xbe, 
  0x12, 0x0a, 0x75, 0x3e, 0xa2, 0x80, 0xbc, 0xbd, 0xc9, 0x09, 0x86, 0x3e, 
  0xe8, 0x32, 0x5e, 0xbd, 0x02, 0xa6, 0xe4, 0xbd, 0xde, 0x32, 0x99, 0xbe, 
  0x28, 0x83, 0xd7, 0x3d, 0x30, 0xd4, 0x8e, 0xbd, 0x5b, 0x22, 0x90, 0x3e, 
  0x1e, 0x8b, 0x64, 0xbe, 0x38, 0x85, 0xac, 0xbd, 0x40, 0x4b, 0xca, 0xbc, 
  0x1c, 0x77, 0x9a, 0xbd, 0xb0, 0x99, 0x78, 0xbe, 0xfc, 0x26, 0xe1, 0x3d, 
  0x28, 0xfc, 0x12, 0x3d, 0xf8, 0xec, 0x26, 0x3d, 0x8e, 0xdd, 0x41, 0x3e, 
  0x68, 0xc3, 0x85, 0x3d, 0x32, 0xef, 0x43, 0x3e, 0x3c, 0x2c, 0x91, 0x3d, 
  0x40, 0xf9, 0x60, 0xbd, 0xfa, 0xfb, 0x1e, 0x3e, 0x6c, 0x32, 0xf0, 0x3d, 
  0x0a, 0xb4, 0x12, 0x3e, 0x59, 0x86, 0x89, 0x3e, 0xb2, 0x40, 0x76, 0x3e, 
  0x70, 0x2b, 0x3e, 0x3e, 0x69, 0x08, 0x41, 0xbe, 0x02, 0xcd, 0x8c, 0xbe, 
  0x60, 0x98, 0x7d, 0xbc, 0x6e, 0x8a, 0xd7, 0xbd, 0x7c, 0x9f, 0x16, 0xbe, 
  0x11, 0x17, 0x9c, 0x3e, 0x18, 0xfc, 0x91, 0xbd, 0x2d, 0x66, 0x9c, 0xbe, 
  0xc4, 0x1a, 0x36, 0x3e, 0x50, 0x99, 0x51, 0xbd, 0xa2, 0x8f, 0x5a, 0x3e, 
  0x69, 0x9d, 0x5e, 0xbe, 0x6c, 0xcf, 0x27, 0xbe, 0xf6, 0x77, 0xfb, 0xbd, 
  0xc6, 0x96, 0x83, 0xbe, 0x02, 0xc3, 0x78, 0x3e, 0x80, 0x67, 0xc4, 0x3b, 
  0xe4, 0xc8, 0x60, 0xbe, 0x90, 0x5a, 0x4b, 0x3d, 0xda, 0xb6, 0x12, 0x3e, 
  0x88, 0xaf, 0x43, 0xbe, 0x2b, 0x4c, 0x18, 0xbe, 0x10, 0x49, 0x41, 0xbd, 
  0xe4, 0x80, 0x3b, 0x3e, 0xd8, 0x60, 0xb2, 0x3d, 0x20, 0xd0, 0x17, 0x3e, 
  0xc8, 0x47, 0x59, 0xbd, 0x40, 0xcf, 0x4f, 0xbd, 0x80, 0x9b, 0x45, 0x3c, 
  0xf0, 0xd2, 0x33, 0x3d, 0x0e, 0x01, 0x81, 0xbe, 0xf2, 0x55, 0x74, 0xbe, 
  0x1f, 0x6e, 0x80, 0x3e, 0x64, 0x9e, 0xa7, 0x3d, 0xe0, 0x40, 0xb3, 0x3c, 
  0x76, 0x80, 0x68, 0xbe, 0x81, 0xbd, 0x19, 0xbe, 0x47, 0x57, 0x9b, 0x3e, 
  0xf2, 0x54, 0x21, 0x3e, 0x39, 0xac, 0x9b, 0x3e, 0x72, 0x9c, 0xa0, 0xbd, 
  0xb6, 0x35, 0x00, 0xbe, 0x29, 0x9c, 0x88, 0xbe, 0xcc, 0x5b, 0x57, 0xbe, 
  0x9a, 0x74, 0x83, 0xbe, 0x92, 0x2d, 0xbf, 0xbd, 0xe4, 0x3c, 0x14, 0x3e, 
  0xf6, 0xf7, 0xe5, 0xbd, 0x2b, 0x20, 0x2b, 0xbe, 0x28, 0xfb, 0x14, 0xbd, 
  0xaa, 0xb8, 0x6c, 0x3e, 0x00, 0x4d, 0xe9, 0xbc, 0xa4, 0xb9, 0xcd, 0x3d, 
  0x00, 0xed, 0x18, 0x3c, 0xeb, 0xca, 0x98, 0x3e, 0x80, 0xf6, 0x73, 0x3d, 
  0x86, 0xbc, 0x45, 0xbe, 0xe0, 0xc0, 0xc6, 0x3d, 0xa6, 0x1d, 0x37, 0xbe, 
  0xb4, 0xbe, 0x8a, 0xbe, 0x9f, 0xa8, 0x8e, 0x3e, 0x83, 0xee, 0x81, 0xbe, 
  0xa0, 0xc9, 0xf9, 0x3c, 0x5d, 0xa5, 0x8a, 0x3e, 0xe7, 0x4d, 0x55, 0xbe, 
  0xf6, 0xf5, 0x6e, 0x3e, 0x7a, 0x60, 0xc7, 0xbd, 0xb0, 0x98, 0x15, 0xbd, 
  0x98, 0xcd, 0x8b, 0xbe, 0xdd, 0xe2, 0x85, 0x3e, 0xfb, 0x86, 0x5a, 0xbe, 
  0x27, 0xd9, 0x90, 0xbe, 0xf4, 0xb3, 0x93, 0xbe, 0x40, 0x07, 0xc4, 0xbb, 
  0x62, 0x8f, 0x43, 0xbe, 0x80, 0x6c, 0x08, 0xbe, 0xbc, 0x1e, 0x42, 0x3e, 
  0x25, 0xf1, 0x7c, 0xbe, 0x80, 0xa9, 0x1c, 0xbd, 0xb8, 0x88, 0x48, 0xbd, 
  0xc3, 0x34, 0x80, 0xbe, 0x98, 0x74, 0x30, 0xbe, 0xf8, 0xc3, 0x4d, 0x3d, 
  0xb0, 0x08, 0xb3, 0xbc, 0xeb, 0x7f, 0x94, 0xbe, 0xcc, 0xf7, 0xc2, 0xbd, 
  0x20, 0x5c, 0x2b, 0xbe, 0x77, 0x8e, 0x87, 0x3e, 0x56, 0xd9, 0x99, 0xbe, 
  0xa8, 0x53, 0x07, 0xbd, 0x08, 0x92, 0xc9, 0x3d, 0x5b, 0x86, 0x06, 0xbe, 
  0x90, 0x46, 0x6d, 0xbe, 0x84, 0x45, 0x1b, 0x3e, 0xb8, 0x99, 0x7e, 0x3d, 
  0xc6, 0x48, 0xd5, 0xbd, 0x10, 0x7d, 0x8b, 0xbe, 0x52, 0x52, 0x36, 0x3e, 
  0x8a, 0x52, 0x84, 0xbe, 0xcc, 0xf4, 0x59, 0xbe, 0x8c, 0xc4, 0x08, 0x3e, 
  0x00, 0x17, 0xe7, 0x3d, 0x9e, 0x6f, 0x76, 0x3e, 0x38, 0x32, 0x48, 0x3d, 
  0x60, 0x3c, 0x75, 0xbc, 0x42, 0xb5, 0xa5, 0xbd, 0x61, 0x73, 0x7c, 0xbe, 
  0xee, 0xe7, 0x7b, 0xbe, 0x35, 0x79, 0x86, 0x3e, 0xec, 0x70, 0xd9, 0xbd, 
  0x01, 0xb0, 0x81, 0xbe, 0x4c, 0xaa, 0x2d, 0x3e, 0x80, 0x94, 0xcd, 0xbb, 
  0xd0, 0x16, 0xea, 0x3d, 0x0c, 0xf5, 0xec, 0x3d, 0xae, 0xf6, 0x73, 0xbe, 
  0x7e, 0xb1, 0x54, 0x3e, 0xe0, 0x49, 0x01, 0xbc, 0x18, 0xce, 0x16, 0x3d, 
  0x82, 0x38, 0xf0, 0xbd, 0x7a, 0x1a, 0x95, 0xbd, 0xe4, 0xb2, 0xfa, 0x3d, 
  0x60, 0xbb, 0xc4, 0xbc, 0x28, 0x9f, 0x4f, 0xbe, 0xda, 0xe9, 0x69, 0x3e, 
  0xe4, 0xfc, 0x42, 0x3e, 0xe4, 0x7d, 0xef, 0x3d, 0x58, 0x68, 0x83, 0x3d, 
  0x7c, 0x87, 0x6e, 0xbd, 0x87, 0x19, 0x59, 0xbe, 0xd4, 0x3c, 0xb6, 0x3d, 
  0xa0, 0x6c, 0x64, 0xbc, 0x6f, 0x2f, 0x82, 0x3e, 0xe8, 0xbe, 0x3c, 0x3e, 
  0x9c, 0xf2, 0x82, 0xbd, 0x84, 0x4d, 0xff, 0xbd, 0xff, 0xc5, 0x88, 0x3e, 
  0x96, 0xbf, 0x53, 0x3e, 0x80, 0xca, 0xca, 0xbc, 0x73, 0x59, 0x89, 0x3e, 
  0x20, 0xbb, 0x4f, 0x3d, 0x18, 0x4a, 0x21, 0x3e, 0xc8, 0x23, 0x4c, 0xbd, 
  0xc0, 0x50, 0xd1, 0x3c, 0x40, 0x5c, 0xa7, 0x3d, 0x35, 0x75, 0x34, 0xbe, 
  0x15, 0xbd, 0x62, 0xbe, 0x68, 0xda, 0xab, 0xbd, 0x1c, 0x09, 0x94, 0xbe, 
  0x43, 0xdb, 0x66, 0xbe, 0x7b, 0xc3, 0x8e, 0x3e, 0xe1, 0x9c, 0x89, 0xbe, 
  0xc0, 0x9c, 0x27, 0x3e, 0x24, 0xbf, 0xa6, 0x3d, 0xda, 0x74, 0x52, 0xbe, 
  0xf2, 0xe4, 0x19, 0x3e, 0xde, 0xff, 0x5c, 0xbe, 0x0d, 0x1d, 0x80, 0xbe, 
  0xc0, 0x10, 0xfb, 0xbc, 0x42, 0x9d, 0x68, 0x3e, 0xc0, 0x08, 0xf8, 0xbc, 
  0x18, 0x1a, 0x15, 0x3d, 0xe0, 0xae, 0x72, 0x3d, 0x48, 0x2d, 0x21, 0xbd, 
  0x40, 0x68, 0x74, 0x3d, 0x12, 0x65, 0x71, 0xbe, 0x2c, 0xfd, 0x1d, 0x3e, 
  0x65, 0x6c, 0x81, 0x3e, 0xf4, 0x5c, 0xf8, 0x3d, 0xc8, 0x6e, 0x1a, 0x3e, 
  0x58, 0xce, 0xfb, 0xbd, 0x06, 0xb6, 0x6c, 0xbe, 0x6d, 0xa7, 0x40, 0xbe, 
  0xe6, 0xe5, 0x28, 0x3e, 0x9e, 0xc9, 0x87, 0xbe, 0x16, 0xbe, 0x6d, 0x3e, 
  0xb8, 0x29, 0x59, 0xbe, 0x9f, 0xb3, 0x09, 0xbe, 0xce, 0x6b, 0x3f, 0xbe, 
  0xd2, 0x3f, 0x6d, 0x3e, 0xf6, 0x39, 0x6a, 0x3e, 0xc8, 0x4c, 0xb1, 0xbd, 
  0x78, 0xf5, 0x38, 0x3d, 0x76, 0xc5, 0x94, 0xbe, 0x38, 0xab, 0x05, 0xbe, 
  0xd7, 0x86, 0x03, 0xbe, 0x46, 0x77, 0x61, 0x3e, 0x28, 0x03, 0xa7, 0xbd, 
  0xc2, 0x0c, 0xf3, 0xbd, 0x3a, 0xa3, 0x98, 0xbe, 0x20, 0xcf, 0xe9, 0x3c, 
  0x74, 0x77, 0x67, 0xbd, 0xc2, 0xf9, 0x77, 0x3e, 0x0f, 0x82, 0x92, 0x3e, 
  0x5b, 0xb1, 0x8f, 0x3e, 0x65, 0xe9, 0x03, 0xbe, 0xf9, 0xe2, 0x82, 0xbe, 
  0x6e, 0xcd, 0x7b, 0x3e, 0x4a, 0xd9, 0x5e, 0xbe, 0x30, 0xec, 0xb8, 0x3d, 
  0xc0, 0x7e, 0x63, 0xbd, 0x90, 0x4b, 0xbf, 0xbc, 0xce, 0x05, 0x52, 0x3e, 
  0x64, 0x64, 0xee, 0x3d, 0x08, 0x71, 0x2e, 0x3e, 0x73, 0x4a, 0x87, 0x3e, 
  0x13, 0xf9, 0x99, 0xbe, 0xe6, 0x5a, 0x91, 0xbe, 0x89, 0xa9, 0x20, 0xbe, 
  0x2c, 0x60, 0x30, 0x3e, 0x8c, 0xc1, 0xbc, 0xbd, 0xb8, 0x83, 0x0c, 0x3e, 
  0xa8, 0x2f, 0x49, 0x3d, 0x70, 0x9b, 0x81, 0xbc, 0x58, 0xa6, 0x63, 0x3d, 
  0x0a, 0x59, 0x38, 0x3e, 0x40, 0x38, 0x15, 0x3d, 0xce, 0x73, 0xf9, 0xbd, 
  0x09, 0xf2, 0x19, 0xbe, 0xd0, 0xa6, 0x1f, 0x3d, 0xcb, 0x41, 0x16, 0xbe, 
  0x5f, 0x15, 0x7f, 0xbe, 0x31, 0xa7, 0x4d, 0xbe, 0x40, 0xdd, 0x9c, 0x3c, 
  0x00, 0x78, 0xdc, 0x3b, 0x80, 0x81, 0x50, 0x3c, 0x80, 0x28, 0x80, 0xbb, 
  0x0f, 0x7c, 0x36, 0xbe, 0x10, 0xa7, 0x90, 0xbc, 0xa0, 0xc7, 0xcb, 0x3d, 
  0x0e, 0x61, 0x7d, 0xbe, 0x12, 0x37, 0x0e, 0x3e, 0x3e, 0x40, 0x94, 0xbd, 
  0xd8, 0x21, 0x17, 0x3e, 0x27, 0x70, 0x30, 0xbe, 0xe4, 0x0a, 0x01, 0xbe, 
  0xca, 0x4e, 0x6c, 0x3e, 0x90, 0x6a, 0x26, 0x3e, 0x2e, 0x03, 0x7c, 0xbe, 
  0xc0, 0x14, 0xc5, 0xbb, 0x4a, 0xf1, 0x48, 0x3e, 0x27, 0x65, 0x86, 0xbe, 
  0x2b, 0xdf, 0x0a, 0xbe, 0xfc, 0xe5, 0x29, 0x3e, 0x6c, 0x20, 0x9e, 0x3d, 
  0xa0, 0x22, 0xf2, 0x3c, 0xda, 0x0c, 0x2c, 0x3e, 0x40, 0xc8, 0x00, 0x3c, 
  0xc0, 0x1b, 0x92, 0x3b, 0x4b, 0x40, 0x81, 0xbe, 0xfe, 0x0c, 0x51, 0x3e, 
  0xf6, 0x46, 0xa2, 0xbd, 0x9b, 0xd7, 0x80, 0x3e, 0xfc, 0x53, 0xaa, 0xbd, 
  0x08, 0x0c, 0x07, 0x3d, 0xc0, 0xf5, 0xd4, 0xbb, 0x5c, 0xb0, 0xf9, 0xbd, 
  0x51, 0x93, 0x8f, 0x3e, 0x70, 0xc7, 0xf4, 0x3c, 0x84, 0xd9, 0xfb, 0xbd, 
  0xe8, 0xfb, 0x95, 0xbd, 0xa8, 0xcf, 0x9a, 0xbe, 0xa0, 0xf0, 0xf4, 0xbc, 
  0x00, 0x79, 0xb3, 0x3b, 0xc0, 0xa0, 0x87, 0x3d, 0x00, 0xf7, 0x64, 0xbb, 
  0x0a, 0x17, 0x12, 0x3e, 0x97, 0xd3, 0x84, 0xbe, 0xa9, 0xe2, 0x20, 0xbe, 
  0x78, 0xd6, 0x2b, 0x3d, 0x01, 0x37, 0x67, 0xbe, 0x48, 0xdc, 0x41, 0xbd, 
  0xa2, 0x36, 0x48, 0x3e, 0x00, 0xc8, 0x84, 0x3c, 0x78, 0x5e, 0x53, 0xbd, 
  0x57, 0xec, 0x87, 0x3e, 0xa3, 0xec, 0x89, 0x3e, 0xec, 0xed, 0xd5, 0x3d, 
  0x1e, 0x43, 0x50, 0xbe, 0x14, 0x4d, 0x82, 0x3d, 0x34, 0xb7, 0x75, 0xbe, 
  0xa6, 0xa9, 0x40, 0x3e, 0xc4, 0x7f, 0xd8, 0x3d, 0x86, 0xe2, 0x4e, 0x3e, 
  0x68, 0xfc, 0x37, 0x3d, 0xee, 0xa3, 0x6d, 0x3e, 0x66, 0x81, 0xcb, 0xbd, 
  0xa0, 0x7c, 0xd7, 0xbc, 0x80, 0x89, 0x35, 0x3e, 0x7b, 0xaf, 0x08, 0xbe, 
  0x18, 0x77, 0xc3, 0xbd, 0xbb, 0x36, 0x97, 0x3e, 0xa5, 0x9c, 0x93, 0xbe, 
  0xbc, 0x6c, 0x91, 0xbe, 0xa0, 0x47, 0x04, 0xbc, 0x1d, 0x50, 0x86, 0x3e, 
  0x78, 0x44, 0xc0, 0x3d, 0xf2, 0xbe, 0x7e, 0x3e, 0xfc, 0xd2, 0x75, 0xbd, 
  0x2c, 0xd2, 0xf3, 0x3d, 0x65, 0x62, 0x80, 0x3e, 0xfe, 0x91, 0xa3, 0xbd, 
  0xb2, 0x07, 0xf2, 0xbd, 0xe0, 0x1a, 0x26, 0x3c, 0xa5, 0x5c, 0x67, 0xbe, 
  0x14, 0x29, 0x73, 0xbe, 0xa0, 0x66, 0x9a, 0xbc, 0xb7, 0xb5, 0x87, 0x3e, 
  0xa9, 0x84, 0x88, 0xbe, 0x00, 0x9a, 0x6d, 0x3a, 0x00, 0xc7, 0x25, 0x3e, 
  0xe6, 0x74, 0x04, 0xbe, 0x80, 0xed, 0x6c, 0x3d, 0xe7, 0x35, 0x99, 0x3e, 
  0x18, 0xdb, 0x01, 0xbd, 0x00, 0xed, 0x97, 0x3b, 0x50, 0xca, 0x92, 0xbd, 
  0x00, 0x60, 0x85, 0xb9, 0x00, 0xbf, 0x18, 0xbc, 0xb1, 0x31, 0x91, 0x3e, 
  0x0d, 0xd5, 0x61, 0xbe, 0x34, 0x4e, 0xd1, 0x3d, 0xa9, 0xbb, 0x85, 0x3e, 
  0x70, 0x50, 0xa6, 0x3c, 0xe1, 0xb2, 0x28, 0xbe, 0x88, 0x47, 0x8f, 0xbe, 
  0x42, 0x7d, 0x3d, 0xbe, 0x62, 0xad, 0x50, 0x3e, 0x86, 0x54, 0x3e, 0x3e, 
  0xa6, 0x7b, 0x59, 0x3e, 0xdb, 0x10, 0x68, 0xbe, 0xba, 0x1d, 0x6f, 0xbe, 
  0xf0, 0x9d, 0xfa, 0x3c, 0x59, 0xc1, 0x8b, 0x3e, 0x82, 0xe1, 0x87, 0xbd, 
  0x94, 0xf8, 0x98, 0xbe, 0xcf, 0x2c, 0x82, 0x3e, 0x82, 0x64, 0x4f, 0x3e, 
  0x80, 0x27, 0xfd, 0x3c, 0x58, 0x49, 0x0c, 0x3d, 0x53, 0xdb, 0x87, 0x3e, 
  0x4e, 0xe8, 0x50, 0xbe, 0x83, 0xf3, 0x92, 0x3e, 0xd0, 0x45, 0x0c, 0xbd, 
  0xde, 0x45, 0x25, 0xbe, 0x58, 0xf7, 0x24, 0x3d, 0xc4, 0x55, 0x8a, 0x3d, 
  0x24, 0x81, 0x24, 0x3e, 0x22, 0x5d, 0x5c, 0x3e, 0x36, 0x8e, 0x88, 0xbe, 
  0xde, 0x4d, 0xd9, 0xbd, 0xb2, 0x70, 0x10, 0xbe, 0x80, 0xb7, 0x21, 0x3e, 
  0xb0, 0x28, 0x62, 0xbd, 0x5c, 0x9a, 0x9a, 0xbe, 0xdd, 0x67, 0x3f, 0xbe, 
  0x7c, 0xa8, 0x3b, 0xbe, 0xbd, 0xd4, 0x0c, 0xbe, 0x93, 0x25, 0x8e, 0xbe, 
  0xc0, 0x3d, 0x9f, 0xbd, 0x54, 0x8f, 0x38, 0xbe, 0xd8, 0x82, 0x0f, 0x3e, 
  0x00, 0x2e, 0x40, 0xbb, 0xf1, 0xdd, 0x9a, 0x3e, 0xa1, 0x32, 0x85, 0x3e, 
  0xae, 0x72, 0x58, 0x3e, 0x76, 0x48, 0x92, 0xbe, 0xda, 0x36, 0xf3, 0xbd, 
  0x8b, 0xd2, 0x92, 0xbe, 0x78, 0xec, 0x2f, 0xbd, 0x86, 0x7d, 0xd2, 0xbd, 
  0xf2, 0x8b, 0x76, 0xbe, 0x08, 0x4b, 0x90, 0xbd, 0x88, 0x00, 0x62, 0xbe, 
  0x43, 0x1e, 0x39, 0xbe, 0x44, 0x37, 0xfe, 0x3d, 0x80, 0xb7, 0x19, 0x3d, 
  0x3a, 0x75, 0x51, 0x3e, 0xee, 0xf7, 0x7f, 0xbe, 0xe0, 0x83, 0xc6, 0xbc, 
  0x2f, 0xcd, 0x98, 0x3e, 0xf1, 0xf4, 0x81, 0x3e, 0x3a, 0x1f, 0x57, 0xbe, 
  0x77, 0x91, 0x92, 0x3e, 0x10, 0xea, 0x1a, 0x3e, 0x6e, 0x94, 0x6b, 0x3e, 
  0x00, 0x7b, 0xaf, 0xbb, 0x94, 0x8b, 0x04, 0x3e, 0x28, 0x6d, 0x4c, 0xbe, 
  0x50, 0x14, 0x2c, 0x3e, 0xdf, 0xa8, 0x9b, 0x3e, 0xe6, 0xe3, 0x96, 0xbe, 
  0x83, 0x55, 0x41, 0xbe, 0x3a, 0x21, 0x50, 0x3e, 0x14, 0x68, 0xaa, 0xbd, 
  0x4a, 0x22, 0x34, 0x3e, 0xb3, 0x45, 0x20, 0xbe, 0x78, 0xe5, 0x43, 0xbd, 
  0x6c, 0x7f, 0xb2, 0xbd, 0xca, 0x5f, 0x3d, 0x3e, 0x94, 0x26, 0xa9, 0x3d, 
  0xbe, 0x36, 0x36, 0x3e, 0x54, 0x83, 0x8c, 0x3d, 0x0c, 0x60, 0xb3, 0xbd, 
  0x98, 0x70, 0x32, 0xbe, 0x48, 0xb1, 0x5e, 0x3d, 0x00, 0x9b, 0x13, 0x3c, 
  0x44, 0x01, 0xc1, 0x3d, 0x41, 0x3d, 0x9b, 0x3e, 0x0a, 0x33, 0x6a, 0x3e, 
  0xce, 0x72, 0x83, 0xbe, 0x8b, 0x84, 0x88, 0x3e, 0xde, 0x7f, 0x02, 0x3e, 
  0xda, 0x1a, 0x6d, 0x3e, 0x0f, 0x01, 0x07, 0xbe, 0xb0, 0x03, 0x82, 0x3c, 
  0x84, 0x7d, 0x8d, 0xbe, 0xc0, 0x8e, 0x22, 0xbd, 0xc8, 0xdc, 0x6a, 0x3d, 
  0x44, 0xe3, 0x42, 0xbe, 0x66, 0x0b, 0x19, 0x3e, 0xc6, 0xd5, 0x27, 0xbe, 
  0x6e, 0xa6, 0x7b, 0x3e, 0xd1, 0x8e, 0x8f, 0x3e, 0x10, 0xa1, 0x71, 0xbe, 
  0xda, 0xf0, 0x72, 0x3e, 0x50, 0x27, 0x59, 0xbd, 0x5a, 0x7e, 0x7e, 0x3e, 
  0x70, 0xea, 0x6c, 0xbd, 0xc5, 0xcd, 0x83, 0x3e, 0x52, 0x01, 0x25, 0x3e, 
  0x14, 0xc8, 0x83, 0xbe, 0xba, 0x9d, 0x9c, 0xbe, 0x50, 0xaf, 0x75, 0x3d, 
  0x34, 0x7b, 0xee, 0x3d, 0xd8, 0x20, 0x7b, 0x3d, 0x12, 0xcd, 0x83, 0xbe, 
  0xf0, 0x50, 0xa4, 0x3d, 0xcb, 0xc7, 0x8a, 0x3e, 0x73, 0xa4, 0x8e, 0xbe, 
  0xb6, 0x0d, 0x6e, 0x3e, 0x20, 0xcb, 0x0b, 0x3d, 0x9c, 0xaa, 0x07, 0x3e, 
  0x6c, 0xb8, 0xf8, 0xbd, 0xc0, 0x52, 0x87, 0xbd, 0xba, 0x3c, 0x67, 0x3e, 
  0xd2, 0xb2, 0x50, 0x3e, 0x19, 0x3b, 0x67, 0xbe, 0x73, 0xdf, 0x8a, 0x3e, 
  0x52, 0xbf, 0x58, 0x3e, 0x78, 0x5b, 0x7e, 0x3d, 0x6c, 0x85, 0xcc, 0x3d, 
  0x75, 0x5f, 0x2f, 0xbe, 0xeb, 0xce, 0x91, 0x3e, 0x60, 0x6e, 0x7f, 0xbc, 
  0x94, 0xf7, 0x43, 0x3e, 0x07, 0xfe, 0x3f, 0xbe, 0x88, 0x58, 0xef, 0x3d, 
  0xab, 0xb6, 0x41, 0xbe, 0xcc, 0x82, 0xd1, 0x3d, 0xd1, 0xd2, 0x28, 0xbe, 
  0x76, 0xd6, 0x32, 0x3e, 0xa8, 0x69, 0x61, 0xbe, 0xe0, 0x07, 0xd3, 0x3d, 
  0xe6, 0x23, 0x40, 0x3e, 0x22, 0x45, 0x2a, 0x3e, 0x2e, 0xff, 0x4f, 0x3e, 
  0xe5, 0x34, 0x14, 0xbe, 0x6a, 0x22, 0x58, 0xbe, 0x4f, 0x09, 0x8b, 0xbe, 
  0x07, 0xa3, 0x9b, 0xbe, 0x77, 0xdc, 0x5e, 0xbe, 0x79, 0x02, 0x87, 0x3e, 
  0x5a, 0x16, 0x4f, 0x3e, 0xda, 0xd7, 0x6d, 0x3e, 0x88, 0x41, 0x5d, 0x3d, 
  0x91, 0x60, 0x84, 0xbe, 0xec, 0x4a, 0x90, 0xbd, 0x06, 0xc9, 0x38, 0x3e, 
  0x5a, 0x23, 0xf1, 0xbd, 0x5e, 0x69, 0x78, 0x3e, 0xde, 0x15, 0x7b, 0x3e, 
  0x50, 0x6c, 0xb8, 0x3d, 0xb1, 0x68, 0x83, 0xbe, 0xa0, 0xf2, 0xd9, 0x3d, 
  0x69, 0xb1, 0x86, 0x3e, 0xa4, 0xb8, 0x24, 0x3e, 0x92, 0x5e, 0x51, 0x3e, 
  0x0a, 0x8b, 0x3f, 0x3e, 0xa0, 0xe0, 0x13, 0xbd, 0x30, 0xda, 0x01, 0xbd, 
  0x7b, 0x65, 0x95, 0x3e, 0x92, 0xba, 0x20, 0xbe, 0xd0, 0x0b, 0x57, 0xbd, 
  0x1c, 0x3f, 0xbc, 0x3d, 0x10, 0x65, 0x6d, 0x3d, 0x24, 0x16, 0x1a, 0x3e, 
  0x0b, 0xcd, 0x64, 0xbe, 0x00, 0xf7, 0x31, 0x3e, 0x10, 0xd7, 0xf4, 0xbc, 
  0x47, 0xa7, 0x67, 0xbe, 0x2d, 0x17, 0x92, 0x3e, 0x6b, 0x3e, 0x8a, 0x3e, 
  0xd2, 0xb8, 0x47, 0x3e, 0x4d, 0x39, 0x9a, 0x3e, 0x7c, 0xa3, 0x44, 0x3e, 
  0xd6, 0x5a, 0x13, 0x3e, 0x09, 0x13, 0x02, 0xbe, 0x40, 0xad, 0x21, 0xbd, 
  0x1e, 0x13, 0x4d, 0x3e, 0xe8, 0x32, 0x16, 0x3e, 0x0a, 0xb1, 0x3f, 0x3e, 
  0x58, 0xe1, 0x93, 0xbe, 0x18, 0xaa, 0x20, 0x3e, 0xc0, 0x7c, 0x83, 0xbc, 
  0xfd, 0xe5, 0x86, 0xbe, 0x13, 0x97, 0x8f, 0x3e, 0x68, 0x2f, 0x34, 0x3d, 
  0xe0, 0x6f, 0x21, 0xbd, 0x8a, 0x74, 0x8c, 0xbe, 0x80, 0x6a, 0xe5, 0x3d, 
  0xb1, 0x30, 0x6d, 0xbe, 0x40, 0x79, 0xc7, 0x3c, 0xfe, 0xaa, 0x58, 0x3e, 
  0xe8, 0xb0, 0xd0, 0x3d, 0xcf, 0x7b, 0x02, 0xbe, 0x72, 0x6f, 0x81, 0xbe, 
  0xb0, 0x75, 0x03, 0xbd, 0x74, 0x6f, 0x31, 0xbe, 0x5e, 0x33, 0x60, 0x3e, 
  0x4f, 0xe3, 0x18, 0xbe, 0xdc, 0x0d, 0x7e, 0xbd, 0x58, 0x3d, 0x58, 0xbe, 
  0x0c, 0xd6, 0x05, 0xbe, 0x22, 0x9d, 0x3e, 0x3e, 0x00, 0xe2, 0x91, 0xbc, 
  0xb2, 0xf2, 0x5f, 0x3e, 0x7f, 0x0a, 0x91, 0x3e, 0x78, 0x75, 0x87, 0xbd, 
  0x95, 0xbf, 0x86, 0x3e, 0x35, 0xfc, 0x69, 0xbe, 0x70, 0xa1, 0x91, 0xbe, 
  0xa2, 0xf6, 0x51, 0x3e, 0x96, 0x56, 0x83, 0xbe, 0xd9, 0xb9, 0x96, 0xbe, 
  0x2c, 0x8c, 0x80, 0xbd, 0x70, 0x96, 0x0e, 0xbd, 0xda, 0xf2, 0x91, 0xbe, 
  0xad, 0xac, 0x85, 0x3e, 0xcc, 0xaa, 0x7e, 0xbe, 0x72, 0x0f, 0x6f, 0x3e, 
  0x40, 0x4b, 0x02, 0x3d, 0x84, 0x02, 0x20, 0x3e, 0x78, 0xc4, 0xd8, 0xbd, 
  0x1a, 0x38, 0x94, 0xbe, 0xf2, 0xb7, 0x4e, 0x3e, 0xe8, 0xd8, 0x57, 0xbd, 
  0xb4, 0x85, 0xdd, 0x3d, 0x91, 0xfe, 0x96, 0xbe, 0x28, 0xd5, 0x45, 0x3e, 
  0xc4, 0x1b, 0x3e, 0xbe, 0xbc, 0xae, 0x3c, 0xbe, 0xc8, 0xa8, 0x92, 0xbd, 
  0xc5, 0xb7, 0x8f, 0xbe, 0x84, 0x63, 0x93, 0x3d, 0x43, 0x33, 0x9c, 0x3e, 
  0x94, 0x06, 0x7b, 0xbe, 0x40, 0x72, 0xe8, 0x3c, 0xbc, 0xb4, 0x20, 0x3e, 
  0xf1, 0xbd, 0x83, 0x3e, 0xdd, 0x8a, 0x84, 0x3e, 0xd4, 0x17, 0x9b, 0xbe, 
  0xa8, 0xf5, 0x1f, 0x3d, 0xc2, 0x0d, 0x0e, 0x3e, 0x46, 0xf7, 0x55, 0x3e, 
  0x26, 0x12, 0x09, 0x3e, 0xa6, 0x52, 0x23, 0xbe, 0x30, 0x22, 0xc1, 0x3d, 
  0x06, 0x58, 0x89, 0xbe, 0x40, 0xce, 0x2f, 0xbd, 0xa0, 0x4c, 0x22, 0xbd, 
  0x36, 0x31, 0x95, 0xbd, 0x9c, 0x80, 0x64, 0xbe, 0xaf, 0xd5, 0x88, 0xbe, 
  0xf4, 0x14, 0x92, 0xbe, 0xf8, 0xed, 0x3b, 0x3d, 0xc6, 0x52, 0x8d, 0xbe, 
  0xf9, 0xf1, 0x88, 0x3e, 0x00, 0x15, 0xd1, 0xbc, 0xd2, 0x12, 0x45, 0xbe, 
  0x62, 0xbc, 0x92, 0xbe, 0xb0, 0xe6, 0xae, 0x3d, 0x59, 0x17, 0x14, 0xbe, 
  0xbe, 0xd4, 0x40, 0x3e, 0xa4, 0x30, 0xcb, 0x3d, 0x27, 0xf5, 0x81, 0x3e, 
  0x0e, 0x0e, 0x20, 0x3e, 0x4c, 0xbf, 0xdc, 0x3d, 0x91, 0xb8, 0x1f, 0xbe, 
  0xba, 0x9f, 0x47, 0x3e, 0xe2, 0xa9, 0x0f, 0xbe, 0x85, 0x21, 0x32, 0xbe, 
  0xf0, 0x91, 0xdc, 0x3c, 0xe0, 0x8b, 0x6f, 0xbc, 0x60, 0x90, 0xb2, 0x3d, 
  0x20, 0x13, 0x9c, 0xbd, 0x94, 0x64, 0xee, 0xbd, 0xaf, 0xb0, 0x89, 0x3e, 
  0xb6, 0x25, 0x6e, 0x3e, 0x40, 0xb6, 0x56, 0xbc, 0xb1, 0xa9, 0x28, 0xbe, 
  0x12, 0x77, 0x31, 0xbe, 0x20, 0x77, 0x91, 0xbe, 0xeb, 0x4f, 0x82, 0xbe, 
  0x64, 0x7d, 0x87, 0xbd, 0xe8, 0x3b, 0x9b, 0x3d, 0x29, 0x9c, 0x8b, 0x3e, 
  0x52, 0x2d, 0x05, 0xbe, 0x92, 0x0d, 0x48, 0x3e, 0xce, 0x67, 0x69, 0x3e, 
  0x6c, 0x0c, 0xf8, 0xbd, 0x80, 0xcf, 0x20, 0xbd, 0x90, 0xf8, 0xf6, 0x3c, 
  0xcf, 0x96, 0x94, 0x3e, 0x86, 0x0c, 0x5d, 0x3e, 0x97, 0x41, 0x95, 0x3e, 
  0xc4, 0x04, 0xe1, 0x3d, 0xb0, 0x5f, 0x98, 0xbc, 0x90, 0xf1, 0x46, 0xbe, 
  0xf6, 0x69, 0xa7, 0xbd, 0xfb, 0x03, 0x95, 0xbe, 0x2b, 0xbf, 0x1b, 0xbe, 
  0xf4, 0x33, 0xff, 0xbd, 0x54, 0x7f, 0xb4, 0xbd, 0x00, 0x0f, 0xd1, 0xbb, 
  0x4c, 0x8d, 0x5c, 0xbe, 0xb0, 0x3b, 0xcd, 0x3d, 0x5f, 0x7e, 0x96, 0xbe, 
  0x0b, 0x07, 0x8f, 0x3e, 0xfb, 0xa2, 0x62, 0xbe, 0x80, 0x4f, 0xa5, 0x3c, 
  0xdb, 0x71, 0x91, 0x3e, 0xa8, 0x8b, 0x12, 0x3e, 0x0c, 0x87, 0xba, 0xbd, 
  0xca, 0xdc, 0x28, 0xbe, 0x28, 0x7c, 0x20, 0xbd, 0xde, 0x1f, 0x7c, 0x3e, 
  0x32, 0x42, 0x46, 0x3e, 0x5c, 0x39, 0xf9, 0x3d, 0xea, 0x35, 0x75, 0x3e, 
  0xa7, 0x63, 0x8f, 0xbe, 0xc1, 0xf8, 0x86, 0xbe, 0xd2, 0x04, 0xea, 0xbd, 
  0x94, 0x86, 0x95, 0xbe, 0x60, 0x86, 0x70, 0xbe, 0x2a, 0xd4, 0x77, 0x3e, 
  0x01, 0x4f, 0x71, 0xbe, 0xda, 0xc2, 0x40, 0x3e, 0xd6, 0x6c, 0xed, 0xbd, 
  0x5c, 0x83, 0x39, 0x3e, 0x2f, 0x13, 0x93, 0xbe, 0xfc, 0x93, 0x78, 0xbd, 
  0xa4, 0x3b, 0x80, 0xbe, 0xa8, 0x56, 0x24, 0x3e, 0xb2, 0x26, 0x99, 0xbe, 
  0xec, 0x47, 0x26, 0xbe, 0xf0, 0xb8, 0x1a, 0x3d, 0x20, 0x9f, 0x81, 0x3d, 
  0xa4, 0xba, 0x40, 0xbe, 0x6e, 0x22, 0x05, 0xbe, 0x00, 0x03, 0xfc, 0x3a, 
  0x18, 0xfa, 0x10, 0x3e, 0xc0, 0xe0, 0x96, 0xbc, 0x24, 0x3d, 0xf4, 0x3d, 
  0xf9, 0x83, 0x1e, 0xbe, 0x80, 0x30, 0xe6, 0xbb, 0xc0, 0xe5, 0x31, 0x3d, 
  0x18, 0x2a, 0x2d, 0x3d, 0xe8, 0x07, 0x89, 0x3d, 0xe3, 0xde, 0x98, 0xbe, 
  0xa8, 0x36, 0x15, 0xbd, 0x9a, 0xd5, 0x76, 0xbe, 0xda, 0x3a, 0x75, 0x3e, 
  0x70, 0x71, 0x76, 0xbd, 0xab, 0x8e, 0x9a, 0xbe, 0x7c, 0x28, 0x28, 0x3e, 
  0xdc, 0x5f, 0x89, 0x3d, 0x5a, 0xa2, 0x5d, 0x3e, 0x9c, 0x16, 0xe2, 0x3d, 
  0x64, 0x8b, 0x74, 0xbe, 0x64, 0xe7, 0x34, 0x3e, 0x24, 0x9a, 0x06, 0x3e, 
  0x3a, 0x95, 0x4b, 0x3e, 0x84, 0x6b, 0x85, 0xbe, 0x2d, 0xd8, 0x3f, 0xbe, 
  0xbc, 0x20, 0x41, 0x3e, 0xc0, 0x06, 0xc1, 0xbb, 0x4a, 0x80, 0x0c, 0xbe, 
  0xf4, 0xf4, 0x6b, 0xbd, 0xd8, 0xaa, 0x79, 0xbd, 0x40, 0xd1, 0xff, 0x3c, 
  0xd3, 0x21, 0x8f, 0x3e, 0x88, 0x46, 0xde, 0x3d, 0x70, 0x78, 0xeb, 0x3c, 
  0x70, 0x9f, 0x0d, 0x3d, 0x7c, 0xda, 0x90, 0xbd, 0x98, 0x67, 0xb7, 0x3d, 
  0x2b, 0xb5, 0x48, 0xbe, 0xfc, 0xc0, 0xe0, 0xbd, 0xf0, 0x27, 0x4b, 0xbd, 
  0x70, 0x86, 0x83, 0xbe, 0x50, 0x33, 0xde, 0xbd, 0x3e, 0xc8, 0x5e, 0x3e, 
  0x07, 0xab, 0x98, 0x3e, 0x68, 0x7c, 0x27, 0x3d, 0x4c, 0x2d, 0x10, 0x3e, 
  0xf6, 0x6b, 0x6a, 0x3e, 0xe0, 0x11, 0x49, 0x3d, 0xe0, 0xfe, 0x7a, 0x3d, 
  0x0f, 0xc3, 0x96, 0x3e, 0xc8, 0xd3, 0x03, 0x3d, 0xce, 0xee, 0xec, 0xbd, 
  0x17, 0xb4, 0x82, 0xbe, 0xfa, 0xce, 0x15, 0x3e, 0x9b, 0x9f, 0x80, 0x3e, 
  0x80, 0x11, 0x86, 0xbc, 0x33, 0x43, 0x95, 0x3e, 0x74, 0xdd, 0x8b, 0xbd, 
  0x75, 0xa3, 0x80, 0xbe, 0x81, 0x5a, 0x26, 0xbe, 0xa8, 0xf7, 0x14, 0xbd, 
  0x26, 0xd3, 0x25, 0x3e, 0x18, 0xcb, 0xec, 0xbd, 0xd8, 0x19, 0x18, 0xbd, 
  0x46, 0xdd, 0x2b, 0x3e, 0x40, 0xf5, 0x35, 0x3d, 0x38, 0x9e, 0xc4, 0xbd, 
  0x72, 0x47, 0x13, 0xbe, 0x00, 0x0a, 0x0b, 0xbd, 0xb2, 0xdb, 0x4f, 0x3e, 
  0x00, 0xcd, 0x11, 0xbc, 0x34, 0x63, 0x79, 0xbd, 0x00, 0x5d, 0xc4, 0x3b, 
  0xa6, 0xd3, 0x8f, 0xbe, 0x7d, 0x3e, 0x6f, 0xbe, 0xfc, 0x32, 0x09, 0xbe, 
  0xbc, 0x13, 0xec, 0x3d, 0x78, 0x4e, 0x58, 0xbe, 0xa0, 0xe9, 0x24, 0x3e, 
  0x38, 0xec, 0x53, 0xbe, 0x9f, 0x92, 0x8f, 0x3e, 0x46, 0xcd, 0x9b, 0xbe, 
  0x0b, 0xd4, 0x15, 0xbe, 0x9c, 0x4b, 0xbe, 0xbd, 0x7c, 0x90, 0x16, 0xbe, 
  0x60, 0xc8, 0xa3, 0xbd, 0x91, 0xfa, 0x79, 0xbe, 0xa0, 0x28, 0x81, 0x3d, 
  0x12, 0xf7, 0x7a, 0x3e, 0xf6, 0xaf, 0x46, 0xbe, 0xb3, 0x8c, 0x8f, 0xbe, 
  0x88, 0x7d, 0x0e, 0x3e, 0x68, 0x90, 0xd4, 0x3d, 0xf6, 0xa6, 0x80, 0xbd, 
  0x6b, 0xe0, 0x01, 0xbe, 0x50, 0x2e, 0x82, 0xbe, 0x04, 0x5b, 0x92, 0xbd, 
  0x71, 0x6a, 0x4e, 0xbe, 0xd6, 0xd5, 0x39, 0x3e, 0xf2, 0xed, 0x9a, 0xbd, 
  0x70, 0x8d, 0xce, 0x3c, 0x00, 0x16, 0x42, 0x3a, 0x80, 0x58, 0x20, 0xbb, 
  0xa3, 0x62, 0x88, 0xbe, 0xc0, 0xa4, 0x9c, 0xbc, 0xe0, 0x00, 0x00, 0xbe, 
  0xcb, 0x6c, 0x12, 0xbe, 0xae, 0xd4, 0x1b, 0x3e, 0xb0, 0x7e, 0xfe, 0x3d, 
  0x13, 0xc6, 0x77, 0xbe, 0xea, 0xc1, 0x80, 0xbe, 0xf0, 0xa5, 0x83, 0xbc, 
  0x89, 0x92, 0x81, 0x3e, 0x1d, 0xee, 0x88, 0x3e, 0x97, 0xd1, 0x81, 0x3e, 
  0x0e, 0x2f, 0x12, 0x3e, 0x34, 0xd2, 0xe0, 0x3d, 0x68, 0x57, 0x39, 0x3e, 
  0xbc, 0x56, 0x0f, 0xbe, 0x4b, 0xca, 0x99, 0x3e, 0x14, 0x45, 0x83, 0xbe, 
  0x70, 0x70, 0xfb, 0x3c, 0x80, 0xc1, 0x56, 0x3d, 0x0e, 0xb6, 0x05, 0x3e, 
  0x74, 0xd3, 0x75, 0xbe, 0x53, 0x6c, 0x81, 0xbe, 0x80, 0x4e, 0x89, 0xbc, 
  0x60, 0xd9, 0xa8, 0xbc, 0xca, 0xcc, 0x58, 0xbe, 0xa0, 0xef, 0x04, 0x3e, 
  0xde, 0xe0, 0x9f, 0xbd, 0x58, 0x7a, 0x65, 0xbe, 0x28, 0xbe, 0xe0, 0x3d, 
  0x52, 0x77, 0xf8, 0xbd, 0x90, 0xd5, 0x57, 0xbe, 0xe4, 0x39, 0x5f, 0xbe, 
  0x70, 0xd7, 0xde, 0x3d, 0xc8, 0x99, 0x31, 0x3e, 0x60, 0x88, 0x51, 0x3d, 
  0x0e, 0x07, 0x64, 0x3e, 0x0a, 0xae, 0xe0, 0xbd, 0x9a, 0x97, 0x6b, 0x3e, 
  0xbc, 0x49, 0x93, 0xbe, 0x00, 0x89, 0x13, 0x3c, 0x30, 0x72, 0xf7, 0x3d, 
  0x76, 0x95, 0x9a, 0xbe, 0xc2, 0xed, 0x37, 0xbe, 0xb2, 0x02, 0x59, 0xbe, 
  0xfb, 0x37, 0x07, 0xbe, 0x5a, 0x1d, 0x8d, 0xbe, 0x70, 0xb1, 0x02, 0x3d, 
  0xcf, 0xa2, 0x32, 0xbe, 0x12, 0x23, 0x7b, 0xbe, 0x31, 0xbf, 0x6e, 0xbe, 
  0x7b, 0x24, 0x09, 0xbe, 0x1d, 0xd1, 0x95, 0x3e, 0x20, 0x92, 0x30, 0x3d, 
  0x30, 0xf4, 0xa3, 0x3c, 0x54, 0xd7, 0xa5, 0x3d, 0x90, 0x09, 0x12, 0x3d, 
  0x83, 0x42, 0x90, 0x3e, 0xfa, 0x57, 0x35, 0xbe, 0xd0, 0x20, 0x23, 0x3d, 
  0xd5, 0xd9, 0x8d, 0x3e, 0x25, 0x24, 0x8a, 0x3e, 0x70, 0x6e, 0xf4, 0x3d, 
  0x60, 0xb7, 0x24, 0xbc, 0xcd, 0x84, 0x8e, 0x3e, 0x86, 0x13, 0x1e, 0x3e, 
  0x00, 0x00, 0x06, 0x00, 0x08, 0x00, 0x04, 0x00, 0x06, 0x00, 0x00, 0x00, 
  0x04, 0x00, 0x00, 0x00, 0x80, 0x02, 0x00, 0x00, 0x74, 0x79, 0x7d, 0x3e, 
  0x3c, 0xbb, 0xbc, 0x3d, 0xc2, 0xa9, 0x9b, 0x3e, 0x09, 0x94, 0x2d, 0xbe, 
  0x78, 0xfd, 0x66, 0x3e, 0x08, 0xf7, 0x50, 0xbd, 0xc0, 0xbb, 0x33, 0xbe, 
  0x8c, 0x5e, 0xef, 0xbd, 0x50, 0xb5, 0x91, 0x3c, 0xc8, 0x76, 0xa4, 0xbd, 
  0x80, 0xef, 0x86, 0xbe, 0xb6, 0xa0, 0x1a, 0xbe, 0x12, 0xe5, 0x5b, 0xbe, 
  0x5b, 0x27, 0x41, 0xbe, 0xdc, 0x5b, 0x99, 0x3e, 0xb8, 0xfd, 0x6c, 0x3d, 
  0x98, 0x61, 0x2e, 0xbd, 0x80, 0x86, 0x5d, 0x3c, 0x9c, 0x7f, 0x5c, 0x3e, 
  0xbe, 0x08, 0xb9, 0x3e, 0xc8, 0x0f, 0x30, 0xbd, 0x60, 0x8d, 0x94, 0x3d, 
  0xd4, 0x8d, 0x2c, 0xbe, 0x14, 0x18, 0x7c, 0x3e, 0x22, 0x99, 0x89, 0xbe, 
  0x34, 0xa8, 0xec, 0xbd, 0x55, 0xfc, 0xa5, 0xbe, 0x0a, 0x06, 0x8f, 0x3e, 
  0x20, 0x69, 0x9d, 0x3e, 0xdc, 0xeb, 0x4e, 0x3e, 0xbc, 0xae, 0x9a, 0xbd, 
  0x70, 0xf4, 0x29, 0x3d, 0x00, 0x66, 0x5e, 0x3c, 0x10, 0xec, 0x31, 0xbd, 
  0x94, 0x8c, 0xad, 0xbd, 0x9e, 0x5f, 0xc8, 0xbe, 0xc0, 0xc7, 0xb4, 0x3c, 
  0xd8, 0xad, 0xdd, 0x3d, 0xf8, 0x48, 0xbb, 0x3e, 0xf2, 0x03, 0x99, 0x3e, 
  0x02, 0x4c, 0x17, 0xbe, 0xa4, 0x42, 0xb8, 0x3e, 0xc2, 0xd4, 0x14, 0xbe, 
  0x38, 0x64, 0x3d, 0x3d, 0xf5, 0xbb, 0x62, 0xbe, 0x50, 0xc2, 0x1b, 0x3d, 
  0xc8, 0x0e, 0x37, 0x3d, 0x0e, 0xe5, 0x91, 0x3e, 0xe0, 0x32, 0x41, 0xbc, 
  0x98, 0x9a, 0x87, 0x3e, 0xa7, 0xbe, 0xcb, 0xbe, 0x3a, 0x58, 0x92, 0x3e, 
  0x08, 0x00, 0xfd, 0x3d, 0x0c, 0x50, 0x31, 0x3e, 0x10, 0xb0, 0xf9, 0xbd, 
  0x10, 0x14, 0xac, 0x3c, 0x30, 0xd1, 0x9d, 0x3d, 0x80, 0x77, 0x04, 0xbb, 
  0x19, 0x57, 0x47, 0xbe, 0x64, 0x9c, 0xc1, 0xbd, 0x26, 0x0a, 0x26, 0xbe, 
  0x5f, 0x4c, 0x88, 0xbe, 0xb4, 0xbe, 0xc1, 0xbe, 0x30, 0xad, 0x0c, 0x3e, 
  0x54, 0xd8, 0xbd, 0xbe, 0x78, 0xda, 0x43, 0xbd, 0x7e, 0xe9, 0xab, 0x3e, 
  0xfc, 0x04, 0xa6, 0x3d, 0xc4, 0x9f, 0x8c, 0xbe, 0xf4, 0x12, 0x64, 0xbe, 
  0x54, 0x3a, 0x83, 0x3e, 0x96, 0x8f, 0x83, 0xbe, 0x30, 0x7a, 0x48, 0x3d, 
  0xea, 0x20, 0x3b, 0xbe, 0xb4, 0x24, 0xda, 0xbd, 0xae, 0x4b, 0x8e, 0x3e, 
  0xb1, 0x94, 0x74, 0xbe, 0xae, 0x6f, 0xb7, 0x3e, 0xc0, 0x38, 0x39, 0x3c, 
  0xbb, 0xd8, 0xba, 0xbe, 0x8c, 0x74, 0xb4, 0xbe, 0x98, 0xc0, 0x77, 0x3e, 
  0x9b, 0x20, 0x63, 0xbe, 0x31, 0x25, 0xaf, 0xbe, 0x6b, 0xde, 0xb8, 0xbe, 
  0x38, 0xe6, 0x40, 0x3d, 0xe8, 0x4e, 0x0a, 0x3e, 0x5e, 0x82, 0x97, 0x3e, 
  0x14, 0x9a, 0x09, 0xbe, 0xf3, 0x26, 0x6d, 0xbe, 0xa0, 0xfc, 0x15, 0xbd, 
  0xac, 0x0a, 0x28, 0x3e, 0xd1, 0x71, 0x44, 0xbe, 0xe6, 0x72, 0xa6, 0xbe, 
  0xd0, 0x3c, 0xad, 0x3e, 0x12, 0xee, 0xbc, 0xbe, 0xcc, 0x3b, 0xea, 0xbd, 
  0x48, 0xec, 0x0b, 0xbe, 0xb0, 0xd5, 0x38, 0x3e, 0x54, 0x22, 0x6a, 0xbe, 
  0xf0, 0x0a, 0x9e, 0x3d, 0x8a, 0x99, 0x0a, 0xbe, 0xf6, 0x84, 0x1d, 0xbe, 
  0x50, 0x6b, 0xc0, 0x3e, 0x5e, 0x34, 0xc9, 0xbe, 0xc4, 0xee, 0xb9, 0xbe, 
  0xe4, 0xc3, 0x2a, 0x3e, 0xee, 0x24, 0xaf, 0xbe, 0xaa, 0x34, 0x12, 0xbe, 
  0xc1, 0xc0, 0x55, 0xbe, 0x60, 0x3a, 0xeb, 0xbc, 0x80, 0xde, 0x5a, 0xbd, 
  0xe0, 0x36, 0x30, 0x3e, 0x98, 0x09, 0xcc, 0xbe, 0xae, 0xca, 0x17, 0xbe, 
  0xb8, 0xb8, 0x91, 0xbe, 0x3c, 0xed, 0xd1, 0xbd, 0xd0, 0x9c, 0x66, 0x3d, 
  0x0a, 0x68, 0xc4, 0xbe, 0xec, 0xd9, 0xcd, 0x3e, 0xb2, 0x9b, 0xb3, 0x3e, 
  0xf5, 0x58, 0x69, 0xbe, 0x58, 0xd9, 0x60, 0x3d, 0x46, 0x22, 0xb8, 0x3e, 
  0x44, 0xa7, 0x88, 0x3e, 0x10, 0x66, 0x61, 0xbd, 0xa0, 0x1a, 0x74, 0xbe, 
  0x60, 0xc8, 0x8d, 0x3c, 0xa5, 0xf8, 0xad, 0xbe, 0x6c, 0xdd, 0xc0, 0xbe, 
  0x90, 0x37, 0x43, 0x3e, 0xa2, 0x1f, 0x98, 0xbe, 0x50, 0x96, 0xc7, 0x3d, 
  0x34, 0x1f, 0xca, 0x3e, 0xa8, 0x48, 0x9d, 0xbe, 0x57, 0x1d, 0xb5, 0xbe, 
  0x78, 0x12, 0x76, 0x3e, 0x8c, 0x5c, 0xbb, 0xbe, 0x9c, 0x5d, 0xa9, 0xbe, 
  0x10, 0x3a, 0xe0, 0xbd, 0x3a, 0x63, 0x02, 0xbe, 0x38, 0xff, 0x89, 0x3e, 
  0x34, 0x44, 0x5c, 0x3e, 0x00, 0x94, 0x60, 0xbb, 0xbf, 0xaa, 0x44, 0xbe, 
  0x58, 0x31, 0xa7, 0x3d, 0x30, 0x26, 0xa9, 0x3e, 0xd8, 0xc9, 0xbe, 0xbe, 
  0x54, 0x93, 0x1b, 0x3e, 0x4e, 0x71, 0xa2, 0xbe, 0x2a, 0x8f, 0xb2, 0xbe, 
  0x2c, 0x24, 0x08, 0x3e, 0xd8, 0x43, 0x20, 0x3e, 0x72, 0xd3, 0xb2, 0x3e, 
  0x53, 0x4b, 0xa8, 0xbe, 0xfc, 0x17, 0x1b, 0x3e, 0x08, 0x87, 0x87, 0xbd, 
  0xd7, 0x36, 0x90, 0xbe, 0x84, 0x5a, 0x06, 0xbe, 0x74, 0x91, 0x6c, 0x3e, 
  0x60, 0xfb, 0xff, 0xff, 0x64, 0xfb, 0xff, 0xff, 0x0f, 0x00, 0x00, 0x00, 
  0x4d, 0x4c, 0x49, 0x52, 0x20, 0x43, 0x6f, 0x6e, 0x76, 0x65, 0x72, 0x74, 
  0x65, 0x64, 0x2e, 0x00, 0x01, 0x00, 0x00, 0x00, 0x14, 0x00, 0x00, 0x00, 
  0x00, 0x00, 0x0e, 0x00, 0x18, 0x00, 0x14, 0x00, 0x10, 0x00, 0x0c, 0x00, 
  0x08, 0x00, 0x04, 0x00, 0x0e, 0x00, 0x00, 0x00, 0x14, 0x00, 0x00, 0x00, 
  0x1c, 0x00, 0x00, 0x00, 0x08, 0x01, 0x00, 0x00, 0x0c, 0x01, 0x00, 0x00, 
  0x10, 0x01, 0x00, 0x00, 0x04, 0x00, 0x00, 0x00, 0x6d, 0x61, 0x69, 0x6e, 
  0x00, 0x00, 0x00, 0x00, 0x04, 0x00, 0x00, 0x00, 0xb0, 0x00, 0x00, 0x00, 
  0x68, 0x00, 0x00, 0x00, 0x34, 0x00, 0x00, 0x00, 0x10, 0x00, 0x00, 0x00, 
  0x00, 0x00, 0x0a, 0x00, 0x10, 0x00, 0x0c, 0x00, 0x08, 0x00, 0x04, 0x00, 
  0x0a, 0x00, 0x00, 0x00, 0x0c, 0x00, 0x00, 0x00, 0x10, 0x00, 0x00, 0x00, 
  0x01, 0x00, 0x00, 0x00, 0x01, 0x00, 0x00, 0x00, 0x07, 0x00, 0x00, 0x00, 
  0x01, 0x00, 0x00, 0x00, 0x06, 0x00, 0x00, 0x00, 0x9a, 0xff, 0xff, 0xff, 
  0x10, 0x00, 0x00, 0x00, 0x00, 0x00, 0x00, 0x08, 0x0c, 0x00, 0x00, 0x00, 
  0x10, 0x00, 0x00, 0x00, 0x0c, 0xfc, 0xff, 0xff, 0x01, 0x00, 0x00, 0x00, 
  0x06, 0x00, 0x00, 0x00, 0x03, 0x00, 0x00, 0x00, 0x05, 0x00, 0x00, 0x00, 
  0x03, 0x00, 0x00, 0x00, 0xff, 0xff, 0xff, 0xff, 0xca, 0xff, 0xff, 0xff, 
  0x10, 0x00, 0x00, 0x00, 0x00, 0x00, 0x00, 0x08, 0x10, 0x00, 0x00, 0x00, 
  0x14, 0x00, 0x00, 0x00, 0xba, 0xff, 0xff, 0xff, 0x00, 0x00, 0x00, 0x01, 
  0x01, 0x00, 0x00, 0x00, 0x05, 0x00, 0x00, 0x00, 0x03, 0x00, 0x00, 0x00, 
  0x04, 0x00, 0x00, 0x00, 0x02, 0x00, 0x00, 0x00, 0xff, 0xff, 0xff, 0xff, 
  0x00, 0x00, 0x0e, 0x00, 0x16, 0x00, 0x00, 0x00, 0x10, 0x00, 0x0c, 0x00, 
  0x0b, 0x00, 0x04, 0x00, 0x0e, 0x00, 0x00, 0x00, 0x18, 0x00, 0x00, 0x00, 
  0x00, 0x00, 0x00, 0x08, 0x18, 0x00, 0x00, 0x00, 0x1c, 0x00, 0x00, 0x00, 
  0x00, 0x00, 0x06, 0x00, 0x08, 0x00, 0x07, 0x00, 0x06, 0x00, 0x00, 0x00, 
  0x00, 0x00, 0x00, 0x01, 0x01, 0x00, 0x00, 0x00, 0x04, 0x00, 0x00, 0x00, 
  0x03, 0x00, 0x00, 0x00, 0x00, 0x00, 0x00, 0x00, 0x01, 0x00, 0x00, 0x00, 
  0xff, 0xff, 0xff, 0xff, 0x01, 0x00, 0x00, 0x00, 0x07, 0x00, 0x00, 0x00, 
  0x01, 0x00, 0x00, 0x00, 0x00, 0x00, 0x00, 0x00, 0x08, 0x00, 0x00, 0x00, 
  0x1c, 0x03, 0x00, 0x00, 0xb4, 0x02, 0x00, 0x00, 0x50, 0x02, 0x00, 0x00, 
  0x04, 0x02, 0x00, 0x00, 0x70, 0x01, 0x00, 0x00, 0xdc, 0x00, 0x00, 0x00, 
  0x60, 0x00, 0x00, 0x00, 0x04, 0x00, 0x00, 0x00, 0x1a, 0xfd, 0xff, 0xff, 
  0x00, 0x00, 0x00, 0x01, 0x14, 0x00, 0x00, 0x00, 0x1c, 0x00, 0x00, 0x00, 
  0x1c, 0x00, 0x00, 0x00, 0x08, 0x00, 0x00, 0x00, 0x34, 0x00, 0x00, 0x00, 
  0x02, 0x00, 0x00, 0x00, 0xff, 0xff, 0xff, 0xff, 0x04, 0x00, 0x00, 0x00, 
  0x04, 0xfd, 0xff, 0xff, 0x19, 0x00, 0x00, 0x00, 0x53, 0x74, 0x61, 0x74, 
  0x65, 0x66, 0x75, 0x6c, 0x50, 0x61, 0x72, 0x74, 0x69, 0x74, 0x69, 0x6f, 
  0x6e, 0x65, 0x64, 0x43, 0x61, 0x6c, 0x6c, 0x3a, 0x30, 0x00, 0x00, 0x00, 
  0x02, 0x00, 0x00, 0x00, 0x01, 0x00, 0x00, 0x00, 0x04, 0x00, 0x00, 0x00, 
  0x72, 0xfd, 0xff, 0xff, 0x00, 0x00, 0x00, 0x01, 0x14, 0x00, 0x00, 0x00, 
  0x1c, 0x00, 0x00, 0x00, 0x1c, 0x00, 0x00, 0x00, 0x07, 0x00, 0x00, 0x00, 
  0x54, 0x00, 0x00, 0x00, 0x02, 0x00, 0x00, 0x00, 0xff, 0xff, 0xff, 0xff, 
  0x04, 0x00, 0x00, 0x00, 0x5c, 0xfd, 0xff, 0xff, 0x38, 0x00, 0x00, 0x00, 
  0x65, 0x73, 0x70, 0x33, 0x32, 0x5f, 0x61, 0x63, 0x74, 0x6f, 0x72, 0x2f, 
  0x64, 0x65, 0x6e, 0x73, 0x65, 0x5f, 0x36, 0x35, 0x2f, 0x4d, 0x61, 0x74, 
  0x4d, 0x75, 0x6c, 0x3b, 0x65, 0x73, 0x70, 0x33, 0x32, 0x5f, 0x61, 0x63, 
  0x74, 0x6f, 0x72, 0x2f, 0x64, 0x65, 0x6e, 0x73, 0x65, 0x5f, 0x36, 0x35, 
  0x2f, 0x42, 0x69, 0x61, 0x73, 0x41, 0x64, 0x64, 0x00, 0x00, 0x00, 0x00, 
  0x02, 0x00, 0x00, 0x00, 0x01, 0x00, 0x00, 0x00, 0x04, 0x00, 0x00, 0x00, 
  0xea, 0xfd, 0xff, 0xff, 0x00, 0x00, 0x00, 0x01, 0x14, 0x00, 0x00, 0x00, 
  0x1c, 0x00, 0x00, 0x00, 0x1c, 0x00, 0x00, 0x00, 0x06, 0x00, 0x00, 0x00, 
  0x6c, 0x00, 0x00, 0x00, 0x02, 0x00, 0x00, 0x00, 0xff, 0xff, 0xff, 0xff, 
  0x20, 0x00, 0x00, 0x00, 0xd4, 0xfd, 0xff, 0xff, 0x52, 0x00, 0x00, 0x00, 
  0x65, 0x73, 0x70, 0x33, 0x32, 0x5f, 0x61, 0x63, 0x74, 0x6f, 0x72, 0x2f, 
  0x64, 0x65, 0x6e, 0x73, 0x65, 0x5f, 0x36, 0x34, 0x2f, 0x4d, 0x61, 0x74, 
  0x4d, 0x75, 0x6c, 0x3b, 0x65, 0x73, 0x70, 0x33, 0x32, 0x5f, 0x61, 0x63, 
  0x74, 0x6f, 0x72, 0x2f, 0x64, 0x65, 0x6e, 0x73, 0x65, 0x5f, 0x36, 0x34, 
  0x2f, 0x52, 0x65, 0x6c, 0x75, 0x3b, 0x65, 0x73, 0x70, 0x33, 0x32, 0x5f, 
  0x61, 0x63, 0x74, 0x6f, 0x72, 0x2f, 0x64, 0x65, 0x6e, 0x73, 0x65, 0x5f, 
  0x36, 0x34, 0x2f, 0x42, 0x69, 0x61, 0x73, 0x41, 0x64, 0x64, 0x00, 0x00, 
  0x02, 0x00, 0x00, 0x00, 0x01, 0x00, 0x00, 0x00, 0x20, 0x00, 0x00, 0x00, 
  0x7a, 0xfe, 0xff, 0xff, 0x00, 0x00, 0x00, 0x01, 0x14, 0x00, 0x00, 0x00, 
  0x1c, 0x00, 0x00, 0x00, 0x1c, 0x00, 0x00, 0x00, 0x05, 0x00, 0x00, 0x00, 
  0x6c, 0x00, 0x00, 0x00, 0x02, 0x00, 0x00, 0x00, 0xff, 0xff, 0xff, 0xff, 
  0x20, 0x00, 0x00, 0x00, 0x64, 0xfe, 0xff, 0xff, 0x52, 0x00, 0x00, 0x00, 
  0x65, 0x73, 0x70, 0x33, 0x32, 0x5f, 0x61, 0x63, 0x74, 0x6f, 0x72, 0x2f, 
  0x64, 0x65, 0x6e, 0x73, 0x65, 0x5f, 0x36, 0x33, 0x2f, 0x4d, 0x61, 0x74, 
  0x4d, 0x75, 0x6c, 0x3b, 0x65, 0x73, 0x70, 0x33, 0x32, 0x5f, 0x61, 0x63, 
  0x74, 0x6f, 0x72, 0x2f, 0x64, 0x65, 0x6e, 0x73, 0x65, 0x5f, 0x36, 0x33, 
  0x2f, 0x52, 0x65, 0x6c, 0x75, 0x3b, 0x65, 0x73, 0x70, 0x33, 0x32, 0x5f, 
  0x61, 0x63, 0x74, 0x6f, 0x72, 0x2f, 0x64, 0x65, 0x6e, 0x73, 0x65, 0x5f, 
  0x36, 0x33, 0x2f, 0x42, 0x69, 0x61, 0x73, 0x41, 0x64, 0x64, 0x00, 0x00, 
  0x02, 0x00, 0x00, 0x00, 0x01, 0x00, 0x00, 0x00, 0x20, 0x00, 0x00, 0x00, 
  0x6e, 0xff, 0xff, 0xff, 0x00, 0x00, 0x00, 0x01, 0x10, 0x00, 0x00, 0x00, 
  0x10, 0x00, 0x00, 0x00, 0x04, 0x00, 0x00, 0x00, 0x28, 0x00, 0x00, 0x00, 
  0xe4, 0xfe, 0xff, 0xff, 0x1b, 0x00, 0x00, 0x00, 0x65, 0x73, 0x70, 0x33, 
  0x32, 0x5f, 0x61, 0x63, 0x74, 0x6f, 0x72, 0x2f, 0x64, 0x65, 0x6e, 0x73, 
  0x65, 0x5f, 0x36, 0x35, 0x2f, 0x4d, 0x61, 0x74, 0x4d, 0x75, 0x6c, 0x00, 
  0x02, 0x00, 0x00, 0x00, 0x04, 0x00, 0x00, 0x00, 0x20, 0x00, 0x00, 0x00, 
  0xb6, 0xff, 0xff, 0xff, 0x00, 0x00, 0x00, 0x01, 0x10, 0x00, 0x00, 0x00, 
  0x10, 0x00, 0x00, 0x00, 0x03, 0x00, 0x00, 0x00, 0x28, 0x00, 0x00, 0x00, 
  0x2c, 0xff, 0xff, 0xff, 0x1b, 0x00, 0x00, 0x00, 0x65, 0x73, 0x70, 0x33, 
  0x32, 0x5f, 0x61, 0x63, 0x74, 0x6f, 0x72, 0x2f, 0x64, 0x65, 0x6e, 0x73, 
  0x65, 0x5f, 0x36, 0x34, 0x2f, 0x4d, 0x61, 0x74, 0x4d, 0x75, 0x6c, 0x00, 
  0x02, 0x00, 0x00, 0x00, 0x20, 0x00, 0x00, 0x00, 0x20, 0x00, 0x00, 0x00, 
  0x00, 0x00, 0x16, 0x00, 0x18, 0x00, 0x14, 0x00, 0x00, 0x00, 0x10, 0x00, 
  0x0c, 0x00, 0x08, 0x00, 0x00, 0x00, 0x00, 0x00, 0x00, 0x00, 0x07, 0x00, 
  0x16, 0x00, 0x00, 0x00, 0x00, 0x00, 0x00, 0x01, 0x10, 0x00, 0x00, 0x00, 
  0x10, 0x00, 0x00, 0x00, 0x02, 0x00, 0x00, 0x00, 0x2c, 0x00, 0x00, 0x00, 
  0x8c, 0xff, 0xff, 0xff, 0x1c, 0x00, 0x00, 0x00, 0x65, 0x73, 0x70, 0x33, 
  0x32, 0x5f, 0x61, 0x63, 0x74, 0x6f, 0x72, 0x2f, 0x64, 0x65, 0x6e, 0x73, 
  0x65, 0x5f, 0x36, 0x33, 0x2f, 0x4d, 0x61, 0x74, 0x4d, 0x75, 0x6c, 0x31, 
  0x00, 0x00, 0x00, 0x00, 0x02, 0x00, 0x00, 0x00, 0x20, 0x00, 0x00, 0x00, 
  0x05, 0x00, 0x00, 0x00, 0x00, 0x00, 0x16, 0x00, 0x1c, 0x00, 0x18, 0x00, 
  0x00, 0x00, 0x14, 0x00, 0x10, 0x00, 0x0c, 0x00, 0x00, 0x00, 0x00, 0x00, 
  0x08, 0x00, 0x07, 0x00, 0x16, 0x00, 0x00, 0x00, 0x00, 0x00, 0x00, 0x01, 
  0x14, 0x00, 0x00, 0x00, 0x20, 0x00, 0x00, 0x00, 0x20, 0x00, 0x00, 0x00, 
  0x01, 0x00, 0x00, 0x00, 0x40, 0x00, 0x00, 0x00, 0x02, 0x00, 0x00, 0x00, 
  0xff, 0xff, 0xff, 0xff, 0x05, 0x00, 0x00, 0x00, 0x04, 0x00, 0x04, 0x00, 
  0x04, 0x00, 0x00, 0x00, 0x20, 0x00, 0x00, 0x00, 0x73, 0x65, 0x72, 0x76, 
  0x69, 0x6e, 0x67, 0x5f, 0x64, 0x65, 0x66, 0x61, 0x75, 0x6c, 0x74, 0x5f, 
  0x64, 0x65, 0x6e, 0x73, 0x65, 0x5f, 0x36, 0x33, 0x5f, 0x69, 0x6e, 0x70, 
  0x75, 0x74, 0x3a, 0x30, 0x00, 0x00, 0x00, 0x00, 0x02, 0x00, 0x00, 0x00, 
  0x01, 0x00, 0x00, 0x00, 0x05, 0x00, 0x00, 0x00, 0x02, 0x00, 0x00, 0x00, 
  0x20, 0x00, 0x00, 0x00, 0x04, 0x00, 0x00, 0x00, 0xf4, 0xff, 0xff, 0xff, 
  0x1c, 0x00, 0x00, 0x00, 0x00, 0x00, 0x00, 0x1c, 0x0c, 0x00, 0x0c, 0x00, 
  0x0b, 0x00, 0x00, 0x00, 0x00, 0x00, 0x04, 0x00, 0x0c, 0x00, 0x00, 0x00, 
  0x09, 0x00, 0x00, 0x00, 0x00, 0x00, 0x00, 0x09, 
};

const unsigned int actor_model_len = 7040;
