#include "ppo_policy_critic.h"

const uint8_t critic_model[] = {

  0x1c, 0x00, 0x00, 0x00, 0x54, 0x46, 0x4c, 0x33, 0x14, 0x00, 0x20, 0x00, 
  0x1c, 0x00, 0x18, 0x00, 0x14, 0x00, 0x10, 0x00, 0x0c, 0x00, 0x00, 0x00, 
  0x08, 0x00, 0x04, 0x00, 0x14, 0x00, 0x00, 0x00, 0x1c, 0x00, 0x00, 0x00, 
  0x98, 0x00, 0x00, 0x00, 0xf0, 0x00, 0x00, 0x00, 0x08, 0x16, 0x00, 0x00, 
  0x18, 0x16, 0x00, 0x00, 0x4c, 0x1b, 0x00, 0x00, 0x03, 0x00, 0x00, 0x00, 
  0x01, 0x00, 0x00, 0x00, 0x10, 0x00, 0x00, 0x00, 0x00, 0x00, 0x0a, 0x00, 
  0x10, 0x00, 0x0c, 0x00, 0x08, 0x00, 0x04, 0x00, 0x0a, 0x00, 0x00, 0x00, 
  0x0c, 0x00, 0x00, 0x00, 0x1c, 0x00, 0x00, 0x00, 0x3c, 0x00, 0x00, 0x00, 
  0x0f, 0x00, 0x00, 0x00, 0x73, 0x65, 0x72, 0x76, 0x69, 0x6e, 0x67, 0x5f, 
  0x64, 0x65, 0x66, 0x61, 0x75, 0x6c, 0x74, 0x00, 0x01, 0x00, 0x00, 0x00, 
  0x04, 0x00, 0x00, 0x00, 0x90, 0xff, 0xff, 0xff, 0x09, 0x00, 0x00, 0x00, 
  0x04, 0x00, 0x00, 0x00, 0x08, 0x00, 0x00, 0x00, 0x64, 0x65, 0x6e, 0x73, 
  0x65, 0x5f, 0x36, 0x38, 0x00, 0x00, 0x00, 0x00, 0x01, 0x00, 0x00, 0x00, 
  0x04, 0x00, 0x00, 0x00, 0x8a, 0xea, 0xff, 0xff, 0x04, 0x00, 0x00, 0x00, 
  0x0e, 0x00, 0x00, 0x00, 0x64, 0x65, 0x6e, 0x73, 0x65, 0x5f, 0x36, 0x36, 
  0x5f, 0x69, 0x6e, 0x70, 0x75, 0x74, 0x00, 0x00, 0x02, 0x00, 0x00, 0x00, 
  0x34, 0x00, 0x00, 0x00, 0x04, 0x00, 0x00, 0x00, 0xdc, 0xff, 0xff, 0xff, 
  0x0c, 0x00, 0x00, 0x00, 0x04, 0x00, 0x00, 0x00, 0x13, 0x00, 0x00, 0x00, 
  0x43, 0x4f, 0x4e, 0x56, 0x45, 0x52, 0x53, 0x49, 0x4f, 0x4e, 0x5f, 0x4d, 
  0x45, 0x54, 0x41, 0x44, 0x41, 0x54, 0x41, 0x00, 0x08, 0x00, 0x0c, 0x00, 
  0x08, 0x00, 0x04, 0x00, 0x08, 0x00, 0x00, 0x00, 0x0b, 0x00, 0x00, 0x00, 
  0x04, 0x00, 0x00, 0x00, 0x13, 0x00, 0x00, 0x00, 0x6d, 0x69, 0x6e, 0x5f, 
  0x72, 0x75, 0x6e, 0x74, 0x69, 0x6d, 0x65, 0x5f, 0x76, 0x65, 0x72, 0x73, 
  0x69, 0x6f, 0x6e, 0x00, 0x0d, 0x00, 0x00, 0x00, 0x14, 0x15, 0x00, 0x00, 
  0x0c, 0x15, 0x00, 0x00, 0xf8, 0x14, 0x00, 0x00, 0x60, 0x14, 0x00, 0x00, 
  0xd0, 0x13, 0x00, 0x00, 0x40, 0x11, 0x00, 0x00, 0x30, 0x01, 0x00, 0x00, 
  0xa0, 0x00, 0x00, 0x00, 0x98, 0x00, 0x00, 0x00, 0x90, 0x00, 0x00, 0x00, 
  0x88, 0x00, 0x00, 0x00, 0x68, 0x00, 0x00, 0x00, 0x04, 0x00, 0x00, 0x00, 
  0x3a, 0xeb, 0xff, 0xff, 0x04, 0x00, 0x00, 0x00, 0x54, 0x00, 0x00, 0x00, 
  0x0c, 0x00, 0x00, 0x00, 0x08, 0x00, 0x0e, 0x00, 0x08, 0x00, 0x04, 0x00, 
  0x08, 0x00, 0x00, 0x00, 0x10, 0x00, 0x00, 0x00, 0x24, 0x00, 0x00, 0x00, 
  0x00, 0x00, 0x06, 0x00, 0x08, 0x00, 0x04, 0x00, 0x06, 0x00, 0x00, 0x00, 
  0x04, 0x00, 0x00, 0x00, 0x00, 0x00, 0x00, 0x00, 0x00, 0x00, 0x0a, 0x00, 
  0x10, 0x00, 0x0c, 0x00, 0x08, 0x00, 0x04, 0x00, 0x0a, 0x00, 0x00, 0x00, 
  0x02, 0x00, 0x00, 0x00, 0x02, 0x00, 0x00, 0x00, 0x04, 0x00, 0x00, 0x00, 
  0x06, 0x00, 0x00, 0x00, 0x32, 0x2e, 0x31, 0x33, 0x2e, 0x30, 0x00, 0x00, 
  0x9a, 0xeb, 0xff, 0xff, 0x04, 0x00, 0x00, 0x00, 0x10, 0x00, 0x00, 0x00, 
  0x31, 0x2e, 0x35, 0x2e, 0x30, 0x00, 0x00, 0x00, 0x00, 0x00, 0x00, 0x00, 
  0x00, 0x00, 0x00, 0x00, 0x88, 0xe6, 0xff, 0xff, 0x8c, 0xe6, 0xff, 0xff, 
  0x90, 0xe6, 0xff, 0xff, 0xc2, 0xeb, 0xff, 0xff, 0x04, 0x00, 0x00, 0x00, 
  0x80, 0x00, 0x00, 0x00, 0xf2, 0x98, 0x51, 0xbe, 0xea, 0x0e, 0x4a, 0xbe, 
  0x50, 0x94, 0xdb, 0xbb, 0x00, 0xa1, 0xd9, 0xbc, 0x75, 0x0e, 0xf9, 0x3d, 
  0x80, 0x44, 0x17, 0xbc, 0x40, 0x95, 0xe0, 0x3d, 0xbd, 0xbf, 0x7b, 0x3e, 
  0xc8, 0x06, 0x9c, 0xbe, 0x1e, 0x8d, 0x07, 0xbe, 0x90, 0x39, 0xf5, 0x3c, 
  0xa8, 0x79, 0xee, 0x3d, 0xa6, 0x50, 0xa8, 0xbe, 0x1f, 0x9d, 0x1c, 0xbd, 
  0x24, 0x5a, 0x3d, 0x3e, 0x9a, 0x12, 0x75, 0x3e, 0x91, 0x36, 0x8d, 0xbe, 
  0x04, 0xe2, 0x50, 0x3e, 0x8c, 0x8d, 0x59, 0x3e, 0xdc, 0x56, 0xdf, 0xbd, 
  0x41, 0x1d, 0x85, 0xbb, 0x20, 0x76, 0x1c, 0x3e, 0xb0, 0xfc, 0x80, 0x3e, 
  0xa9, 0x7d, 0x4a, 0xbe, 0xf8, 0x64, 0x57, 0xbd, 0xd0, 0x70, 0x22, 0xbe, 
  0x6b, 0x9d, 0x19, 0xbe, 0xf0, 0x16, 0xbb, 0xbe, 0xd1, 0xdf, 0x86, 0xbe, 
  0x3b, 0x0c, 0xab, 0xbe, 0x9e, 0xaa, 0x56, 0xbe, 0x7f, 0xed, 0xc9, 0xbe, 
  0x4e, 0xec, 0xff, 0xff, 0x04, 0x00, 0x00, 0x00, 0x00, 0x10, 0x00, 0x00, 
  0xee, 0x6a, 0x8a, 0xbd, 0x66, 0x9d, 0x5d, 0xbe, 0xee, 0x49, 0x7e, 0x3e, 
  0x78, 0xa6, 0x0e, 0xbe, 0xd0, 0x1e, 0xcc, 0x3d, 0xc3, 0xb4, 0x3c, 0xbe, 
  0x17, 0x1f, 0x95, 0xbe, 0xb6, 0xea, 0x4c, 0x3e, 0x32, 0x07, 0x31, 0x3e, 
  0x18, 0x7c, 0xc2, 0x3d, 0x57, 0x22, 0x0d, 0xbe, 0x06, 0xb2, 0x3a, 0xbe, 
  0xf4, 0xe6, 0x97, 0x3d, 0x86, 0x54, 0x7f, 0x3e, 0xf8, 0x67, 0x3e, 0x3e, 
  0x89, 0x3c, 0x81, 0x3e, 0xb0, 0x35, 0x2a, 0xbe, 0x6b, 0xed, 0x8c, 0x3e, 
  0x62, 0x1f, 0x2b, 0xbe, 0x53, 0x02, 0x43, 0xbe, 0x6e, 0x32, 0x5e, 0x3e, 
  0xa4, 0xb4, 0x45, 0xbe, 0x60, 0xdc, 0x71, 0x3d, 0x1c, 0x8d, 0x6a, 0xbd, 
  0x78, 0xa0, 0x5a, 0xbd, 0xd0, 0x57, 0x23, 0x3e, 0x54, 0xa9, 0x26, 0xbe, 
  0xe4, 0xb5, 0x42, 0x3e, 0x4a, 0xf6, 0x52, 0x3e, 0x4f, 0x8f, 0x21, 0xbe, 
  0x05, 0x03, 0x86, 0xbe, 0x04, 0x20, 0x29, 0xbe, 0x7c, 0x5e, 0xb0, 0x3e, 
  0x14, 0xac, 0x21, 0xbe, 0x5e, 0xfb, 0x28, 0x3e, 0x53, 0x7f, 0x09, 0x3e, 
  0x28, 0xda, 0x50, 0xbe, 0xfd, 0x9d, 0x1b, 0xbe, 0x42, 0xa1, 0x02, 0x3e, 
  0x4c, 0x30, 0x4b, 0xbe, 0xa0, 0x6d, 0xff, 0xbd, 0x91, 0x31, 0x7a, 0xbe, 
  0x34, 0x36, 0x00, 0x3e, 0xee, 0xf9, 0x64, 0x3e, 0x40, 0xd8, 0xaa, 0xbc, 
  0x09, 0x06, 0x56, 0xbe, 0xcd, 0x24, 0x48, 0xbe, 0xb3, 0xff, 0x87, 0x3e, 
  0xda, 0x0a, 0x2f, 0x3e, 0x08, 0x9d, 0x2c, 0xbd, 0xa0, 0x9e, 0xbc, 0xbc, 
  0xf6, 0x7e, 0x9b, 0xbe, 0x73, 0xe8, 0x72, 0x3e, 0x27, 0xf4, 0x1e, 0xbe, 
  0x7e, 0xf8, 0x6e, 0x3e, 0x25, 0x34, 0x5a, 0x3e, 0xb8, 0x7d, 0x41, 0xbe, 
  0xc5, 0xc9, 0x56, 0x3e, 0x32, 0x74, 0x1d, 0x3e, 0xaa, 0x75, 0xb2, 0x3c, 
  0xdd, 0xc9, 0x00, 0xbe, 0xc7, 0xb6, 0x93, 0x3e, 0xec, 0x91, 0xf4, 0x3d, 
  0x7c, 0x23, 0x25, 0xbe, 0x12, 0xcc, 0x02, 0xbe, 0x5e, 0xe3, 0x02, 0x3e, 
  0x61, 0x39, 0x0b, 0xbe, 0xa5, 0x1f, 0x53, 0x3e, 0x68, 0xab, 0xe5, 0xbc, 
  0x34, 0x2f, 0x26, 0xbe, 0xd8, 0xc5, 0x2b, 0xbd, 0xa6, 0xd6, 0x93, 0xbd, 
  0x6c, 0x24, 0xed, 0x3d, 0x20, 0xd4, 0xcf, 0x3c, 0xdd, 0x94, 0x10, 0xbe, 
  0x4e, 0x09, 0x1e, 0xbe, 0xf2, 0xc2, 0x4a, 0x3e, 0x10, 0xbc, 0x2c, 0x3e, 
  0xbb, 0xcc, 0x88, 0x3e, 0xc0, 0xb4, 0x1e, 0x3c, 0xae, 0x48, 0x8d, 0xbe, 
  0x78, 0xad, 0x02, 0x3e, 0x10, 0xac, 0xde, 0x3c, 0x3c, 0x37, 0x79, 0x3e, 
  0x2f, 0x51, 0x7a, 0xbe, 0x95, 0x77, 0x25, 0xbe, 0x1c, 0x89, 0x82, 0xbe, 
  0x03, 0x56, 0x75, 0xbe, 0xf5, 0x26, 0x8e, 0x3e, 0xb0, 0x25, 0xa4, 0xbe, 
  0x01, 0xc0, 0x8f, 0x3e, 0x7a, 0x67, 0xae, 0x3d, 0x7c, 0xd6, 0x10, 0xbe, 
  0x4d, 0x96, 0xd2, 0x3c, 0x14, 0xb6, 0xae, 0x3d, 0x50, 0x52, 0x19, 0x3e, 
  0xb7, 0xa1, 0x9c, 0x3e, 0x3e, 0x33, 0xde, 0xbd, 0xdb, 0x4c, 0x83, 0x3e, 
  0x80, 0x91, 0x90, 0xbc, 0xb0, 0x75, 0x3c, 0x3d, 0xdf, 0xc9, 0x91, 0xbe, 
  0xda, 0x04, 0x63, 0x3e, 0xc0, 0x49, 0xbb, 0xbb, 0x95, 0xe5, 0x2f, 0xbe, 
  0xb2, 0xd8, 0x91, 0xbd, 0xc0, 0x72, 0x52, 0xbe, 0x00, 0x5e, 0x08, 0x3b, 
  0x1d, 0x07, 0x84, 0x3e, 0xf6, 0xee, 0xa0, 0xbd, 0xca, 0xbe, 0x4d, 0xbe, 
  0x40, 0x95, 0x3b, 0x3d, 0x70, 0x08, 0xf0, 0xbd, 0x20, 0xf7, 0x78, 0x3c, 
  0xb4, 0x8d, 0x86, 0xbe, 0x4a, 0x25, 0xf3, 0xbd, 0x40, 0xb0, 0xb1, 0xbc, 
  0x90, 0x1c, 0x90, 0xbe, 0x22, 0x1c, 0x2f, 0x3e, 0x80, 0xa2, 0x65, 0xbb, 
  0x3d, 0xb2, 0x0e, 0xbe, 0xb6, 0x35, 0x15, 0x3e, 0x86, 0xee, 0x87, 0xbe, 
  0xba, 0x10, 0x42, 0x3e, 0xee, 0x75, 0x6f, 0x3e, 0xce, 0x9c, 0x4f, 0x3e, 
  0x48, 0xdd, 0x61, 0xbe, 0x98, 0xc3, 0x0c, 0xbe, 0x3e, 0x21, 0x30, 0xbe, 
  0xe5, 0xce, 0x0f, 0x3e, 0xd8, 0xa2, 0x45, 0xbe, 0x36, 0xfd, 0x8b, 0xbd, 
  0x1f, 0xe7, 0x0e, 0xbe, 0xd4, 0x6d, 0x81, 0x3e, 0xa5, 0x92, 0x8a, 0x3e, 
  0xb8, 0x3e, 0x0d, 0x3e, 0x36, 0x31, 0x64, 0x3e, 0xbc, 0x74, 0x3e, 0x3e, 
  0xf4, 0x37, 0xcc, 0x3d, 0xb0, 0x1b, 0x30, 0x3d, 0x74, 0x28, 0xdb, 0x3d, 
  0x5b, 0x1e, 0x84, 0x3e, 0xd8, 0x8a, 0x7c, 0x3d, 0x14, 0x75, 0xb8, 0x3d, 
  0xe8, 0x57, 0x83, 0xbe, 0x6d, 0xb8, 0x83, 0x3e, 0x6a, 0x0a, 0x01, 0xbe, 
  0xd4, 0x65, 0x9b, 0x3c, 0x08, 0x66, 0x52, 0x3e, 0x35, 0x10, 0x78, 0x3e, 
  0x79, 0x68, 0x83, 0x3e, 0x49, 0xc5, 0x91, 0x3e, 0xb0, 0x09, 0x4a, 0xbe, 
  0xde, 0x25, 0x43, 0x3e, 0xd3, 0xac, 0xf2, 0x3d, 0x40, 0x86, 0x8a, 0x3d, 
  0x94, 0xaf, 0x3e, 0x3e, 0x0b, 0x61, 0x56, 0xbe, 0xcf, 0xd3, 0x81, 0xbe, 
  0xf6, 0x27, 0x21, 0x3d, 0x8c, 0x6b, 0xee, 0x3d, 0xa1, 0x41, 0x95, 0xbe, 
  0x68, 0x5a, 0x60, 0xbd, 0x3b, 0xe4, 0x09, 0xbe, 0x72, 0xa4, 0x9a, 0xbe, 
  0x7c, 0xe0, 0x28, 0x3e, 0x8f, 0x1d, 0x00, 0xbe, 0x82, 0x66, 0x08, 0x3e, 
  0x22, 0xd2, 0x21, 0x3e, 0xd8, 0x42, 0x44, 0x3e, 0x80, 0x7f, 0x2d, 0xbb, 
  0x90, 0xb8, 0x84, 0x3d, 0x0e, 0x81, 0x77, 0x3e, 0x32, 0xf9, 0x6e, 0x3e, 
  0xbf, 0x98, 0x9c, 0x3e, 0x00, 0x72, 0x2c, 0x3b, 0x42, 0x27, 0xbb, 0xbd, 
  0x00, 0x07, 0x62, 0x3b, 0xc8, 0x80, 0x6a, 0xbd, 0xb6, 0xb8, 0x89, 0xbe, 
  0xdf, 0x74, 0x86, 0xbe, 0x1a, 0xe8, 0x70, 0x3e, 0xb0, 0x8f, 0x7e, 0x3d, 
  0x2c, 0x3e, 0xa7, 0xbd, 0xe3, 0xff, 0x93, 0xbe, 0x78, 0x5e, 0x80, 0xbd, 
  0x24, 0x6b, 0x04, 0xbe, 0x07, 0xc4, 0x96, 0x3e, 0x6e, 0x5e, 0xb9, 0xbd, 
  0xd8, 0xf3, 0x62, 0xbd, 0xb6, 0x67, 0x6a, 0x3e, 0x98, 0x42, 0xc8, 0xbd, 
  0x0c, 0xdf, 0x43, 0x3e, 0x38, 0xfd, 0x48, 0xbd, 0x6c, 0x31, 0xfb, 0xbd, 
  0xd0, 0xdd, 0x39, 0x3d, 0xc2, 0x03, 0x63, 0x3e, 0x11, 0x09, 0x68, 0xbe, 
  0x03, 0x80, 0x9a, 0x3e, 0x04, 0x9b, 0xd5, 0x3d, 0xf0, 0xdc, 0x62, 0xbd, 
  0xe8, 0x43, 0xf3, 0xbd, 0xf2, 0xed, 0x0a, 0x3e, 0x65, 0x52, 0x8e, 0x3e, 
  0x76, 0x75, 0xf2, 0xbd, 0x04, 0x1f, 0x73, 0xbd, 0x88, 0xb2, 0x37, 0x3d, 
  0x20, 0x68, 0x15, 0xbc, 0xc0, 0x83, 0x34, 0xbc, 0xf6, 0x94, 0x92, 0xbe, 
  0x9e, 0x85, 0x87, 0xbe, 0x25, 0x54, 0x2b, 0xbe, 0x39, 0xe1, 0x07, 0xbe, 
  0x6e, 0x40, 0x7e, 0x3e, 0x50, 0xe9, 0xff, 0x3c, 0x40, 0xb7, 0x8d, 0x3c, 
  0x40, 0xa0, 0x34, 0x3c, 0x42, 0xdf, 0x77, 0x3e, 0x34, 0x26, 0x22, 0xbe, 
  0x5d, 0xae, 0x82, 0x3e, 0x10, 0xfe, 0x81, 0xbe, 0x51, 0x7e, 0x34, 0xbe, 
  0x6a, 0x40, 0xdb, 0xbd, 0x8e, 0x92, 0x86, 0xbe, 0xfa, 0x37, 0x71, 0xbe, 
  0x45, 0x55, 0x1c, 0x3e, 0x7e, 0xb6, 0x24, 0x3e, 0xcd, 0x68, 0x54, 0x3c, 
  0xa9, 0x43, 0x8e, 0x3e, 0x5c, 0x7e, 0x68, 0xbe, 0xf0, 0x5b, 0xe7, 0xbd, 
  0x77, 0x92, 0x1d, 0xbe, 0x8e, 0x1a, 0x7f, 0xbe, 0x9c, 0xf2, 0x51, 0xbe, 
  0x55, 0x5d, 0x9b, 0x3e, 0x3a, 0x58, 0x8b, 0xbd, 0xa8, 0x1b, 0x24, 0x3d, 
  0x3e, 0x8f, 0x99, 0xbe, 0xb0, 0xe1, 0xcb, 0x3d, 0x28, 0xa7, 0x03, 0xbd, 
  0xf2, 0x82, 0x17, 0x3e, 0x80, 0x3f, 0xcc, 0x3b, 0xc0, 0x3e, 0x8c, 0xbb, 
  0x1d, 0x9b, 0x10, 0x3e, 0xe3, 0x9c, 0x95, 0xbe, 0x2e, 0xa9, 0x8e, 0x3b, 
  0x70, 0x1b, 0xb4, 0xbd, 0xd6, 0xb8, 0xec, 0x3d, 0xa0, 0x23, 0x6c, 0x3c, 
  0xfd, 0xaa, 0x29, 0x3e, 0xe6, 0x1d, 0x04, 0x3e, 0xe5, 0xdf, 0xa4, 0xbe, 
  0xc4, 0xed, 0xf7, 0x3d, 0xed, 0xd1, 0xbf, 0x3d, 0x60, 0x6b, 0x8b, 0xbc, 
  0x99, 0xbe, 0x01, 0xbe, 0x30, 0xcc, 0x13, 0xbd, 0x90, 0x7e, 0xc3, 0x3d, 
  0xb5, 0xc8, 0x85, 0x3e, 0xb0, 0xde, 0x1b, 0x3e, 0xbe, 0xf1, 0x5e, 0xbe, 
  0x40, 0xfb, 0xce, 0x3d, 0xf8, 0xdb, 0xd1, 0x3d, 0x90, 0x22, 0xd4, 0x3c, 
  0x42, 0xa6, 0x76, 0xbe, 0x7a, 0x8e, 0x4c, 0xbe, 0xfb, 0x0d, 0x81, 0xbe, 
  0x70, 0x43, 0x9a, 0x3c, 0x70, 0xbc, 0xee, 0xbc, 0xc2, 0xbe, 0x48, 0x3e, 
  0xbe, 0x1b, 0x83, 0xbe, 0xdb, 0xda, 0x24, 0xbe, 0x04, 0xdd, 0x24, 0x3e, 
  0xc0, 0x1d, 0xfd, 0xbc, 0x1a, 0x7d, 0x67, 0xbe, 0x32, 0x64, 0x3c, 0xbe, 
  0xd1, 0xc6, 0x07, 0xbe, 0x70, 0x79, 0x11, 0xbd, 0xbb, 0x66, 0x8a, 0xbe, 
  0x11, 0x7c, 0x83, 0xbe, 0x03, 0x0a, 0x94, 0x3e, 0x37, 0x57, 0x41, 0xbe, 
  0x4a, 0x2c, 0x3d, 0x3e, 0xc0, 0x0d, 0xf9, 0x3b, 0x79, 0x20, 0x91, 0xbe, 
  0x58, 0x9e, 0x4f, 0x3d, 0x0a, 0x10, 0x9c, 0xbe, 0x7e, 0x58, 0x18, 0x3e, 
  0xf4, 0xa8, 0x38, 0xbc, 0xa7, 0x3b, 0xc2, 0x3d, 0xe0, 0xf8, 0x2c, 0x3d, 
  0x84, 0x88, 0x9b, 0x3e, 0xd1, 0x34, 0x86, 0xbe, 0x80, 0x2f, 0x78, 0xbe, 
  0x6f, 0x3f, 0x0a, 0xbe, 0xf0, 0x6e, 0x57, 0x3d, 0xe0, 0xdb, 0x55, 0x3c, 
  0xf0, 0x9a, 0xd7, 0xbc, 0x76, 0x8b, 0x1f, 0x3e, 0xc9, 0x6e, 0x83, 0xbe, 
  0xe8, 0xbc, 0xc6, 0x3d, 0x5f, 0x44, 0x8b, 0x3e, 0x30, 0x36, 0xb3, 0x3c, 
  0x30, 0x7f, 0x7a, 0x3d, 0xcc, 0x79, 0x41, 0xbe, 0xf0, 0xa9, 0x1a, 0xbd, 
  0x88, 0x58, 0x74, 0x3d, 0xd6, 0x05, 0x81, 0x3e, 0xb2, 0x5d, 0x6b, 0xbe, 
  0xd9, 0xf3, 0x71, 0xbd, 0xc8, 0x0a, 0x0b, 0x3e, 0x39, 0xa4, 0x8f, 0x3c, 
  0x52, 0x10, 0xcd, 0xbd, 0x58, 0x8c, 0xf5, 0xbc, 0x9d, 0x4b, 0x3a, 0xbe, 
  0xd7, 0xc5, 0xa5, 0x3e, 0x42, 0x0c, 0x71, 0x3e, 0x51, 0x27, 0xcd, 0xbd, 
  0x20, 0xfc, 0xa3, 0xbc, 0x3e, 0x46, 0xca, 0x3d, 0x8d, 0xd8, 0x40, 0x3e, 
  0x30, 0x5c, 0x9f, 0xbe, 0xe6, 0x4b, 0x85, 0xbe, 0xc3, 0x1b, 0x68, 0xbb, 
  0xee, 0x09, 0xdc, 0x3c, 0xc3, 0x5e, 0x40, 0x3e, 0xf4, 0x29, 0x0f, 0x3e, 
  0x3c, 0x15, 0x9d, 0xbd, 0x1a, 0xf4, 0x58, 0x3e, 0x94, 0x0c, 0x8c, 0xbe, 
  0x1a, 0x1f, 0x3d, 0x3e, 0x32, 0xdf, 0x9c, 0xbd, 0xc0, 0xf0, 0x82, 0x3b, 
  0xd8, 0x8f, 0xc9, 0xbd, 0x70, 0xe0, 0xd8, 0x3c, 0xae, 0x58, 0x7a, 0xbe, 
  0xe0, 0x66, 0x6f, 0xbc, 0x80, 0xba, 0x42, 0xbd, 0x88, 0xfc, 0x3f, 0x3e, 
  0x47, 0x9c, 0x08, 0xbe, 0xd3, 0x56, 0x41, 0xbe, 0xcf, 0x70, 0x6e, 0x3e, 
  0xfa, 0x71, 0x42, 0xbe, 0x84, 0x8e, 0x8e, 0x3e, 0xf5, 0xd4, 0x8c, 0x3e, 
  0x9e, 0x75, 0x18, 0xbe, 0xe5, 0xd7, 0x37, 0x3d, 0xcd, 0x50, 0xa8, 0xbe, 
  0xab, 0x50, 0x8b, 0x3e, 0xea, 0x8e, 0x8c, 0x3e, 0x42, 0x4c, 0x5d, 0x3e, 
  0xc3, 0xd8, 0x28, 0x3e, 0x2f, 0xa9, 0x8d, 0x3e, 0x7a, 0x31, 0x8d, 0xbe, 
  0x3d, 0x9c, 0x86, 0x3e, 0x6d, 0x2b, 0x97, 0x3e, 0x24, 0x64, 0xae, 0x3d, 
  0x32, 0x83, 0x0c, 0x3e, 0x2c, 0xd9, 0xc8, 0x3d, 0xb0, 0x29, 0x77, 0xbd, 
  0x41, 0x3e, 0x9b, 0xbe, 0x96, 0x9d, 0x36, 0x3e, 0xc0, 0x60, 0x0a, 0x3d, 
  0x1b, 0x58, 0x91, 0x3e, 0xea, 0xb6, 0x61, 0x3e, 0xd4, 0x53, 0x22, 0x3e, 
  0x4c, 0xfa, 0xa0, 0xbd, 0xd2, 0x14, 0x3c, 0xbe, 0x3c, 0x8a, 0x17, 0xbe, 
  0x05, 0x10, 0x83, 0xbe, 0x5f, 0xdd, 0x90, 0x3e, 0x2f, 0xa4, 0x99, 0xbe, 
  0x44, 0x5c, 0x45, 0x3e, 0x94, 0x62, 0x1c, 0xbe, 0x78, 0xd2, 0xee, 0x3d, 
  0xb0, 0x0e, 0xee, 0xbc, 0xa0, 0x44, 0xd2, 0x3c, 0x80, 0x3e, 0x83, 0xbd, 
  0x5b, 0xc4, 0x88, 0xbe, 0x0a, 0x8e, 0x22, 0x3e, 0xa8, 0x62, 0xe1, 0x3d, 
  0x05, 0x77, 0x81, 0x3e, 0x4e, 0x36, 0x0e, 0x3e, 0xc6, 0x9b, 0x33, 0x3e, 
  0x9f, 0xde, 0x18, 0x3e, 0x4c, 0x81, 0x9d, 0x3e, 0xfc, 0x90, 0x8b, 0xbd, 
  0xab, 0x6d, 0x91, 0xbe, 0x3f, 0x94, 0x8e, 0xbe, 0x48, 0xc1, 0x2b, 0x3e, 
  0x74, 0xd2, 0xdd, 0x3d, 0xb2, 0xfd, 0x05, 0x3e, 0x08, 0xd6, 0xfb, 0x3d, 
  0xcf, 0xf8, 0x98, 0x3e, 0x90, 0x54, 0xec, 0xbc, 0xce, 0xaa, 0xe2, 0xbd, 
  0x30, 0x7c, 0x6d, 0xbd, 0x32, 0x98, 0x6f, 0x3e, 0x1e, 0xb7, 0x0c, 0x3e, 
  0xfd, 0x75, 0x15, 0xbe, 0xba, 0xf1, 0x3a, 0x3e, 0x52, 0x76, 0x6a, 0x3e, 
  0x76, 0x9b, 0x78, 0x3e, 0x8a, 0x31, 0x2f, 0x3e, 0x95, 0x1e, 0x97, 0xbd, 
  0x5a, 0xc4, 0x22, 0xbe, 0x68, 0x19, 0x1a, 0x3d, 0x73, 0x94, 0xc1, 0xbd, 
  0xba, 0x8c, 0xa5, 0xbd, 0xb0, 0x49, 0xec, 0xbd, 0xd5, 0x23, 0x34, 0x3d, 
  0x57, 0x81, 0x4a, 0xbe, 0x4a, 0x4d, 0xb2, 0xbd, 0xad, 0x98, 0x53, 0x3d, 
  0x0c, 0x0a, 0x40, 0x3e, 0x61, 0xc1, 0x6a, 0x3e, 0x64, 0x2c, 0x1f, 0x3e, 
  0xfd, 0x7f, 0xda, 0xbc, 0xcc, 0x03, 0x9e, 0xbd, 0x31, 0xc6, 0x52, 0xbe, 
  0x37, 0x98, 0x9f, 0x3e, 0x63, 0x02, 0x6e, 0x3d, 0x70, 0x35, 0x40, 0x3d, 
  0x10, 0x49, 0xbc, 0x3c, 0x78, 0x2e, 0x1f, 0xbd, 0x80, 0x06, 0xbc, 0xbd, 
  0x7a, 0x72, 0x68, 0x3e, 0x6e, 0xb9, 0x3a, 0xbe, 0x62, 0xc6, 0x57, 0x3e, 
  0x4d, 0xd6, 0x88, 0x3e, 0xb8, 0xf6, 0x78, 0x3d, 0xcf, 0xc8, 0x89, 0x3e, 
  0xd4, 0xf2, 0x44, 0x3e, 0x4a, 0xdf, 0x6c, 0x3e, 0x68, 0x74, 0xff, 0x3d, 
  0x60, 0xea, 0x0d, 0xbe, 0x7a, 0x14, 0xa1, 0xbd, 0xf7, 0x4b, 0x4d, 0xbe, 
  0x80, 0x76, 0xf9, 0x3b, 0x01, 0xf6, 0x11, 0x3e, 0xa7, 0xce, 0x80, 0x3e, 
  0x53, 0x72, 0x0b, 0xba, 0x5a, 0x34, 0x75, 0x3e, 0x2d, 0x6c, 0xb3, 0x3e, 
  0x1a, 0x32, 0x27, 0x3e, 0xab, 0xee, 0x32, 0xbe, 0xdf, 0x7e, 0x9b, 0xbe, 
  0xea, 0xd9, 0x18, 0xbc, 0xd7, 0x36, 0x83, 0x3e, 0xa0, 0xa1, 0x5a, 0x3d, 
  0xf8, 0x17, 0xd4, 0x3d, 0x5a, 0xd9, 0x5e, 0x3e, 0xc0, 0x1a, 0x6a, 0xbe, 
  0xda, 0x10, 0x83, 0xbe, 0x9c, 0x83, 0xe5, 0x3d, 0xc2, 0x11, 0x60, 0x3e, 
  0x90, 0xd5, 0xd3, 0x3d, 0xaa, 0x3f, 0x76, 0x3e, 0x00, 0xe6, 0x1d, 0x3e, 
  0xd4, 0xe9, 0xce, 0x3d, 0xd8, 0x37, 0x01, 0x3e, 0x1a, 0x97, 0x8b, 0xbe, 
  0xa8, 0x27, 0x24, 0x3e, 0x88, 0xcb, 0x8a, 0xbd, 0xb8, 0x36, 0x69, 0xbd, 
  0xa0, 0xb5, 0x9b, 0xbc, 0x60, 0xb2, 0xa2, 0xbc, 0x60, 0x8a, 0x5c, 0xbd, 
  0x74, 0x4a, 0xb5, 0x3d, 0xca, 0xc1, 0x7d, 0xbe, 0x6d, 0x98, 0x80, 0x3e, 
  0x8a, 0x62, 0x05, 0xbe, 0x42, 0xe6, 0x47, 0x3e, 0x18, 0x26, 0x02, 0xbe, 
  0x62, 0x8e, 0x3d, 0xbe, 0xf4, 0x31, 0xd8, 0x3d, 0x05, 0x88, 0x8e, 0x3e, 
  0xf0, 0x7b, 0xcf, 0xbc, 0xa8, 0x5e, 0x26, 0x3e, 0xfb, 0xe5, 0x99, 0x3e, 
  0x29, 0xbf, 0xf7, 0xbd, 0xcd, 0x48, 0xb3, 0xbd, 0xa8, 0x0a, 0x68, 0x3d, 
  0xca, 0x62, 0x73, 0xbe, 0xb3, 0xf7, 0x77, 0x3e, 0x40, 0x27, 0xb7, 0xbe, 
  0x00, 0x32, 0x38, 0xbe, 0x12, 0x90, 0x71, 0xbe, 0x30, 0xf4, 0x88, 0xbe, 
  0x90, 0x1b, 0x1e, 0x3e, 0x14, 0x7c, 0x00, 0x3e, 0x00, 0x48, 0x24, 0xbe, 
  0x68, 0xee, 0x6f, 0x3d, 0xe0, 0x8f, 0x0d, 0xbe, 0x46, 0xe5, 0x29, 0x3e, 
  0xb7, 0xef, 0x73, 0xbe, 0xe8, 0xc6, 0x0e, 0x3e, 0xa0, 0x14, 0x3c, 0xbd, 
  0xa0, 0xb9, 0xfc, 0x3c, 0xb8, 0x28, 0x24, 0x3e, 0xc1, 0x3c, 0x8e, 0xbe, 
  0x80, 0x82, 0xab, 0xbd, 0xb0, 0x6e, 0x96, 0xbe, 0x6a, 0xfe, 0x95, 0x3e, 
  0xe9, 0xc0, 0x02, 0xbe, 0x38, 0xf0, 0x70, 0xbe, 0x4a, 0x67, 0x9d, 0xbd, 
  0xb8, 0xbd, 0x09, 0xbe, 0xf2, 0x21, 0x99, 0xbd, 0xa9, 0xaf, 0x5c, 0x3e, 
  0x4f, 0x82, 0x3d, 0xbe, 0xf1, 0x75, 0x8d, 0x3e, 0x38, 0xc5, 0x4a, 0xbd, 
  0x67, 0x48, 0x9d, 0x3e, 0x4a, 0x7c, 0x6e, 0x3e, 0x17, 0x87, 0x58, 0xbe, 
  0x0f, 0xb1, 0x79, 0xbe, 0x8f, 0xd5, 0x4d, 0x3e, 0x03, 0x8b, 0x82, 0x3e, 
  0x80, 0x92, 0x40, 0x3b, 0xcd, 0xb9, 0x93, 0x3e, 0x74, 0xd7, 0x93, 0xbd, 
  0x82, 0xdc, 0x02, 0x3e, 0x42, 0xc5, 0x70, 0x3e, 0xae, 0xda, 0x71, 0x3e, 
  0xcc, 0x4c, 0x5b, 0xbe, 0x98, 0x6e, 0x33, 0x3d, 0x26, 0xb9, 0x12, 0x3e, 
  0x8c, 0x17, 0x6c, 0xbd, 0xc0, 0xd0, 0xf1, 0xbb, 0x5d, 0xa1, 0x9c, 0x3e, 
  0x03, 0x58, 0x01, 0xbe, 0x89, 0x29, 0x31, 0x3e, 0x98, 0x0f, 0x34, 0xbe, 
  0xf7, 0xf6, 0x86, 0x3e, 0x68, 0x16, 0x07, 0x3e, 0xaa, 0xcb, 0x04, 0x3e, 
  0x5f, 0xbd, 0x76, 0xbe, 0x49, 0xc4, 0x70, 0xbe, 0x02, 0xf4, 0xf0, 0x3c, 
  0x00, 0x08, 0x90, 0xba, 0x02, 0xc1, 0x31, 0x3e, 0xed, 0x00, 0x89, 0x3e, 
  0x12, 0x26, 0xf6, 0xbd, 0xc8, 0xe7, 0x36, 0x3e, 0xd0, 0x67, 0x84, 0x3d, 
  0xac, 0x59, 0x40, 0x3e, 0xa8, 0x6a, 0x5d, 0x3d, 0x37, 0x3d, 0x0c, 0xbe, 
  0xbc, 0xe9, 0x2f, 0x3e, 0x34, 0x21, 0x80, 0xbe, 0xda, 0xf9, 0x9a, 0xbd, 
  0x22, 0x35, 0x8e, 0xbe, 0xcc, 0xdb, 0xac, 0xbd, 0x12, 0x5f, 0x6d, 0x3e, 
  0x42, 0xe5, 0x96, 0xbe, 0x95, 0xfd, 0x80, 0xbe, 0x54, 0xa2, 0x98, 0xbe, 
  0x00, 0x8f, 0xa4, 0xbb, 0xf5, 0x46, 0x89, 0x3e, 0x90, 0x01, 0x06, 0xbd, 
  0x4c, 0x76, 0x53, 0xbe, 0xbd, 0x5d, 0x8b, 0x3e, 0xf2, 0xa8, 0x88, 0xbe, 
  0x08, 0x13, 0xc5, 0xbd, 0xfc, 0xf0, 0xcd, 0x3d, 0xf6, 0x98, 0x7c, 0x3e, 
  0x28, 0xf2, 0xa5, 0x3d, 0x92, 0x2e, 0x75, 0x3e, 0xc0, 0x70, 0x76, 0x3c, 
  0x10, 0x63, 0xc1, 0xbd, 0xaa, 0xdf, 0x6a, 0xbe, 0x3e, 0x6c, 0xe7, 0xbd, 
  0xb6, 0xf5, 0x38, 0xbe, 0xb2, 0x38, 0x1b, 0xbe, 0x94, 0x8f, 0xaa, 0x3d, 
  0x9c, 0xc2, 0xac, 0x3d, 0x2b, 0x87, 0x86, 0xbe, 0x38, 0x99, 0x30, 0x3e, 
  0x44, 0x49, 0x30, 0x3e, 0xa4, 0xe0, 0xec, 0x3d, 0x35, 0x4d, 0x80, 0x3e, 
  0x6f, 0x3d, 0x52, 0xbe, 0x5a, 0xc7, 0x07, 0x3e, 0xba, 0x94, 0x32, 0x3e, 
  0x24, 0x54, 0xc2, 0xbd, 0xf0, 0x2b, 0x25, 0xbd, 0x3e, 0x71, 0xcf, 0xbd, 
  0xa0, 0x06, 0x96, 0x3d, 0x07, 0x38, 0x96, 0x3e, 0x56, 0xe5, 0x75, 0x3e, 
  0x92, 0xbf, 0x84, 0xbd, 0x3c, 0x97, 0x51, 0xbe, 0xd6, 0xf3, 0x21, 0xbe, 
  0xce, 0x02, 0x75, 0xbe, 0xc0, 0xac, 0x5c, 0xbd, 0xbe, 0xff, 0x97, 0xbe, 
  0x40, 0x04, 0x72, 0xbd, 0x06, 0x33, 0x65, 0x3e, 0x0a, 0xae, 0x45, 0xbe, 
  0x70, 0xbd, 0x26, 0xbd, 0x00, 0x09, 0xf6, 0xbb, 0xb0, 0x0e, 0xe2, 0xbd, 
  0x10, 0x2f, 0x85, 0xbc, 0x5d, 0x97, 0x13, 0xbe, 0x70, 0x4b, 0x6f, 0xbd, 
  0x20, 0x56, 0x53, 0xbd, 0x80, 0x16, 0x20, 0x3d, 0x3f, 0x40, 0x1c, 0xbe, 
  0x1f, 0xd2, 0x11, 0x3c, 0xf5, 0xaa, 0x41, 0xbe, 0x49, 0x75, 0xd7, 0xbb, 
  0x61, 0xb7, 0x58, 0x3e, 0xf3, 0x0a, 0xfd, 0x3b, 0xd9, 0x2b, 0x9b, 0x3e, 
  0xd4, 0x03, 0x33, 0x3e, 0xa2, 0xac, 0x7f, 0x3e, 0xf0, 0xcc, 0x8f, 0xbc, 
  0x04, 0x69, 0x7d, 0xbe, 0x2a, 0x91, 0x68, 0xbe, 0xaa, 0x51, 0x48, 0x3e, 
  0xfe, 0x65, 0x19, 0x3e, 0x5c, 0xf5, 0xb7, 0x3d, 0xf6, 0xb1, 0x6f, 0xbe, 
  0x52, 0xf5, 0x89, 0xbd, 0xdb, 0xc4, 0x8b, 0xbe, 0x02, 0x9f, 0x94, 0xbe, 
  0x05, 0x96, 0x8c, 0x3e, 0xfd, 0xb6, 0x0c, 0xbe, 0x3a, 0x41, 0xd4, 0xbd, 
  0x38, 0xbb, 0xf5, 0x3d, 0x38, 0xa6, 0x5f, 0xbe, 0x43, 0x75, 0x96, 0x3e, 
  0xb0, 0x2d, 0x19, 0x3e, 0x85, 0xce, 0x65, 0x3e, 0x2f, 0x86, 0x8f, 0xbd, 
  0x7f, 0x29, 0x94, 0x3e, 0x6b, 0x50, 0x81, 0xbe, 0xf0, 0xd3, 0xb6, 0x3c, 
  0xac, 0x95, 0x07, 0x3e, 0x74, 0x96, 0xc8, 0x3e, 0x33, 0x71, 0x1f, 0x3e, 
  0xa6, 0xe9, 0xf9, 0xbd, 0x72, 0xe0, 0xab, 0xbb, 0xca, 0xa7, 0x35, 0x3e, 
  0xf1, 0x41, 0x11, 0xbd, 0xd4, 0xbb, 0xf8, 0x3d, 0xa0, 0x6a, 0xc6, 0x3c, 
  0xe8, 0xdf, 0x60, 0x3d, 0xe0, 0xde, 0x04, 0xbc, 0x97, 0x82, 0x91, 0x3e, 
  0xb3, 0x35, 0x99, 0x3e, 0xe2, 0xbe, 0x45, 0x3e, 0x18, 0xf6, 0x3c, 0x3e, 
  0xf0, 0x87, 0x56, 0xbe, 0x30, 0xbb, 0x8d, 0x3d, 0xf5, 0x5a, 0x81, 0x3e, 
  0xa8, 0xef, 0x8a, 0xbe, 0x92, 0xa3, 0x28, 0x3e, 0xe6, 0x71, 0x82, 0x3e, 
  0x2c, 0x21, 0xa8, 0xba, 0xa8, 0xec, 0x95, 0x3d, 0x2c, 0x26, 0x15, 0x3e, 
  0x20, 0x83, 0x0e, 0x3e, 0x67, 0xed, 0x85, 0xbe, 0x57, 0xba, 0x69, 0x3e, 
  0x60, 0x19, 0x0a, 0xbe, 0xad, 0x02, 0x2f, 0x3d, 0x46, 0xf4, 0x66, 0x3e, 
  0x60, 0x68, 0x80, 0x3d, 0x38, 0x1c, 0xa2, 0x3d, 0x83, 0x2a, 0x30, 0xbe, 
  0xcb, 0xe6, 0x38, 0x3e, 0xb0, 0xb2, 0xa0, 0xbe, 0xc8, 0x65, 0x1d, 0x3e, 
  0x09, 0xa6, 0x9b, 0xbe, 0x4f, 0x66, 0x70, 0xbe, 0xc6, 0x70, 0xb3, 0xbd, 
  0x30, 0xc5, 0x25, 0xbd, 0xd2, 0x7a, 0xdb, 0xbd, 0x00, 0xe7, 0x0f, 0x3b, 
  0x48, 0x37, 0x2e, 0x3e, 0xb0, 0x99, 0xa8, 0x3d, 0x80, 0x5a, 0xf2, 0xbc, 
  0x30, 0x84, 0x04, 0x3e, 0x11, 0x3a, 0x89, 0xbe, 0xb0, 0xd8, 0x98, 0xbe, 
  0x7c, 0x4e, 0x75, 0xbd, 0xc0, 0x52, 0x15, 0xbd, 0xfa, 0x2d, 0x58, 0xbe, 
  0xe4, 0x82, 0x06, 0x3e, 0xd2, 0x97, 0xcb, 0x3d, 0x62, 0x87, 0x84, 0x3e, 
  0xe6, 0x30, 0x79, 0x3d, 0x4a, 0xc8, 0x47, 0x3e, 0x3f, 0x67, 0x80, 0x3e, 
  0xe0, 0x0f, 0xf9, 0x3d, 0xfd, 0xc7, 0x3b, 0x3e, 0x71, 0x89, 0x50, 0x3e, 
  0x01, 0x57, 0x23, 0xbe, 0xcd, 0x47, 0x2f, 0xbe, 0xed, 0x78, 0x61, 0x3c, 
  0x32, 0xca, 0x1f, 0x3e, 0xfe, 0x85, 0x82, 0xbe, 0xd5, 0x2d, 0x10, 0xbe, 
  0xcc, 0x87, 0x07, 0xbe, 0x72, 0x23, 0x33, 0x3e, 0xb4, 0x6d, 0x43, 0xbe, 
  0xa0, 0xae, 0xea, 0x3c, 0x70, 0x0c, 0x5c, 0xbd, 0xcf, 0xfc, 0x30, 0xbe, 
  0x7c, 0x4f, 0xfd, 0xbd, 0xe0, 0xec, 0x71, 0xbc, 0xba, 0x21, 0x8a, 0xbe, 
  0xa6, 0xa7, 0x93, 0xbe, 0xa1, 0x4c, 0x8d, 0x3e, 0xb1, 0xb0, 0x95, 0xbe, 
  0x10, 0x3a, 0xc6, 0x3c, 0x20, 0xc7, 0x3b, 0x3e, 0xe0, 0x03, 0x1a, 0xbc, 
  0x88, 0x03, 0x9e, 0x3d, 0xfc, 0xa9, 0xc6, 0x3d, 0x9c, 0x8b, 0xf1, 0x3d, 
  0x9f, 0x31, 0x80, 0x3e, 0xd1, 0xb2, 0x9b, 0xbe, 0xe2, 0x7e, 0x15, 0x3e, 
  0xcc, 0x2c, 0xe4, 0x3d, 0xe8, 0xef, 0x37, 0xbd, 0xfe, 0x71, 0x40, 0x3e, 
  0x26, 0x64, 0x91, 0xbd, 0x35, 0xd5, 0x85, 0xbe, 0xcb, 0x07, 0x95, 0x3e, 
  0x9a, 0x01, 0xa1, 0xbd, 0x4b, 0xb7, 0x85, 0x3e, 0xae, 0xb6, 0x2f, 0x3e, 
  0xca, 0x87, 0x3e, 0x3e, 0xce, 0xf8, 0x10, 0x3e, 0x5e, 0xed, 0x11, 0x3d, 
  0x3d, 0xf7, 0x4b, 0xbe, 0x48, 0xd3, 0x0f, 0x3e, 0xe3, 0x62, 0xfa, 0xbd, 
  0xf6, 0xc1, 0xc0, 0xbd, 0x1d, 0xfa, 0x8d, 0x3e, 0x03, 0xaf, 0x88, 0xbe, 
  0x70, 0xaa, 0x26, 0x3e, 0x0c, 0x63, 0x1b, 0xbe, 0x4a, 0xcb, 0x5d, 0xbe, 
  0x8c, 0x55, 0x6d, 0xbe, 0x86, 0x7e, 0x52, 0x3e, 0x78, 0xdf, 0xf5, 0xbd, 
  0x27, 0x63, 0x8f, 0x3e, 0xb2, 0x0d, 0xf9, 0xbd, 0x50, 0xf9, 0xbb, 0xbc, 
  0x60, 0xba, 0x49, 0xbd, 0x7c, 0x3c, 0x7b, 0xbe, 0x30, 0x28, 0x9c, 0x3e, 
  0x34, 0x39, 0x01, 0xbe, 0x4a, 0x33, 0x03, 0x3e, 0x9e, 0x51, 0x6a, 0x3e, 
  0x68, 0x49, 0x84, 0x3e, 0xa8, 0x91, 0xa4, 0xbd, 0x8b, 0x9e, 0x77, 0xbe, 
  0x28, 0xa4, 0x4d, 0x3c, 0x57, 0x5f, 0x03, 0x3e, 0x36, 0x71, 0xdf, 0xbd, 
  0x94, 0x5e, 0x9b, 0x3e, 0xb8, 0xe1, 0x4e, 0xbe, 0x3f, 0x96, 0x65, 0xbe, 
  0xf6, 0x38, 0xdc, 0xbd, 0x98, 0xf0, 0x3a, 0xbd, 0xa2, 0x06, 0x2c, 0x3e, 
  0x90, 0xae, 0x5c, 0x3d, 0xb5, 0xcf, 0x8d, 0x3e, 0x9a, 0x5f, 0x06, 0x3e, 
  0x58, 0x51, 0xfb, 0x3d, 0x55, 0x04, 0x8b, 0x3e, 0x0a, 0xee, 0x8c, 0xbe, 
  0xf3, 0x6c, 0x9a, 0xbe, 0x8a, 0x4a, 0x07, 0x3e, 0xa0, 0x01, 0x1c, 0x3d, 
  0x3d, 0x92, 0x88, 0x3e, 0x08, 0x24, 0x51, 0x3d, 0x9b, 0x46, 0x5e, 0xbe, 
  0x18, 0xd1, 0x6c, 0x3d, 0xa0, 0x89, 0xb2, 0xbc, 0xea, 0xeb, 0x4e, 0x3e, 
  0x8a, 0xde, 0x47, 0x3e, 0x80, 0xf5, 0xd9, 0x3d, 0x26, 0x52, 0x32, 0x3e, 
  0xa6, 0x5a, 0x55, 0x3e, 0x20, 0xb1, 0x38, 0xbd, 0x73, 0x2e, 0x86, 0xbe, 
  0xd0, 0x7b, 0x8b, 0xbe, 0xe2, 0x31, 0x49, 0x3e, 0x54, 0xc5, 0xa4, 0xbd, 
  0x44, 0xe5, 0x8f, 0x3d, 0xc0, 0x0e, 0xd8, 0xbb, 0xbc, 0x48, 0x7b, 0xbd, 
  0x15, 0x8a, 0x5e, 0xbe, 0x74, 0xd0, 0x2b, 0x3e, 0x1a, 0xba, 0xa5, 0xbd, 
  0xc8, 0xfc, 0xf7, 0xbd, 0x12, 0x77, 0x1a, 0xbe, 0x19, 0x20, 0xea, 0x3d, 
  0x57, 0x58, 0x78, 0xbe, 0xe4, 0x8e, 0x27, 0x3e, 0x60, 0x58, 0x70, 0x3c, 
  0x39, 0x54, 0x96, 0x3e, 0xba, 0x1c, 0x44, 0xbe, 0xd6, 0x4b, 0x7b, 0x3e, 
  0x9c, 0xff, 0x98, 0x3d, 0x8a, 0xbd, 0x49, 0xbe, 0x9e, 0xc0, 0x48, 0x3e, 
  0x71, 0xfc, 0x83, 0x3e, 0x0a, 0x69, 0x5d, 0x3e, 0xf8, 0x7e, 0x3a, 0xbe, 
  0x30, 0x7a, 0xfc, 0xbd, 0xb8, 0x71, 0x4c, 0x3d, 0x5b, 0xf4, 0x40, 0xbe, 
  0x72, 0xad, 0x67, 0xbd, 0x74, 0x2e, 0xcf, 0x3d, 0x95, 0x95, 0xf3, 0x3d, 
  0x28, 0xed, 0x38, 0xbe, 0xb7, 0x0a, 0x91, 0x3e, 0x88, 0xc5, 0x7a, 0xbd, 
  0x55, 0x84, 0xcc, 0x3c, 0x60, 0x5b, 0x87, 0xbd, 0x59, 0x48, 0x42, 0x3e, 
  0x39, 0xd3, 0x2c, 0xbe, 0x89, 0x5c, 0x4a, 0xbe, 0x70, 0x89, 0x9d, 0xbd, 
  0xe7, 0x39, 0x86, 0x3e, 0xa9, 0xb2, 0x16, 0xbe, 0x2b, 0x70, 0x7d, 0x3d, 
  0xa8, 0xde, 0x42, 0x3e, 0xfd, 0x7c, 0x82, 0xbe, 0xb1, 0xb0, 0x6b, 0x3e, 
  0x48, 0xfc, 0x88, 0x3d, 0x54, 0xd9, 0x9b, 0x3d, 0xf7, 0xbe, 0x42, 0xbe, 
  0x95, 0x03, 0x84, 0x3e, 0xf6, 0xe5, 0x84, 0xbd, 0xf2, 0xff, 0x30, 0x3e, 
  0x88, 0xc6, 0x31, 0x3d, 0x14, 0xa7, 0xa3, 0xbd, 0x28, 0x59, 0x1f, 0x3e, 
  0xc6, 0x21, 0xe4, 0xbd, 0xb1, 0x68, 0x06, 0xbe, 0x00, 0x08, 0x08, 0xb9, 
  0xc6, 0xc3, 0x56, 0xbe, 0xee, 0xf3, 0x59, 0x3e, 0x30, 0x75, 0x6b, 0xbe, 
  0xa3, 0x2c, 0x63, 0xbe, 0x65, 0x5f, 0x89, 0x3e, 0xc0, 0x50, 0x1b, 0xbc, 
  0xfa, 0xe4, 0x4c, 0x3e, 0xc0, 0x0e, 0x2b, 0xbd, 0xf0, 0x2a, 0x56, 0x3e, 
  0x16, 0x58, 0xbe, 0x3c, 0xc9, 0x6c, 0x9a, 0xbe, 0xcc, 0xca, 0xc3, 0x3d, 
  0x94, 0xb7, 0x7b, 0xbe, 0x68, 0xe2, 0xbe, 0xbd, 0x7f, 0x04, 0x09, 0x3e, 
  0x06, 0xa8, 0xbf, 0x3e, 0x0a, 0x70, 0x90, 0x3e, 0xe4, 0xd6, 0x99, 0x3d, 
  0xe1, 0x24, 0x51, 0xbe, 0xca, 0xff, 0x69, 0x3e, 0x6b, 0x17, 0x1b, 0x3e, 
  0x70, 0xc9, 0xd3, 0x3c, 0xa6, 0x01, 0x09, 0x3e, 0x23, 0x7a, 0x3d, 0xbe, 
  0x42, 0x0a, 0x0e, 0x3e, 0xc0, 0x20, 0xfa, 0x3c, 0xa4, 0x54, 0xaf, 0xbd, 
  0xba, 0xc7, 0x66, 0x3e, 0x0f, 0x26, 0x51, 0xbe, 0x98, 0xe7, 0xcc, 0xbd, 
  0xc6, 0x8a, 0xa5, 0xbd, 0x98, 0x56, 0x37, 0xbd, 0xc0, 0x89, 0xe0, 0x3d, 
  0xcd, 0xba, 0x8f, 0x3e, 0x7d, 0x0a, 0xe5, 0x3c, 0x59, 0x71, 0x7f, 0xbe, 
  0xb0, 0x15, 0x1a, 0xbe, 0xe0, 0xbc, 0x41, 0x3d, 0xdf, 0x49, 0x53, 0x3e, 
  0xd4, 0xb8, 0x4e, 0xbe, 0x49, 0x8e, 0x39, 0x3e, 0x3e, 0x5a, 0x87, 0x3e, 
  0x81, 0xe4, 0xb1, 0xbd, 0x1c, 0x7c, 0x2a, 0xbe, 0xd8, 0x32, 0xa5, 0xbd, 
  0xe0, 0x6c, 0x12, 0xbc, 0x45, 0xd9, 0x84, 0x3d, 0xb2, 0xa0, 0x11, 0x3d, 
  0x2e, 0xa2, 0x3b, 0x3e, 0x15, 0xd4, 0x94, 0x3e, 0x26, 0x06, 0xd7, 0x3d, 
  0xd4, 0xb5, 0xcd, 0x3d, 0xff, 0x78, 0x76, 0xbe, 0x1e, 0xe8, 0x4c, 0x3e, 
  0xe0, 0x4c, 0x1e, 0xbe, 0x32, 0x6e, 0x6d, 0x3e, 0xce, 0x74, 0x78, 0x3e, 
  0x42, 0x4c, 0x4a, 0x3e, 0x38, 0xd4, 0xbc, 0x3d, 0x36, 0xcc, 0x76, 0x3e, 
  0xaa, 0xb7, 0x3f, 0x3e, 0xa0, 0x14, 0x2f, 0xbd, 0x90, 0x97, 0x05, 0xbd, 
  0x10, 0x3a, 0x1a, 0xbe, 0x60, 0x76, 0x9c, 0xbc, 0x60, 0xf9, 0x47, 0xbc, 
  0x6e, 0x66, 0x4a, 0x3e, 0x94, 0x8b, 0xf6, 0xbd, 0xd5, 0x89, 0xad, 0x3d, 
  0x5f, 0x4c, 0x86, 0xbe, 0x49, 0xfd, 0x97, 0x3a, 0xde, 0xe8, 0x71, 0x3e, 
  0xf5, 0x56, 0x5e, 0xbe, 0xbb, 0x01, 0x7b, 0x3e, 0x21, 0xab, 0x16, 0xbe, 
  0x70, 0xc2, 0xe3, 0xbc, 0x5e, 0x51, 0x6e, 0x3e, 0x93, 0xa3, 0x4f, 0xbe, 
  0xa4, 0x7f, 0x6f, 0x3e, 0x72, 0x9d, 0x86, 0x3e, 0x86, 0x1e, 0xee, 0xbd, 
  0x4e, 0x6f, 0x52, 0x3e, 0xee, 0x24, 0x1e, 0x3b, 0x8b, 0xc6, 0xc6, 0x3d, 
  0xcd, 0xf9, 0xe0, 0x3d, 0x60, 0xbc, 0x48, 0xbd, 0x07, 0xa5, 0x9b, 0x3e, 
  0xb0, 0xa0, 0xea, 0x3c, 0x30, 0x2b, 0x87, 0xbe, 0x20, 0xda, 0x8f, 0x3d, 
  0xce, 0x60, 0x6a, 0x3e, 0xb0, 0xd3, 0x86, 0x3d, 0xc2, 0xc3, 0x73, 0x3e, 
  0xb0, 0xe7, 0x40, 0x3e, 0xc0, 0xf9, 0x24, 0x3c, 0x0a, 0x53, 0x63, 0xbe, 
  0xa4, 0x7b, 0xa3, 0x3d, 0xf4, 0xa8, 0x9b, 0xbd, 0xca, 0x4a, 0x4b, 0x3d, 
  0xa6, 0xb5, 0xcf, 0x3c, 0xb5, 0x6a, 0xdf, 0x3d, 0xa7, 0x8a, 0x83, 0x3e, 
  0x62, 0x0f, 0x29, 0x3d, 0x6d, 0xa2, 0x82, 0x3e, 0xc6, 0x10, 0xd8, 0xbc, 
  0xbd, 0x79, 0xa1, 0x3d, 0xcf, 0xd4, 0xba, 0xbd, 0xcc, 0x1e, 0xa7, 0x3d, 
  0x2c, 0xa7, 0x5a, 0x3e, 0xc2, 0x72, 0x68, 0x3e, 0x38, 0x3c, 0x32, 0xbe, 
  0x20, 0x2b, 0x03, 0xbd, 0x60, 0xc1, 0x22, 0xbd, 0x4c, 0x44, 0x6e, 0xbe, 
  0x20, 0x80, 0x69, 0xbd, 0xca, 0x35, 0x8b, 0xbe, 0x20, 0x10, 0x64, 0xbe, 
  0x90, 0x26, 0xb3, 0x3c, 0xb2, 0xbd, 0x83, 0xbe, 0x0c, 0x72, 0x36, 0x3e, 
  0x34, 0xf0, 0xf2, 0xbd, 0x6b, 0x6e, 0x8f, 0x3e, 0x17, 0x8a, 0x91, 0xbe, 
  0x90, 0x19, 0x2b, 0x3d, 0x08, 0xe7, 0x1a, 0x3d, 0xff, 0xae, 0x85, 0x3e, 
  0x0a, 0x4e, 0x3e, 0xbe, 0x70, 0xaf, 0x17, 0xbe, 0x9a, 0x1d, 0x1f, 0xbe, 
  0x16, 0xc6, 0x40, 0x3e, 0x10, 0xe8, 0x99, 0x3c, 0x58, 0x57, 0xfa, 0xbd, 
  0xbe, 0x6b, 0x4e, 0x3e, 0xf8, 0x8b, 0xea, 0x3d, 0x2c, 0x2a, 0x60, 0xbe, 
  0x53, 0x2d, 0x81, 0x3e, 0x80, 0x56, 0x48, 0x3d, 0xb0, 0xb7, 0x39, 0x3d, 
  0x90, 0xec, 0xfc, 0x3c, 0xb0, 0xd8, 0xca, 0xbd, 0xf0, 0x43, 0x5c, 0xbd, 
  0x0e, 0xff, 0x16, 0xbe, 0xcb, 0x41, 0x01, 0xbe, 0xf0, 0x5a, 0x6b, 0xbd, 
  0xa6, 0x65, 0x96, 0x3e, 0x52, 0x28, 0x14, 0x3e, 0x3c, 0xe1, 0x29, 0xbd, 
  0x51, 0xe4, 0x9a, 0x3e, 0x71, 0xbb, 0x0c, 0xbe, 0x32, 0xc4, 0x7e, 0x3e, 
  0xfa, 0xe7, 0x39, 0x3e, 0x40, 0x53, 0x25, 0x3c, 0x93, 0x88, 0x06, 0xbe, 
  0xf8, 0x08, 0x85, 0xbe, 0x78, 0x6b, 0x6e, 0xbd, 0xe0, 0xe5, 0x8c, 0xbe, 
  0xf9, 0x30, 0x9c, 0xbe, 0x0b, 0xa0, 0x82, 0x3e, 0x2e, 0x35, 0x91, 0xbe, 
  0xc0, 0xbd, 0x5c, 0x3c, 0x32, 0xca, 0x9d, 0xbd, 0x6e, 0x23, 0x17, 0x3e, 
  0xe4, 0xc7, 0x79, 0x3e, 0x07, 0x30, 0x8f, 0x3e, 0x47, 0xb4, 0x38, 0x3e, 
  0x66, 0x1c, 0x95, 0xbe, 0x5e, 0x03, 0x03, 0x3e, 0x18, 0xd5, 0x05, 0x3d, 
  0xdd, 0xc5, 0x85, 0x3d, 0xba, 0x26, 0x86, 0xbe, 0x5e, 0x48, 0xd9, 0xbd, 
  0xa1, 0x17, 0x84, 0x3e, 0x3d, 0x4f, 0x2d, 0xbe, 0xfc, 0x1b, 0xdf, 0x3d, 
  0xb3, 0x16, 0x38, 0xbe, 0x5a, 0xfc, 0xff, 0xff, 0x04, 0x00, 0x00, 0x00, 
  0x80, 0x02, 0x00, 0x00, 0x7b, 0x16, 0x55, 0x3e, 0xa6, 0x39, 0xdf, 0xbe, 
  0xc7, 0x43, 0xdb, 0x3e, 0xc9, 0xb6, 0xec, 0x3d, 0xdb, 0x3a, 0x7f, 0xbd, 
  0x72, 0x92, 0x56, 0xbd, 0xb8, 0xa4, 0x62, 0x3e, 0xa5, 0x57, 0xcd, 0x3e, 
  0xea, 0x48, 0xc4, 0x3e, 0x3a, 0x99, 0x1d, 0x3d, 0xe7, 0x37, 0xbf, 0xbe, 
  0xe7, 0x8a, 0x80, 0xbe, 0xb0, 0x5a, 0xaa, 0x3e, 0x0d, 0x2c, 0x26, 0xbe, 
  0x0a, 0xb9, 0xca, 0xbe, 0xa5, 0x94, 0xcd, 0xbe, 0x5c, 0x6c, 0x1b, 0x3e, 
  0x6d, 0xdc, 0x24, 0xbe, 0xde, 0xaf, 0xba, 0x3e, 0x85, 0xe0, 0x58, 0xbe, 
  0xf9, 0xcd, 0xb6, 0x3e, 0xd5, 0xfc, 0x53, 0x3e, 0xad, 0xc3, 0x91, 0xbe, 
  0xf9, 0x4c, 0x7a, 0x3e, 0xb1, 0x4a, 0x1f, 0xbe, 0xb8, 0xc4, 0x92, 0xbd, 
  0x99, 0x72, 0xc2, 0xbe, 0xcb, 0x00, 0x7f, 0x3e, 0x92, 0xd8, 0x89, 0x3e, 
  0x12, 0xc4, 0x2a, 0xbe, 0xac, 0xf9, 0xca, 0xbd, 0xa3, 0x72, 0xa8, 0xbe, 
  0x9c, 0x77, 0x41, 0x3e, 0x84, 0x18, 0xa5, 0xbd, 0x00, 0x68, 0xea, 0x3a, 
  0x8c, 0x68, 0x70, 0x3e, 0x78, 0x88, 0xb3, 0x3e, 0x20, 0xcb, 0xb5, 0x3c, 
  0xd8, 0x2c, 0x7c, 0x3e, 0x1d, 0x19, 0x92, 0xbe, 0x00, 0x0e, 0xb5, 0x3b, 
  0xdc, 0x93, 0xcb, 0xbd, 0x30, 0x6b, 0x38, 0xbd, 0x0f, 0xcf, 0x87, 0xbe, 
  0xd0, 0x2a, 0x1b, 0x3e, 0x84, 0xf4, 0xfd, 0xbd, 0x20, 0x07, 0xc7, 0xbe, 
  0x74, 0xe1, 0xc1, 0xbd, 0x9c, 0x9e, 0x0f, 0xbe, 0xfc, 0xf6, 0xa8, 0x3d, 
  0xa7, 0x54, 0x73, 0xbe, 0x4d, 0x6d, 0x9a, 0xbe, 0x28, 0x3b, 0xc7, 0xbd, 
  0x69, 0xe0, 0x22, 0xbe, 0x8a, 0x63, 0x84, 0xbe, 0x9e, 0x95, 0xc8, 0x3e, 
  0xc9, 0x2b, 0xc6, 0xbe, 0xdf, 0x48, 0x9a, 0xbe, 0xc8, 0xde, 0x41, 0xbd, 
  0xf0, 0x76, 0x24, 0xbd, 0xa8, 0x38, 0x4a, 0x3e, 0x48, 0xc7, 0xb6, 0x3d, 
  0xa0, 0xf5, 0x1f, 0x3d, 0x9c, 0x71, 0x0d, 0xbe, 0x53, 0x84, 0x57, 0xbe, 
  0x28, 0x4e, 0xf4, 0x3d, 0x34, 0x68, 0xa8, 0x3e, 0xf2, 0xd4, 0xaa, 0xbe, 
  0x70, 0xa7, 0x6c, 0x3e, 0x77, 0xb0, 0x7b, 0xbe, 0xf4, 0x3c, 0xab, 0x3e, 
  0x20, 0x2e, 0xc1, 0xbe, 0xa5, 0x3f, 0x2b, 0xbe, 0x2b, 0xa3, 0x5a, 0xbe, 
  0x60, 0xa3, 0x10, 0x3d, 0x98, 0x3a, 0xca, 0xbd, 0xe8, 0x9b, 0x4f, 0xbe, 
  0x7f, 0xcf, 0xa8, 0xbe, 0x2c, 0x9b, 0x86, 0x3e, 0x0c, 0x01, 0xc8, 0xbe, 
  0xc4, 0xa9, 0xa8, 0x3e, 0xfe, 0xb4, 0x97, 0xbe, 0x3c, 0x16, 0x1a, 0x3e, 
  0xf1, 0x37, 0x3b, 0xbe, 0x80, 0x3a, 0x05, 0xbc, 0x52, 0x73, 0x8c, 0xbe, 
  0x94, 0x39, 0xa7, 0x3e, 0x20, 0x4a, 0xb1, 0x3e, 0x7c, 0x2e, 0x13, 0x3e, 
  0xff, 0x27, 0x4e, 0xbe, 0x16, 0x73, 0xb1, 0x3e, 0x9a, 0x01, 0xcc, 0x3e, 
  0x26, 0x42, 0x9d, 0x3e, 0x9c, 0x9b, 0xec, 0xbd, 0x00, 0xf0, 0xb5, 0xbd, 
  0x97, 0x62, 0xe4, 0x3c, 0x8c, 0x28, 0x77, 0xbe, 0xd7, 0xd2, 0x54, 0xbe, 
  0x82, 0x4d, 0x41, 0x3e, 0x0b, 0x43, 0x0d, 0x3e, 0xb9, 0x19, 0x9b, 0x3e, 
  0x01, 0x93, 0xb1, 0xbe, 0xf9, 0xaa, 0x4c, 0x3e, 0xbe, 0xd8, 0xa8, 0x3e, 
  0x9a, 0xd6, 0xf6, 0xbd, 0x65, 0x69, 0x32, 0xbe, 0x99, 0x21, 0x55, 0x3e, 
  0xeb, 0x16, 0x8a, 0x3e, 0x01, 0xa2, 0x06, 0x3e, 0xd3, 0xfa, 0x1e, 0xbe, 
  0x86, 0x90, 0x1c, 0xbe, 0x80, 0x4a, 0x92, 0x3d, 0x78, 0xdd, 0xe2, 0x3d, 
  0xa0, 0x95, 0xd4, 0xbc, 0xdd, 0xa9, 0xc6, 0xbe, 0x26, 0x7c, 0x3d, 0x3d, 
  0x18, 0xde, 0x55, 0xbe, 0x14, 0x12, 0x15, 0x3e, 0x13, 0x90, 0xac, 0x3e, 
  0x5c, 0xc0, 0x3f, 0x3e, 0x8d, 0x1e, 0x25, 0xbe, 0xec, 0x94, 0x6a, 0x3e, 
  0x3c, 0x0a, 0xf7, 0xbd, 0xc8, 0x17, 0xe7, 0x3d, 0x77, 0xc1, 0x97, 0xbe, 
  0xdf, 0xa4, 0xeb, 0xbe, 0xc9, 0x81, 0x22, 0x3e, 0xfb, 0x9f, 0x3b, 0xbe, 
  0x44, 0x67, 0xdc, 0xbd, 0x21, 0x7f, 0x05, 0x3e, 0xa5, 0xd3, 0x1e, 0xbd, 
  0x4b, 0x4d, 0xfb, 0x3d, 0xfb, 0xed, 0xaa, 0xbe, 0x58, 0xf0, 0x83, 0x3e, 
  0x32, 0xa1, 0x0f, 0x3b, 0x10, 0x28, 0x0d, 0x3e, 0xba, 0x70, 0x73, 0xbe, 
  0x78, 0x08, 0x72, 0x3e, 0x8d, 0x19, 0xe8, 0x3d, 0x22, 0xb2, 0xa0, 0xbd, 
  0x93, 0x8b, 0x4b, 0xbe, 0x84, 0x08, 0xa6, 0xbd, 0x50, 0xb6, 0xea, 0xbc, 
  0x44, 0x6d, 0x4a, 0x3e, 0xf6, 0x25, 0xa5, 0xbe, 0x5f, 0xdd, 0x04, 0x3e, 
  0x99, 0x0b, 0x1c, 0x3e, 0x6d, 0x8e, 0x78, 0xbd, 0xec, 0xa8, 0xb8, 0x3e, 
  0x6f, 0xb1, 0xc2, 0xbc, 0xce, 0x5d, 0xc5, 0xbe, 0xb0, 0xb2, 0xea, 0x3c, 
  0xbd, 0x81, 0x94, 0xbe, 0x9e, 0x60, 0x19, 0xbe, 0xa1, 0x4d, 0x91, 0xbe, 
  0x8a, 0x58, 0x94, 0xbc, 0xe1, 0x2a, 0x57, 0x3e, 0xf8, 0xc0, 0x76, 0x3e, 
  0xf2, 0xc1, 0x5d, 0x3c, 0x3c, 0x19, 0xa5, 0x3d, 0xe6, 0xfe, 0xff, 0xff, 
  0x04, 0x00, 0x00, 0x00, 0x80, 0x00, 0x00, 0x00, 0xb8, 0x0b, 0xc9, 0xbb, 
  0xc1, 0x65, 0x5e, 0xbb, 0x00, 0x00, 0x00, 0x00, 0x1c, 0x56, 0x09, 0xbc, 
  0x02, 0xa7, 0xa7, 0xba, 0xa2, 0xf3, 0x4c, 0xbc, 0x00, 0x00, 0x00, 0x00, 
  0x00, 0x00, 0x00, 0x00, 0x00, 0x00, 0x00, 0x00, 0x00, 0x00, 0x00, 0x00, 
  0x00, 0x00, 0x00, 0x00, 0x00, 0x00, 0x00, 0x00, 0x00, 0x00, 0x00, 0x00, 
  0x00, 0x00, 0x00, 0x00, 0x00, 0x00, 0x00, 0x00, 0x00, 0x00, 0x00, 0x00, 
  0x00, 0x00, 0x00, 0x00, 0x00, 0x00, 0x00, 0x00, 0x00, 0x00, 0x00, 0x00, 
  0x0e, 0xa9, 0x5e, 0xbb, 0xb9, 0x8b, 0xa9, 0xbc, 0x00, 0xc7, 0xc4, 0xbb, 
  0x00, 0x00, 0x00, 0x00, 0xf8, 0x5f, 0x04, 0xbc, 0x00, 0x00, 0x00, 0x00, 
  0xf6, 0xdf, 0x66, 0x3b, 0xe6, 0xf5, 0xa2, 0xbc, 0x83, 0x99, 0x3d, 0xbc, 
  0x00, 0x00, 0x00, 0x00, 0x25, 0xfd, 0xb6, 0xbb, 0x00, 0x00, 0x00, 0x00, 
  0x48, 0xe3, 0xa1, 0xbb, 0x72, 0xff, 0xff, 0xff, 0x04, 0x00, 0x00, 0x00, 
  0x80, 0x00, 0x00, 0x00, 0x00, 0x00, 0x00, 0x00, 0x98, 0xfd, 0x2a, 0xbb, 
  0xb7, 0xa7, 0xa6, 0xba, 0x00, 0x00, 0x00, 0x00, 0x2b, 0x92, 0xa8, 0x3a, 
  0x00, 0x00, 0x00, 0x00, 0x00, 0x00, 0x00, 0x00, 0x40, 0xa1, 0x03, 0x3b, 
  0x00, 0x00, 0x00, 0x00, 0xca, 0xd5, 0x0e, 0xbb, 0xdc, 0xdb, 0x6a, 0xba, 
  0x00, 0x00, 0x00, 0x00, 0x3b, 0xd8, 0x1e, 0xbb, 0xf3, 0xb0, 0xb1, 0xbb, 
  0x00, 0x00, 0x00, 0x00, 0x84, 0x2f, 0x01, 0x3b, 0x36, 0xb8, 0x32, 0xbb, 
  0x00, 0x00, 0x00, 0x00, 0x00, 0x00, 0x00, 0x00, 0x77, 0xe1, 0xd7, 0xbb, 
  0x84, 0x50, 0xf2, 0xbc, 0x97, 0x01, 0x06, 0x3b, 0x00, 0x00, 0x00, 0x00, 
  0x50, 0x9c, 0x25, 0xbb, 0x00, 0x00, 0x00, 0x00, 0xb8, 0xe4, 0x48, 0xbb, 
  0x32, 0x8d, 0x41, 0xbc, 0x54, 0xb9, 0x1c, 0xbb, 0x95, 0x5a, 0x1d, 0xbb, 
  0x16, 0x84, 0x1a, 0xbb, 0x00, 0x00, 0x00, 0x00, 0x55, 0x4f, 0x19, 0xbb, 
  0x00, 0x00, 0x06, 0x00, 0x08, 0x00, 0x04, 0x00, 0x06, 0x00, 0x00, 0x00, 
  0x04, 0x00, 0x00, 0x00, 0x04, 0x00, 0x00, 0x00, 0xe7, 0x1b, 0x0d, 0x3b, 
  0xe8, 0xfa, 0xff, 0xff, 0xec, 0xfa, 0xff, 0xff, 0x0f, 0x00, 0x00, 0x00, 
  0x4d, 0x4c, 0x49, 0x52, 0x20, 0x43, 0x6f, 0x6e, 0x76, 0x65, 0x72, 0x74, 
  0x65, 0x64, 0x2e, 0x00, 0x01, 0x00, 0x00, 0x00, 0x14, 0x00, 0x00, 0x00, 
  0x00, 0x00, 0x0e, 0x00, 0x18, 0x00, 0x14, 0x00, 0x10, 0x00, 0x0c, 0x00, 
  0x08, 0x00, 0x04, 0x00, 0x0e, 0x00, 0x00, 0x00, 0x14, 0x00, 0x00, 0x00, 
  0x1c, 0x00, 0x00, 0x00, 0xd8, 0x00, 0x00, 0x00, 0xdc, 0x00, 0x00, 0x00, 
  0xe0, 0x00, 0x00, 0x00, 0x04, 0x00, 0x00, 0x00, 0x6d, 0x61, 0x69, 0x6e, 
  0x00, 0x00, 0x00, 0x00, 0x03, 0x00, 0x00, 0x00, 0x80, 0x00, 0x00, 0x00, 
  0x38, 0x00, 0x00, 0x00, 0x04, 0x00, 0x00, 0x00, 0x9a, 0xff, 0xff, 0xff, 
  0x10, 0x00, 0x00, 0x00, 0x00, 0x00, 0x00, 0x08, 0x0c, 0x00, 0x00, 0x00, 
  0x10, 0x00, 0x00, 0x00, 0x64, 0xfb, 0xff, 0xff, 0x01, 0x00, 0x00, 0x00, 
  0x09, 0x00, 0x00, 0x00, 0x03, 0x00, 0x00, 0x00, 0x08, 0x00, 0x00, 0x00, 
  0x06, 0x00, 0x00, 0x00, 0x01, 0x00, 0x00, 0x00, 0xca, 0xff, 0xff, 0xff, 
  0x10, 0x00, 0x00, 0x00, 0x00, 0x00, 0x00, 0x08, 0x10, 0x00, 0x00, 0x00, 
  0x14, 0x00, 0x00, 0x00, 0xba, 0xff, 0xff, 0xff, 0x00, 0x00, 0x00, 0x01, 
  0x01, 0x00, 0x00, 0x00, 0x08, 0x00, 0x00, 0x00, 0x03, 0x00, 0x00, 0x00, 
  0x07, 0x00, 0x00, 0x00, 0x05, 0x00, 0x00, 0x00, 0x02, 0x00, 0x00, 0x00, 
  0x00, 0x00, 0x0e, 0x00, 0x16, 0x00, 0x00, 0x00, 0x10, 0x00, 0x0c, 0x00, 
  0x0b, 0x00, 0x04, 0x00, 0x0e, 0x00, 0x00, 0x00, 0x18, 0x00, 0x00, 0x00, 
  0x00, 0x00, 0x00, 0x08, 0x18, 0x00, 0x00, 0x00, 0x1c, 0x00, 0x00, 0x00, 
  0x00, 0x00, 0x06, 0x00, 0x08, 0x00, 0x07, 0x00, 0x06, 0x00, 0x00, 0x00, 
  0x00, 0x00, 0x00, 0x01, 0x01, 0x00, 0x00, 0x00, 0x07, 0x00, 0x00, 0x00, 
  0x03, 0x00, 0x00, 0x00, 0x00, 0x00, 0x00, 0x00, 0x04, 0x00, 0x00, 0x00, 
  0x03, 0x00, 0x00, 0x00, 0x01, 0x00, 0x00, 0x00, 0x09, 0x00, 0x00, 0x00, 
  0x01, 0x00, 0x00, 0x00, 0x00, 0x00, 0x00, 0x00, 0x0a, 0x00, 0x00, 0x00, 
  0xc4, 0x03, 0x00, 0x00, 0x50, 0x03, 0x00, 0x00, 0xdc, 0x02, 0x00, 0x00, 
  0x80, 0x02, 0x00, 0x00, 0x30, 0x02, 0x00, 0x00, 0xe0, 0x01, 0x00, 0x00, 
  0x90, 0x01, 0x00, 0x00, 0xf8, 0x00, 0x00, 0x00, 0x60, 0x00, 0x00, 0x00, 
  0x04, 0x00, 0x00, 0x00, 0x7a, 0xfc, 0xff, 0xff, 0x00, 0x00, 0x00, 0x01, 
  0x14, 0x00, 0x00, 0x00, 0x1c, 0x00, 0x00, 0x00, 0x1c, 0x00, 0x00, 0x00, 
  0x0a, 0x00, 0x00, 0x00, 0x34, 0x00, 0x00, 0x00, 0x02, 0x00, 0x00, 0x00, 
  0xff, 0xff, 0xff, 0xff, 0x01, 0x00, 0x00, 0x00, 0x64, 0xfc, 0xff, 0xff, 
  0x19, 0x00, 0x00, 0x00, 0x53, 0x74, 0x61, 0x74, 0x65, 0x66, 0x75, 0x6c, 
  0x50, 0x61, 0x72, 0x74, 0x69, 0x74, 0x69, 0x6f, 0x6e, 0x65, 0x64, 0x43, 
  0x61, 0x6c, 0x6c, 0x3a, 0x30, 0x00, 0x00, 0x00, 0x02, 0x00, 0x00, 0x00, 
  0x01, 0x00, 0x00, 0x00, 0x01, 0x00, 0x00, 0x00, 0xd2, 0xfc, 0xff, 0xff, 
  0x00, 0x00, 0x00, 0x01, 0x14, 0x00, 0x00, 0x00, 0x1c, 0x00, 0x00, 0x00, 
  0x1c, 0x00, 0x00, 0x00, 0x09, 0x00, 0x00, 0x00, 0x70, 0x00, 0x00, 0x00, 
  0x02, 0x00, 0x00, 0x00, 0xff, 0xff, 0xff, 0xff, 0x20, 0x00, 0x00, 0x00, 
  0xbc, 0xfc, 0xff, 0xff, 0x55, 0x00, 0x00, 0x00, 0x65, 0x73, 0x70, 0x33, 
  0x32, 0x5f, 0x63, 0x72, 0x69, 0x74, 0x69, 0x63, 0x2f, 0x64, 0x65, 0x6e, 
  0x73, 0x65, 0x5f, 0x36, 0x37, 0x2f, 0x4d, 0x61, 0x74, 0x4d, 0x75, 0x6c, 
  0x3b, 0x65, 0x73, 0x70, 0x33, 0x32, 0x5f, 0x63, 0x72, 0x69, 0x74, 0x69, 
  0x63, 0x2f, 0x64, 0x65, 0x6e, 0x73, 0x65, 0x5f, 0x36, 0x37, 0x2f, 0x52, 
  0x65, 0x6c, 0x75, 0x3b, 0x65, 0x73, 0x70, 0x33, 0x32, 0x5f, 0x63, 0x72, 
  0x69, 0x74, 0x69, 0x63, 0x2f, 0x64, 0x65, 0x6e, 0x73, 0x65, 0x5f, 0x36, 
  0x37, 0x2f, 0x42, 0x69, 0x61, 0x73, 0x41, 0x64, 0x64, 0x00, 0x00, 0x00, 
  0x02, 0x00, 0x00, 0x00, 0x01, 0x00, 0x00, 0x00, 0x20, 0x00, 0x00, 0x00, 
  0x66, 0xfd, 0xff, 0xff, 0x00, 0x00, 0x00, 0x01, 0x14, 0x00, 0x00, 0x00, 
  0x1c, 0x00, 0x00, 0x00, 0x1c, 0x00, 0x00, 0x00, 0x08, 0x00, 0x00, 0x00, 
  0x70, 0x00, 0x00, 0x00, 0x02, 0x00, 0x00, 0x00, 0xff, 0xff, 0xff, 0xff, 
  0x20, 0x00, 0x00, 0x00, 0x50, 0xfd, 0xff, 0xff, 0x55, 0x00, 0x00, 0x00, 
  0x65, 0x73, 0x70, 0x33, 0x32, 0x5f, 0x63, 0x72, 0x69, 0x74, 0x69, 0x63, 
  0x2f, 0x64, 0x65, 0x6e, 0x73, 0x65, 0x5f, 0x36, 0x36, 0x2f, 0x4d, 0x61, 
  0x74, 0x4d, 0x75, 0x6c, 0x3b, 0x65, 0x73, 0x70, 0x33, 0x32, 0x5f, 0x63, 
  0x72, 0x69, 0x74, 0x69, 0x63, 0x2f, 0x64, 0x65, 0x6e, 0x73, 0x65, 0x5f, 
  0x36, 0x36, 0x2f, 0x52, 0x65, 0x6c, 0x75, 0x3b, 0x65, 0x73, 0x70, 0x33, 
  0x32, 0x5f, 0x63, 0x72, 0x69, 0x74, 0x69, 0x63, 0x2f, 0x64, 0x65, 0x6e, 
  0x73, 0x65, 0x5f, 0x36, 0x36, 0x2f, 0x42, 0x69, 0x61, 0x73, 0x41, 0x64, 
  0x64, 0x00, 0x00, 0x00, 0x02, 0x00, 0x00, 0x00, 0x01, 0x00, 0x00, 0x00, 
  0x20, 0x00, 0x00, 0x00, 0x6a, 0xfe, 0xff, 0xff, 0x00, 0x00, 0x00, 0x01, 
  0x10, 0x00, 0x00, 0x00, 0x10, 0x00, 0x00, 0x00, 0x07, 0x00, 0x00, 0x00, 
  0x2c, 0x00, 0x00, 0x00, 0xd4, 0xfd, 0xff, 0xff, 0x1c, 0x00, 0x00, 0x00, 
  0x65, 0x73, 0x70, 0x33, 0x32, 0x5f, 0x63, 0x72, 0x69, 0x74, 0x69, 0x63, 
  0x2f, 0x64, 0x65, 0x6e, 0x73, 0x65, 0x5f, 0x36, 0x38, 0x2f, 0x4d, 0x61, 
  0x74, 0x4d, 0x75, 0x6c, 0x00, 0x00, 0x00, 0x00, 0x02, 0x00, 0x00, 0x00, 
  0x01, 0x00, 0x00, 0x00, 0x20, 0x00, 0x00, 0x00, 0xb6, 0xfe, 0xff, 0xff, 
  0x00, 0x00, 0x00, 0x01, 0x10, 0x00, 0x00, 0x00, 0x10, 0x00, 0x00, 0x00, 
  0x06, 0x00, 0x00, 0x00, 0x2c, 0x00, 0x00, 0x00, 0x20, 0xfe, 0xff, 0xff, 
  0x1c, 0x00, 0x00, 0x00, 0x65, 0x73, 0x70, 0x33, 0x32, 0x5f, 0x63, 0x72, 
  0x69, 0x74, 0x69, 0x63, 0x2f, 0x64, 0x65, 0x6e, 0x73, 0x65, 0x5f, 0x36, 
  0x37, 0x2f, 0x4d, 0x61, 0x74, 0x4d, 0x75, 0x6c, 0x00, 0x00, 0x00, 0x00, 
  0x02, 0x00, 0x00, 0x00, 0x20, 0x00, 0x00, 0x00, 0x20, 0x00, 0x00, 0x00, 
  0x02, 0xff, 0xff, 0xff, 0x00, 0x00, 0x00, 0x01, 0x10, 0x00, 0x00, 0x00, 
  0x10, 0x00, 0x00, 0x00, 0x05, 0x00, 0x00, 0x00, 0x2c, 0x00, 0x00, 0x00, 
  0x6c, 0xfe, 0xff, 0xff, 0x1c, 0x00, 0x00, 0x00, 0x65, 0x73, 0x70, 0x33, 
  0x32, 0x5f, 0x63, 0x72, 0x69, 0x74, 0x69, 0x63, 0x2f, 0x64, 0x65, 0x6e, 
  0x73, 0x65, 0x5f, 0x36, 0x36, 0x2f, 0x4d, 0x61, 0x74, 0x4d, 0x75, 0x6c, 
  0x00, 0x00, 0x00, 0x00, 0x02, 0x00, 0x00, 0x00, 0x20, 0x00, 0x00, 0x00, 
  0x05, 0x00, 0x00, 0x00, 0x4e, 0xff, 0xff, 0xff, 0x00, 0x00, 0x00, 0x01, 
  0x10, 0x00, 0x00, 0x00, 0x10, 0x00, 0x00, 0x00, 0x04, 0x00, 0x00, 0x00, 
  0x3c, 0x00, 0x00, 0x00, 0xb8, 0xfe, 0xff, 0xff, 0x2c, 0x00, 0x00, 0x00, 
  0x65, 0x73, 0x70, 0x33, 0x32, 0x5f, 0x63, 0x72, 0x69, 0x74, 0x69, 0x63, 
  0x2f, 0x64, 0x65, 0x6e, 0x73, 0x65, 0x5f, 0x36, 0x36, 0x2f, 0x42, 0x69, 
  0x61, 0x73, 0x41, 0x64, 0x64, 0x2f, 0x52, 0x65, 0x61, 0x64, 0x56, 0x61, 
  0x72, 0x69, 0x61, 0x62, 0x6c, 0x65, 0x4f, 0x70, 0x00, 0x00, 0x00, 0x00, 
  0x01, 0x00, 0x00, 0x00, 0x20, 0x00, 0x00, 0x00, 0xa6, 0xff, 0xff, 0xff, 
  0x00, 0x00, 0x00, 0x01, 0x10, 0x00, 0x00, 0x00, 0x10, 0x00, 0x00, 0x00, 
  0x03, 0x00, 0x00, 0x00, 0x3c, 0x00, 0x00, 0x00, 0x10, 0xff, 0xff, 0xff, 
  0x2c, 0x00, 0x00, 0x00, 0x65, 0x73, 0x70, 0x33, 0x32, 0x5f, 0x63, 0x72, 
  0x69, 0x74, 0x69, 0x63, 0x2f, 0x64, 0x65, 0x6e, 0x73, 0x65, 0x5f, 0x36, 
  0x37, 0x2f, 0x42, 0x69, 0x61, 0x73, 0x41, 0x64, 0x64, 0x2f, 0x52, 0x65, 
  0x61, 0x64, 0x56, 0x61, 0x72, 0x69, 0x61, 0x62, 0x6c, 0x65, 0x4f, 0x70, 
  0x00, 0x00, 0x00, 0x00, 0x01, 0x00, 0x00, 0x00, 0x20, 0x00, 0x00, 0x00, 
  0x00, 0x00, 0x16, 0x00, 0x18, 0x00, 0x14, 0x00, 0x00, 0x00, 0x10, 0x00, 
  0x0c, 0x00, 0x08, 0x00, 0x00, 0x00, 0x00, 0x00, 0x00, 0x00, 0x07, 0x00, 
  0x16, 0x00, 0x00, 0x00, 0x00, 0x00, 0x00, 0x01, 0x10, 0x00, 0x00, 0x00, 
  0x10, 0x00, 0x00, 0x00, 0x02, 0x00, 0x00, 0x00, 0x3c, 0x00, 0x00, 0x00, 
  0x80, 0xff, 0xff, 0xff, 0x2c, 0x00, 0x00, 0x00, 0x65, 0x73, 0x70, 0x33, 
  0x32, 0x5f, 0x63, 0x72, 0x69, 0x74, 0x69, 0x63, 0x2f, 0x64, 0x65, 0x6e, 
  0x73, 0x65, 0x5f, 0x36, 0x38, 0x2f, 0x42, 0x69, 0x61, 0x73, 0x41, 0x64, 
  0x64, 0x2f, 0x52, 0x65, 0x61, 0x64, 0x56, 0x61, 0x72, 0x69, 0x61, 0x62, 
  0x6c, 0x65, 0x4f, 0x70, 0x00, 0x00, 0x00, 0x00, 0x01, 0x00, 0x00, 0x00, 
  0x01, 0x00, 0x00, 0x00, 0x00, 0x00, 0x16, 0x00, 0x1c, 0x00, 0x18, 0x00, 
  0x00, 0x00, 0x14, 0x00, 0x10, 0x00, 0x0c, 0x00, 0x00, 0x00, 0x00, 0x00, 
  0x08, 0x00, 0x07, 0x00, 0x16, 0x00, 0x00, 0x00, 0x00, 0x00, 0x00, 0x01, 
  0x14, 0x00, 0x00, 0x00, 0x20, 0x00, 0x00, 0x00, 0x20, 0x00, 0x00, 0x00, 
  0x01, 0x00, 0x00, 0x00, 0x40, 0x00, 0x00, 0x00, 0x02, 0x00, 0x00, 0x00, 
  0xff, 0xff, 0xff, 0xff, 0x05, 0x00, 0x00, 0x00, 0x04, 0x00, 0x04, 0x00, 
  0x04, 0x00, 0x00, 0x00, 0x20, 0x00, 0x00, 0x00, 0x73, 0x65, 0x72, 0x76, 
  0x69, 0x6e, 0x67, 0x5f, 0x64, 0x65, 0x66, 0x61, 0x75, 0x6c, 0x74, 0x5f, 
  0x64, 0x65, 0x6e, 0x73, 0x65, 0x5f, 0x36, 0x36, 0x5f, 0x69, 0x6e, 0x70, 
  0x75, 0x74, 0x3a, 0x30, 0x00, 0x00, 0x00, 0x00, 0x02, 0x00, 0x00, 0x00, 
  0x01, 0x00, 0x00, 0x00, 0x05, 0x00, 0x00, 0x00, 0x01, 0x00, 0x00, 0x00, 
  0x10, 0x00, 0x00, 0x00, 0x0c, 0x00, 0x0c, 0x00, 0x0b, 0x00, 0x00, 0x00, 
  0x00, 0x00, 0x04, 0x00, 0x0c, 0x00, 0x00, 0x00, 0x09, 0x00, 0x00, 0x00, 
  0x00, 0x00, 0x00, 0x09, 
};

const unsigned int critic_model_len = 7072;
